{
  "version": "1.0",
  "truncation": null,
  "padding": null,
  "added_tokens": [
    {
      "id": 0,
      "content": "[UNK]",
      "single_word": false,
      "lstrip": false,
      "rstrip": false,
      "normalized": false,
      "special": true
    },
    {
      "id": 1,
      "content": "[PAD]",
      "single_word": false,
      "lstrip": false,
      "rstrip": false,
      "normalized": false,
      "special": true
    },
    {
      "id": 2,
      "content": "[BOS]",
      "single_word": false,
      "lstrip": false,
      "rstrip": false,
      "normalized": false,
      "special": true
    },
    {
      "id": 3,
      "content": "[EOS]",
      "single_word": false,
      "lstrip": false,
      "rstrip": false,
      "normalized": false,
      "special": true
    }
  ],
  "normalizer": {
    "type": "NFC"
  },
  "pre_tokenizer": {
    "type": "Whitespace"
  },
  "post_processor": null,
  "decoder": null,
  "model": {
    "type": "WordPiece",
    "unk_token": "[UNK]",
    "continuing_subword_prefix": "##",
    "max_input_chars_per_word": 200,
    "vocab": {
      "[UNK]": 0,
      "[PAD]": 1,
      "[BOS]": 2,
      "[EOS]": 3,
      "!": 4,
      "\"": 5,
      "#": 6,
      "$": 7,
      "%": 8,
      "&": 9,
      "'": 10,
      "(": 11,
      ")": 12,
      "*": 13,
      "+": 14,
      ",": 15,
      "-": 16,
      ".": 17,
      "/": 18,
      "0": 19,
      "1": 20,
      "2": 21,
      "3": 22,
      "4": 23,
      "5": 24,
      "6": 25,
      "7": 26,
      "8": 27,
      "9": 28,
      ":": 29,
      ";": 30,
      "<": 31,
      "=": 32,
      ">": 33,
      "?": 34,
      "@": 35,
      "A": 36,
      "B": 37,
      "C": 38,
      "D": 39,
      "E": 40,
      "F": 41,
      "G": 42,
      "H": 43,
      "I": 44,
      "J": 45,
      "K": 46,
      "L": 47,
      "M": 48,
      "N": 49,
      "O": 50,
      "P": 51,
      "Q": 52,
      "R": 53,
      "S": 54,
      "T": 55,
      "U": 56,
      "V": 57,
      "W": 58,
      "X": 59,
      "Y": 60,
      "Z": 61,
      "[": 62,
      "]": 63,
      "_": 64,
      "a": 65,
      "b": 66,
      "c": 67,
      "d": 68,
      "e": 69,
      "f": 70,
      "g": 71,
      "h": 72,
      "i": 73,
      "j": 74,
      "k": 75,
      "l": 76,
      "m": 77,
      "n": 78,
      "o": 79,
      "p": 80,
      "q": 81,
      "r": 82,
      "s": 83,
      "t": 84,
      "u": 85,
      "v": 86,
      "w": 87,
      "x": 88,
      "y": 89,
      "z": 90,
      "{": 91,
      "|": 92,
      "}": 93,
      "~": 94,
      "": 95,
      "«": 96,
      "º": 97,
      "»": 98,
      "½": 99,
      "Ý": 100,
      "í": 101,
      "ü": 102,
      "ए": 103,
      "प": 104,
      "स": 105,
      "ी": 106,
      "।": 107,
      "ઁ": 108,
      "ં": 109,
      "ઃ": 110,
      "અ": 111,
      "આ": 112,
      "ઇ": 113,
      "ઈ": 114,
      "ઉ": 115,
      "ઊ": 116,
      "ઋ": 117,
      "ઍ": 118,
      "એ": 119,
      "ઐ": 120,
      "ઑ": 121,
      "ઓ": 122,
      "ઔ": 123,
      "ક": 124,
      "ખ": 125,
      "ગ": 126,
      "ઘ": 127,
      "ઙ": 128,
      "ચ": 129,
      "છ": 130,
      "જ": 131,
      "ઝ": 132,
      "ઞ": 133,
      "ટ": 134,
      "ઠ": 135,
      "ડ": 136,
      "ઢ": 137,
      "ણ": 138,
      "ત": 139,
      "થ": 140,
      "દ": 141,
      "ધ": 142,
      "ન": 143,
      "પ": 144,
      "ફ": 145,
      "બ": 146,
      "ભ": 147,
      "મ": 148,
      "ય": 149,
      "ર": 150,
      "લ": 151,
      "ળ": 152,
      "વ": 153,
      "શ": 154,
      "ષ": 155,
      "સ": 156,
      "હ": 157,
      "઼": 158,
      "ા": 159,
      "િ": 160,
      "ી": 161,
      "ુ": 162,
      "ૂ": 163,
      "ૃ": 164,
      "ૅ": 165,
      "ે": 166,
      "ૈ": 167,
      "ૉ": 168,
      "ો": 169,
      "ૌ": 170,
      "્": 171,
      "ૐ": 172,
      "૦": 173,
      "૧": 174,
      "૨": 175,
      "૩": 176,
      "૪": 177,
      "૫": 178,
      "૬": 179,
      "૭": 180,
      "૮": 181,
      "૯": 182,
      "ச": 183,
      "ர": 184,
      "ழ": 185,
      "ோ": 186,
      "்": 187,
      "–": 188,
      "—": 189,
      "‘": 190,
      "’": 191,
      "‚": 192,
      "“": 193,
      "”": 194,
      "•": 195,
      "…": 196,
      "₹": 197,
      "→": 198,
      "−": 199,
      "●": 200,
      "♲": 201,
      "❣": 202,
      "️": 203,
      "�": 204,
      "👍": 205,
      "##દ": 206,
      "##ા": 207,
      "##ર": 208,
      "##્": 209,
      "##થ": 210,
      "##ો": 211,
      "##ન": 212,
      "##ે": 213,
      "##મ": 214,
      "##ટ": 215,
      "##ગ": 216,
      "##ં": 217,
      "##ક": 218,
      "##ડ": 219,
      "##ધ": 220,
      "##ુ": 221,
      "##ય": 222,
      "##લ": 223,
      "##ી": 224,
      "##સ": 225,
      "##ળ": 226,
      "##િ": 227,
      "##પ": 228,
      "##ૌ": 229,
      "##ૂ": 230,
      "##વ": 231,
      "##શ": 232,
      "##ચ": 233,
      "##ત": 234,
      "##ણ": 235,
      "##હ": 236,
      "##ફ": 237,
      "##ભ": 238,
      "##ઈ": 239,
      "##જ": 240,
      "##એ": 241,
      "##બ": 242,
      "##d": 243,
      "##s": 244,
      "##ઇ": 245,
      "##ષ": 246,
      "##ઢ": 247,
      "##3": 248,
      "##I": 249,
      "##ઉ": 250,
      "##ઝ": 251,
      "##૬": 252,
      "##૯": 253,
      "##ઘ": 254,
      "##6": 255,
      "##a": 256,
      "##t": 257,
      "##i": 258,
      "##ઓ": 259,
      "##ઃ": 260,
      "##9": 261,
      "##2": 262,
      "##4": 263,
      "##0": 264,
      "##ૈ": 265,
      "##h": 266,
      "##m": 267,
      "##e": 268,
      "##b": 269,
      "##r": 270,
      "##ખ": 271,
      "##1": 272,
      "##8": 273,
      "##અ": 274,
      "##G": 275,
      "##S": 276,
      "##M": 277,
      "##T": 278,
      "##૦": 279,
      "##૨": 280,
      "##ૃ": 281,
      "##ઠ": 282,
      "##૧": 283,
      "##આ": 284,
      "##ૉ": 285,
      "##ઞ": 286,
      "##5": 287,
      "##n": 288,
      "##C": 289,
      "##ૐ": 290,
      "##છ": 291,
      "##૩": 292,
      "##૪": 293,
      "##7": 294,
      "##ઁ": 295,
      "##ૅ": 296,
      "##D": 297,
      "##F": 298,
      "##”": 299,
      "##x": 300,
      "##U": 301,
      "##O": 302,
      "##Y": 303,
      "##૮": 304,
      "##.": 305,
      "##'": 306,
      "##k": 307,
      "##w": 308,
      "##g": 309,
      "##z": 310,
      "##j": 311,
      "##u": 312,
      "##l": 313,
      "##o": 314,
      "##A": 315,
      "##p": 316,
      "##c": 317,
      "##૫": 318,
      "##!": 319,
      "##E": 320,
      "##R": 321,
      "##V": 322,
      "##N": 323,
      "##ઙ": 324,
      "##P": 325,
      "##v": 326,
      "##B": 327,
      "##૭": 328,
      "##y": 329,
      "##H": 330,
      "##)": 331,
      "##,": 332,
      "##઼": 333,
      "##J": 334,
      "##f": 335,
      "##Q": 336,
      "##L": 337,
      "##?": 338,
      "##>": 339,
      "##’": 340,
      "##‘": 341,
      "##-": 342,
      "##*": 343,
      "##…": 344,
      "##Ý": 345,
      "##í": 346,
      "##(": 347,
      "##K": 348,
      "##_": 349,
      "##ઊ": 350,
      "##X": 351,
      "##ઑ": 352,
      "##\"": 353,
      "##W": 354,
      "##$": 355,
      "##❣": 356,
      "##q": 357,
      "##ઋ": 358,
      "##–": 359,
      "##/": 360,
      "##:": 361,
      "##ோ": 362,
      "##ழ": 363,
      "##ர": 364,
      "##்": 365,
      "##]": 366,
      "##;": 367,
      "##Z": 368,
      "##�": 369,
      "##♲": 370,
      "##[": 371,
      "##ઍ": 372,
      "##प": 373,
      "##ी": 374,
      "##ए": 375,
      "##स": 376,
      "##º": 377,
      "##“": 378,
      "##ઐ": 379,
      "##ü": 380,
      "##ાં": 381,
      "##ાર": 382,
      "##્ય": 383,
      "##ને": 384,
      "##માં": 385,
      "##્ર": 386,
      "##ના": 387,
      "##વા": 388,
      "છે": 389,
      "##ની": 390,
      "##ું": 391,
      "કર": 392,
      "##ર્": 393,
      "તે": 394,
      "##તા": 395,
      "##થી": 396,
      "અને": 397,
      "##્ટ": 398,
      "કે": 399,
      "મા": 400,
      "##લા": 401,
      "##ામ": 402,
      "##નો": 403,
      "આવ": 404,
      "હત": 405,
      "પ્ર": 406,
      "##યા": 407,
      "પર": 408,
      "##િક": 409,
      "##ાવ": 410,
      "##ાય": 411,
      "##ન્": 412,
      "##્યા": 413,
      "##ટે": 414,
      "##હે": 415,
      "વિ": 416,
      "##રી": 417,
      "##સ્": 418,
      "##ક્": 419,
      "##લી": 420,
      "##ાન": 421,
      "કો": 422,
      "##ાત": 423,
      "માટે": 424,
      "જે": 425,
      "##કો": 426,
      "##ંગ": 427,
      "પણ": 428,
      "##ાજ": 429,
      "એક": 430,
      "##વામાં": 431,
      "##ારે": 432,
      "##િત": 433,
      "સા": 434,
      "કરી": 435,
      "##્વ": 436,
      "##ેશ": 437,
      "##શે": 438,
      "##લ્": 439,
      "##નું": 440,
      "##ારી": 441,
      "જો": 442,
      "##્યો": 443,
      "હો": 444,
      "##િયા": 445,
      "##રો": 446,
      "##હી": 447,
      "##્યું": 448,
      "##વી": 449,
      "##ાણ": 450,
      "##ારા": 451,
      "##ંત": 452,
      "સમ": 453,
      "પો": 454,
      "##કે": 455,
      "##મે": 456,
      "મો": 457,
      "##િવ": 458,
      "સ્": 459,
      "આપ": 460,
      "##ાલ": 461,
      "##થે": 462,
      "સુ": 463,
      "તેમ": 464,
      "##તી": 465,
      "##ાસ": 466,
      "##ાગ": 467,
      "સં": 468,
      "##લે": 469,
      "સાથે": 470,
      "##ડી": 471,
      "##તિ": 472,
      "કાર": 473,
      "##રે": 474,
      "##ધી": 475,
      "લો": 476,
      "##ાઈ": 477,
      "હતી": 478,
      "##ાદ": 479,
      "##્રી": 480,
      "##ાળ": 481,
      "##યો": 482,
      "બે": 483,
      "##ટી": 484,
      "તો": 485,
      "##રા": 486,
      "વધ": 487,
      "##ાઇ": 488,
      "##ક્ષ": 489,
      "મુ": 490,
      "##ણે": 491,
      "##કા": 492,
      "##ાર્": 493,
      "તમ": 494,
      "##ડા": 495,
      "##ેલ": 496,
      "##સ્ટ": 497,
      "##ણી": 498,
      "##કાર": 499,
      "##જી": 500,
      "મળ": 501,
      "##િય": 502,
      "##ંદ": 503,
      "##ન્ટ": 504,
      "રહ": 505,
      "ઉપ": 506,
      "રાજ": 507,
      "##રૂ": 508,
      "મે": 509,
      "##ત્": 510,
      "##કી": 511,
      "રા": 512,
      "##્રે": 513,
      "મહ": 514,
      "હતો": 515,
      "કરવા": 516,
      "##્યારે": 517,
      "##દી": 518,
      "##વે": 519,
      "આવી": 520,
      "##સ્ત": 521,
      "##સી": 522,
      "વર્": 523,
      "##તે": 524,
      "નથી": 525,
      "ગુ": 526,
      "##િલ્": 527,
      "રહે": 528,
      "##લો": 529,
      "સર": 530,
      "##ંધ": 531,
      "હતા": 532,
      "લોકો": 533,
      "રો": 534,
      "કરવામાં": 535,
      "##મી": 536,
      "આવે": 537,
      "##્યુ": 538,
      "##દા": 539,
      "હતું": 540,
      "##ન્ડ": 541,
      "સામ": 542,
      "##ત્ર": 543,
      "નિ": 544,
      "દ્વ": 545,
      "પા": 546,
      "હોય": 547,
      "##તો": 548,
      "અન": 549,
      "##સે": 550,
      "##િંગ": 551,
      "દ્વારા": 552,
      "##ારો": 553,
      "ના": 554,
      "##િટ": 555,
      "##ંચ": 556,
      "##થા": 557,
      "##પી": 558,
      "સે": 559,
      "જી": 560,
      "અમ": 561,
      "##િં": 562,
      "લે": 563,
      "##દ્": 564,
      "પોલી": 565,
      "##વું": 566,
      "##્યાં": 567,
      "વર્ષ": 568,
      "##ોલ": 569,
      "વધુ": 570,
      "##ેટ": 571,
      "યુ": 572,
      "##જા": 573,
      "##તાં": 574,
      "##વાની": 575,
      "ભાર": 576,
      "##મા": 577,
      "માં": 578,
      "##રમાં": 579,
      "રી": 580,
      "સુધી": 581,
      "નો": 582,
      "##ાણી": 583,
      "રૂ": 584,
      "થઈ": 585,
      "##જે": 586,
      "બી": 587,
      "##રાત": 588,
      "##ોડ": 589,
      "##ેર": 590,
      "##ચ્": 591,
      "##વાર": 592,
      "##ન્સ": 593,
      "શકે": 594,
      "##વિ": 595,
      "##ણાવ": 596,
      "પોતા": 597,
      "સમય": 598,
      "દિવ": 599,
      "##છી": 600,
      "કોઈ": 601,
      "ની": 602,
      "##મ્": 603,
      "પડ": 604,
      "વ્ય": 605,
      "કરે": 606,
      "##ંતુ": 607,
      "##શન": 608,
      "પૂ": 609,
      "##ટા": 610,
      "દે": 611,
      "##બી": 612,
      "બના": 613,
      "##રોના": 614,
      "કામ": 615,
      "પહે": 616,
      "સ્ટ": 617,
      "##હીં": 618,
      "પરંતુ": 619,
      "##ુક": 620,
      "##્સ": 621,
      "રહી": 622,
      "તમે": 623,
      "##ચે": 624,
      "કોરોના": 625,
      "##ષ્ટ": 626,
      "વે": 627,
      "શક": 628,
      "જણાવ": 629,
      "પુ": 630,
      "##ગર": 631,
      "##ોર્": 632,
      "બાદ": 633,
      "##હો": 634,
      "##િલ": 635,
      "##િન": 636,
      "##શ્": 637,
      "##સા": 638,
      "રાખ": 639,
      "કહ": 640,
      "##્રા": 641,
      "##ગી": 642,
      "##ન્દ": 643,
      "રીતે": 644,
      "સો": 645,
      "ને": 646,
      "પોલીસ": 647,
      "##વાદ": 648,
      "##લાક": 649,
      "દર": 650,
      "છો": 651,
      "##નમાં": 652,
      "##ર્ણ": 653,
      "લગ": 654,
      "લી": 655,
      "##ુલ": 656,
      "પી": 657,
      "##ેલા": 658,
      "##નાં": 659,
      "તેના": 660,
      "દેશ": 661,
      "##ણા": 662,
      "ત્યારે": 663,
      "લા": 664,
      "##ધા": 665,
      "થાય": 666,
      "ગુજ": 667,
      "આગ": 668,
      "##બર": 669,
      "##ક્ટ": 670,
      "પછી": 671,
      "સી": 672,
      "##ક્ર": 673,
      "##માંથી": 674,
      "સ્થ": 675,
      "##રસ": 676,
      "##ેડ": 677,
      "##ંક": 678,
      "##ળી": 679,
      "ગુજરાત": 680,
      "##ંડ": 681,
      "રહ્યા": 682,
      "##હિત": 683,
      "##ંપ": 684,
      "કેટ": 685,
      "##ાવી": 686,
      "યો": 687,
      "કહ્યું": 688,
      "કા": 689,
      "##પ્ર": 690,
      "##વો": 691,
      "કાર્ય": 692,
      "દી": 693,
      "##ઓને": 694,
      "##ક્સ": 695,
      "##પ્": 696,
      "ટી": 697,
      "##સો": 698,
      "લાગ": 699,
      "સિ": 700,
      "વા": 701,
      "##િસ્": 702,
      "##00": 703,
      "વાત": 704,
      "સૌ": 705,
      "પાસ": 706,
      "મહિ": 707,
      "ટે": 708,
      "ઉપર": 709,
      "જા": 710,
      "જ્યારે": 711,
      "મળી": 712,
      "સરકાર": 713,
      "ભારત": 714,
      "શરૂ": 715,
      "##રણ": 716,
      "##મો": 717,
      "##ુર": 718,
      "બા": 719,
      "અથ": 720,
      "સ્વ": 721,
      "##સર": 722,
      "##જન": 723,
      "કારણે": 724,
      "##દ્ધ": 725,
      "ચો": 726,
      "હોવા": 727,
      "હવે": 728,
      "##ન્દ્ર": 729,
      "અધ": 730,
      "તેઓ": 731,
      "સામે": 732,
      "##દેશ": 733,
      "હા": 734,
      "કર્યો": 735,
      "##માન": 736,
      "##ેશન": 737,
      "##્ષ": 738,
      "##પૂ": 739,
      "તેને": 740,
      "##િકા": 741,
      "નહીં": 742,
      "દિવસ": 743,
      "અથવા": 744,
      "##ડો": 745,
      "##ર્સ": 746,
      "અમે": 747,
      "થય": 748,
      "##ષ્": 749,
      "વિસ્ત": 750,
      "ચૂ": 751,
      "પાસે": 752,
      "તેની": 753,
      "ડિ": 754,
      "##ક્તિ": 755,
      "જરૂ": 756,
      "હે": 757,
      "##ભાઈ": 758,
      "##યોગ": 759,
      "રૂપ": 760,
      "લઈ": 761,
      "##હેર": 762,
      "ત્ર": 763,
      "બો": 764,
      "અભ": 765,
      "ભાગ": 766,
      "જવા": 767,
      "દર્": 768,
      "જુ": 769,
      "બાળ": 770,
      "##ઈએ": 771,
      "પહો": 772,
      "મી": 773,
      "##ાંત": 774,
      "રિ": 775,
      "બનાવ": 776,
      "##હાર": 777,
      "##ટર": 778,
      "આપી": 779,
      "કેસ": 780,
      "##ભાઇ": 781,
      "##િલ્લા": 782,
      "જાણ": 783,
      "રાજ્ય": 784,
      "આજે": 785,
      "તેમના": 786,
      "##ંત્રી": 787,
      "ગામ": 788,
      "નામ": 789,
      "મૂ": 790,
      "##ાળા": 791,
      "જિલ્લા": 792,
      "અન્ય": 793,
      "ધર": 794,
      "પે": 795,
      "##્રો": 796,
      "આવ્યા": 797,
      "##ટના": 798,
      "પ્રમ": 799,
      "કરીને": 800,
      "ઉત્": 801,
      "દુ": 802,
      "ગો": 803,
      "##ચાર": 804,
      "##સ્પ": 805,
      "વી": 806,
      "##તર": 807,
      "##િંહ": 808,
      "તર": 809,
      "અમદા": 810,
      "કંપ": 811,
      "##ભા": 812,
      "ફર": 813,
      "20": 814,
      "જેમાં": 815,
      "જોવા": 816,
      "અમદાવાદ": 817,
      "હાલ": 818,
      "અનુ": 819,
      "ફિલ્": 820,
      "##ંટ": 821,
      "##ડે": 822,
      "પહોંચ": 823,
      "કંપની": 824,
      "મુખ": 825,
      "જીવ": 826,
      "કહે": 827,
      "તમામ": 828,
      "##રુ": 829,
      "##મત": 830,
      "એટ": 831,
      "##ર્ચ": 832,
      "માર્": 833,
      "##ગ્ર": 834,
      "વિક": 835,
      "##િસ": 836,
      "##વાનો": 837,
      "નોંધ": 838,
      "ખૂ": 839,
      "##પાસ": 840,
      "##ંત્ર": 841,
      "##ક્ત": 842,
      "##વારે": 843,
      "##ટો": 844,
      "દરમ": 845,
      "અંગ": 846,
      "##્રેસ": 847,
      "કરતા": 848,
      "એમ": 849,
      "##વાય": 850,
      "##સ્થ": 851,
      "રે": 852,
      "##િર": 853,
      "કારણ": 854,
      "આરો": 855,
      "ટકા": 856,
      "##ળા": 857,
      "##પો": 858,
      "##ૂર": 859,
      "##શો": 860,
      "##ખા": 861,
      "##િતિ": 862,
      "ચાલ": 863,
      "##ત્વ": 864,
      "પોતાના": 865,
      "તા": 866,
      "##ર્વ": 867,
      "##િમ": 868,
      "કરો": 869,
      "##થમ": 870,
      "વચ્": 871,
      "##િયાન": 872,
      "મુખ્ય": 873,
      "પગ": 874,
      "આવ્યો": 875,
      "વચ્ચે": 876,
      "##ેન": 877,
      "##શી": 878,
      "તમારા": 879,
      "##કારી": 880,
      "જણાવ્યું": 881,
      "પાણી": 882,
      "##ાર્ટ": 883,
      "સાં": 884,
      "શો": 885,
      "##ુમ": 886,
      "##રીકે": 887,
      "તેમણે": 888,
      "તેમજ": 889,
      "સૌથી": 890,
      "ક્ર": 891,
      "તરીકે": 892,
      "ઉપયોગ": 893,
      "##ધાન": 894,
      "##ભાગ": 895,
      "અધિક": 896,
      "તથા": 897,
      "##ર્થ": 898,
      "##્મ": 899,
      "ખાત": 900,
      "##દે": 901,
      "##ાજપ": 902,
      "ઓફ": 903,
      "##નની": 904,
      "##ત્ય": 905,
      "પરિવ": 906,
      "શા": 907,
      "##બ્": 908,
      "હજ": 909,
      "##ડિયા": 910,
      "##ક્ષા": 911,
      "સુર": 912,
      "ભાજપ": 913,
      "##જબ": 914,
      "સ્પ": 915,
      "ભાવ": 916,
      "ખૂબ": 917,
      "આધ": 918,
      "થઇ": 919,
      "..": 920,
      "જાય": 921,
      "ફો": 922,
      "માત્ર": 923,
      "##ચી": 924,
      "ગયા": 925,
      "##લમાં": 926,
      "##દ્ય": 927,
      "વ્યક્તિ": 928,
      "વિસ્તાર": 929,
      "દરમિયાન": 930,
      "મોટા": 931,
      "લોક": 932,
      "##ગા": 933,
      "મેળ": 934,
      "અપ": 935,
      "સર્": 936,
      "##ૃત": 937,
      "ત્યાં": 938,
      "##ાર્થી": 939,
      "હાથ": 940,
      "ફિલ્મ": 941,
      "વખ": 942,
      "##ર્મ": 943,
      "પહેલા": 944,
      "ફે": 945,
      "##વાનું": 946,
      "માન": 947,
      "બંધ": 948,
      "##૦૦": 949,
      "##લ્લા": 950,
      "##ારીઓ": 951,
      "ખુ": 952,
      "##ટેલ": 953,
      "કેટલાક": 954,
      "તરફ": 955,
      "સાર": 956,
      "રહ્યો": 957,
      "તૈ": 958,
      "કરોડ": 959,
      "##જો": 960,
      "બદ": 961,
      "##રેક": 962,
      "તમને": 963,
      "ગાં": 964,
      "શું": 965,
      "ભૂ": 966,
      "##એસ": 967,
      "ત્રણ": 968,
      "##બા": 969,
      "##નગર": 970,
      "જોઈએ": 971,
      "ગ્ર": 972,
      "##બંધ": 973,
      "આવ્યું": 974,
      "##ર્ટ": 975,
      "થયો": 976,
      "##જૂ": 977,
      "વિશે": 978,
      "##ચ્છ": 979,
      "થયા": 980,
      "બહાર": 981,
      "વાય": 982,
      "##નાર": 983,
      "##નના": 984,
      "##્લા": 985,
      "##સાર": 986,
      "##નિ": 987,
      "##લાં": 988,
      "કર્યું": 989,
      "લાખ": 990,
      "આવશે": 991,
      "મહિલા": 992,
      "##ગ્ય": 993,
      "ખા": 994,
      "ફરી": 995,
      "##શ્વ": 996,
      "##ાંચ": 997,
      "##વાસ": 998,
      "રૂપિયા": 999,
      "ડો": 1000,
      "##િયો": 1001,
      "તેમની": 1002,
      "બન": 1003,
      "કર્યા": 1004,
      "પ્રતિ": 1005,
      "##ાયો": 1006,
      "અંગે": 1007,
      "અલ": 1008,
      "રોજ": 1009,
      "બની": 1010,
      "સહિત": 1011,
      "માંગ": 1012,
      "##દાર": 1013,
      "##દર્": 1014,
      "##ંભ": 1015,
      "વિદ્ય": 1016,
      "પરિ": 1017,
      "તેમને": 1018,
      "અંત": 1019,
      "##પર": 1020,
      "દિલ્": 1021,
      "##ષ્ટ્ર": 1022,
      "ચી": 1023,
      "કોંગ": 1024,
      "ડે": 1025,
      "ડી": 1026,
      "##મિ": 1027,
      "તપાસ": 1028,
      "##ેલી": 1029,
      "આપવામાં": 1030,
      "તૈય": 1031,
      "ચે": 1032,
      "તાલ": 1033,
      "##ામી": 1034,
      "##ોર્ટ": 1035,
      "##પા": 1036,
      "કિ": 1037,
      "વિદ્યાર્થી": 1038,
      "દરેક": 1039,
      "નવા": 1040,
      "##સ્થા": 1041,
      "દિલ્હી": 1042,
      "ખાસ": 1043,
      "ઝડ": 1044,
      "થી": 1045,
      "પ્રથમ": 1046,
      "##કરી": 1047,
      "થશે": 1048,
      "##રની": 1049,
      "##મેન્ટ": 1050,
      "રાહ": 1051,
      "પ્રમાણ": 1052,
      "મોદી": 1053,
      "રહ્યું": 1054,
      "યોજ": 1055,
      "ખાતે": 1056,
      "કુલ": 1057,
      "##ઓની": 1058,
      "ઘટના": 1059,
      "મદ": 1060,
      "શકો": 1061,
      "##દો": 1062,
      "##ધો": 1063,
      "ખેડ": 1064,
      "વરસ": 1065,
      "##શા": 1066,
      "##ુંબ": 1067,
      "બેઠ": 1068,
      "મોત": 1069,
      "પોતાની": 1070,
      "જય": 1071,
      "બં": 1072,
      "રાજકો": 1073,
      "ભારતી": 1074,
      "ચૂંટ": 1075,
      "જરૂર": 1076,
      "પ્રા": 1077,
      "પ્રો": 1078,
      "##ાન્ય": 1079,
      "માર": 1080,
      "##ગત": 1081,
      "ટ્ર": 1082,
      "નવી": 1083,
      "ભર": 1084,
      "##વાના": 1085,
      "પ્રે": 1086,
      "કરવાની": 1087,
      "##સ્પિટ": 1088,
      "##ખ્યા": 1089,
      "બાળકો": 1090,
      "ગાંધી": 1091,
      "##ખી": 1092,
      "દિ": 1093,
      "એસ": 1094,
      "પટેલ": 1095,
      "સૂ": 1096,
      "##પણ": 1097,
      "પરિવાર": 1098,
      "નિર્ણ": 1099,
      "...": 1100,
      "ચા": 1101,
      "ટ્રે": 1102,
      "##ાવે": 1103,
      "કોંગ્રેસ": 1104,
      "##તું": 1105,
      "શકાય": 1106,
      "##રના": 1107,
      "##ીએ": 1108,
      "##પૂર્ણ": 1109,
      "દર્દી": 1110,
      "નિય": 1111,
      "##િયલ": 1112,
      "અર": 1113,
      "હોસ્પિટ": 1114,
      "મદદ": 1115,
      "##ઓમાં": 1116,
      "##્યૂ": 1117,
      "દો": 1118,
      "મંદ": 1119,
      "૨૦": 1120,
      "##્લે": 1121,
      "##ક્રમ": 1122,
      "ગય": 1123,
      "##વર": 1124,
      "##બો": 1125,
      "મોટી": 1126,
      "બંને": 1127,
      "હું": 1128,
      "##પુર": 1129,
      "વરસાદ": 1130,
      "##દર": 1131,
      "##તમાં": 1132,
      "##એમ": 1133,
      "અનેક": 1134,
      "પાક": 1135,
      "રાજકોટ": 1136,
      "ચૂંટણી": 1137,
      "અહીં": 1138,
      "જૂ": 1139,
      "##્ન": 1140,
      "##મંત્રી": 1141,
      "##કડ": 1142,
      "##ત્રી": 1143,
      "##િક્ષ": 1144,
      "જેમ": 1145,
      "રહેશે": 1146,
      "##દાન": 1147,
      "વ્યવ": 1148,
      "ક્ષ": 1149,
      "##કલ": 1150,
      "##જય": 1151,
      "કેન્દ્ર": 1152,
      "એટલે": 1153,
      "ખેડૂ": 1154,
      "આવેલ": 1155,
      "અસર": 1156,
      "ધો": 1157,
      "##પોર્ટ": 1158,
      "ખો": 1159,
      "##વિધ": 1160,
      "ગઈ": 1161,
      "ઘણી": 1162,
      "વિભાગ": 1163,
      "લઈને": 1164,
      "ગયો": 1165,
      "સફ": 1166,
      "પોલીસે": 1167,
      "ભારતીય": 1168,
      "આમ": 1169,
      "લઇ": 1170,
      "સહ": 1171,
      "મુજબ": 1172,
      "તમારી": 1173,
      "નિર્ણય": 1174,
      "દા": 1175,
      "બજ": 1176,
      "મહે": 1177,
      "##કર": 1178,
      "પ્રકાર": 1179,
      "બીજી": 1180,
      "ટીમ": 1181,
      "ખે": 1182,
      "ખરી": 1183,
      "10": 1184,
      "ખાન": 1185,
      "##સિંહ": 1186,
      "કરશે": 1187,
      "કુ": 1188,
      "મિ": 1189,
      "##ોમાં": 1190,
      "##વાન": 1191,
      "મળે": 1192,
      "આવેલા": 1193,
      "##િસ્તા": 1194,
      "જવાબ": 1195,
      "આજ": 1196,
      "##ુકા": 1197,
      "##સંદ": 1198,
      "##વણી": 1199,
      "સામાન્ય": 1200,
      "અલગ": 1201,
      "જગ": 1202,
      "મૃત": 1203,
      "##િતા": 1204,
      "##પે": 1205,
      "##ુખ": 1206,
      "##ભાવ": 1207,
      "##િટી": 1208,
      "##ૂટ": 1209,
      "મામ": 1210,
      "સ્ક": 1211,
      "ઉપરાંત": 1212,
      "દૂર": 1213,
      "##ધ્ય": 1214,
      "જોકે": 1215,
      "##યુ": 1216,
      "##ીર": 1217,
      "##ક્ષણ": 1218,
      "સારવાર": 1219,
      "શ્રી": 1220,
      "##નિક": 1221,
      "##બેન": 1222,
      "ગણ": 1223,
      "##્લ": 1224,
      "##ગે": 1225,
      "કોઇ": 1226,
      "##ન્ટર": 1227,
      "પાછ": 1228,
      "પૈ": 1229,
      "##ઓના": 1230,
      "આર": 1231,
      "મારી": 1232,
      "##રિક": 1233,
      "##કારે": 1234,
      "લોકોને": 1235,
      "તાલુકા": 1236,
      "19": 1237,
      "કાય": 1238,
      "કર્મ": 1239,
      "પ્રવ": 1240,
      "બાબ": 1241,
      "પસંદ": 1242,
      "##પુ": 1243,
      "##જ્": 1244,
      "ઘણા": 1245,
      "થો": 1246,
      "પેટ": 1247,
      "મહત્વ": 1248,
      "થયું": 1249,
      "જરૂરી": 1250,
      "##ડિયો": 1251,
      "કરતાં": 1252,
      "બીજા": 1253,
      "##આત": 1254,
      "બોલ": 1255,
      "##ામાં": 1256,
      "##ાવવા": 1257,
      "ચર્ચ": 1258,
      "નં": 1259,
      "વાર": 1260,
      "શહેર": 1261,
      "##રલ": 1262,
      "##નુ": 1263,
      "##લું": 1264,
      "માહિત": 1265,
      "પાર્ટ": 1266,
      "છેલ્લા": 1267,
      "##સ્તુ": 1268,
      "રોક": 1269,
      "સમયે": 1270,
      "ઉમે": 1271,
      "પડી": 1272,
      "મુંબ": 1273,
      "##સભા": 1274,
      "##હન": 1275,
      "છતાં": 1276,
      "હિ": 1277,
      "##ટક": 1278,
      "##ચના": 1279,
      "##્યાર": 1280,
      "વધારે": 1281,
      "##ોર્ડ": 1282,
      "કર્મચ": 1283,
      "##સ્તા": 1284,
      "##લ્ડ": 1285,
      "પડે": 1286,
      "નેતા": 1287,
      "ધ્યા": 1288,
      "શહે": 1289,
      "##સ્ક": 1290,
      "મહિના": 1291,
      "201": 1292,
      "તેનો": 1293,
      "હર": 1294,
      "વિવિધ": 1295,
      "સંખ્યા": 1296,
      "##ોને": 1297,
      "##ભગ": 1298,
      "##ર્ડ": 1299,
      "જેટ": 1300,
      "આગળ": 1301,
      "જાહેર": 1302,
      "માહિતી": 1303,
      "કલાક": 1304,
      "##સ્યા": 1305,
      "##ળતા": 1306,
      "##મ્પ": 1307,
      "જગ્યા": 1308,
      "અત્ય": 1309,
      "##મર": 1310,
      "##વાહી": 1311,
      "લગભગ": 1312,
      "##પ્ત": 1313,
      "જીવન": 1314,
      "તૈયાર": 1315,
      "રાત": 1316,
      "સત": 1317,
      "##કમાં": 1318,
      "##િયન": 1319,
      "તેથી": 1320,
      "વિશ્વ": 1321,
      "ઘરે": 1322,
      "સારી": 1323,
      "લગ્ન": 1324,
      "છીએ": 1325,
      "નવ": 1326,
      "##ઓએ": 1327,
      "સ્વા": 1328,
      "સ્થિતિ": 1329,
      "એન": 1330,
      "ઓછ": 1331,
      "બિ": 1332,
      "શિક્ષ": 1333,
      "##તમ": 1334,
      "##લાઈ": 1335,
      "સમાજ": 1336,
      "સેવા": 1337,
      "બનાવી": 1338,
      "જ્યાં": 1339,
      "મત": 1340,
      "હશે": 1341,
      "વડા": 1342,
      "##ચા": 1343,
      "જેના": 1344,
      "સમસ્યા": 1345,
      "યુવ": 1346,
      "લાભ": 1347,
      "કપ": 1348,
      "જન": 1349,
      "રંગ": 1350,
      "જેથી": 1351,
      "કોર્": 1352,
      "વિસ્તારમાં": 1353,
      "પાંચ": 1354,
      "રમ": 1355,
      "શરી": 1356,
      "##નિયા": 1357,
      "##તુ": 1358,
      "માલ": 1359,
      "રોડ": 1360,
      "##્લો": 1361,
      "##ેદ": 1362,
      "સમગ્ર": 1363,
      "##્રીય": 1364,
      "દિવસે": 1365,
      "પાકિસ્તા": 1366,
      "ખેડૂતો": 1367,
      "ઘટા": 1368,
      "ચાર": 1369,
      "વધી": 1370,
      "શાળા": 1371,
      "આપે": 1372,
      "##ષ્ઠ": 1373,
      "વો": 1374,
      "##દરા": 1375,
      "##ાજી": 1376,
      "આપણે": 1377,
      "મંદિર": 1378,
      "જન્": 1379,
      "ફાય": 1380,
      "##િને": 1381,
      "સરકારે": 1382,
      "સતત": 1383,
      "મને": 1384,
      "લખ": 1385,
      "##ચર": 1386,
      "##ાણા": 1387,
      "ભારે": 1388,
      "##નારા": 1389,
      "##ળો": 1390,
      "##ઠળ": 1391,
      "##નીય": 1392,
      "હેઠળ": 1393,
      "મીડિયા": 1394,
      "ઉત્પ": 1395,
      "વીડિયો": 1396,
      "મેળવ": 1397,
      "ત્યાર": 1398,
      "##સભ": 1399,
      "##પાલ": 1400,
      "તેમાં": 1401,
      "જેવા": 1402,
      "સમજ": 1403,
      "##ાળી": 1404,
      "દેશમાં": 1405,
      "##ક્ટર": 1406,
      "ભા": 1407,
      "##કર્": 1408,
      "ઇન્ડ": 1409,
      "બ્ર": 1410,
      "યાદ": 1411,
      "##નને": 1412,
      "##્યાસ": 1413,
      "કાર્": 1414,
      "મળશે": 1415,
      "લેવા": 1416,
      "વખત": 1417,
      "વાગ": 1418,
      "##લ્લે": 1419,
      "##કીય": 1420,
      "##મ્બર": 1421,
      "આઇ": 1422,
      "ઘર": 1423,
      "પત્": 1424,
      "બધા": 1425,
      "##િસ્ટ": 1426,
      "##શિયલ": 1427,
      "##બાદ": 1428,
      "##ાવો": 1429,
      "##લ્પ": 1430,
      "યુન": 1431,
      "ફરિયા": 1432,
      "મંત્રી": 1433,
      "##લના": 1434,
      "તેણે": 1435,
      "સમા": 1436,
      "મેચ": 1437,
      "##િંમત": 1438,
      "ગર": 1439,
      "ગે": 1440,
      "ટો": 1441,
      "##ધું": 1442,
      "હતાં": 1443,
      "વધારો": 1444,
      "પડશે": 1445,
      "દેખ": 1446,
      "ગુજરાતમાં": 1447,
      "અંદ": 1448,
      "સિંહ": 1449,
      "##ંજ": 1450,
      "પરિણ": 1451,
      "આવા": 1452,
      "આયો": 1453,
      "લાં": 1454,
      "##ગો": 1455,
      "##ંબ": 1456,
      "##કસ": 1457,
      "માતા": 1458,
      "##રોધ": 1459,
      "પાડ": 1460,
      "આરોપી": 1461,
      "એવા": 1462,
      "ધારા": 1463,
      "શેર": 1464,
      "##હા": 1465,
      "તેવી": 1466,
      "સંબંધ": 1467,
      "પૂર્વ": 1468,
      "પહોંચી": 1469,
      "હજાર": 1470,
      "આધાર": 1471,
      "કમ": 1472,
      "નજી": 1473,
      "રજૂ": 1474,
      "##સાય": 1475,
      "##ષણ": 1476,
      "##્રોલ": 1477,
      "##ર્ક": 1478,
      "આવતા": 1479,
      "##ાત્ર": 1480,
      "કાર્યવાહી": 1481,
      "મુખ્યમંત્રી": 1482,
      "યોજના": 1483,
      "પાર્ટી": 1484,
      "અસ": 1485,
      "અવ": 1486,
      "ઉદ": 1487,
      "બચ": 1488,
      "##ાયા": 1489,
      "મોર": 1490,
      "મુદ્": 1491,
      "##મ્બ": 1492,
      "શક્ય": 1493,
      "હોવાનું": 1494,
      "અધિકારી": 1495,
      "એવું": 1496,
      "ગ્રા": 1497,
      "શુ": 1498,
      "##તન": 1499,
      "યોગ્ય": 1500,
      "જાહે": 1501,
      "એવી": 1502,
      "પાલ": 1503,
      "બને": 1504,
      "##કમ": 1505,
      "##ન્જ": 1506,
      "##લ્સ": 1507,
      "પ્રમુખ": 1508,
      "અનુસાર": 1509,
      "ઉત્પાદ": 1510,
      "નિવ": 1511,
      "પંચ": 1512,
      "બુ": 1513,
      "વસ્તુ": 1514,
      "##પ્ટ": 1515,
      "##ૂલ": 1516,
      "##વાલ": 1517,
      "પ્રસ": 1518,
      "સ્થા": 1519,
      "##ત્તા": 1520,
      "ચાલી": 1521,
      "15": 1522,
      "##ફો": 1523,
      "##ફે": 1524,
      "##લાઇ": 1525,
      "ક્યારે": 1526,
      "રામ": 1527,
      "##ાનું": 1528,
      "જેને": 1529,
      "##ગીરી": 1530,
      "સ્થાન": 1531,
      "કલા": 1532,
      "શે": 1533,
      "##ખો": 1534,
      "##ાજુ": 1535,
      "સંપ": 1536,
      "હાજ": 1537,
      "નીચે": 1538,
      "સુરત": 1539,
      "કલ": 1540,
      "જાત": 1541,
      "ફી": 1542,
      "કેવી": 1543,
      "જોડ": 1544,
      "રાખી": 1545,
      "ટેસ્ટ": 1546,
      "વખતે": 1547,
      "ઇન્": 1548,
      "થતા": 1549,
      "##રિકા": 1550,
      "પ્રયા": 1551,
      "##િત્ર": 1552,
      "આરોગ્ય": 1553,
      "##દર્શન": 1554,
      "નજીક": 1555,
      "અગા": 1556,
      "પક્ષ": 1557,
      "વૈ": 1558,
      "##ઠા": 1559,
      "##વાથી": 1560,
      "##કેટ": 1561,
      "સંપૂર્ણ": 1562,
      "અમેરિકા": 1563,
      "ગંભ": 1564,
      "##ંમ": 1565,
      "##ભવ": 1566,
      "##લાવ": 1567,
      "જેવી": 1568,
      "કરવાનો": 1569,
      "કાઢ": 1570,
      "અભ્યાસ": 1571,
      "અત્યાર": 1572,
      "પરિણામ": 1573,
      "અગાઉ": 1574,
      "એર": 1575,
      "ઓળ": 1576,
      "દૂ": 1577,
      "સંગ": 1578,
      "##માર": 1579,
      "##ધાર": 1580,
      "##ળે": 1581,
      "##ાયેલ": 1582,
      "નીક": 1583,
      "આગામી": 1584,
      "હોવાથી": 1585,
      "નુક": 1586,
      "સભ": 1587,
      "##મમાં": 1588,
      "##કત": 1589,
      "##શિ": 1590,
      "##િકલ": 1591,
      "##ાયેલા": 1592,
      "વર્ષે": 1593,
      "##જ્ઞ": 1594,
      "11": 1595,
      "ફેર": 1596,
      "હુમ": 1597,
      "##થો": 1598,
      "પરી": 1599,
      "##ન્સી": 1600,
      "સમાવ": 1601,
      "##ાઇન": 1602,
      "##કાશ": 1603,
      "સોશિયલ": 1604,
      "12": 1605,
      "પ્લા": 1606,
      "ભો": 1607,
      "વૃ": 1608,
      "##વાઈ": 1609,
      "##ાવતા": 1610,
      "##ડીને": 1611,
      "કામગીરી": 1612,
      "બાળક": 1613,
      "વાયરસ": 1614,
      "જાહેરાત": 1615,
      "નાગ": 1616,
      "##હિ": 1617,
      "##ઉન": 1618,
      "દાખ": 1619,
      "ગંભીર": 1620,
      "જઈ": 1621,
      "જામ": 1622,
      "ડ્ર": 1623,
      "પતિ": 1624,
      "વસ": 1625,
      "##ૂત": 1626,
      "સરકારી": 1627,
      "ચૂક": 1628,
      "જન્મ": 1629,
      "ધારાસભ": 1630,
      "છું": 1631,
      "મારા": 1632,
      "##ૃતિ": 1633,
      "માણ": 1634,
      "જોઇ": 1635,
      "##ત્રો": 1636,
      "સમયમાં": 1637,
      "પહેલાં": 1638,
      "પત્ની": 1639,
      "જાણી": 1640,
      "##બલ": 1641,
      "વિચાર": 1642,
      "એક્ટ": 1643,
      "##ાલય": 1644,
      "##રેન્દ્ર": 1645,
      "રોગ": 1646,
      "##ક્રિયા": 1647,
      "માર્ગ": 1648,
      "ફરિયાદ": 1649,
      "કં": 1650,
      "નક્": 1651,
      "##ંઘ": 1652,
      "##તાવ": 1653,
      "##ાવવામાં": 1654,
      "બેન્": 1655,
      "રહેતા": 1656,
      "##શ્કે": 1657,
      "લીધો": 1658,
      "ઝડપ": 1659,
      "પ્રમાણે": 1660,
      "ગયું": 1661,
      "નંબર": 1662,
      "મુંબઈ": 1663,
      "ઉલ્લે": 1664,
      "ખર્ચ": 1665,
      "જશે": 1666,
      "વડો": 1667,
      "##ટ્ટ": 1668,
      "##ગ્": 1669,
      "##ંકા": 1670,
      "##લાય": 1671,
      "##ક્શન": 1672,
      "કોર્ટ": 1673,
      "મુક": 1674,
      "નિર્": 1675,
      "વેપ": 1676,
      "રિપોર્ટ": 1677,
      "ઉલ્લેખ": 1678,
      "વગર": 1679,
      "##કરણ": 1680,
      "##ુપ": 1681,
      "##બે": 1682,
      "મુલાક": 1683,
      "રહ્યાં": 1684,
      "કેટલી": 1685,
      "ચર્ચા": 1686,
      "મુલાકાત": 1687,
      "##ગ્રી": 1688,
      "##તિક": 1689,
      "##િકો": 1690,
      "સ્મ": 1691,
      "આપવા": 1692,
      "રહેલા": 1693,
      "નાના": 1694,
      "શાહ": 1695,
      "સમાવેશ": 1696,
      "##દારો": 1697,
      "##ધન": 1698,
      "##શ્ર": 1699,
      "##પ્રધાન": 1700,
      "દુનિયા": 1701,
      "હાલમાં": 1702,
      "ગ્રામ": 1703,
      "પૈસા": 1704,
      "વડોદરા": 1705,
      "200": 1706,
      "આં": 1707,
      "##વાસી": 1708,
      "પ્રદેશ": 1709,
      "જોઈ": 1710,
      "પોઝ": 1711,
      "##ષ્ણ": 1712,
      "જિલ્લામાં": 1713,
      "પાછળ": 1714,
      "નક્કી": 1715,
      "એલ": 1716,
      "ધી": 1717,
      "શ્રે": 1718,
      "૧૦": 1719,
      "##મતા": 1720,
      "##ટ્સ": 1721,
      "ચાલુ": 1722,
      "આંક": 1723,
      "ચુક": 1724,
      "##શુ": 1725,
      "##ઉન્ડ": 1726,
      "વિજય": 1727,
      "સંસ્થા": 1728,
      "કાર્યક્રમ": 1729,
      "વિકાસ": 1730,
      "જયારે": 1731,
      "પિતા": 1732,
      "શી": 1733,
      "##જર": 1734,
      "વિરોધ": 1735,
      "ઝડપી": 1736,
      "થોડા": 1737,
      "કિંમત": 1738,
      "ઘણ": 1739,
      "વન": 1740,
      "વહે": 1741,
      "##ંધી": 1742,
      "પ્રક્રિયા": 1743,
      "##ેશા": 1744,
      "પ્રેમ": 1745,
      "ટ્વ": 1746,
      "ટ્રા": 1747,
      "મધ્ય": 1748,
      "સલા": 1749,
      "##થ્": 1750,
      "##ૂડ": 1751,
      "##ઠી": 1752,
      "##ાર્ડ": 1753,
      "##ત્તિ": 1754,
      "ભારતમાં": 1755,
      "શરૂઆત": 1756,
      "પાસેથી": 1757,
      "હજુ": 1758,
      "દૂધ": 1759,
      "આસ": 1760,
      "એન્ડ": 1761,
      "##કલી": 1762,
      "##ારૂ": 1763,
      "##ર્ન": 1764,
      "લાગે": 1765,
      "શોધ": 1766,
      "ક્ષે": 1767,
      "આઈ": 1768,
      "બહ": 1769,
      "##મુ": 1770,
      "##ગઢ": 1771,
      "પ્રશ્": 1772,
      "કરવાનું": 1773,
      "મોરબી": 1774,
      "અર્": 1775,
      "બાં": 1776,
      "રન": 1777,
      "##કની": 1778,
      "##શ્ય": 1779,
      "##ફી": 1780,
      "##ફ્ટ": 1781,
      "##સ્ટ્ર": 1782,
      "કોરોનાના": 1783,
      "વિસ્તારો": 1784,
      "દર્શ": 1785,
      "પગલે": 1786,
      "24": 1787,
      "આત": 1788,
      "કૃ": 1789,
      "##કાલ": 1790,
      "##સદ": 1791,
      "##વન": 1792,
      "##ભી": 1793,
      "મુશ્કે": 1794,
      "પૂર્ણ": 1795,
      "પેટ્રોલ": 1796,
      "આયોજન": 1797,
      "કમિ": 1798,
      "વ્યા": 1799,
      "##દારી": 1800,
      "##લની": 1801,
      "##સાન": 1802,
      "##સવી": 1803,
      "પરિસ્": 1804,
      "##િકેટ": 1805,
      "##ાયું": 1806,
      "વિદેશ": 1807,
      "પોસ્ટ": 1808,
      "સુધીમાં": 1809,
      "##ચ્ચ": 1810,
      "દેશના": 1811,
      "દીધી": 1812,
      "અધિકારીઓ": 1813,
      "મામલે": 1814,
      "પરિસ્થ": 1815,
      "આંત": 1816,
      "કહી": 1817,
      "જતા": 1818,
      "જમી": 1819,
      "નહો": 1820,
      "પાર": 1821,
      "મંગ": 1822,
      "મિન": 1823,
      "લાઈ": 1824,
      "##નંદ": 1825,
      "##મણ": 1826,
      "##િપ": 1827,
      "##ઠવા": 1828,
      "જીત": 1829,
      "##શ્ચ": 1830,
      "સિવાય": 1831,
      "અરજી": 1832,
      "બજાર": 1833,
      "14": 1834,
      "અર્થ": 1835,
      "પદ": 1836,
      "##દિક": 1837,
      "##ઓનો": 1838,
      "કરવું": 1839,
      "રાષ્ટ્ર": 1840,
      "##ષ્ટ્રીય": 1841,
      "વેચ": 1842,
      "ગ્રાહ": 1843,
      "દાખલ": 1844,
      "30": 1845,
      "કી": 1846,
      "તસવી": 1847,
      "રકમ": 1848,
      "##િડ": 1849,
      "##િઝ": 1850,
      "##ar": 1851,
      "આપ્યો": 1852,
      "સ્પષ્ટ": 1853,
      "##જૂરી": 1854,
      "રાહુલ": 1855,
      "બેઠક": 1856,
      "થવા": 1857,
      "થતાં": 1858,
      "પત્ર": 1859,
      "ભે": 1860,
      "સવારે": 1861,
      "##જુ": 1862,
      "##જનો": 1863,
      "##કોને": 1864,
      "##ાજે": 1865,
      "રોકાણ": 1866,
      "ઓળખ": 1867,
      "50": 1868,
      "અક": 1869,
      "ઓછી": 1870,
      "ઝા": 1871,
      "બાજુ": 1872,
      "શિવ": 1873,
      "મૃત્યુ": 1874,
      "પરિસ્થિતિ": 1875,
      "અના": 1876,
      "##ોની": 1877,
      "##ંકી": 1878,
      "##વુ": 1879,
      "હતુ": 1880,
      "##્યોગ": 1881,
      "મોડ": 1882,
      "દેવામાં": 1883,
      "સ્ટેશન": 1884,
      "રાજ્યમાં": 1885,
      "શહેરમાં": 1886,
      "આદ": 1887,
      "ઈન્ડ": 1888,
      "ડૉ": 1889,
      "દ્ર": 1890,
      "ફક્ત": 1891,
      "##ોર": 1892,
      "##ારણ": 1893,
      "કેમ": 1894,
      "સ્ત્રી": 1895,
      "##વિડ": 1896,
      "કોઈપણ": 1897,
      "પુર": 1898,
      "મેળવી": 1899,
      "પ્રયાસ": 1900,
      "અટક": 1901,
      "ભગ": 1902,
      "શર": 1903,
      "##વાળા": 1904,
      "કરવી": 1905,
      "તેનું": 1906,
      "વિરુ": 1907,
      "બાકી": 1908,
      "ચોક્": 1909,
      "ઉત્તર": 1910,
      "અત": 1911,
      "બસ": 1912,
      "##કટ": 1913,
      "##પતિ": 1914,
      "##આઇ": 1915,
      "##ાંડ": 1916,
      "કરવો": 1917,
      "હત્યા": 1918,
      "##ાવ્યો": 1919,
      "##ન્ન": 1920,
      "##ાર્થ": 1921,
      "ભાજપના": 1922,
      "ઉમેદ": 1923,
      "ધ્યાન": 1924,
      "ઈન્": 1925,
      "દવા": 1926,
      "શિ": 1927,
      "સારા": 1928,
      "હાર્": 1929,
      "##તંત્ર": 1930,
      "##ાઇલ": 1931,
      "મળ્યો": 1932,
      "મહામ": 1933,
      "ભારતના": 1934,
      "બનાવવા": 1935,
      "વડાપ્રધાન": 1936,
      "એજ": 1937,
      "એક્સ": 1938,
      "ખરા": 1939,
      "ડા": 1940,
      "વાળ": 1941,
      "૧૯": 1942,
      "૧૧": 1943,
      "##સિક": 1944,
      "##પણે": 1945,
      "હોઈ": 1946,
      "##લોજી": 1947,
      "જણાવી": 1948,
      "ખરીદ": 1949,
      "અદ": 1950,
      "દારૂ": 1951,
      "સું": 1952,
      "##ડવા": 1953,
      "##ભર": 1954,
      "##આર": 1955,
      "##ાયત": 1956,
      "વિના": 1957,
      "કોલે": 1958,
      "##ાત્મ": 1959,
      "##િયામાં": 1960,
      "તમારે": 1961,
      "લેવામાં": 1962,
      "નોકરી": 1963,
      "સોમ": 1964,
      "##ુમાર": 1965,
      "ક્રિકેટ": 1966,
      "ફોટો": 1967,
      "તરફથી": 1968,
      "૨૦૧": 1969,
      "કર્મચારીઓ": 1970,
      "કાર્ડ": 1971,
      "એન્ટ": 1972,
      "ડાય": 1973,
      "મન": 1974,
      "શ્ર": 1975,
      "સાવ": 1976,
      "##દન": 1977,
      "##્ધ": 1978,
      "##બુ": 1979,
      "##આરી": 1980,
      "કરતી": 1981,
      "નાખ": 1982,
      "ફરજ": 1983,
      "ખુબ": 1984,
      "પ્રાપ્ત": 1985,
      "લઇને": 1986,
      "ખરીદી": 1987,
      "કાયદા": 1988,
      "પ્લે": 1989,
      "શબ્": 1990,
      "હંમ": 1991,
      "##પકડ": 1992,
      "##ફર": 1993,
      "##બ્ર": 1994,
      "##નાથ": 1995,
      "##િત્રો": 1996,
      "કરીએ": 1997,
      "મળ્યા": 1998,
      "##િયમ": 1999
    }
  }
}