{
  "version": "1.0",
  "truncation": null,
  "padding": null,
  "added_tokens": [
    {
      "id": 0,
      "content": "[UNK]",
      "single_word": false,
      "lstrip": false,
      "rstrip": false,
      "normalized": false,
      "special": true
    },
    {
      "id": 1,
      "content": "[PAD]",
      "single_word": false,
      "lstrip": false,
      "rstrip": false,
      "normalized": false,
      "special": true
    },
    {
      "id": 2,
      "content": "[BOS]",
      "single_word": false,
      "lstrip": false,
      "rstrip": false,
      "normalized": false,
      "special": true
    },
    {
      "id": 3,
      "content": "[EOS]",
      "single_word": false,
      "lstrip": false,
      "rstrip": false,
      "normalized": false,
      "special": true
    }
  ],
  "normalizer": {
    "type": "NFC"
  },
  "pre_tokenizer": {
    "type": "Whitespace"
  },
  "post_processor": null,
  "decoder": null,
  "model": {
    "type": "BPE",
    "dropout": null,
    "unk_token": "[UNK]",
    "continuing_subword_prefix": null,
    "end_of_word_suffix": null,
    "fuse_unk": false,
    "byte_fallback": false,
    "ignore_merges": false,
    "vocab": {
      "[UNK]": 0,
      "[PAD]": 1,
      "[BOS]": 2,
      "[EOS]": 3,
      "!": 4,
      "\"": 5,
      "#": 6,
      "$": 7,
      "%": 8,
      "&": 9,
      "'": 10,
      "(": 11,
      ")": 12,
      "*": 13,
      "+": 14,
      ",": 15,
      "-": 16,
      ".": 17,
      "/": 18,
      "0": 19,
      "1": 20,
      "2": 21,
      "3": 22,
      "4": 23,
      "5": 24,
      "6": 25,
      "7": 26,
      "8": 27,
      "9": 28,
      ":": 29,
      ";": 30,
      "<": 31,
      "=": 32,
      ">": 33,
      "?": 34,
      "@": 35,
      "A": 36,
      "B": 37,
      "C": 38,
      "D": 39,
      "E": 40,
      "F": 41,
      "G": 42,
      "H": 43,
      "I": 44,
      "J": 45,
      "K": 46,
      "L": 47,
      "M": 48,
      "N": 49,
      "O": 50,
      "P": 51,
      "Q": 52,
      "R": 53,
      "S": 54,
      "T": 55,
      "U": 56,
      "V": 57,
      "W": 58,
      "X": 59,
      "Y": 60,
      "Z": 61,
      "[": 62,
      "]": 63,
      "_": 64,
      "a": 65,
      "b": 66,
      "c": 67,
      "d": 68,
      "e": 69,
      "f": 70,
      "g": 71,
      "h": 72,
      "i": 73,
      "j": 74,
      "k": 75,
      "l": 76,
      "m": 77,
      "n": 78,
      "o": 79,
      "p": 80,
      "q": 81,
      "r": 82,
      "s": 83,
      "t": 84,
      "u": 85,
      "v": 86,
      "w": 87,
      "x": 88,
      "y": 89,
      "z": 90,
      "{": 91,
      "|": 92,
      "}": 93,
      "~": 94,
      "": 95,
      "«": 96,
      "º": 97,
      "»": 98,
      "½": 99,
      "Ý": 100,
      "í": 101,
      "ü": 102,
      "ए": 103,
      "प": 104,
      "स": 105,
      "ी": 106,
      "।": 107,
      "ઁ": 108,
      "ં": 109,
      "ઃ": 110,
      "અ": 111,
      "આ": 112,
      "ઇ": 113,
      "ઈ": 114,
      "ઉ": 115,
      "ઊ": 116,
      "ઋ": 117,
      "ઍ": 118,
      "એ": 119,
      "ઐ": 120,
      "ઑ": 121,
      "ઓ": 122,
      "ઔ": 123,
      "ક": 124,
      "ખ": 125,
      "ગ": 126,
      "ઘ": 127,
      "ઙ": 128,
      "ચ": 129,
      "છ": 130,
      "જ": 131,
      "ઝ": 132,
      "ઞ": 133,
      "ટ": 134,
      "ઠ": 135,
      "ડ": 136,
      "ઢ": 137,
      "ણ": 138,
      "ત": 139,
      "થ": 140,
      "દ": 141,
      "ધ": 142,
      "ન": 143,
      "પ": 144,
      "ફ": 145,
      "બ": 146,
      "ભ": 147,
      "મ": 148,
      "ય": 149,
      "ર": 150,
      "લ": 151,
      "ળ": 152,
      "વ": 153,
      "શ": 154,
      "ષ": 155,
      "સ": 156,
      "હ": 157,
      "઼": 158,
      "ા": 159,
      "િ": 160,
      "ી": 161,
      "ુ": 162,
      "ૂ": 163,
      "ૃ": 164,
      "ૅ": 165,
      "ે": 166,
      "ૈ": 167,
      "ૉ": 168,
      "ો": 169,
      "ૌ": 170,
      "્": 171,
      "ૐ": 172,
      "૦": 173,
      "૧": 174,
      "૨": 175,
      "૩": 176,
      "૪": 177,
      "૫": 178,
      "૬": 179,
      "૭": 180,
      "૮": 181,
      "૯": 182,
      "ச": 183,
      "ர": 184,
      "ழ": 185,
      "ோ": 186,
      "்": 187,
      "–": 188,
      "—": 189,
      "‘": 190,
      "’": 191,
      "‚": 192,
      "“": 193,
      "”": 194,
      "•": 195,
      "…": 196,
      "₹": 197,
      "→": 198,
      "−": 199,
      "●": 200,
      "♲": 201,
      "❣": 202,
      "️": 203,
      "�": 204,
      "👍": 205,
      "મા": 206,
      "વા": 207,
      "ના": 208,
      "્ય": 209,
      "ને": 210,
      "માં": 211,
      "્ર": 212,
      "ાર": 213,
      "છે": 214,
      "ની": 215,
      "કર": 216,
      "ું": 217,
      "તે": 218,
      "તા": 219,
      "રા": 220,
      "સ્": 221,
      "ર્": 222,
      "કે": 223,
      "લા": 224,
      "થી": 225,
      "અને": 226,
      "કો": 227,
      "સા": 228,
      "નો": 229,
      "વિ": 230,
      "કા": 231,
      "ન્": 232,
      "રી": 233,
      "ક્": 234,
      "પ્ર": 235,
      "ટે": 236,
      "્યા": 237,
      "યા": 238,
      "પર": 239,
      "વી": 240,
      "હત": 241,
      "મે": 242,
      "હે": 243,
      "કાર": 244,
      "પા": 245,
      "વે": 246,
      "લી": 247,
      "જે": 248,
      "પણ": 249,
      "રો": 250,
      "ભા": 251,
      "જા": 252,
      "ત્ર": 253,
      "હો": 254,
      "લો": 255,
      "ંગ": 256,
      "માટે": 257,
      "રે": 258,
      "લે": 259,
      "નિ": 260,
      "શે": 261,
      "કરી": 262,
      "બા": 263,
      "પો": 264,
      "વામાં": 265,
      "તો": 266,
      "જો": 267,
      "નું": 268,
      "લ્": 269,
      "મો": 270,
      "એક": 271,
      "તિ": 272,
      "ટી": 273,
      "યો": 274,
      "હી": 275,
      "જી": 276,
      "્યો": 277,
      "તી": 278,
      "સે": 279,
      "્યું": 280,
      "સં": 281,
      "િયા": 282,
      "ડા": 283,
      "દા": 284,
      "સુ": 285,
      "દે": 286,
      "ડી": 287,
      "ણી": 288,
      "રૂ": 289,
      "હા": 290,
      "આવ": 291,
      "થે": 292,
      "બે": 293,
      "તેમ": 294,
      "ક્ષ": 295,
      "સિ": 296,
      "દી": 297,
      "ધી": 298,
      "ારે": 299,
      "ણા": 300,
      "પી": 301,
      "સાથે": 302,
      "મુ": 303,
      "થા": 304,
      "ખા": 305,
      "દ્": 306,
      "દિ": 307,
      "ગા": 308,
      "સી": 309,
      "મી": 310,
      "હતી": 311,
      "ચા": 312,
      "ત્": 313,
      "સર": 314,
      "ટ્ર": 315,
      "હિ": 316,
      "સમ": 317,
      "વધ": 318,
      "ંત": 319,
      "મિ": 320,
      "ટા": 321,
      "વર્": 322,
      "બી": 323,
      "ધા": 324,
      "શા": 325,
      "કી": 326,
      "ણે": 327,
      "મળ": 328,
      "પે": 329,
      "સો": 330,
      "રાજ": 331,
      "લિ": 332,
      "રહ": 333,
      "રિ": 334,
      "નથી": 335,
      "હતો": 336,
      "કરવા": 337,
      "આવે": 338,
      "ત્ય": 339,
      "ગુ": 340,
      "હતા": 341,
      "વાર": 342,
      "ક્ર": 343,
      "શન": 344,
      "આવી": 345,
      "સ્ટ": 346,
      "ાર્": 347,
      "પૂ": 348,
      "ગ્ર": 349,
      "ડે": 350,
      "ડિ": 351,
      "તમા": 352,
      "યુ": 353,
      "રહે": 354,
      "સ્ત": 355,
      "આપ": 356,
      "ારી": 357,
      "ચે": 358,
      "ષ્": 359,
      "લોકો": 360,
      "કિ": 361,
      "વો": 362,
      "યે": 363,
      "પુ": 364,
      "ન્ટ": 365,
      "કરવામાં": 366,
      "દેશ": 367,
      "હતું": 368,
      "મં": 369,
      "શ્": 370,
      "દર": 371,
      "માન": 372,
      "બં": 373,
      "પ્": 374,
      "હોય": 375,
      "ડો": 376,
      "બો": 377,
      "વારા": 378,
      "ળા": 379,
      "્યુ": 380,
      "શિ": 381,
      "દ્વારા": 382,
      "છી": 383,
      "ગી": 384,
      "અન": 385,
      "ગર": 386,
      "ગે": 387,
      "ઉપ": 388,
      "ંચ": 389,
      "ભાર": 390,
      "વ્ય": 391,
      "વું": 392,
      "જુ": 393,
      "િલ્": 394,
      "વર્ષ": 395,
      "પોલી": 396,
      "કરે": 397,
      "કેટ": 398,
      "તાં": 399,
      "વર": 400,
      "વધુ": 401,
      "ન્ડ": 402,
      "સરકાર": 403,
      "દ્ર": 404,
      "્યાં": 405,
      "તર": 406,
      "વાની": 407,
      "સુધી": 408,
      "ફે": 409,
      "સ્થ": 410,
      "બાદ": 411,
      "ત્રી": 412,
      "કુ": 413,
      "િત": 414,
      "થઈ": 415,
      "ચ્": 416,
      "છો": 417,
      "શકે": 418,
      "પોતા": 419,
      "મ્": 420,
      "ખે": 421,
      "િક": 422,
      "ટર": 423,
      "કોઈ": 424,
      "દિવ": 425,
      "બના": 426,
      "કરો": 427,
      "પરિ": 428,
      "જણા": 429,
      "કામ": 430,
      "નાં": 431,
      "દુ": 432,
      "સાર": 433,
      "શો": 434,
      "ળી": 435,
      "ંતુ": 436,
      "રોના": 437,
      "પહે": 438,
      "હીં": 439,
      "દર્": 440,
      "પરંતુ": 441,
      "રાત": 442,
      "તમે": 443,
      "ગો": 444,
      "રહી": 445,
      "દો": 446,
      "ફા": 447,
      "કોરોના": 448,
      "જન": 449,
      "ારો": 450,
      "માંથી": 451,
      "ટિ": 452,
      "પિ": 453,
      "મને": 454,
      "ફો": 455,
      "થવા": 456,
      "શ્ર": 457,
      "કરા": 458,
      "ટો": 459,
      "્યારે": 460,
      "લગ": 461,
      "ત્યારે": 462,
      "રીતે": 463,
      "યોગ": 464,
      "સ્થા": 465,
      "કહ": 466,
      "પોલીસ": 467,
      "00": 468,
      "કં": 469,
      "બર": 470,
      "ર્ટ": 471,
      "તેના": 472,
      "ન્સ": 473,
      "વાદ": 474,
      "નમાં": 475,
      "..": 476,
      "હાર": 477,
      "પૂર્": 478,
      "વવા": 479,
      "થાય": 480,
      "ગુજ": 481,
      "રાખ": 482,
      "પછી": 483,
      "બંધ": 484,
      "ચો": 485,
      "ધિ": 486,
      "ચાર": 487,
      "એમ": 488,
      "ભાગ": 489,
      "રહ્યા": 490,
      "હેર": 491,
      "ચી": 492,
      "ફર": 493,
      "વાય": 494,
      "કાર્ય": 495,
      "સમય": 496,
      "મુખ": 497,
      "ન્દ્ર": 498,
      "કહ્યું": 499,
      "સામે": 500,
      "અમ": 501,
      "મત": 502,
      "ઓને": 503,
      "જૂ": 504,
      "સમા": 505,
      "ંક": 506,
      "ધાર": 507,
      "્રે": 508,
      "સૌ": 509,
      "લાક": 510,
      "વન": 511,
      "લુ": 512,
      "બિ": 513,
      "લમાં": 514,
      "કારી": 515,
      "એસ": 516,
      "મહિ": 517,
      "ભાઈ": 518,
      "જણાવ": 519,
      "મળી": 520,
      "જ્યારે": 521,
      "શરૂ": 522,
      "ભારત": 523,
      "પડ": 524,
      "ગુજરાત": 525,
      "યું": 526,
      "્સ": 527,
      "વાત": 528,
      "જવા": 529,
      "કારણે": 530,
      "ધો": 531,
      "રુ": 532,
      "નિર્": 533,
      "કાય": 534,
      "હોવા": 535,
      "શી": 536,
      "હવે": 537,
      "પની": 538,
      "સિં": 539,
      "મૂ": 540,
      "તેઓ": 541,
      "ખો": 542,
      "બ્": 543,
      "કર્યો": 544,
      "દિવસ": 545,
      "ક્સ": 546,
      "વારે": 547,
      "20": 548,
      "ભાઇ": 549,
      "શક": 550,
      "તરી": 551,
      "તેને": 552,
      "કર્": 553,
      "ક્તિ": 554,
      "ચૂ": 555,
      "અથવા": 556,
      "નહીં": 557,
      "ટકા": 558,
      "અમે": 559,
      "વિસ્ત": 560,
      "જરૂ": 561,
      "હુ": 562,
      "તેની": 563,
      "કલ": 564,
      "પાસે": 565,
      "પ્રા": 566,
      "નગર": 567,
      "લઈ": 568,
      "અનુ": 569,
      "લાં": 570,
      "ટ્રે": 571,
      "ંડ": 572,
      "બાળ": 573,
      "રાજ્ય": 574,
      "જય": 575,
      "મારી": 576,
      "ગ્રા": 577,
      "ઈએ": 578,
      "ચિ": 579,
      "પાસ": 580,
      "પહો": 581,
      "માર": 582,
      "આપી": 583,
      "નોં": 584,
      "જાણ": 585,
      "સર્": 586,
      "માર્": 587,
      "છા": 588,
      "જિલ્": 589,
      "કરીને": 590,
      "આજે": 591,
      "તેમના": 592,
      "પાણી": 593,
      "અં": 594,
      "જિલ્લા": 595,
      "અભ": 596,
      "નુ": 597,
      "કેસ": 598,
      "આવ્યા": 599,
      "મંત્રી": 600,
      "થો": 601,
      "બુ": 602,
      "ભર": 603,
      "બદ": 604,
      "ઉત્": 605,
      "ફિલ્": 606,
      "મના": 607,
      "નની": 608,
      "ભૂ": 609,
      "દૂ": 610,
      "વચ્": 611,
      "સ્તા": 612,
      "અમદા": 613,
      "કારણ": 614,
      "સૂ": 615,
      "જેમાં": 616,
      "જોવા": 617,
      "ટના": 618,
      "અન્ય": 619,
      "અમદાવાદ": 620,
      "કંપની": 621,
      "એટ": 622,
      "ભાવ": 623,
      "ષ્ટ્ર": 624,
      "સિંહ": 625,
      "કહે": 626,
      "શું": 627,
      "રૂપ": 628,
      "બ્ર": 629,
      "ખૂ": 630,
      "સ્ટે": 631,
      "ક્ષા": 632,
      "પ્રે": 633,
      "દરમ": 634,
      "ઠા": 635,
      "નના": 636,
      "ર્સ": 637,
      "અંગ": 638,
      "કરતા": 639,
      "નં": 640,
      "ત્રણ": 641,
      "હિત": 642,
      "પ્રતિ": 643,
      "દ્ધ": 644,
      "સ્થિ": 645,
      "આરો": 646,
      "મહા": 647,
      "પોતાના": 648,
      "તમામ": 649,
      "રોજ": 650,
      "તમારા": 651,
      "મુખ્ય": 652,
      "માણ": 653,
      "ગત": 654,
      "દાર": 655,
      "ક્ત": 656,
      "આવ્યો": 657,
      "વચ્ચે": 658,
      "શુ": 659,
      "જણાવ્યું": 660,
      "પગ": 661,
      "૦૦": 662,
      "તથા": 663,
      "તેમજ": 664,
      "તેમણે": 665,
      "મમાં": 666,
      "સૌથી": 667,
      "ખુ": 668,
      "ગયા": 669,
      "ભી": 670,
      "તરીકે": 671,
      "માત્ર": 672,
      "જાય": 673,
      "િયાન": 674,
      "ઉપયોગ": 675,
      "પુર": 676,
      "યલ": 677,
      "સાં": 678,
      "ડિયા": 679,
      "દ્ય": 680,
      "ભાજ": 681,
      "ર્ડ": 682,
      "અધિ": 683,
      "નામ": 684,
      "મોટા": 685,
      "વ્યક્તિ": 686,
      "તુ": 687,
      "પાર્": 688,
      "ઉપર": 689,
      "ર્થ": 690,
      "નવા": 691,
      "પૂર્ણ": 692,
      "સ્વ": 693,
      "લોક": 694,
      "ંટ": 695,
      "સુર": 696,
      "થઇ": 697,
      "ખૂબ": 698,
      "ધાન": 699,
      "ફરી": 700,
      "વ્યા": 701,
      "આત": 702,
      "ઘર": 703,
      "થયા": 704,
      "લના": 705,
      "ફિ": 706,
      "વિસ્તાર": 707,
      "આપણ": 708,
      "પ્રો": 709,
      "દરમિયાન": 710,
      "રસ": 711,
      "લ્લા": 712,
      "ત્યાં": 713,
      "ફ્": 714,
      "બની": 715,
      "ક્ષણ": 716,
      "ઝા": 717,
      "નાર": 718,
      "લાઈ": 719,
      "મેળ": 720,
      "આગ": 721,
      "ઘા": 722,
      "જાર": 723,
      "ધ્ય": 724,
      "હાથ": 725,
      "પહેલા": 726,
      "પટે": 727,
      "નિય": 728,
      "લું": 729,
      "તૈ": 730,
      "ગાં": 731,
      "કેટલાક": 732,
      "વવામાં": 733,
      "રહ્યો": 734,
      "જના": 735,
      "ાર્થી": 736,
      "તમને": 737,
      "જબ": 738,
      "જિ": 739,
      "વખ": 740,
      "રાષ્ટ્ર": 741,
      "રેક": 742,
      "વાસ": 743,
      "નિક": 744,
      "કુલ": 745,
      "્રેસ": 746,
      "ગ્યા": 747,
      "વાનો": 748,
      "તરફ": 749,
      "મદ": 750,
      "જોઈએ": 751,
      "ત્યાર": 752,
      "આવ્યું": 753,
      "પક": 754,
      "વિશે": 755,
      "બહાર": 756,
      "થયો": 757,
      "સ્થિતિ": 758,
      "શહેર": 759,
      "ક્ટ": 760,
      "શ્રી": 761,
      "કર્યું": 762,
      "રણ": 763,
      "આવશે": 764,
      "મહિલા": 765,
      "ઇન": 766,
      "રૂપિયા": 767,
      "ઓની": 768,
      "તેમની": 769,
      "કર્યા": 770,
      "પહોંચ": 771,
      "અંગે": 772,
      "કોંગ": 773,
      "યેલા": 774,
      "સહિત": 775,
      "દિલ્": 776,
      "થમ": 777,
      "કેન્દ્ર": 778,
      "ભગ": 779,
      "જ્": 780,
      "વિદ્ય": 781,
      "પ્રથમ": 782,
      "તેમને": 783,
      "ભાજપ": 784,
      "ખ્યા": 785,
      "યર": 786,
      "ત્રા": 787,
      "ઝડ": 788,
      "ખી": 789,
      "વિશ્": 790,
      "ત્રો": 791,
      "ધરા": 792,
      "શકો": 793,
      "તૈય": 794,
      "દિલ્હી": 795,
      "મહત": 796,
      "આપવામાં": 797,
      "કરોડ": 798,
      "ઘટના": 799,
      "ટ્": 800,
      "સ્પિ": 801,
      "૨૦": 802,
      "મેન્ટ": 803,
      "માન્ય": 804,
      "વિદ્યાર્થી": 805,
      "દરેક": 806,
      "સ્ક": 807,
      "સ્પ": 808,
      "કોટ": 809,
      "તપાસ": 810,
      "નવી": 811,
      "તું": 812,
      "થશે": 813,
      "ળો": 814,
      "સભ": 815,
      "ખાસ": 816,
      "ધ્યા": 817,
      "આર": 818,
      "મોદી": 819,
      "રહ્યું": 820,
      "દન": 821,
      "પોર્ટ": 822,
      "19": 823,
      "ંચા": 824,
      "જર": 825,
      "ડૂ": 826,
      "લાખ": 827,
      "મળે": 828,
      "અધિકારી": 829,
      "10": 830,
      "આઇ": 831,
      "ભારતી": 832,
      "પોતાની": 833,
      "જરૂર": 834,
      "ફી": 835,
      "સંગ": 836,
      "મોત": 837,
      "હાલ": 838,
      "બન": 839,
      "મહત્": 840,
      "જન્": 841,
      "વડા": 842,
      "સાદ": 843,
      "કરવાની": 844,
      "ગ્": 845,
      "બાળકો": 846,
      "ગાંધી": 847,
      "મૃ": 848,
      "ખાતે": 849,
      "ટ્રો": 850,
      "સ્પિટ": 851,
      "પરિવાર": 852,
      "ઓમાં": 853,
      "પડે": 854,
      "વ્યવ": 855,
      "ઘણા": 856,
      "ચાલ": 857,
      "ક્રિ": 858,
      "ધર": 859,
      "વાન": 860,
      "ચૂંટ": 861,
      "કોંગ્રેસ": 862,
      "ભે": 863,
      "મની": 864,
      "શકાય": 865,
      "હું": 866,
      "દર્દી": 867,
      "પતિ": 868,
      "મર": 869,
      "વિક": 870,
      "પ્રકાર": 871,
      "ટ્રા": 872,
      "...": 873,
      "ચૂંટણી": 874,
      "ઇન્": 875,
      "લગ્": 876,
      "આં": 877,
      "મોટી": 878,
      "બીજા": 879,
      "હોસ્પિટ": 880,
      "તં": 881,
      "સભા": 882,
      "ુંબ": 883,
      "વેશ": 884,
      "બંને": 885,
      "નિર્ણ": 886,
      "મારા": 887,
      "રાજકોટ": 888,
      "મદદ": 889,
      "અર": 890,
      "અનેક": 891,
      "કાર્": 892,
      "જેટ": 893,
      "અહીં": 894,
      "નેતા": 895,
      "બેઠ": 896,
      "રહેશે": 897,
      "સામાન્ય": 898,
      "ન્ટર": 899,
      "પ્રિ": 900,
      "ફળ": 901,
      "નોંધા": 902,
      "તમાં": 903,
      "મણ": 904,
      "જીવન": 905,
      "ખેડૂ": 906,
      "એટલે": 907,
      "સાય": 908,
      "ઘણી": 909,
      "વતા": 910,
      "તાલુ": 911,
      "બેન": 912,
      "ઓએ": 913,
      "ખરી": 914,
      "ચારી": 915,
      "મહે": 916,
      "વૃ": 917,
      "વાનું": 918,
      "્યૂ": 919,
      "દેખા": 920,
      "પટેલ": 921,
      "ઓના": 922,
      "ગઈ": 923,
      "વણી": 924,
      "મંદિ": 925,
      "લઈને": 926,
      "આઈ": 927,
      "ગયો": 928,
      "લઇ": 929,
      "પોલીસે": 930,
      "ભારતીય": 931,
      "તમારી": 932,
      "પૂર્વ": 933,
      "નિર્ણય": 934,
      "ંદ": 935,
      "બીજી": 936,
      "કર્મ": 937,
      "આપે": 938,
      "ચુ": 939,
      "મક": 940,
      "દૂર": 941,
      "પત્": 942,
      "માંગ": 943,
      "કરશે": 944,
      "સ્વા": 945,
      "દેશમાં": 946,
      "વરસાદ": 947,
      "અલગ": 948,
      "ચર": 949,
      "રાંત": 950,
      "ક્ષે": 951,
      "આવેલા": 952,
      "પસં": 953,
      "નારા": 954,
      "તાલુકા": 955,
      "એન": 956,
      "હન": 957,
      "મામ": 958,
      "દાન": 959,
      "મુજબ": 960,
      "ષ્ટ": 961,
      "ઉપરાંત": 962,
      "ફિલ્મ": 963,
      "પસંદ": 964,
      "ારા": 965,
      "ફ્ર": 966,
      "વિધ": 967,
      "પૈ": 968,
      "પ્રધાન": 969,
      "જોકે": 970,
      "ીય": 971,
      "સારવાર": 972,
      "લાગ": 973,
      "કોઇ": 974,
      "લેખ": 975,
      "યન": 976,
      "રામ": 977,
      "ડિયો": 978,
      "ધારા": 979,
      "જરૂરી": 980,
      "ચના": 981,
      "અભિ": 982,
      "ડ્ર": 983,
      "મનો": 984,
      "લગા": 985,
      "નિયા": 986,
      "લોકોને": 987,
      "થયું": 988,
      "ભો": 989,
      "ળે": 990,
      "જીવ": 991,
      "લર": 992,
      "કૃ": 993,
      "મુંબ": 994,
      "જાહેર": 995,
      "મંદિર": 996,
      "ચર્": 997,
      "ક્ટર": 998,
      "મહત્વ": 999,
      "સારી": 1000,
      "કરતાં": 1001,
      "સ્તુ": 1002,
      "દર્શન": 1003,
      "ઉમે": 1004,
      "કમાં": 1005,
      "પડી": 1006,
      "રંગ": 1007,
      "વાઈ": 1008,
      "ર્મ": 1009,
      "આગા": 1010,
      "કમ": 1011,
      "ગં": 1012,
      "તક": 1013,
      "પક્ષ": 1014,
      "કોર્ટ": 1015,
      "સમયે": 1016,
      "તંત્ર": 1017,
      "છતાં": 1018,
      "માહિ": 1019,
      "છેલ્લા": 1020,
      "નને": 1021,
      "ત્વ": 1022,
      "સેવા": 1023,
      "વધારે": 1024,
      "શિયલ": 1025,
      "અમેરિ": 1026,
      "દવા": 1027,
      "જેમ": 1028,
      "કર્મચારી": 1029,
      "તેનો": 1030,
      "સ્ટા": 1031,
      "સંખ્યા": 1032,
      "શાળા": 1033,
      "મહિના": 1034,
      "એક્": 1035,
      "નવ": 1036,
      "બધા": 1037,
      "સ્યા": 1038,
      "જ્ઞ": 1039,
      "લાઇ": 1040,
      "ંકા": 1041,
      "વાહી": 1042,
      "આગળ": 1043,
      "માહિતી": 1044,
      "અસર": 1045,
      "જગ્યા": 1046,
      "સત": 1047,
      "વિવિધ": 1048,
      "જેવા": 1049,
      "લેવા": 1050,
      "બાબ": 1051,
      "ક્રિયા": 1052,
      "યુવ": 1053,
      "કલાક": 1054,
      "પરી": 1055,
      "વિભાગ": 1056,
      "પ્ત": 1057,
      "લગભગ": 1058,
      "તૈયાર": 1059,
      "લગ્ન": 1060,
      "જ્યાં": 1061,
      "તેથી": 1062,
      "યેલ": 1063,
      "પ્લા": 1064,
      "છીએ": 1065,
      "લન": 1066,
      "કોર્": 1067,
      "ઘરે": 1068,
      "લની": 1069,
      "ૂટ": 1070,
      "રોડ": 1071,
      "વ્યો": 1072,
      "માતા": 1073,
      "જેના": 1074,
      "લ્ડ": 1075,
      "છું": 1076,
      "ઝિ": 1077,
      "ખાન": 1078,
      "બનાવી": 1079,
      "ગ્રામ": 1080,
      "અંત": 1081,
      "આમ": 1082,
      "હશે": 1083,
      "નાગ": 1084,
      "વિશ્વ": 1085,
      "ઓફ": 1086,
      "દરા": 1087,
      "સમસ્યા": 1088,
      "ચર્ચા": 1089,
      "ધુ": 1090,
      "રલ": 1091,
      "શરી": 1092,
      "જેથી": 1093,
      "મિક": 1094,
      "પૂર": 1095,
      "વધી": 1096,
      "પાડ": 1097,
      "પાંચ": 1098,
      "વિસ્તારમાં": 1099,
      "મન": 1100,
      "પાકિ": 1101,
      "આવેલ": 1102,
      "સ્ટો": 1103,
      "મ્બર": 1104,
      "દિવસે": 1105,
      "ગ્ય": 1106,
      "ઘટા": 1107,
      "ધન": 1108,
      "સમગ્ર": 1109,
      "ખેડૂતો": 1110,
      "પાકિસ્તા": 1111,
      "અપ": 1112,
      "ગણ": 1113,
      "બને": 1114,
      "નાના": 1115,
      "લાભ": 1116,
      "આવા": 1117,
      "પર્": 1118,
      "પત્ર": 1119,
      "વૈ": 1120,
      "કાસ": 1121,
      "કારો": 1122,
      "આપણે": 1123,
      "ભારે": 1124,
      "મીડિયા": 1125,
      "ટ્રી": 1126,
      "ગ્રી": 1127,
      "સરકારે": 1128,
      "ટિવ": 1129,
      "સતત": 1130,
      "15": 1131,
      "વાના": 1132,
      "વીડિયો": 1133,
      "સિક": 1134,
      "યુનિ": 1135,
      "પાર્ટી": 1136,
      "ઉલ્": 1137,
      "ઠળ": 1138,
      "હેઠળ": 1139,
      "નર": 1140,
      "તેમાં": 1141,
      "જીત": 1142,
      "ચાલી": 1143,
      "શરીર": 1144,
      "યોગ્ય": 1145,
      "શક્ય": 1146,
      "ઈન્": 1147,
      "તમ": 1148,
      "લાલ": 1149,
      "જોડા": 1150,
      "મળશે": 1151,
      "વખત": 1152,
      "ંમત": 1153,
      "એલ": 1154,
      "એવા": 1155,
      "જીક": 1156,
      "વધારો": 1157,
      "કીય": 1158,
      "એન્": 1159,
      "કલા": 1160,
      "સ્વી": 1161,
      "શેર": 1162,
      "ફરિયા": 1163,
      "વસ્તુ": 1164,
      "તેણે": 1165,
      "નોંધ": 1166,
      "ધું": 1167,
      "સંબંધ": 1168,
      "હતાં": 1169,
      "પડશે": 1170,
      "ગુજરાતમાં": 1171,
      "સભ્ય": 1172,
      "આયો": 1173,
      "કત": 1174,
      "કરણ": 1175,
      "ઠી": 1176,
      "પ્રમુખ": 1177,
      "રોધ": 1178,
      "આરોપી": 1179,
      "આધાર": 1180,
      "વત": 1181,
      "વલ": 1182,
      "હર": 1183,
      "હજાર": 1184,
      "નીય": 1185,
      "તેવી": 1186,
      "સ્ટ્રે": 1187,
      "મોર": 1188,
      "યોજના": 1189,
      "બનાવ": 1190,
      "મુખ્યમંત્રી": 1191,
      "પહોંચી": 1192,
      "એર": 1193,
      "પાર": 1194,
      "પરા": 1195,
      "રજૂ": 1196,
      "ષણ": 1197,
      "આવતા": 1198,
      "મુદ્": 1199,
      "ગીરી": 1200,
      "રાખી": 1201,
      "કાર્યવાહી": 1202,
      "આજ": 1203,
      "ઉં": 1204,
      "દાખ": 1205,
      "ગામ": 1206,
      "લિક": 1207,
      "હોવાનું": 1208,
      "એવી": 1209,
      "એવું": 1210,
      "નીક": 1211,
      "કાં": 1212,
      "લ્સ": 1213,
      "ત્તા": 1214,
      "દેશના": 1215,
      "સ્ટેશન": 1216,
      "12": 1217,
      "ખર્": 1218,
      "મતા": 1219,
      "સાન": 1220,
      "મેચ": 1221,
      "પાછ": 1222,
      "કાર્યક્ર": 1223,
      "અનુસાર": 1224,
      "ઉત્પા": 1225,
      "ટ્સ": 1226,
      "ટિંગ": 1227,
      "જ્ઞા": 1228,
      "કસ": 1229,
      "કને": 1230,
      "વાલ": 1231,
      "લાગે": 1232,
      "ટેસ્ટ": 1233,
      "જેને": 1234,
      "ફોન": 1235,
      "000": 1236,
      "હુમ": 1237,
      "અભ્યા": 1238,
      "અમેરિકા": 1239,
      "11": 1240,
      "ક્યારે": 1241,
      "કેવી": 1242,
      "શરૂઆત": 1243,
      "ઉદ": 1244,
      "પ્રયા": 1245,
      "ફેર": 1246,
      "સુરત": 1247,
      "50": 1248,
      "અગા": 1249,
      "પડા": 1250,
      "મહાર": 1251,
      "સલા": 1252,
      "નીચે": 1253,
      "યેલી": 1254,
      "ટમાં": 1255,
      "સહ": 1256,
      "પ્રમાણ": 1257,
      "જાણી": 1258,
      "વખતે": 1259,
      "ઢી": 1260,
      "થ્": 1261,
      "થતા": 1262,
      "નજીક": 1263,
      "સદ": 1264,
      "કાળ": 1265,
      "ટીમ": 1266,
      "મિત": 1267,
      "પરિણા": 1268,
      "વાયરસ": 1269,
      "માર્ગ": 1270,
      "નુક": 1271,
      "આરોગ્ય": 1272,
      "મહારા": 1273,
      "બલ": 1274,
      "વાળા": 1275,
      "સ્મા": 1276,
      "કોને": 1277,
      "બાજુ": 1278,
      "સંપૂર્ણ": 1279,
      "અત્યાર": 1280,
      "કની": 1281,
      "વુ": 1282,
      "૧૦": 1283,
      "જેવી": 1284,
      "કરવાનો": 1285,
      "વર્ષે": 1286,
      "સમાજ": 1287,
      "હોવાથી": 1288,
      "અગાઉ": 1289,
      "અર્": 1290,
      "ધે": 1291,
      "પં": 1292,
      "નાણા": 1293,
      "વિષ": 1294,
      "જામ": 1295,
      "ડાઉ": 1296,
      "મુલા": 1297,
      "ષ્ઠ": 1298,
      "પકડ": 1299,
      "આગામી": 1300,
      "ગંભી": 1301,
      "અભ્યાસ": 1302,
      "ઓળ": 1303,
      "૧૯": 1304,
      "માણે": 1305,
      "કાન": 1306,
      "મુંબઈ": 1307,
      "14": 1308,
      "ઝી": 1309,
      "બજાર": 1310,
      "વીર": 1311,
      "જાહે": 1312,
      "ંગા": 1313,
      "સોશિયલ": 1314,
      "કામગીરી": 1315,
      "કડ": 1316,
      "પદ": 1317,
      "વડો": 1318,
      "ડીને": 1319,
      "બેન્": 1320,
      "પત્ની": 1321,
      "ગંભીર": 1322,
      "આંક": 1323,
      "લિયા": 1324,
      "શર": 1325,
      "વિચાર": 1326,
      "સરકારી": 1327,
      "સ્થિત": 1328,
      "બનાવવા": 1329,
      "સારા": 1330,
      "અનુભ": 1331,
      "ખ્": 1332,
      "જઈ": 1333,
      "કાઉ": 1334,
      "રોકા": 1335,
      "જોઇ": 1336,
      "પિતા": 1337,
      "30": 1338,
      "નક્": 1339,
      "માલ": 1340,
      "રોગ": 1341,
      "મુક": 1342,
      "મીન": 1343,
      "ત્મક": 1344,
      "લિકા": 1345,
      "પહેલાં": 1346,
      "સમયમાં": 1347,
      "ચૂક": 1348,
      "ઇલ": 1349,
      "જશે": 1350,
      "ટન": 1351,
      "ધ્": 1352,
      "પાટી": 1353,
      "રેન્દ્ર": 1354,
      "શોધ": 1355,
      "નંબર": 1356,
      "ફરિયાદ": 1357,
      "ગયું": 1358,
      "ભુ": 1359,
      "લં": 1360,
      "હાર્": 1361,
      "પ્રમાણે": 1362,
      "લીધો": 1363,
      "સિટી": 1364,
      "રહેતા": 1365,
      "આપવા": 1366,
      "શ્કે": 1367,
      "કેટલી": 1368,
      "બાર": 1369,
      "વગર": 1370,
      "સફળ": 1371,
      "વાસી": 1372,
      "નેટ": 1373,
      "સ્ત્રી": 1374,
      "પરે": 1375,
      "રિપોર્ટ": 1376,
      "ઉલ્લેખ": 1377,
      "18": 1378,
      "24": 1379,
      "અવ": 1380,
      "એન્ડ": 1381,
      "ગૃ": 1382,
      "ગર્": 1383,
      "સંસ્થા": 1384,
      "રહ્યાં": 1385,
      "પ્લે": 1386,
      "શ્રે": 1387,
      "થોડા": 1388,
      "મુલાકા": 1389,
      "રાહુ": 1390,
      "વિજય": 1391,
      "ત્રિ": 1392,
      "ત્રે": 1393,
      "બાઈ": 1394,
      "જોઈ": 1395,
      "શાન": 1396,
      "રહેલા": 1397,
      "દુનિયા": 1398,
      "પૈસા": 1399,
      "કના": 1400,
      "ડુ": 1401,
      "ધરી": 1402,
      "બહે": 1403,
      "દાય": 1404,
      "હાલમાં": 1405,
      "મ્પ": 1406,
      "સમાવેશ": 1407,
      "જાહેરાત": 1408,
      "વડોદરા": 1409,
      "ઝો": 1410,
      "સપ્": 1411,
      "સામ": 1412,
      "વિડ": 1413,
      "વિકાસ": 1414,
      "પાલિકા": 1415,
      "ચાલુ": 1416,
      "જિલ્લામાં": 1417,
      "સ્કૂ": 1418,
      "પાછળ": 1419,
      "નક્કી": 1420,
      "ણો": 1421,
      "દારો": 1422,
      "યમ": 1423,
      "શિયા": 1424,
      "વાથી": 1425,
      "યાદ": 1426,
      "પેટ્રો": 1427,
      "રિક": 1428,
      "કાર્ડ": 1429,
      "જતા": 1430,
      "લાય": 1431,
      "લેન્ડ": 1432,
      "શાહ": 1433,
      "ચ્છ": 1434,
      "જયારે": 1435,
      "બ્રા": 1436,
      "ંતિ": 1437,
      "કૂ": 1438,
      "જનો": 1439,
      "સના": 1440,
      "વિરોધ": 1441,
      "કિંગ": 1442,
      "પુરા": 1443,
      "ઝડપી": 1444,
      "કમિ": 1445,
      "નક": 1446,
      "મધ્ય": 1447,
      "વહે": 1448,
      "હં": 1449,
      "હજુ": 1450,
      "સ્પે": 1451,
      "સાઈ": 1452,
      "પ્રક્રિયા": 1453,
      "કિંમત": 1454,
      "ભારતમાં": 1455,
      "ટલ": 1456,
      "વાઇ": 1457,
      "પોસ્ટ": 1458,
      "યોજા": 1459,
      "દેવ": 1460,
      "પાસેથી": 1461,
      "17": 1462,
      "ખરે": 1463,
      "જરી": 1464,
      "ડું": 1465,
      "તન": 1466,
      "સમાં": 1467,
      "ૂડ": 1468,
      "વાળ": 1469,
      "મંડ": 1470,
      "મોરબી": 1471,
      "ઓનો": 1472,
      "ઓછા": 1473,
      "ચં": 1474,
      "ટુ": 1475,
      "નેશન": 1476,
      "પ્રી": 1477,
      "પ્રશ્": 1478,
      "લ્પ": 1479,
      "સરળ": 1480,
      "કરવાનું": 1481,
      "ચલા": 1482,
      "ટૂ": 1483,
      "લખ": 1484,
      "કાશ": 1485,
      "ક્સિ": 1486,
      "મેન": 1487,
      "મુશ્કે": 1488,
      "સુધીમાં": 1489,
      "ફાય": 1490,
      "કોરોનાના": 1491,
      "વિસ્તારો": 1492,
      "દૂધ": 1493,
      "પગલે": 1494,
      "આયોજન": 1495,
      "સાઇ": 1496,
      "મિનિ": 1497,
      "સભ્યો": 1498,
      "જન્મ": 1499,
      "રોકાણ": 1500,
      "ઠવા": 1501,
      "કોન્": 1502,
      "ક્શન": 1503,
      "સેના": 1504,
      "દીધી": 1505,
      "ત્યુ": 1506,
      "જવાબદ": 1507,
      "મામલે": 1508,
      "ar": 1509,
      "આંત": 1510,
      "એફ": 1511,
      "કહી": 1512,
      "તસ": 1513,
      "લક્ષ": 1514,
      "સું": 1515,
      "નીતિ": 1516,
      "નિષ્": 1517,
      "સિવાય": 1518,
      "ન્ડિયા": 1519,
      "મૃત્યુ": 1520,
      "અરજી": 1521,
      "નહો": 1522,
      "યત": 1523,
      "કરવું": 1524,
      "વિધા": 1525,
      "પોઝિ": 1526,
      "ગ્રાહ": 1527,
      "રાષ્ટ્રીય": 1528,
      "દાખલ": 1529,
      "ખરા": 1530,
      "ધારે": 1531,
      "મંગ": 1532,
      "સવારે": 1533,
      "૧૫": 1534,
      "આપ્યો": 1535,
      "જૂરી": 1536,
      "સ્પષ્ટ": 1537,
      "ઓફિ": 1538,
      "ખર": 1539,
      "ડૉ": 1540,
      "થતાં": 1541,
      "નનો": 1542,
      "સલ": 1543,
      "હતુ": 1544,
      "રોમાં": 1545,
      "દેશો": 1546,
      "શિવ": 1547,
      "મ્બ": 1548,
      "ચોક્": 1549,
      "જવાબ": 1550,
      "નંદ": 1551,
      "અના": 1552,
      "અર્થ": 1553,
      "ઓછી": 1554,
      "કટ": 1555,
      "કનો": 1556,
      "ન્યા": 1557,
      "લય": 1558,
      "શ્ય": 1559,
      "ર્ન": 1560,
      "વેલ": 1561,
      "હાઈ": 1562,
      "પરિસ્થિતિ": 1563,
      "બ્રિ": 1564,
      "રાહુલ": 1565,
      "ંભ": 1566,
      "કલે": 1567,
      "ઝે": 1568,
      "૧૧": 1569,
      "વાહ": 1570,
      "હત્યા": 1571,
      "દેવામાં": 1572,
      "ચ્ચ": 1573,
      "જણાવી": 1574,
      "રાજ્યમાં": 1575,
      "કમા": 1576,
      "ચાર્": 1577,
      "ડવા": 1578,
      "ફક્ત": 1579,
      "મ્યુ": 1580,
      "રમ": 1581,
      "૧૨": 1582,
      "પણે": 1583,
      "બાકી": 1584,
      "પોરે": 1585,
      "સિસ્ટ": 1586,
      "કોઈપણ": 1587,
      "ઉત્તર": 1588,
      "મેળવી": 1589,
      "ઉદ્યો": 1590,
      "હવા": 1591,
      "કરવી": 1592,
      "તેનું": 1593,
      "વિના": 1594,
      "વિરુ": 1595,
      "લીધા": 1596,
      "ભાગે": 1597,
      "કરીએ": 1598,
      "હિં": 1599,
      "દર્શા": 1600,
      "ઝડપ": 1601,
      "પ્રયાસ": 1602,
      "21": 1603,
      "ંકી": 1604,
      "અલ": 1605,
      "તારી": 1606,
      "કરવો": 1607,
      "નિવે": 1608,
      "બાં": 1609,
      "લિંગ": 1610,
      "ગેરે": 1611,
      "કાયદા": 1612,
      "દારૂ": 1613,
      "ભાજપના": 1614,
      "ખર્ચ": 1615,
      "200": 1616,
      "ટું": 1617,
      "ન્યુ": 1618,
      "રન": 1619,
      "સન": 1620,
      "યાત્રા": 1621,
      "પાત્ર": 1622,
      "મળ્યો": 1623,
      "વોર્ડ": 1624,
      "શિક્ષણ": 1625,
      "ફોટો": 1626,
      "ભારતના": 1627,
      "શહેરમાં": 1628,
      "કોર્ટે": 1629,
      "ચોક્કસ": 1630,
      "પંચા": 1631,
      "રના": 1632,
      "સવા": 1633,
      "કોલે": 1634,
      "હોઈ": 1635,
      "લોજી": 1636,
      "નિંગ": 1637,
      "ડાય": 1638,
      "સુવિધા": 1639,
      "ક્રે": 1640,
      "સ્થાપ": 1641,
      "પ્રાપ્ત": 1642,
      "ભૂમિ": 1643,
      "ક્રિકેટ": 1644,
      "અપા": 1645,
      "વ્યું": 1646,
      "શબ્": 1647,
      "૧૮": 1648,
      "કરતી": 1649,
      "પરથી": 1650,
      "પાલ": 1651,
      "લેવામાં": 1652,
      "હાઇ": 1653,
      "સિંગ": 1654,
      "તમારે": 1655,
      "તરફથી": 1656,
      "વ્યવસ્થા": 1657,
      "16": 1658,
      "આરી": 1659,
      "ઉન્ડ": 1660,
      "પારી": 1661,
      "વતી": 1662,
      "વાંચ": 1663,
      "વિદેશ": 1664,
      "ન્ન": 1665,
      "મેશા": 1666,
      "રેલી": 1667,
      "કુમાર": 1668,
      "ચ્છા": 1669,
      "ફરજ": 1670,
      "ખુબ": 1671,
      "ધ્યાન": 1672,
      "વડાપ્રધાન": 1673,
      "ખરીદી": 1674,
      "લઇને": 1675,
      "જામનગર": 1676,
      "in": 1677,
      "અક": 1678,
      "અધ્ય": 1679,
      "આર્થ": 1680,
      "નલ": 1681,
      "ન્યૂ": 1682,
      "સ્સા": 1683,
      "નોકરી": 1684,
      "મળ્યા": 1685,
      "જાણવા": 1686,
      "ડ્રા": 1687,
      "ફેરફ": 1688,
      "ગાર": 1689,
      "ઠો": 1690,
      "વળ": 1691,
      "વવાની": 1692,
      "કેશ": 1693,
      "પ્રવેશ": 1694,
      "લીધી": 1695,
      "હોવાની": 1696,
      "ક્ષિ": 1697,
      "જુદા": 1698,
      "વરણ": 1699,
      "ચીન": 1700,
      "ધરપકડ": 1701,
      "બેઠક": 1702,
      "પ્રિય": 1703,
      "ક્ષેત્ર": 1704,
      "ંતા": 1705,
      "આધારે": 1706,
      "થતી": 1707,
      "મતી": 1708,
      "રકમ": 1709,
      "પ્રદેશ": 1710,
      "ગામના": 1711,
      "ક્રો": 1712,
      "લોકોની": 1713,
      "ગેર": 1714,
      "રાજ્યના": 1715,
      "પ્રેમ": 1716,
      "યુનિવર્": 1717,
      "હાર્દિ": 1718,
      "ઓવર": 1719,
      "ખબર": 1720,
      "ગઇ": 1721,
      "વાર્": 1722,
      "નાની": 1723,
      "રાજી": 1724,
      "લાગી": 1725,
      "સાવ": 1726,
      "સમિ": 1727,
      "ગુરુ": 1728,
      "લોકોના": 1729,
      "વર્ષની": 1730,
      "ફાઈ": 1731,
      "તૈયારી": 1732,
      "હોસ્પિટલમાં": 1733,
      "ડાઉન": 1734,
      "મુલાકાત": 1735,
      "હંમેશા": 1736,
      "સ્તી": 1737,
      "કેમ": 1738,
      "સંક્ર": 1739,
      "બોલ": 1740,
      "વિરુદ્ધ": 1741,
      "આર્થિક": 1742,
      "બસ": 1743,
      "બતા": 1744,
      "બધી": 1745,
      "લાઇન": 1746,
      "વીને": 1747,
      "હાજર": 1748,
      "બેંક": 1749,
      "રાજય": 1750,
      "અમદાવાદમાં": 1751,
      "ફરીથી": 1752,
      "મહારાષ્ટ્ર": 1753,
      "40": 1754,
      "ક્યાં": 1755,
      "જંગ": 1756,
      "તને": 1757,
      "પંચ": 1758,
      "બચા": 1759,
      "ષા": 1760,
      "મેં": 1761,
      "જોખ": 1762,
      "સ્ટિ": 1763,
      "ગ્રહ": 1764,
      "ભાગના": 1765,
      "જોઇએ": 1766,
      "અટ": 1767,
      "આઉ": 1768,
      "ઘો": 1769,
      "જમાં": 1770,
      "નરેન્દ્ર": 1771,
      "મરા": 1772,
      "રવિ": 1773,
      "વડ": 1774,
      "માગ": 1775,
      "ગામમાં": 1776,
      "ડિંગ": 1777,
      "સમાચાર": 1778,
      "અંદર": 1779,
      "ધારાસભ્ય": 1780,
      "સુંદર": 1781,
      "er": 1782,
      "અઠવા": 1783,
      "ગરી": 1784,
      "થયેલા": 1785,
      "ફુ": 1786,
      "રની": 1787,
      "વજન": 1788,
      "વગેરે": 1789,
      "શૈ": 1790,
      "સત્તા": 1791,
      "વાડી": 1792,
      "નાખ": 1793,
      "સામા": 1794,
      "ટેડ": 1795,
      "ડીઝ": 1796,
      "શ્વર": 1797,
      "ચુક": 1798,
      "કેટલીક": 1799,
      "અફ": 1800,
      "કૌ": 1801,
      "તાર": 1802,
      "હરણ": 1803,
      "વેપારી": 1804,
      "ટીવી": 1805,
      "આવેલી": 1806,
      "આપતા": 1807,
      "લાંબા": 1808,
      "વિસ્તારોમાં": 1809,
      "13": 1810,
      "at": 1811,
      "અગ્ર": 1812,
      "ઉદા": 1813,
      "એક્સ": 1814,
      "ગઢ": 1815,
      "જમા": 1816,
      "જની": 1817,
      "પલ": 1818,
      "ફૂ": 1819,
      "લબ્": 1820,
      "શહે": 1821,
      "૧૭": 1822,
      "વાળી": 1823,
      "વાહન": 1824,
      "રાહત": 1825,
      "કોવિડ": 1826,
      "મીટર": 1827,
      "લોકોએ": 1828,
      "બોર્ડ": 1829,
      "દિવસો": 1830,
      "સ્થાનિક": 1831,
      "ભાવના": 1832,
      "સાંભ": 1833,
      "સુરક્ષા": 1834,
      "વિદ્યાર્થીઓ": 1835,
      "તાલુકાના": 1836,
      "ખાનગી": 1837,
      "ઘે": 1838,
      "નહી": 1839,
      "પસાર": 1840,
      "રાખે": 1841,
      "કોણ": 1842,
      "તિહા": 1843,
      "સંપર્": 1844,
      "ટાઇ": 1845,
      "વર્ષથી": 1846,
      "કંઈ": 1847,
      "ચોરી": 1848,
      "સાંજે": 1849,
      "સ્પર્": 1850,
      "ગાંધીનગર": 1851,
      "નુકસાન": 1852,
      "ખરાબ": 1853,
      "મંગળ": 1854,
      "an": 1855,
      "ઇન્ટર": 1856,
      "ઘટ": 1857,
      "ડમાં": 1858,
      "૩૦": 1859,
      "વાગ્યા": 1860,
      "સાત": 1861,
      "વિધાન": 1862,
      "કાલે": 1863,
      "કારા": 1864,
      "રૂપે": 1865,
      "કિત": 1866,
      "ન્ટિ": 1867,
      "પ્રાથ": 1868,
      "ઉલ્લેખનીય": 1869,
      "ઝડપથી": 1870,
      "અધ્યક્ષ": 1871,
      "25": 1872,
      "ડની": 1873,
      "બૂ": 1874,
      "સૈ": 1875,
      "તાની": 1876,
      "પાલન": 1877,
      "રોક": 1878,
      "મોટો": 1879,
      "શાંત": 1880,
      "ગુણ": 1881,
      "ક્રા": 1882,
      "કિલો": 1883,
      "મંત્રા": 1884,
      "સ્થાન": 1885,
      "ગુજરાતના": 1886,
      "પાર્ટ": 1887,
      "લાઈન": 1888,
      "ધરાવે": 1889,
      "જન્સી": 1890,
      "જેટલા": 1891,
      "મિનિટ": 1892,
      "પોઝિટિવ": 1893,
      "આઉટ": 1894,
      "લબ્ધ": 1895,
      "પ્રાથમિક": 1896,
      "કન્": 1897,
      "જિક": 1898,
      "ણું": 1899,
      "ભરા": 1900,
      "રિયા": 1901,
      "રસી": 1902,
      "લક્ષણ": 1903,
      "કરનાર": 1904,
      "સ્ટી": 1905,
      "સ્ટ્રી": 1906,
      "પ્રદર્શન": 1907,
      "ડીયા": 1908,
      "ડિઝા": 1909,
      "મંજૂરી": 1910,
      "ંચી": 1911,
      "જિલ્લાના": 1912,
      "ભૂત": 1913,
      "ત્યારબાદ": 1914,
      "નોંધાયા": 1915,
      "),": 1916,
      "અદા": 1917,
      "ગણા": 1918,
      "ચિત": 1919,
      "ઝન": 1920,
      "ઠે": 1921,
      "દબા": 1922,
      "દક્ષિ": 1923,
      "નહિ": 1924,
      "વ્": 1925,
      "શક્તિ": 1926,
      "૧૪": 1927,
      "વાતા": 1928,
      "કેશન": 1929,
      "કોની": 1930,
      "કાઢ": 1931,
      "લેટ": 1932,
      "સેન્": 1933,
      "યુક્ત": 1934,
      "શ્મી": 1935,
      "બનાવવામાં": 1936,
      "સૌરાષ્ટ્ર": 1937,
      "ચિંતા": 1938,
      "પહોંચા": 1939,
      "જાણકારી": 1940,
      "વિશ્વાસ": 1941,
      "મૃત": 1942,
      "હોસ્પિટલ": 1943,
      "ઘટાડો": 1944,
      "સ્ટ્રેલિયા": 1945,
      "પેટ્રોલ": 1946,
      "યુનિવર્સિટી": 1947,
      "એચ": 1948,
      "ઓન": 1949,
      "કટર": 1950,
      "થિ": 1951,
      "ફ્રે": 1952,
      "કર્યુ": 1953,
      "તાને": 1954,
      "પ્રસંગ": 1955,
      "જાળ": 1956,
      "ટીના": 1957,
      "દ્ધિ": 1958,
      "સમર્થ": 1959,
      "ટાઈ": 1960,
      "ધામ": 1961,
      "વારં": 1962,
      "સામેલ": 1963,
      "માણસ": 1964,
      "વિશેષ": 1965,
      "સહિતના": 1966,
      "વ્યવસાય": 1967,
      "પ્રકારની": 1968,
      "ંડી": 1969,
      "બહુ": 1970,
      "મજબ": 1971,
      "લૂ": 1972,
      "શં": 1973,
      "શનિ": 1974,
      "લાડી": 1975,
      "રેલ": 1976,
      "લ્લી": 1977,
      "ડામાં": 1978,
      "દાવો": 1979,
      "દ્ધા": 1980,
      "ગાળા": 1981,
      "પુત્ર": 1982,
      "શિક્ષ": 1983,
      "રાખવામાં": 1984,
      "દિવસમાં": 1985,
      "શુક્ર": 1986,
      "સ્વાસ્થ": 1987,
      "ઉત્પાદન": 1988,
      "વિધાનસભા": 1989,
      "દક્ષિણ": 1990,
      "મજબૂ": 1991,
      "આસ": 1992,
      "ઉજ": 1993,
      "છુ": 1994,
      "જમીન": 1995,
      "ડવામાં": 1996,
      "થવાની": 1997,
      "ફટ": 1998,
      "બ્રે": 1999
    },
    "merges": [
      [
        "મ",
        "ા"
      ],
      [
        "વ",
        "ા"
      ],
      [
        "ન",
        "ા"
      ],
      [
        "્",
        "ય"
      ],
      [
        "ન",
        "ે"
      ],
      [
        "મા",
        "ં"
      ],
      [
        "્",
        "ર"
      ],
      [
        "ા",
        "ર"
      ],
      [
        "છ",
        "ે"
      ],
      [
        "ન",
        "ી"
      ],
      [
        "ક",
        "ર"
      ],
      [
        "ુ",
        "ં"
      ],
      [
        "ત",
        "ે"
      ],
      [
        "ત",
        "ા"
      ],
      [
        "ર",
        "ા"
      ],
      [
        "સ",
        "્"
      ],
      [
        "ર",
        "્"
      ],
      [
        "ક",
        "ે"
      ],
      [
        "લ",
        "ા"
      ],
      [
        "થ",
        "ી"
      ],
      [
        "અ",
        "ને"
      ],
      [
        "ક",
        "ો"
      ],
      [
        "સ",
        "ા"
      ],
      [
        "ન",
        "ો"
      ],
      [
        "વ",
        "િ"
      ],
      [
        "ક",
        "ા"
      ],
      [
        "ન",
        "્"
      ],
      [
        "ર",
        "ી"
      ],
      [
        "ક",
        "્"
      ],
      [
        "પ",
        "્ર"
      ],
      [
        "ટ",
        "ે"
      ],
      [
        "્ય",
        "ા"
      ],
      [
        "ય",
        "ા"
      ],
      [
        "પ",
        "ર"
      ],
      [
        "વ",
        "ી"
      ],
      [
        "હ",
        "ત"
      ],
      [
        "મ",
        "ે"
      ],
      [
        "હ",
        "ે"
      ],
      [
        "ક",
        "ાર"
      ],
      [
        "પ",
        "ા"
      ],
      [
        "વ",
        "ે"
      ],
      [
        "લ",
        "ી"
      ],
      [
        "જ",
        "ે"
      ],
      [
        "પ",
        "ણ"
      ],
      [
        "ર",
        "ો"
      ],
      [
        "ભ",
        "ા"
      ],
      [
        "જ",
        "ા"
      ],
      [
        "ત",
        "્ર"
      ],
      [
        "હ",
        "ો"
      ],
      [
        "લ",
        "ો"
      ],
      [
        "ં",
        "ગ"
      ],
      [
        "મા",
        "ટે"
      ],
      [
        "ર",
        "ે"
      ],
      [
        "લ",
        "ે"
      ],
      [
        "ન",
        "િ"
      ],
      [
        "શ",
        "ે"
      ],
      [
        "કર",
        "ી"
      ],
      [
        "બ",
        "ા"
      ],
      [
        "પ",
        "ો"
      ],
      [
        "વા",
        "માં"
      ],
      [
        "ત",
        "ો"
      ],
      [
        "જ",
        "ો"
      ],
      [
        "ન",
        "ું"
      ],
      [
        "લ",
        "્"
      ],
      [
        "મ",
        "ો"
      ],
      [
        "એ",
        "ક"
      ],
      [
        "ત",
        "િ"
      ],
      [
        "ટ",
        "ી"
      ],
      [
        "ય",
        "ો"
      ],
      [
        "હ",
        "ી"
      ],
      [
        "જ",
        "ી"
      ],
      [
        "્ય",
        "ો"
      ],
      [
        "ત",
        "ી"
      ],
      [
        "સ",
        "ે"
      ],
      [
        "્ય",
        "ું"
      ],
      [
        "સ",
        "ં"
      ],
      [
        "િ",
        "યા"
      ],
      [
        "ડ",
        "ા"
      ],
      [
        "દ",
        "ા"
      ],
      [
        "સ",
        "ુ"
      ],
      [
        "દ",
        "ે"
      ],
      [
        "ડ",
        "ી"
      ],
      [
        "ણ",
        "ી"
      ],
      [
        "ર",
        "ૂ"
      ],
      [
        "હ",
        "ા"
      ],
      [
        "આ",
        "વ"
      ],
      [
        "થ",
        "ે"
      ],
      [
        "બ",
        "ે"
      ],
      [
        "તે",
        "મ"
      ],
      [
        "ક્",
        "ષ"
      ],
      [
        "સ",
        "િ"
      ],
      [
        "દ",
        "ી"
      ],
      [
        "ધ",
        "ી"
      ],
      [
        "ાર",
        "ે"
      ],
      [
        "ણ",
        "ા"
      ],
      [
        "પ",
        "ી"
      ],
      [
        "સા",
        "થે"
      ],
      [
        "મ",
        "ુ"
      ],
      [
        "થ",
        "ા"
      ],
      [
        "ખ",
        "ા"
      ],
      [
        "દ",
        "્"
      ],
      [
        "દ",
        "િ"
      ],
      [
        "ગ",
        "ા"
      ],
      [
        "સ",
        "ી"
      ],
      [
        "મ",
        "ી"
      ],
      [
        "હત",
        "ી"
      ],
      [
        "ચ",
        "ા"
      ],
      [
        "ત",
        "્"
      ],
      [
        "સ",
        "ર"
      ],
      [
        "ટ",
        "્ર"
      ],
      [
        "હ",
        "િ"
      ],
      [
        "સ",
        "મ"
      ],
      [
        "વ",
        "ધ"
      ],
      [
        "ં",
        "ત"
      ],
      [
        "મ",
        "િ"
      ],
      [
        "ટ",
        "ા"
      ],
      [
        "વ",
        "ર્"
      ],
      [
        "બ",
        "ી"
      ],
      [
        "ધ",
        "ા"
      ],
      [
        "શ",
        "ા"
      ],
      [
        "ક",
        "ી"
      ],
      [
        "ણ",
        "ે"
      ],
      [
        "મ",
        "ળ"
      ],
      [
        "પ",
        "ે"
      ],
      [
        "સ",
        "ો"
      ],
      [
        "રા",
        "જ"
      ],
      [
        "લ",
        "િ"
      ],
      [
        "ર",
        "હ"
      ],
      [
        "ર",
        "િ"
      ],
      [
        "ન",
        "થી"
      ],
      [
        "હત",
        "ો"
      ],
      [
        "કર",
        "વા"
      ],
      [
        "આ",
        "વે"
      ],
      [
        "ત",
        "્ય"
      ],
      [
        "ગ",
        "ુ"
      ],
      [
        "હ",
        "તા"
      ],
      [
        "વા",
        "ર"
      ],
      [
        "ક",
        "્ર"
      ],
      [
        "શ",
        "ન"
      ],
      [
        "આ",
        "વી"
      ],
      [
        "સ્",
        "ટ"
      ],
      [
        "ાર",
        "્"
      ],
      [
        "પ",
        "ૂ"
      ],
      [
        "ગ",
        "્ર"
      ],
      [
        "ડ",
        "ે"
      ],
      [
        "ડ",
        "િ"
      ],
      [
        "ત",
        "મા"
      ],
      [
        "ય",
        "ુ"
      ],
      [
        "ર",
        "હે"
      ],
      [
        "સ્",
        "ત"
      ],
      [
        "આ",
        "પ"
      ],
      [
        "ાર",
        "ી"
      ],
      [
        "ચ",
        "ે"
      ],
      [
        "ષ",
        "્"
      ],
      [
        "લો",
        "કો"
      ],
      [
        "ક",
        "િ"
      ],
      [
        "વ",
        "ો"
      ],
      [
        "ય",
        "ે"
      ],
      [
        "પ",
        "ુ"
      ],
      [
        "ન્",
        "ટ"
      ],
      [
        "કર",
        "વામાં"
      ],
      [
        "દે",
        "શ"
      ],
      [
        "હત",
        "ું"
      ],
      [
        "મ",
        "ં"
      ],
      [
        "શ",
        "્"
      ],
      [
        "દ",
        "ર"
      ],
      [
        "મા",
        "ન"
      ],
      [
        "બ",
        "ં"
      ],
      [
        "પ",
        "્"
      ],
      [
        "હો",
        "ય"
      ],
      [
        "ડ",
        "ો"
      ],
      [
        "બ",
        "ો"
      ],
      [
        "વા",
        "રા"
      ],
      [
        "ળ",
        "ા"
      ],
      [
        "્ય",
        "ુ"
      ],
      [
        "શ",
        "િ"
      ],
      [
        "દ્",
        "વારા"
      ],
      [
        "છ",
        "ી"
      ],
      [
        "ગ",
        "ી"
      ],
      [
        "અ",
        "ન"
      ],
      [
        "ગ",
        "ર"
      ],
      [
        "ગ",
        "ે"
      ],
      [
        "ઉ",
        "પ"
      ],
      [
        "ં",
        "ચ"
      ],
      [
        "ભ",
        "ાર"
      ],
      [
        "વ",
        "્ય"
      ],
      [
        "વ",
        "ું"
      ],
      [
        "જ",
        "ુ"
      ],
      [
        "િ",
        "લ્"
      ],
      [
        "વર્",
        "ષ"
      ],
      [
        "પો",
        "લી"
      ],
      [
        "કર",
        "ે"
      ],
      [
        "કે",
        "ટ"
      ],
      [
        "તા",
        "ં"
      ],
      [
        "વ",
        "ર"
      ],
      [
        "વધ",
        "ુ"
      ],
      [
        "ન્",
        "ડ"
      ],
      [
        "સર",
        "કાર"
      ],
      [
        "દ",
        "્ર"
      ],
      [
        "્યા",
        "ં"
      ],
      [
        "ત",
        "ર"
      ],
      [
        "વા",
        "ની"
      ],
      [
        "સુ",
        "ધી"
      ],
      [
        "ફ",
        "ે"
      ],
      [
        "સ્",
        "થ"
      ],
      [
        "બા",
        "દ"
      ],
      [
        "ત્ર",
        "ી"
      ],
      [
        "ક",
        "ુ"
      ],
      [
        "િ",
        "ત"
      ],
      [
        "થ",
        "ઈ"
      ],
      [
        "ચ",
        "્"
      ],
      [
        "છ",
        "ો"
      ],
      [
        "શ",
        "કે"
      ],
      [
        "પો",
        "તા"
      ],
      [
        "મ",
        "્"
      ],
      [
        "ખ",
        "ે"
      ],
      [
        "િ",
        "ક"
      ],
      [
        "ટ",
        "ર"
      ],
      [
        "કો",
        "ઈ"
      ],
      [
        "દિ",
        "વ"
      ],
      [
        "બ",
        "ના"
      ],
      [
        "કર",
        "ો"
      ],
      [
        "પર",
        "િ"
      ],
      [
        "જ",
        "ણા"
      ],
      [
        "કા",
        "મ"
      ],
      [
        "ના",
        "ં"
      ],
      [
        "દ",
        "ુ"
      ],
      [
        "સ",
        "ાર"
      ],
      [
        "શ",
        "ો"
      ],
      [
        "ળ",
        "ી"
      ],
      [
        "ંત",
        "ુ"
      ],
      [
        "રો",
        "ના"
      ],
      [
        "પ",
        "હે"
      ],
      [
        "હી",
        "ં"
      ],
      [
        "દ",
        "ર્"
      ],
      [
        "પર",
        "ંતુ"
      ],
      [
        "રા",
        "ત"
      ],
      [
        "ત",
        "મે"
      ],
      [
        "ગ",
        "ો"
      ],
      [
        "ર",
        "હી"
      ],
      [
        "દ",
        "ો"
      ],
      [
        "ફ",
        "ા"
      ],
      [
        "કો",
        "રોના"
      ],
      [
        "જ",
        "ન"
      ],
      [
        "ાર",
        "ો"
      ],
      [
        "માં",
        "થી"
      ],
      [
        "ટ",
        "િ"
      ],
      [
        "પ",
        "િ"
      ],
      [
        "મ",
        "ને"
      ],
      [
        "ફ",
        "ો"
      ],
      [
        "થ",
        "વા"
      ],
      [
        "શ",
        "્ર"
      ],
      [
        "કર",
        "ા"
      ],
      [
        "ટ",
        "ો"
      ],
      [
        "્ય",
        "ારે"
      ],
      [
        "લ",
        "ગ"
      ],
      [
        "ત્ય",
        "ારે"
      ],
      [
        "રી",
        "તે"
      ],
      [
        "યો",
        "ગ"
      ],
      [
        "સ્",
        "થા"
      ],
      [
        "ક",
        "હ"
      ],
      [
        "પોલી",
        "સ"
      ],
      [
        "0",
        "0"
      ],
      [
        "ક",
        "ં"
      ],
      [
        "બ",
        "ર"
      ],
      [
        "ર્",
        "ટ"
      ],
      [
        "તે",
        "ના"
      ],
      [
        "ન્",
        "સ"
      ],
      [
        "વા",
        "દ"
      ],
      [
        "ન",
        "માં"
      ],
      [
        ".",
        "."
      ],
      [
        "હ",
        "ાર"
      ],
      [
        "પૂ",
        "ર્"
      ],
      [
        "વ",
        "વા"
      ],
      [
        "થા",
        "ય"
      ],
      [
        "ગુ",
        "જ"
      ],
      [
        "રા",
        "ખ"
      ],
      [
        "પ",
        "છી"
      ],
      [
        "બં",
        "ધ"
      ],
      [
        "ચ",
        "ો"
      ],
      [
        "ધ",
        "િ"
      ],
      [
        "ચ",
        "ાર"
      ],
      [
        "એ",
        "મ"
      ],
      [
        "ભા",
        "ગ"
      ],
      [
        "રહ",
        "્યા"
      ],
      [
        "હે",
        "ર"
      ],
      [
        "ચ",
        "ી"
      ],
      [
        "ફ",
        "ર"
      ],
      [
        "વા",
        "ય"
      ],
      [
        "કાર",
        "્ય"
      ],
      [
        "સમ",
        "ય"
      ],
      [
        "મુ",
        "ખ"
      ],
      [
        "ન્",
        "દ્ર"
      ],
      [
        "કહ",
        "્યું"
      ],
      [
        "સા",
        "મે"
      ],
      [
        "અ",
        "મ"
      ],
      [
        "મ",
        "ત"
      ],
      [
        "ઓ",
        "ને"
      ],
      [
        "જ",
        "ૂ"
      ],
      [
        "સ",
        "મા"
      ],
      [
        "ં",
        "ક"
      ],
      [
        "ધ",
        "ાર"
      ],
      [
        "્ર",
        "ે"
      ],
      [
        "સ",
        "ૌ"
      ],
      [
        "લા",
        "ક"
      ],
      [
        "વ",
        "ન"
      ],
      [
        "લ",
        "ુ"
      ],
      [
        "બ",
        "િ"
      ],
      [
        "લ",
        "માં"
      ],
      [
        "કાર",
        "ી"
      ],
      [
        "એ",
        "સ"
      ],
      [
        "મ",
        "હિ"
      ],
      [
        "ભા",
        "ઈ"
      ],
      [
        "જણા",
        "વ"
      ],
      [
        "મળ",
        "ી"
      ],
      [
        "જ",
        "્યારે"
      ],
      [
        "શ",
        "રૂ"
      ],
      [
        "ભાર",
        "ત"
      ],
      [
        "પ",
        "ડ"
      ],
      [
        "ગુજ",
        "રાત"
      ],
      [
        "ય",
        "ું"
      ],
      [
        "્",
        "સ"
      ],
      [
        "વા",
        "ત"
      ],
      [
        "જ",
        "વા"
      ],
      [
        "કાર",
        "ણે"
      ],
      [
        "ધ",
        "ો"
      ],
      [
        "ર",
        "ુ"
      ],
      [
        "નિ",
        "ર્"
      ],
      [
        "કા",
        "ય"
      ],
      [
        "હો",
        "વા"
      ],
      [
        "શ",
        "ી"
      ],
      [
        "હ",
        "વે"
      ],
      [
        "પ",
        "ની"
      ],
      [
        "સિ",
        "ં"
      ],
      [
        "મ",
        "ૂ"
      ],
      [
        "તે",
        "ઓ"
      ],
      [
        "ખ",
        "ો"
      ],
      [
        "બ",
        "્"
      ],
      [
        "કર",
        "્યો"
      ],
      [
        "દિવ",
        "સ"
      ],
      [
        "ક્",
        "સ"
      ],
      [
        "વા",
        "રે"
      ],
      [
        "2",
        "0"
      ],
      [
        "ભા",
        "ઇ"
      ],
      [
        "શ",
        "ક"
      ],
      [
        "ત",
        "રી"
      ],
      [
        "તે",
        "ને"
      ],
      [
        "કર",
        "્"
      ],
      [
        "ક્",
        "તિ"
      ],
      [
        "ચ",
        "ૂ"
      ],
      [
        "અ",
        "થવા"
      ],
      [
        "ન",
        "હીં"
      ],
      [
        "ટ",
        "કા"
      ],
      [
        "અ",
        "મે"
      ],
      [
        "વિ",
        "સ્ત"
      ],
      [
        "જ",
        "રૂ"
      ],
      [
        "હ",
        "ુ"
      ],
      [
        "તે",
        "ની"
      ],
      [
        "ક",
        "લ"
      ],
      [
        "પા",
        "સે"
      ],
      [
        "પ્ર",
        "ા"
      ],
      [
        "ન",
        "ગર"
      ],
      [
        "લ",
        "ઈ"
      ],
      [
        "અન",
        "ુ"
      ],
      [
        "લા",
        "ં"
      ],
      [
        "ટ્ર",
        "ે"
      ],
      [
        "ં",
        "ડ"
      ],
      [
        "બા",
        "ળ"
      ],
      [
        "રાજ",
        "્ય"
      ],
      [
        "જ",
        "ય"
      ],
      [
        "મા",
        "રી"
      ],
      [
        "ગ્ર",
        "ા"
      ],
      [
        "ઈ",
        "એ"
      ],
      [
        "ચ",
        "િ"
      ],
      [
        "પા",
        "સ"
      ],
      [
        "પ",
        "હો"
      ],
      [
        "મા",
        "ર"
      ],
      [
        "આ",
        "પી"
      ],
      [
        "નો",
        "ં"
      ],
      [
        "જા",
        "ણ"
      ],
      [
        "સ",
        "ર્"
      ],
      [
        "મા",
        "ર્"
      ],
      [
        "છ",
        "ા"
      ],
      [
        "જ",
        "િલ્"
      ],
      [
        "કરી",
        "ને"
      ],
      [
        "આ",
        "જે"
      ],
      [
        "તેમ",
        "ના"
      ],
      [
        "પા",
        "ણી"
      ],
      [
        "અ",
        "ં"
      ],
      [
        "જિલ્",
        "લા"
      ],
      [
        "અ",
        "ભ"
      ],
      [
        "ન",
        "ુ"
      ],
      [
        "કે",
        "સ"
      ],
      [
        "આવ",
        "્યા"
      ],
      [
        "મં",
        "ત્રી"
      ],
      [
        "થ",
        "ો"
      ],
      [
        "બ",
        "ુ"
      ],
      [
        "ભ",
        "ર"
      ],
      [
        "બ",
        "દ"
      ],
      [
        "ઉ",
        "ત્"
      ],
      [
        "ફ",
        "િલ્"
      ],
      [
        "મ",
        "ના"
      ],
      [
        "ન",
        "ની"
      ],
      [
        "ભ",
        "ૂ"
      ],
      [
        "દ",
        "ૂ"
      ],
      [
        "વ",
        "ચ્"
      ],
      [
        "સ્",
        "તા"
      ],
      [
        "અમ",
        "દા"
      ],
      [
        "કાર",
        "ણ"
      ],
      [
        "સ",
        "ૂ"
      ],
      [
        "જે",
        "માં"
      ],
      [
        "જો",
        "વા"
      ],
      [
        "ટ",
        "ના"
      ],
      [
        "અન",
        "્ય"
      ],
      [
        "અમદા",
        "વાદ"
      ],
      [
        "કં",
        "પની"
      ],
      [
        "એ",
        "ટ"
      ],
      [
        "ભા",
        "વ"
      ],
      [
        "ષ્",
        "ટ્ર"
      ],
      [
        "સિં",
        "હ"
      ],
      [
        "ક",
        "હે"
      ],
      [
        "શ",
        "ું"
      ],
      [
        "રૂ",
        "પ"
      ],
      [
        "બ",
        "્ર"
      ],
      [
        "ખ",
        "ૂ"
      ],
      [
        "સ્",
        "ટે"
      ],
      [
        "ક્ષ",
        "ા"
      ],
      [
        "પ્ર",
        "ે"
      ],
      [
        "દર",
        "મ"
      ],
      [
        "ઠ",
        "ા"
      ],
      [
        "ન",
        "ના"
      ],
      [
        "ર્",
        "સ"
      ],
      [
        "અ",
        "ંગ"
      ],
      [
        "કર",
        "તા"
      ],
      [
        "ન",
        "ં"
      ],
      [
        "ત્ર",
        "ણ"
      ],
      [
        "હિ",
        "ત"
      ],
      [
        "પ્ર",
        "તિ"
      ],
      [
        "દ્",
        "ધ"
      ],
      [
        "સ્થ",
        "િ"
      ],
      [
        "આ",
        "રો"
      ],
      [
        "મ",
        "હા"
      ],
      [
        "પોતા",
        "ના"
      ],
      [
        "તમા",
        "મ"
      ],
      [
        "રો",
        "જ"
      ],
      [
        "તમા",
        "રા"
      ],
      [
        "મુખ",
        "્ય"
      ],
      [
        "મા",
        "ણ"
      ],
      [
        "ગ",
        "ત"
      ],
      [
        "દ",
        "ાર"
      ],
      [
        "ક્",
        "ત"
      ],
      [
        "આવ",
        "્યો"
      ],
      [
        "વચ્",
        "ચે"
      ],
      [
        "શ",
        "ુ"
      ],
      [
        "જણાવ",
        "્યું"
      ],
      [
        "પ",
        "ગ"
      ],
      [
        "૦",
        "૦"
      ],
      [
        "ત",
        "થા"
      ],
      [
        "તેમ",
        "જ"
      ],
      [
        "તેમ",
        "ણે"
      ],
      [
        "મ",
        "માં"
      ],
      [
        "સૌ",
        "થી"
      ],
      [
        "ખ",
        "ુ"
      ],
      [
        "ગ",
        "યા"
      ],
      [
        "ભ",
        "ી"
      ],
      [
        "તરી",
        "કે"
      ],
      [
        "મા",
        "ત્ર"
      ],
      [
        "જા",
        "ય"
      ],
      [
        "િયા",
        "ન"
      ],
      [
        "ઉપ",
        "યોગ"
      ],
      [
        "પુ",
        "ર"
      ],
      [
        "ય",
        "લ"
      ],
      [
        "સા",
        "ં"
      ],
      [
        "ડ",
        "િયા"
      ],
      [
        "દ",
        "્ય"
      ],
      [
        "ભા",
        "જ"
      ],
      [
        "ર્",
        "ડ"
      ],
      [
        "અ",
        "ધિ"
      ],
      [
        "ના",
        "મ"
      ],
      [
        "મો",
        "ટા"
      ],
      [
        "વ્ય",
        "ક્તિ"
      ],
      [
        "ત",
        "ુ"
      ],
      [
        "પ",
        "ાર્"
      ],
      [
        "ઉ",
        "પર"
      ],
      [
        "ર્",
        "થ"
      ],
      [
        "ન",
        "વા"
      ],
      [
        "પૂર્",
        "ણ"
      ],
      [
        "સ્",
        "વ"
      ],
      [
        "લો",
        "ક"
      ],
      [
        "ં",
        "ટ"
      ],
      [
        "સુ",
        "ર"
      ],
      [
        "થ",
        "ઇ"
      ],
      [
        "ખૂ",
        "બ"
      ],
      [
        "ધા",
        "ન"
      ],
      [
        "ફ",
        "રી"
      ],
      [
        "વ",
        "્યા"
      ],
      [
        "આ",
        "ત"
      ],
      [
        "ઘ",
        "ર"
      ],
      [
        "થ",
        "યા"
      ],
      [
        "લ",
        "ના"
      ],
      [
        "ફ",
        "િ"
      ],
      [
        "વિસ્ત",
        "ાર"
      ],
      [
        "આ",
        "પણ"
      ],
      [
        "પ્ર",
        "ો"
      ],
      [
        "દરમ",
        "િયાન"
      ],
      [
        "ર",
        "સ"
      ],
      [
        "લ્",
        "લા"
      ],
      [
        "ત",
        "્યાં"
      ],
      [
        "ફ",
        "્"
      ],
      [
        "બ",
        "ની"
      ],
      [
        "ક્ષ",
        "ણ"
      ],
      [
        "ઝ",
        "ા"
      ],
      [
        "ના",
        "ર"
      ],
      [
        "લા",
        "ઈ"
      ],
      [
        "મે",
        "ળ"
      ],
      [
        "આ",
        "ગ"
      ],
      [
        "ઘ",
        "ા"
      ],
      [
        "જ",
        "ાર"
      ],
      [
        "ધ",
        "્ય"
      ],
      [
        "હા",
        "થ"
      ],
      [
        "પહે",
        "લા"
      ],
      [
        "પ",
        "ટે"
      ],
      [
        "નિ",
        "ય"
      ],
      [
        "લ",
        "ું"
      ],
      [
        "ત",
        "ૈ"
      ],
      [
        "ગા",
        "ં"
      ],
      [
        "કેટ",
        "લાક"
      ],
      [
        "વ",
        "વામાં"
      ],
      [
        "રહ",
        "્યો"
      ],
      [
        "જ",
        "ના"
      ],
      [
        "ાર્",
        "થી"
      ],
      [
        "ત",
        "મને"
      ],
      [
        "જ",
        "બ"
      ],
      [
        "જ",
        "િ"
      ],
      [
        "વ",
        "ખ"
      ],
      [
        "રા",
        "ષ્ટ્ર"
      ],
      [
        "રે",
        "ક"
      ],
      [
        "વા",
        "સ"
      ],
      [
        "નિ",
        "ક"
      ],
      [
        "કુ",
        "લ"
      ],
      [
        "્રે",
        "સ"
      ],
      [
        "ગ",
        "્યા"
      ],
      [
        "વા",
        "નો"
      ],
      [
        "તર",
        "ફ"
      ],
      [
        "મ",
        "દ"
      ],
      [
        "જો",
        "ઈએ"
      ],
      [
        "ત્ય",
        "ાર"
      ],
      [
        "આવ",
        "્યું"
      ],
      [
        "પ",
        "ક"
      ],
      [
        "વિ",
        "શે"
      ],
      [
        "બ",
        "હાર"
      ],
      [
        "થ",
        "યો"
      ],
      [
        "સ્થિ",
        "તિ"
      ],
      [
        "શ",
        "હેર"
      ],
      [
        "ક્",
        "ટ"
      ],
      [
        "શ્ર",
        "ી"
      ],
      [
        "કર",
        "્યું"
      ],
      [
        "ર",
        "ણ"
      ],
      [
        "આવ",
        "શે"
      ],
      [
        "મહિ",
        "લા"
      ],
      [
        "ઇ",
        "ન"
      ],
      [
        "રૂપ",
        "િયા"
      ],
      [
        "ઓ",
        "ની"
      ],
      [
        "તેમ",
        "ની"
      ],
      [
        "કર",
        "્યા"
      ],
      [
        "પહો",
        "ંચ"
      ],
      [
        "અંગ",
        "ે"
      ],
      [
        "કો",
        "ંગ"
      ],
      [
        "યે",
        "લા"
      ],
      [
        "સ",
        "હિત"
      ],
      [
        "દિ",
        "લ્"
      ],
      [
        "થ",
        "મ"
      ],
      [
        "કે",
        "ન્દ્ર"
      ],
      [
        "ભ",
        "ગ"
      ],
      [
        "જ",
        "્"
      ],
      [
        "વિ",
        "દ્ય"
      ],
      [
        "પ્ર",
        "થમ"
      ],
      [
        "તેમ",
        "ને"
      ],
      [
        "ભાજ",
        "પ"
      ],
      [
        "ખ",
        "્યા"
      ],
      [
        "ય",
        "ર"
      ],
      [
        "ત્ર",
        "ા"
      ],
      [
        "ઝ",
        "ડ"
      ],
      [
        "ખ",
        "ી"
      ],
      [
        "વિ",
        "શ્"
      ],
      [
        "ત્ર",
        "ો"
      ],
      [
        "ધ",
        "રા"
      ],
      [
        "શ",
        "કો"
      ],
      [
        "તૈ",
        "ય"
      ],
      [
        "દિલ્",
        "હી"
      ],
      [
        "મ",
        "હત"
      ],
      [
        "આપ",
        "વામાં"
      ],
      [
        "કરો",
        "ડ"
      ],
      [
        "ઘ",
        "ટના"
      ],
      [
        "ટ",
        "્"
      ],
      [
        "સ્",
        "પિ"
      ],
      [
        "૨",
        "૦"
      ],
      [
        "મે",
        "ન્ટ"
      ],
      [
        "માન",
        "્ય"
      ],
      [
        "વિદ્ય",
        "ાર્થી"
      ],
      [
        "દ",
        "રેક"
      ],
      [
        "સ્",
        "ક"
      ],
      [
        "સ્",
        "પ"
      ],
      [
        "કો",
        "ટ"
      ],
      [
        "ત",
        "પાસ"
      ],
      [
        "ન",
        "વી"
      ],
      [
        "ત",
        "ું"
      ],
      [
        "થ",
        "શે"
      ],
      [
        "ળ",
        "ો"
      ],
      [
        "સ",
        "ભ"
      ],
      [
        "ખા",
        "સ"
      ],
      [
        "ધ",
        "્યા"
      ],
      [
        "આ",
        "ર"
      ],
      [
        "મો",
        "દી"
      ],
      [
        "રહ",
        "્યું"
      ],
      [
        "દ",
        "ન"
      ],
      [
        "પો",
        "ર્ટ"
      ],
      [
        "1",
        "9"
      ],
      [
        "ં",
        "ચા"
      ],
      [
        "જ",
        "ર"
      ],
      [
        "ડ",
        "ૂ"
      ],
      [
        "લા",
        "ખ"
      ],
      [
        "મળ",
        "ે"
      ],
      [
        "અધિ",
        "કારી"
      ],
      [
        "1",
        "0"
      ],
      [
        "આ",
        "ઇ"
      ],
      [
        "ભાર",
        "તી"
      ],
      [
        "પોતા",
        "ની"
      ],
      [
        "જરૂ",
        "ર"
      ],
      [
        "ફ",
        "ી"
      ],
      [
        "સ",
        "ંગ"
      ],
      [
        "મો",
        "ત"
      ],
      [
        "હા",
        "લ"
      ],
      [
        "બ",
        "ન"
      ],
      [
        "મહત",
        "્"
      ],
      [
        "જ",
        "ન્"
      ],
      [
        "વ",
        "ડા"
      ],
      [
        "સા",
        "દ"
      ],
      [
        "કરવા",
        "ની"
      ],
      [
        "ગ",
        "્"
      ],
      [
        "બાળ",
        "કો"
      ],
      [
        "ગાં",
        "ધી"
      ],
      [
        "મ",
        "ૃ"
      ],
      [
        "ખા",
        "તે"
      ],
      [
        "ટ્ર",
        "ો"
      ],
      [
        "સ્પિ",
        "ટ"
      ],
      [
        "પરિ",
        "વાર"
      ],
      [
        "ઓ",
        "માં"
      ],
      [
        "પ",
        "ડે"
      ],
      [
        "વ્ય",
        "વ"
      ],
      [
        "ઘ",
        "ણા"
      ],
      [
        "ચા",
        "લ"
      ],
      [
        "ક્ર",
        "િ"
      ],
      [
        "ધ",
        "ર"
      ],
      [
        "વા",
        "ન"
      ],
      [
        "ચૂ",
        "ંટ"
      ],
      [
        "કોંગ",
        "્રેસ"
      ],
      [
        "ભ",
        "ે"
      ],
      [
        "મ",
        "ની"
      ],
      [
        "શ",
        "કાય"
      ],
      [
        "હ",
        "ું"
      ],
      [
        "દર્",
        "દી"
      ],
      [
        "પ",
        "તિ"
      ],
      [
        "મ",
        "ર"
      ],
      [
        "વિ",
        "ક"
      ],
      [
        "પ્ર",
        "કાર"
      ],
      [
        "ટ્ર",
        "ા"
      ],
      [
        "..",
        "."
      ],
      [
        "ચૂંટ",
        "ણી"
      ],
      [
        "ઇ",
        "ન્"
      ],
      [
        "લગ",
        "્"
      ],
      [
        "આ",
        "ં"
      ],
      [
        "મો",
        "ટી"
      ],
      [
        "બી",
        "જા"
      ],
      [
        "હો",
        "સ્પિટ"
      ],
      [
        "ત",
        "ં"
      ],
      [
        "સ",
        "ભા"
      ],
      [
        "ું",
        "બ"
      ],
      [
        "વે",
        "શ"
      ],
      [
        "બં",
        "ને"
      ],
      [
        "નિર્",
        "ણ"
      ],
      [
        "મા",
        "રા"
      ],
      [
        "રાજ",
        "કોટ"
      ],
      [
        "મદ",
        "દ"
      ],
      [
        "અ",
        "ર"
      ],
      [
        "અને",
        "ક"
      ],
      [
        "કાર",
        "્"
      ],
      [
        "જે",
        "ટ"
      ],
      [
        "અ",
        "હીં"
      ],
      [
        "ને",
        "તા"
      ],
      [
        "બે",
        "ઠ"
      ],
      [
        "રહે",
        "શે"
      ],
      [
        "સા",
        "માન્ય"
      ],
      [
        "ન્ટ",
        "ર"
      ],
      [
        "પ્ર",
        "િ"
      ],
      [
        "ફ",
        "ળ"
      ],
      [
        "નોં",
        "ધા"
      ],
      [
        "ત",
        "માં"
      ],
      [
        "મ",
        "ણ"
      ],
      [
        "જી",
        "વન"
      ],
      [
        "ખે",
        "ડૂ"
      ],
      [
        "એટ",
        "લે"
      ],
      [
        "સા",
        "ય"
      ],
      [
        "ઘ",
        "ણી"
      ],
      [
        "વ",
        "તા"
      ],
      [
        "તા",
        "લુ"
      ],
      [
        "બે",
        "ન"
      ],
      [
        "ઓ",
        "એ"
      ],
      [
        "ખ",
        "રી"
      ],
      [
        "ચ",
        "ારી"
      ],
      [
        "મ",
        "હે"
      ],
      [
        "વ",
        "ૃ"
      ],
      [
        "વા",
        "નું"
      ],
      [
        "્ય",
        "ૂ"
      ],
      [
        "દે",
        "ખા"
      ],
      [
        "પટે",
        "લ"
      ],
      [
        "ઓ",
        "ના"
      ],
      [
        "ગ",
        "ઈ"
      ],
      [
        "વ",
        "ણી"
      ],
      [
        "મં",
        "દિ"
      ],
      [
        "લઈ",
        "ને"
      ],
      [
        "આ",
        "ઈ"
      ],
      [
        "ગ",
        "યો"
      ],
      [
        "લ",
        "ઇ"
      ],
      [
        "પોલી",
        "સે"
      ],
      [
        "ભારતી",
        "ય"
      ],
      [
        "તમા",
        "રી"
      ],
      [
        "પૂર્",
        "વ"
      ],
      [
        "નિર્ણ",
        "ય"
      ],
      [
        "ં",
        "દ"
      ],
      [
        "બી",
        "જી"
      ],
      [
        "કર્",
        "મ"
      ],
      [
        "આ",
        "પે"
      ],
      [
        "ચ",
        "ુ"
      ],
      [
        "મ",
        "ક"
      ],
      [
        "દૂ",
        "ર"
      ],
      [
        "પ",
        "ત્"
      ],
      [
        "માં",
        "ગ"
      ],
      [
        "કર",
        "શે"
      ],
      [
        "સ્",
        "વા"
      ],
      [
        "દેશ",
        "માં"
      ],
      [
        "વર",
        "સાદ"
      ],
      [
        "અ",
        "લગ"
      ],
      [
        "ચ",
        "ર"
      ],
      [
        "રા",
        "ંત"
      ],
      [
        "ક્ષ",
        "ે"
      ],
      [
        "આવે",
        "લા"
      ],
      [
        "પ",
        "સં"
      ],
      [
        "ના",
        "રા"
      ],
      [
        "તાલુ",
        "કા"
      ],
      [
        "એ",
        "ન"
      ],
      [
        "હ",
        "ન"
      ],
      [
        "મા",
        "મ"
      ],
      [
        "દા",
        "ન"
      ],
      [
        "મુ",
        "જબ"
      ],
      [
        "ષ્",
        "ટ"
      ],
      [
        "ઉપ",
        "રાંત"
      ],
      [
        "ફિલ્",
        "મ"
      ],
      [
        "પસં",
        "દ"
      ],
      [
        "ાર",
        "ા"
      ],
      [
        "ફ",
        "્ર"
      ],
      [
        "વિ",
        "ધ"
      ],
      [
        "પ",
        "ૈ"
      ],
      [
        "પ્ર",
        "ધાન"
      ],
      [
        "જો",
        "કે"
      ],
      [
        "ી",
        "ય"
      ],
      [
        "સાર",
        "વાર"
      ],
      [
        "લા",
        "ગ"
      ],
      [
        "કો",
        "ઇ"
      ],
      [
        "લે",
        "ખ"
      ],
      [
        "ય",
        "ન"
      ],
      [
        "રા",
        "મ"
      ],
      [
        "ડિ",
        "યો"
      ],
      [
        "ધાર",
        "ા"
      ],
      [
        "જરૂ",
        "રી"
      ],
      [
        "ચ",
        "ના"
      ],
      [
        "અભ",
        "િ"
      ],
      [
        "ડ",
        "્ર"
      ],
      [
        "મ",
        "નો"
      ],
      [
        "લ",
        "ગા"
      ],
      [
        "નિ",
        "યા"
      ],
      [
        "લોકો",
        "ને"
      ],
      [
        "થ",
        "યું"
      ],
      [
        "ભ",
        "ો"
      ],
      [
        "ળ",
        "ે"
      ],
      [
        "જી",
        "વ"
      ],
      [
        "લ",
        "ર"
      ],
      [
        "ક",
        "ૃ"
      ],
      [
        "મ",
        "ુંબ"
      ],
      [
        "જા",
        "હેર"
      ],
      [
        "મંદિ",
        "ર"
      ],
      [
        "ચ",
        "ર્"
      ],
      [
        "ક્",
        "ટર"
      ],
      [
        "મહત્",
        "વ"
      ],
      [
        "સ",
        "ારી"
      ],
      [
        "કર",
        "તાં"
      ],
      [
        "સ્ત",
        "ુ"
      ],
      [
        "દર્",
        "શન"
      ],
      [
        "ઉ",
        "મે"
      ],
      [
        "ક",
        "માં"
      ],
      [
        "પ",
        "ડી"
      ],
      [
        "ર",
        "ંગ"
      ],
      [
        "વા",
        "ઈ"
      ],
      [
        "ર્",
        "મ"
      ],
      [
        "આ",
        "ગા"
      ],
      [
        "ક",
        "મ"
      ],
      [
        "ગ",
        "ં"
      ],
      [
        "ત",
        "ક"
      ],
      [
        "પ",
        "ક્ષ"
      ],
      [
        "કો",
        "ર્ટ"
      ],
      [
        "સમ",
        "યે"
      ],
      [
        "તં",
        "ત્ર"
      ],
      [
        "છ",
        "તાં"
      ],
      [
        "મા",
        "હિ"
      ],
      [
        "છે",
        "લ્લા"
      ],
      [
        "ન",
        "ને"
      ],
      [
        "ત્",
        "વ"
      ],
      [
        "સે",
        "વા"
      ],
      [
        "વધ",
        "ારે"
      ],
      [
        "શિ",
        "યલ"
      ],
      [
        "અમે",
        "રિ"
      ],
      [
        "દ",
        "વા"
      ],
      [
        "જે",
        "મ"
      ],
      [
        "કર્મ",
        "ચારી"
      ],
      [
        "તે",
        "નો"
      ],
      [
        "સ્",
        "ટા"
      ],
      [
        "સં",
        "ખ્યા"
      ],
      [
        "શા",
        "ળા"
      ],
      [
        "મહિ",
        "ના"
      ],
      [
        "એ",
        "ક્"
      ],
      [
        "ન",
        "વ"
      ],
      [
        "બ",
        "ધા"
      ],
      [
        "સ",
        "્યા"
      ],
      [
        "જ્",
        "ઞ"
      ],
      [
        "લા",
        "ઇ"
      ],
      [
        "ં",
        "કા"
      ],
      [
        "વા",
        "હી"
      ],
      [
        "આગ",
        "ળ"
      ],
      [
        "માહિ",
        "તી"
      ],
      [
        "અ",
        "સર"
      ],
      [
        "જ",
        "ગ્યા"
      ],
      [
        "સ",
        "ત"
      ],
      [
        "વિ",
        "વિધ"
      ],
      [
        "જે",
        "વા"
      ],
      [
        "લે",
        "વા"
      ],
      [
        "બા",
        "બ"
      ],
      [
        "ક્ર",
        "િયા"
      ],
      [
        "યુ",
        "વ"
      ],
      [
        "ક",
        "લાક"
      ],
      [
        "પ",
        "રી"
      ],
      [
        "વિ",
        "ભાગ"
      ],
      [
        "પ્",
        "ત"
      ],
      [
        "લગ",
        "ભગ"
      ],
      [
        "તૈય",
        "ાર"
      ],
      [
        "લગ્",
        "ન"
      ],
      [
        "જ",
        "્યાં"
      ],
      [
        "તે",
        "થી"
      ],
      [
        "યે",
        "લ"
      ],
      [
        "પ્",
        "લા"
      ],
      [
        "છી",
        "એ"
      ],
      [
        "લ",
        "ન"
      ],
      [
        "કો",
        "ર્"
      ],
      [
        "ઘ",
        "રે"
      ],
      [
        "લ",
        "ની"
      ],
      [
        "ૂ",
        "ટ"
      ],
      [
        "રો",
        "ડ"
      ],
      [
        "વ",
        "્યો"
      ],
      [
        "મા",
        "તા"
      ],
      [
        "જે",
        "ના"
      ],
      [
        "લ્",
        "ડ"
      ],
      [
        "છ",
        "ું"
      ],
      [
        "ઝ",
        "િ"
      ],
      [
        "ખા",
        "ન"
      ],
      [
        "બના",
        "વી"
      ],
      [
        "ગ્રા",
        "મ"
      ],
      [
        "અ",
        "ંત"
      ],
      [
        "આ",
        "મ"
      ],
      [
        "હ",
        "શે"
      ],
      [
        "ના",
        "ગ"
      ],
      [
        "વિશ્",
        "વ"
      ],
      [
        "ઓ",
        "ફ"
      ],
      [
        "દ",
        "રા"
      ],
      [
        "સમ",
        "સ્યા"
      ],
      [
        "ચર્",
        "ચા"
      ],
      [
        "ધ",
        "ુ"
      ],
      [
        "ર",
        "લ"
      ],
      [
        "શ",
        "રી"
      ],
      [
        "જે",
        "થી"
      ],
      [
        "મિ",
        "ક"
      ],
      [
        "પૂ",
        "ર"
      ],
      [
        "વ",
        "ધી"
      ],
      [
        "પા",
        "ડ"
      ],
      [
        "પા",
        "ંચ"
      ],
      [
        "વિસ્તાર",
        "માં"
      ],
      [
        "મ",
        "ન"
      ],
      [
        "પા",
        "કિ"
      ],
      [
        "આવે",
        "લ"
      ],
      [
        "સ્ટ",
        "ો"
      ],
      [
        "મ્",
        "બર"
      ],
      [
        "દિવ",
        "સે"
      ],
      [
        "ગ",
        "્ય"
      ],
      [
        "ઘ",
        "ટા"
      ],
      [
        "ધ",
        "ન"
      ],
      [
        "સમ",
        "ગ્ર"
      ],
      [
        "ખેડૂ",
        "તો"
      ],
      [
        "પાકિ",
        "સ્તા"
      ],
      [
        "અ",
        "પ"
      ],
      [
        "ગ",
        "ણ"
      ],
      [
        "બ",
        "ને"
      ],
      [
        "ના",
        "ના"
      ],
      [
        "લા",
        "ભ"
      ],
      [
        "આ",
        "વા"
      ],
      [
        "પ",
        "ર્"
      ],
      [
        "પ",
        "ત્ર"
      ],
      [
        "વ",
        "ૈ"
      ],
      [
        "કા",
        "સ"
      ],
      [
        "કાર",
        "ો"
      ],
      [
        "આપણ",
        "ે"
      ],
      [
        "ભ",
        "ારે"
      ],
      [
        "મી",
        "ડિયા"
      ],
      [
        "ટ્ર",
        "ી"
      ],
      [
        "ગ્ર",
        "ી"
      ],
      [
        "સરકાર",
        "ે"
      ],
      [
        "ટિ",
        "વ"
      ],
      [
        "સત",
        "ત"
      ],
      [
        "1",
        "5"
      ],
      [
        "વા",
        "ના"
      ],
      [
        "વી",
        "ડિયો"
      ],
      [
        "સિ",
        "ક"
      ],
      [
        "યુ",
        "નિ"
      ],
      [
        "પાર્",
        "ટી"
      ],
      [
        "ઉ",
        "લ્"
      ],
      [
        "ઠ",
        "ળ"
      ],
      [
        "હે",
        "ઠળ"
      ],
      [
        "ન",
        "ર"
      ],
      [
        "તે",
        "માં"
      ],
      [
        "જી",
        "ત"
      ],
      [
        "ચા",
        "લી"
      ],
      [
        "શરી",
        "ર"
      ],
      [
        "યોગ",
        "્ય"
      ],
      [
        "શક",
        "્ય"
      ],
      [
        "ઈ",
        "ન્"
      ],
      [
        "ત",
        "મ"
      ],
      [
        "લા",
        "લ"
      ],
      [
        "જો",
        "ડા"
      ],
      [
        "મળ",
        "શે"
      ],
      [
        "વખ",
        "ત"
      ],
      [
        "ં",
        "મત"
      ],
      [
        "એ",
        "લ"
      ],
      [
        "એ",
        "વા"
      ],
      [
        "જી",
        "ક"
      ],
      [
        "વધ",
        "ારો"
      ],
      [
        "કી",
        "ય"
      ],
      [
        "એ",
        "ન્"
      ],
      [
        "ક",
        "લા"
      ],
      [
        "સ્",
        "વી"
      ],
      [
        "શે",
        "ર"
      ],
      [
        "ફર",
        "િયા"
      ],
      [
        "વ",
        "સ્તુ"
      ],
      [
        "તે",
        "ણે"
      ],
      [
        "નોં",
        "ધ"
      ],
      [
        "ધ",
        "ું"
      ],
      [
        "સં",
        "બંધ"
      ],
      [
        "હતા",
        "ં"
      ],
      [
        "પડ",
        "શે"
      ],
      [
        "ગુજરાત",
        "માં"
      ],
      [
        "સભ",
        "્ય"
      ],
      [
        "આ",
        "યો"
      ],
      [
        "ક",
        "ત"
      ],
      [
        "કર",
        "ણ"
      ],
      [
        "ઠ",
        "ી"
      ],
      [
        "પ્ર",
        "મુખ"
      ],
      [
        "રો",
        "ધ"
      ],
      [
        "આરો",
        "પી"
      ],
      [
        "આ",
        "ધાર"
      ],
      [
        "વ",
        "ત"
      ],
      [
        "વ",
        "લ"
      ],
      [
        "હ",
        "ર"
      ],
      [
        "હ",
        "જાર"
      ],
      [
        "ની",
        "ય"
      ],
      [
        "તે",
        "વી"
      ],
      [
        "સ્",
        "ટ્રે"
      ],
      [
        "મો",
        "ર"
      ],
      [
        "યો",
        "જના"
      ],
      [
        "બના",
        "વ"
      ],
      [
        "મુખ્ય",
        "મંત્રી"
      ],
      [
        "પહોંચ",
        "ી"
      ],
      [
        "એ",
        "ર"
      ],
      [
        "પ",
        "ાર"
      ],
      [
        "પ",
        "રા"
      ],
      [
        "ર",
        "જૂ"
      ],
      [
        "ષ",
        "ણ"
      ],
      [
        "આવ",
        "તા"
      ],
      [
        "મુ",
        "દ્"
      ],
      [
        "ગી",
        "રી"
      ],
      [
        "રાખ",
        "ી"
      ],
      [
        "કાર્ય",
        "વાહી"
      ],
      [
        "આ",
        "જ"
      ],
      [
        "ઉ",
        "ં"
      ],
      [
        "દા",
        "ખ"
      ],
      [
        "ગા",
        "મ"
      ],
      [
        "લિ",
        "ક"
      ],
      [
        "હોવા",
        "નું"
      ],
      [
        "એ",
        "વી"
      ],
      [
        "એ",
        "વું"
      ],
      [
        "ની",
        "ક"
      ],
      [
        "કા",
        "ં"
      ],
      [
        "લ્",
        "સ"
      ],
      [
        "ત્",
        "તા"
      ],
      [
        "દેશ",
        "ના"
      ],
      [
        "સ્ટે",
        "શન"
      ],
      [
        "1",
        "2"
      ],
      [
        "ખ",
        "ર્"
      ],
      [
        "મ",
        "તા"
      ],
      [
        "સા",
        "ન"
      ],
      [
        "મે",
        "ચ"
      ],
      [
        "પા",
        "છ"
      ],
      [
        "કાર્ય",
        "ક્ર"
      ],
      [
        "અનુ",
        "સાર"
      ],
      [
        "ઉત્",
        "પા"
      ],
      [
        "ટ",
        "્સ"
      ],
      [
        "ટિ",
        "ંગ"
      ],
      [
        "જ્ઞ",
        "ા"
      ],
      [
        "ક",
        "સ"
      ],
      [
        "ક",
        "ને"
      ],
      [
        "વા",
        "લ"
      ],
      [
        "લા",
        "ગે"
      ],
      [
        "ટે",
        "સ્ટ"
      ],
      [
        "જે",
        "ને"
      ],
      [
        "ફો",
        "ન"
      ],
      [
        "00",
        "0"
      ],
      [
        "હુ",
        "મ"
      ],
      [
        "અભ",
        "્યા"
      ],
      [
        "અમેરિ",
        "કા"
      ],
      [
        "1",
        "1"
      ],
      [
        "ક",
        "્યારે"
      ],
      [
        "કે",
        "વી"
      ],
      [
        "શરૂ",
        "આત"
      ],
      [
        "ઉ",
        "દ"
      ],
      [
        "પ્ર",
        "યા"
      ],
      [
        "ફે",
        "ર"
      ],
      [
        "સુર",
        "ત"
      ],
      [
        "5",
        "0"
      ],
      [
        "અ",
        "ગા"
      ],
      [
        "પ",
        "ડા"
      ],
      [
        "મ",
        "હાર"
      ],
      [
        "સ",
        "લા"
      ],
      [
        "ની",
        "ચે"
      ],
      [
        "યે",
        "લી"
      ],
      [
        "ટ",
        "માં"
      ],
      [
        "સ",
        "હ"
      ],
      [
        "પ્ર",
        "માણ"
      ],
      [
        "જા",
        "ણી"
      ],
      [
        "વખ",
        "તે"
      ],
      [
        "ઢ",
        "ી"
      ],
      [
        "થ",
        "્"
      ],
      [
        "થ",
        "તા"
      ],
      [
        "ન",
        "જીક"
      ],
      [
        "સ",
        "દ"
      ],
      [
        "કા",
        "ળ"
      ],
      [
        "ટી",
        "મ"
      ],
      [
        "મિ",
        "ત"
      ],
      [
        "પરિ",
        "ણા"
      ],
      [
        "વાય",
        "રસ"
      ],
      [
        "માર્",
        "ગ"
      ],
      [
        "નુ",
        "ક"
      ],
      [
        "આરો",
        "ગ્ય"
      ],
      [
        "મહાર",
        "ા"
      ],
      [
        "બ",
        "લ"
      ],
      [
        "વા",
        "ળા"
      ],
      [
        "સ્",
        "મા"
      ],
      [
        "કો",
        "ને"
      ],
      [
        "બા",
        "જુ"
      ],
      [
        "સં",
        "પૂર્ણ"
      ],
      [
        "અ",
        "ત્યાર"
      ],
      [
        "ક",
        "ની"
      ],
      [
        "વ",
        "ુ"
      ],
      [
        "૧",
        "૦"
      ],
      [
        "જે",
        "વી"
      ],
      [
        "કરવા",
        "નો"
      ],
      [
        "વર્ષ",
        "ે"
      ],
      [
        "સમા",
        "જ"
      ],
      [
        "હોવા",
        "થી"
      ],
      [
        "અગા",
        "ઉ"
      ],
      [
        "અ",
        "ર્"
      ],
      [
        "ધ",
        "ે"
      ],
      [
        "પ",
        "ં"
      ],
      [
        "ના",
        "ણા"
      ],
      [
        "વિ",
        "ષ"
      ],
      [
        "જા",
        "મ"
      ],
      [
        "ડા",
        "ઉ"
      ],
      [
        "મુ",
        "લા"
      ],
      [
        "ષ્",
        "ઠ"
      ],
      [
        "પક",
        "ડ"
      ],
      [
        "આગા",
        "મી"
      ],
      [
        "ગં",
        "ભી"
      ],
      [
        "અભ્યા",
        "સ"
      ],
      [
        "ઓ",
        "ળ"
      ],
      [
        "૧",
        "૯"
      ],
      [
        "મા",
        "ણે"
      ],
      [
        "કા",
        "ન"
      ],
      [
        "મુંબ",
        "ઈ"
      ],
      [
        "1",
        "4"
      ],
      [
        "ઝ",
        "ી"
      ],
      [
        "બ",
        "જાર"
      ],
      [
        "વી",
        "ર"
      ],
      [
        "જા",
        "હે"
      ],
      [
        "ંગ",
        "ા"
      ],
      [
        "સો",
        "શિયલ"
      ],
      [
        "કામ",
        "ગીરી"
      ],
      [
        "ક",
        "ડ"
      ],
      [
        "પ",
        "દ"
      ],
      [
        "વ",
        "ડો"
      ],
      [
        "ડી",
        "ને"
      ],
      [
        "બે",
        "ન્"
      ],
      [
        "પત્",
        "ની"
      ],
      [
        "ગંભી",
        "ર"
      ],
      [
        "આ",
        "ંક"
      ],
      [
        "લ",
        "િયા"
      ],
      [
        "શ",
        "ર"
      ],
      [
        "વિ",
        "ચાર"
      ],
      [
        "સરકાર",
        "ી"
      ],
      [
        "સ્થ",
        "િત"
      ],
      [
        "બના",
        "વવા"
      ],
      [
        "સાર",
        "ા"
      ],
      [
        "અનુ",
        "ભ"
      ],
      [
        "ખ",
        "્"
      ],
      [
        "જ",
        "ઈ"
      ],
      [
        "કા",
        "ઉ"
      ],
      [
        "રો",
        "કા"
      ],
      [
        "જો",
        "ઇ"
      ],
      [
        "પિ",
        "તા"
      ],
      [
        "3",
        "0"
      ],
      [
        "ન",
        "ક્"
      ],
      [
        "મા",
        "લ"
      ],
      [
        "રો",
        "ગ"
      ],
      [
        "મુ",
        "ક"
      ],
      [
        "મી",
        "ન"
      ],
      [
        "ત્",
        "મક"
      ],
      [
        "લિ",
        "કા"
      ],
      [
        "પહે",
        "લાં"
      ],
      [
        "સમય",
        "માં"
      ],
      [
        "ચૂ",
        "ક"
      ],
      [
        "ઇ",
        "લ"
      ],
      [
        "જ",
        "શે"
      ],
      [
        "ટ",
        "ન"
      ],
      [
        "ધ",
        "્"
      ],
      [
        "પા",
        "ટી"
      ],
      [
        "રે",
        "ન્દ્ર"
      ],
      [
        "શો",
        "ધ"
      ],
      [
        "નં",
        "બર"
      ],
      [
        "ફરિયા",
        "દ"
      ],
      [
        "ગ",
        "યું"
      ],
      [
        "ભ",
        "ુ"
      ],
      [
        "લ",
        "ં"
      ],
      [
        "હ",
        "ાર્"
      ],
      [
        "પ્ર",
        "માણે"
      ],
      [
        "લી",
        "ધો"
      ],
      [
        "સિ",
        "ટી"
      ],
      [
        "રહે",
        "તા"
      ],
      [
        "આપ",
        "વા"
      ],
      [
        "શ્",
        "કે"
      ],
      [
        "કેટ",
        "લી"
      ],
      [
        "બ",
        "ાર"
      ],
      [
        "વ",
        "ગર"
      ],
      [
        "સ",
        "ફળ"
      ],
      [
        "વા",
        "સી"
      ],
      [
        "ને",
        "ટ"
      ],
      [
        "સ્",
        "ત્રી"
      ],
      [
        "પર",
        "ે"
      ],
      [
        "રિ",
        "પોર્ટ"
      ],
      [
        "ઉલ્",
        "લેખ"
      ],
      [
        "1",
        "8"
      ],
      [
        "2",
        "4"
      ],
      [
        "અ",
        "વ"
      ],
      [
        "એ",
        "ન્ડ"
      ],
      [
        "ગ",
        "ૃ"
      ],
      [
        "ગ",
        "ર્"
      ],
      [
        "સં",
        "સ્થા"
      ],
      [
        "રહ",
        "્યાં"
      ],
      [
        "પ્",
        "લે"
      ],
      [
        "શ્ર",
        "ે"
      ],
      [
        "થો",
        "ડા"
      ],
      [
        "મુલા",
        "કા"
      ],
      [
        "રા",
        "હુ"
      ],
      [
        "વિ",
        "જય"
      ],
      [
        "ત્ર",
        "િ"
      ],
      [
        "ત્ર",
        "ે"
      ],
      [
        "બા",
        "ઈ"
      ],
      [
        "જો",
        "ઈ"
      ],
      [
        "શા",
        "ન"
      ],
      [
        "રહે",
        "લા"
      ],
      [
        "દુ",
        "નિયા"
      ],
      [
        "પૈ",
        "સા"
      ],
      [
        "ક",
        "ના"
      ],
      [
        "ડ",
        "ુ"
      ],
      [
        "ધ",
        "રી"
      ],
      [
        "બ",
        "હે"
      ],
      [
        "દા",
        "ય"
      ],
      [
        "હા",
        "લમાં"
      ],
      [
        "મ્",
        "પ"
      ],
      [
        "સમા",
        "વેશ"
      ],
      [
        "જાહે",
        "રાત"
      ],
      [
        "વડો",
        "દરા"
      ],
      [
        "ઝ",
        "ો"
      ],
      [
        "સ",
        "પ્"
      ],
      [
        "સા",
        "મ"
      ],
      [
        "વિ",
        "ડ"
      ],
      [
        "વિ",
        "કાસ"
      ],
      [
        "પા",
        "લિકા"
      ],
      [
        "ચા",
        "લુ"
      ],
      [
        "જિલ્લા",
        "માં"
      ],
      [
        "સ્ક",
        "ૂ"
      ],
      [
        "પાછ",
        "ળ"
      ],
      [
        "નક્",
        "કી"
      ],
      [
        "ણ",
        "ો"
      ],
      [
        "દ",
        "ારો"
      ],
      [
        "ય",
        "મ"
      ],
      [
        "શ",
        "િયા"
      ],
      [
        "વા",
        "થી"
      ],
      [
        "યા",
        "દ"
      ],
      [
        "પે",
        "ટ્રો"
      ],
      [
        "રિ",
        "ક"
      ],
      [
        "કાર્",
        "ડ"
      ],
      [
        "જ",
        "તા"
      ],
      [
        "લા",
        "ય"
      ],
      [
        "લે",
        "ન્ડ"
      ],
      [
        "શા",
        "હ"
      ],
      [
        "ચ્",
        "છ"
      ],
      [
        "જય",
        "ારે"
      ],
      [
        "બ્ર",
        "ા"
      ],
      [
        "ં",
        "તિ"
      ],
      [
        "ક",
        "ૂ"
      ],
      [
        "જ",
        "નો"
      ],
      [
        "સ",
        "ના"
      ],
      [
        "વિ",
        "રોધ"
      ],
      [
        "કિ",
        "ંગ"
      ],
      [
        "પુ",
        "રા"
      ],
      [
        "ઝડ",
        "પી"
      ],
      [
        "ક",
        "મિ"
      ],
      [
        "ન",
        "ક"
      ],
      [
        "મ",
        "ધ્ય"
      ],
      [
        "વ",
        "હે"
      ],
      [
        "હ",
        "ં"
      ],
      [
        "હ",
        "જુ"
      ],
      [
        "સ્",
        "પે"
      ],
      [
        "સા",
        "ઈ"
      ],
      [
        "પ્ર",
        "ક્રિયા"
      ],
      [
        "કિ",
        "ંમત"
      ],
      [
        "ભારત",
        "માં"
      ],
      [
        "ટ",
        "લ"
      ],
      [
        "વા",
        "ઇ"
      ],
      [
        "પો",
        "સ્ટ"
      ],
      [
        "યો",
        "જા"
      ],
      [
        "દે",
        "વ"
      ],
      [
        "પાસે",
        "થી"
      ],
      [
        "1",
        "7"
      ],
      [
        "ખ",
        "રે"
      ],
      [
        "જ",
        "રી"
      ],
      [
        "ડ",
        "ું"
      ],
      [
        "ત",
        "ન"
      ],
      [
        "સ",
        "માં"
      ],
      [
        "ૂ",
        "ડ"
      ],
      [
        "વા",
        "ળ"
      ],
      [
        "મં",
        "ડ"
      ],
      [
        "મોર",
        "બી"
      ],
      [
        "ઓ",
        "નો"
      ],
      [
        "ઓ",
        "છા"
      ],
      [
        "ચ",
        "ં"
      ],
      [
        "ટ",
        "ુ"
      ],
      [
        "ને",
        "શન"
      ],
      [
        "પ્ર",
        "ી"
      ],
      [
        "પ્ર",
        "શ્"
      ],
      [
        "લ્",
        "પ"
      ],
      [
        "સર",
        "ળ"
      ],
      [
        "કરવા",
        "નું"
      ],
      [
        "ચ",
        "લા"
      ],
      [
        "ટ",
        "ૂ"
      ],
      [
        "લ",
        "ખ"
      ],
      [
        "કા",
        "શ"
      ],
      [
        "ક્",
        "સિ"
      ],
      [
        "મે",
        "ન"
      ],
      [
        "મુ",
        "શ્કે"
      ],
      [
        "સુધી",
        "માં"
      ],
      [
        "ફા",
        "ય"
      ],
      [
        "કોરોના",
        "ના"
      ],
      [
        "વિસ્ત",
        "ારો"
      ],
      [
        "દૂ",
        "ધ"
      ],
      [
        "પગ",
        "લે"
      ],
      [
        "આયો",
        "જન"
      ],
      [
        "સા",
        "ઇ"
      ],
      [
        "મિ",
        "નિ"
      ],
      [
        "સભ",
        "્યો"
      ],
      [
        "જન્",
        "મ"
      ],
      [
        "રોકા",
        "ણ"
      ],
      [
        "ઠ",
        "વા"
      ],
      [
        "કો",
        "ન્"
      ],
      [
        "ક્",
        "શન"
      ],
      [
        "સે",
        "ના"
      ],
      [
        "દી",
        "ધી"
      ],
      [
        "ત્ય",
        "ુ"
      ],
      [
        "જવા",
        "બદ"
      ],
      [
        "મામ",
        "લે"
      ],
      [
        "a",
        "r"
      ],
      [
        "આ",
        "ંત"
      ],
      [
        "એ",
        "ફ"
      ],
      [
        "ક",
        "હી"
      ],
      [
        "ત",
        "સ"
      ],
      [
        "લ",
        "ક્ષ"
      ],
      [
        "સ",
        "ું"
      ],
      [
        "ની",
        "તિ"
      ],
      [
        "નિ",
        "ષ્"
      ],
      [
        "સિ",
        "વાય"
      ],
      [
        "ન્ડ",
        "િયા"
      ],
      [
        "મૃ",
        "ત્યુ"
      ],
      [
        "અર",
        "જી"
      ],
      [
        "ન",
        "હો"
      ],
      [
        "ય",
        "ત"
      ],
      [
        "કર",
        "વું"
      ],
      [
        "વિ",
        "ધા"
      ],
      [
        "પો",
        "ઝિ"
      ],
      [
        "ગ્રા",
        "હ"
      ],
      [
        "રાષ્ટ્ર",
        "ીય"
      ],
      [
        "દાખ",
        "લ"
      ],
      [
        "ખ",
        "રા"
      ],
      [
        "ધ",
        "ારે"
      ],
      [
        "મ",
        "ંગ"
      ],
      [
        "સ",
        "વારે"
      ],
      [
        "૧",
        "૫"
      ],
      [
        "આપ",
        "્યો"
      ],
      [
        "જૂ",
        "રી"
      ],
      [
        "સ્પ",
        "ષ્ટ"
      ],
      [
        "ઓ",
        "ફિ"
      ],
      [
        "ખ",
        "ર"
      ],
      [
        "ડ",
        "ૉ"
      ],
      [
        "થ",
        "તાં"
      ],
      [
        "ન",
        "નો"
      ],
      [
        "સ",
        "લ"
      ],
      [
        "હત",
        "ુ"
      ],
      [
        "રો",
        "માં"
      ],
      [
        "દેશ",
        "ો"
      ],
      [
        "શિ",
        "વ"
      ],
      [
        "મ્",
        "બ"
      ],
      [
        "ચો",
        "ક્"
      ],
      [
        "જવા",
        "બ"
      ],
      [
        "નં",
        "દ"
      ],
      [
        "અ",
        "ના"
      ],
      [
        "અ",
        "ર્થ"
      ],
      [
        "ઓ",
        "છી"
      ],
      [
        "ક",
        "ટ"
      ],
      [
        "ક",
        "નો"
      ],
      [
        "ન",
        "્યા"
      ],
      [
        "લ",
        "ય"
      ],
      [
        "શ",
        "્ય"
      ],
      [
        "ર્",
        "ન"
      ],
      [
        "વે",
        "લ"
      ],
      [
        "હા",
        "ઈ"
      ],
      [
        "પરિ",
        "સ્થિતિ"
      ],
      [
        "બ્ર",
        "િ"
      ],
      [
        "રાહુ",
        "લ"
      ],
      [
        "ં",
        "ભ"
      ],
      [
        "ક",
        "લે"
      ],
      [
        "ઝ",
        "ે"
      ],
      [
        "૧",
        "૧"
      ],
      [
        "વા",
        "હ"
      ],
      [
        "હત",
        "્યા"
      ],
      [
        "દે",
        "વામાં"
      ],
      [
        "ચ્",
        "ચ"
      ],
      [
        "જણા",
        "વી"
      ],
      [
        "રાજ્ય",
        "માં"
      ],
      [
        "ક",
        "મા"
      ],
      [
        "ચ",
        "ાર્"
      ],
      [
        "ડ",
        "વા"
      ],
      [
        "ફ",
        "ક્ત"
      ],
      [
        "મ",
        "્યુ"
      ],
      [
        "ર",
        "મ"
      ],
      [
        "૧",
        "૨"
      ],
      [
        "પણ",
        "ે"
      ],
      [
        "બા",
        "કી"
      ],
      [
        "પો",
        "રે"
      ],
      [
        "સિ",
        "સ્ટ"
      ],
      [
        "કોઈ",
        "પણ"
      ],
      [
        "ઉત્",
        "તર"
      ],
      [
        "મેળ",
        "વી"
      ],
      [
        "ઉદ",
        "્યો"
      ],
      [
        "હ",
        "વા"
      ],
      [
        "કર",
        "વી"
      ],
      [
        "તે",
        "નું"
      ],
      [
        "વિ",
        "ના"
      ],
      [
        "વિ",
        "રુ"
      ],
      [
        "લી",
        "ધા"
      ],
      [
        "ભા",
        "ગે"
      ],
      [
        "કરી",
        "એ"
      ],
      [
        "હિ",
        "ં"
      ],
      [
        "દર્",
        "શા"
      ],
      [
        "ઝડ",
        "પ"
      ],
      [
        "પ્રયા",
        "સ"
      ],
      [
        "2",
        "1"
      ],
      [
        "ં",
        "કી"
      ],
      [
        "અ",
        "લ"
      ],
      [
        "ત",
        "ારી"
      ],
      [
        "કર",
        "વો"
      ],
      [
        "નિ",
        "વે"
      ],
      [
        "બા",
        "ં"
      ],
      [
        "લિ",
        "ંગ"
      ],
      [
        "ગે",
        "રે"
      ],
      [
        "કાય",
        "દા"
      ],
      [
        "દાર",
        "ૂ"
      ],
      [
        "ભાજપ",
        "ના"
      ],
      [
        "ખર્",
        "ચ"
      ],
      [
        "2",
        "00"
      ],
      [
        "ટ",
        "ું"
      ],
      [
        "ન",
        "્યુ"
      ],
      [
        "ર",
        "ન"
      ],
      [
        "સ",
        "ન"
      ],
      [
        "યા",
        "ત્રા"
      ],
      [
        "પા",
        "ત્ર"
      ],
      [
        "મળ",
        "્યો"
      ],
      [
        "વો",
        "ર્ડ"
      ],
      [
        "શિ",
        "ક્ષણ"
      ],
      [
        "ફો",
        "ટો"
      ],
      [
        "ભારત",
        "ના"
      ],
      [
        "શહેર",
        "માં"
      ],
      [
        "કોર્",
        "ટે"
      ],
      [
        "ચોક્",
        "કસ"
      ],
      [
        "પ",
        "ંચા"
      ],
      [
        "ર",
        "ના"
      ],
      [
        "સ",
        "વા"
      ],
      [
        "કો",
        "લે"
      ],
      [
        "હો",
        "ઈ"
      ],
      [
        "લો",
        "જી"
      ],
      [
        "નિ",
        "ંગ"
      ],
      [
        "ડા",
        "ય"
      ],
      [
        "સુ",
        "વિધા"
      ],
      [
        "ક્ર",
        "ે"
      ],
      [
        "સ્થા",
        "પ"
      ],
      [
        "પ્રા",
        "પ્ત"
      ],
      [
        "ભૂ",
        "મિ"
      ],
      [
        "ક્રિ",
        "કેટ"
      ],
      [
        "અ",
        "પા"
      ],
      [
        "વ",
        "્યું"
      ],
      [
        "શ",
        "બ્"
      ],
      [
        "૧",
        "૮"
      ],
      [
        "કર",
        "તી"
      ],
      [
        "પર",
        "થી"
      ],
      [
        "પા",
        "લ"
      ],
      [
        "લે",
        "વામાં"
      ],
      [
        "હા",
        "ઇ"
      ],
      [
        "સિ",
        "ંગ"
      ],
      [
        "તમા",
        "રે"
      ],
      [
        "તરફ",
        "થી"
      ],
      [
        "વ્યવ",
        "સ્થા"
      ],
      [
        "1",
        "6"
      ],
      [
        "આ",
        "રી"
      ],
      [
        "ઉ",
        "ન્ડ"
      ],
      [
        "પ",
        "ારી"
      ],
      [
        "વ",
        "તી"
      ],
      [
        "વા",
        "ંચ"
      ],
      [
        "વિ",
        "દેશ"
      ],
      [
        "ન્",
        "ન"
      ],
      [
        "મે",
        "શા"
      ],
      [
        "રે",
        "લી"
      ],
      [
        "કુ",
        "માર"
      ],
      [
        "ચ્",
        "છા"
      ],
      [
        "ફર",
        "જ"
      ],
      [
        "ખુ",
        "બ"
      ],
      [
        "ધ્યા",
        "ન"
      ],
      [
        "વડા",
        "પ્રધાન"
      ],
      [
        "ખરી",
        "દી"
      ],
      [
        "લઇ",
        "ને"
      ],
      [
        "જામ",
        "નગર"
      ],
      [
        "i",
        "n"
      ],
      [
        "અ",
        "ક"
      ],
      [
        "અ",
        "ધ્ય"
      ],
      [
        "આ",
        "ર્થ"
      ],
      [
        "ન",
        "લ"
      ],
      [
        "ન",
        "્યૂ"
      ],
      [
        "સ્",
        "સા"
      ],
      [
        "નો",
        "કરી"
      ],
      [
        "મળ",
        "્યા"
      ],
      [
        "જાણ",
        "વા"
      ],
      [
        "ડ્ર",
        "ા"
      ],
      [
        "ફેર",
        "ફ"
      ],
      [
        "ગ",
        "ાર"
      ],
      [
        "ઠ",
        "ો"
      ],
      [
        "વ",
        "ળ"
      ],
      [
        "વ",
        "વાની"
      ],
      [
        "કે",
        "શ"
      ],
      [
        "પ્ર",
        "વેશ"
      ],
      [
        "લી",
        "ધી"
      ],
      [
        "હો",
        "વાની"
      ],
      [
        "ક્ષ",
        "િ"
      ],
      [
        "જુ",
        "દા"
      ],
      [
        "વર",
        "ણ"
      ],
      [
        "ચી",
        "ન"
      ],
      [
        "ધર",
        "પકડ"
      ],
      [
        "બેઠ",
        "ક"
      ],
      [
        "પ્રિ",
        "ય"
      ],
      [
        "ક્ષે",
        "ત્ર"
      ],
      [
        "ં",
        "તા"
      ],
      [
        "આ",
        "ધારે"
      ],
      [
        "થ",
        "તી"
      ],
      [
        "મ",
        "તી"
      ],
      [
        "ર",
        "કમ"
      ],
      [
        "પ્ર",
        "દેશ"
      ],
      [
        "ગા",
        "મના"
      ],
      [
        "ક્ર",
        "ો"
      ],
      [
        "લોકો",
        "ની"
      ],
      [
        "ગે",
        "ર"
      ],
      [
        "રાજ્ય",
        "ના"
      ],
      [
        "પ્રે",
        "મ"
      ],
      [
        "યુનિ",
        "વર્"
      ],
      [
        "હાર્",
        "દિ"
      ],
      [
        "ઓ",
        "વર"
      ],
      [
        "ખ",
        "બર"
      ],
      [
        "ગ",
        "ઇ"
      ],
      [
        "વા",
        "ર્"
      ],
      [
        "ના",
        "ની"
      ],
      [
        "રા",
        "જી"
      ],
      [
        "લા",
        "ગી"
      ],
      [
        "સા",
        "વ"
      ],
      [
        "સમ",
        "િ"
      ],
      [
        "ગુ",
        "રુ"
      ],
      [
        "લોકો",
        "ના"
      ],
      [
        "વર્ષ",
        "ની"
      ],
      [
        "ફા",
        "ઈ"
      ],
      [
        "તૈય",
        "ારી"
      ],
      [
        "હોસ્પિટ",
        "લમાં"
      ],
      [
        "ડાઉ",
        "ન"
      ],
      [
        "મુલાકા",
        "ત"
      ],
      [
        "હં",
        "મેશા"
      ],
      [
        "સ્",
        "તી"
      ],
      [
        "કે",
        "મ"
      ],
      [
        "સં",
        "ક્ર"
      ],
      [
        "બો",
        "લ"
      ],
      [
        "વિરુ",
        "દ્ધ"
      ],
      [
        "આર્થ",
        "િક"
      ],
      [
        "બ",
        "સ"
      ],
      [
        "બ",
        "તા"
      ],
      [
        "બ",
        "ધી"
      ],
      [
        "લા",
        "ઇન"
      ],
      [
        "વી",
        "ને"
      ],
      [
        "હા",
        "જર"
      ],
      [
        "બે",
        "ંક"
      ],
      [
        "રાજ",
        "ય"
      ],
      [
        "અમદાવાદ",
        "માં"
      ],
      [
        "ફરી",
        "થી"
      ],
      [
        "મહારા",
        "ષ્ટ્ર"
      ],
      [
        "4",
        "0"
      ],
      [
        "ક",
        "્યાં"
      ],
      [
        "જ",
        "ંગ"
      ],
      [
        "ત",
        "ને"
      ],
      [
        "પ",
        "ંચ"
      ],
      [
        "બ",
        "ચા"
      ],
      [
        "ષ",
        "ા"
      ],
      [
        "મે",
        "ં"
      ],
      [
        "જો",
        "ખ"
      ],
      [
        "સ્ટ",
        "િ"
      ],
      [
        "ગ્ર",
        "હ"
      ],
      [
        "ભાગ",
        "ના"
      ],
      [
        "જોઇ",
        "એ"
      ],
      [
        "અ",
        "ટ"
      ],
      [
        "આ",
        "ઉ"
      ],
      [
        "ઘ",
        "ો"
      ],
      [
        "જ",
        "માં"
      ],
      [
        "ન",
        "રેન્દ્ર"
      ],
      [
        "મ",
        "રા"
      ],
      [
        "ર",
        "વિ"
      ],
      [
        "વ",
        "ડ"
      ],
      [
        "મા",
        "ગ"
      ],
      [
        "ગા",
        "મમાં"
      ],
      [
        "ડિ",
        "ંગ"
      ],
      [
        "સમા",
        "ચાર"
      ],
      [
        "અં",
        "દર"
      ],
      [
        "ધારા",
        "સભ્ય"
      ],
      [
        "સું",
        "દર"
      ],
      [
        "e",
        "r"
      ],
      [
        "અ",
        "ઠવા"
      ],
      [
        "ગ",
        "રી"
      ],
      [
        "થ",
        "યેલા"
      ],
      [
        "ફ",
        "ુ"
      ],
      [
        "ર",
        "ની"
      ],
      [
        "વ",
        "જન"
      ],
      [
        "વ",
        "ગેરે"
      ],
      [
        "શ",
        "ૈ"
      ],
      [
        "સ",
        "ત્તા"
      ],
      [
        "વા",
        "ડી"
      ],
      [
        "ના",
        "ખ"
      ],
      [
        "સા",
        "મા"
      ],
      [
        "ટે",
        "ડ"
      ],
      [
        "ડી",
        "ઝ"
      ],
      [
        "શ્",
        "વર"
      ],
      [
        "ચુ",
        "ક"
      ],
      [
        "કેટલી",
        "ક"
      ],
      [
        "અ",
        "ફ"
      ],
      [
        "ક",
        "ૌ"
      ],
      [
        "ત",
        "ાર"
      ],
      [
        "હ",
        "રણ"
      ],
      [
        "વે",
        "પારી"
      ],
      [
        "ટી",
        "વી"
      ],
      [
        "આવે",
        "લી"
      ],
      [
        "આપ",
        "તા"
      ],
      [
        "લાં",
        "બા"
      ],
      [
        "વિસ્તારો",
        "માં"
      ],
      [
        "1",
        "3"
      ],
      [
        "a",
        "t"
      ],
      [
        "અ",
        "ગ્ર"
      ],
      [
        "ઉ",
        "દા"
      ],
      [
        "એ",
        "ક્સ"
      ],
      [
        "ગ",
        "ઢ"
      ],
      [
        "જ",
        "મા"
      ],
      [
        "જ",
        "ની"
      ],
      [
        "પ",
        "લ"
      ],
      [
        "ફ",
        "ૂ"
      ],
      [
        "લ",
        "બ્"
      ],
      [
        "શ",
        "હે"
      ],
      [
        "૧",
        "૭"
      ],
      [
        "વા",
        "ળી"
      ],
      [
        "વા",
        "હન"
      ],
      [
        "રા",
        "હત"
      ],
      [
        "કો",
        "વિડ"
      ],
      [
        "મી",
        "ટર"
      ],
      [
        "લોકો",
        "એ"
      ],
      [
        "બો",
        "ર્ડ"
      ],
      [
        "દિવ",
        "સો"
      ],
      [
        "સ્થા",
        "નિક"
      ],
      [
        "ભાવ",
        "ના"
      ],
      [
        "સાં",
        "ભ"
      ],
      [
        "સુર",
        "ક્ષા"
      ],
      [
        "વિદ્યાર્થી",
        "ઓ"
      ],
      [
        "તાલુકા",
        "ના"
      ],
      [
        "ખાન",
        "ગી"
      ],
      [
        "ઘ",
        "ે"
      ],
      [
        "ન",
        "હી"
      ],
      [
        "પ",
        "સાર"
      ],
      [
        "રા",
        "ખે"
      ],
      [
        "કો",
        "ણ"
      ],
      [
        "તિ",
        "હા"
      ],
      [
        "સં",
        "પર્"
      ],
      [
        "ટા",
        "ઇ"
      ],
      [
        "વર્ષ",
        "થી"
      ],
      [
        "કં",
        "ઈ"
      ],
      [
        "ચો",
        "રી"
      ],
      [
        "સાં",
        "જે"
      ],
      [
        "સ્પ",
        "ર્"
      ],
      [
        "ગાંધી",
        "નગર"
      ],
      [
        "નુક",
        "સાન"
      ],
      [
        "ખરા",
        "બ"
      ],
      [
        "મંગ",
        "ળ"
      ],
      [
        "a",
        "n"
      ],
      [
        "ઇ",
        "ન્ટર"
      ],
      [
        "ઘ",
        "ટ"
      ],
      [
        "ડ",
        "માં"
      ],
      [
        "૩",
        "૦"
      ],
      [
        "વા",
        "ગ્યા"
      ],
      [
        "સા",
        "ત"
      ],
      [
        "વિ",
        "ધાન"
      ],
      [
        "કા",
        "લે"
      ],
      [
        "કાર",
        "ા"
      ],
      [
        "રૂ",
        "પે"
      ],
      [
        "કિ",
        "ત"
      ],
      [
        "ન્ટ",
        "િ"
      ],
      [
        "પ્રા",
        "થ"
      ],
      [
        "ઉલ્લેખ",
        "નીય"
      ],
      [
        "ઝડપ",
        "થી"
      ],
      [
        "અધ્ય",
        "ક્ષ"
      ],
      [
        "2",
        "5"
      ],
      [
        "ડ",
        "ની"
      ],
      [
        "બ",
        "ૂ"
      ],
      [
        "સ",
        "ૈ"
      ],
      [
        "તા",
        "ની"
      ],
      [
        "પા",
        "લન"
      ],
      [
        "રો",
        "ક"
      ],
      [
        "મો",
        "ટો"
      ],
      [
        "શા",
        "ંત"
      ],
      [
        "ગુ",
        "ણ"
      ],
      [
        "ક્ર",
        "ા"
      ],
      [
        "કિ",
        "લો"
      ],
      [
        "મં",
        "ત્રા"
      ],
      [
        "સ્થા",
        "ન"
      ],
      [
        "ગુજરાત",
        "ના"
      ],
      [
        "પાર્",
        "ટ"
      ],
      [
        "લાઈ",
        "ન"
      ],
      [
        "ધરા",
        "વે"
      ],
      [
        "જન્",
        "સી"
      ],
      [
        "જેટ",
        "લા"
      ],
      [
        "મિનિ",
        "ટ"
      ],
      [
        "પોઝિ",
        "ટિવ"
      ],
      [
        "આઉ",
        "ટ"
      ],
      [
        "લબ્",
        "ધ"
      ],
      [
        "પ્રાથ",
        "મિક"
      ],
      [
        "ક",
        "ન્"
      ],
      [
        "જ",
        "િક"
      ],
      [
        "ણ",
        "ું"
      ],
      [
        "ભ",
        "રા"
      ],
      [
        "ર",
        "િયા"
      ],
      [
        "ર",
        "સી"
      ],
      [
        "લ",
        "ક્ષણ"
      ],
      [
        "કર",
        "નાર"
      ],
      [
        "સ્",
        "ટી"
      ],
      [
        "સ્",
        "ટ્રી"
      ],
      [
        "પ્ર",
        "દર્શન"
      ],
      [
        "ડી",
        "યા"
      ],
      [
        "ડિ",
        "ઝા"
      ],
      [
        "મં",
        "જૂરી"
      ],
      [
        "ંચ",
        "ી"
      ],
      [
        "જિલ્લા",
        "ના"
      ],
      [
        "ભૂ",
        "ત"
      ],
      [
        "ત્યાર",
        "બાદ"
      ],
      [
        "નોંધા",
        "યા"
      ],
      [
        ")",
        ","
      ],
      [
        "અ",
        "દા"
      ],
      [
        "ગ",
        "ણા"
      ],
      [
        "ચ",
        "િત"
      ],
      [
        "ઝ",
        "ન"
      ],
      [
        "ઠ",
        "ે"
      ],
      [
        "દ",
        "બા"
      ],
      [
        "દ",
        "ક્ષિ"
      ],
      [
        "ન",
        "હિ"
      ],
      [
        "વ",
        "્"
      ],
      [
        "શ",
        "ક્તિ"
      ],
      [
        "૧",
        "૪"
      ],
      [
        "વા",
        "તા"
      ],
      [
        "કે",
        "શન"
      ],
      [
        "કો",
        "ની"
      ],
      [
        "કા",
        "ઢ"
      ],
      [
        "લે",
        "ટ"
      ],
      [
        "સે",
        "ન્"
      ],
      [
        "યુ",
        "ક્ત"
      ],
      [
        "શ્",
        "મી"
      ],
      [
        "બના",
        "વવામાં"
      ],
      [
        "સૌ",
        "રાષ્ટ્ર"
      ],
      [
        "ચિ",
        "ંતા"
      ],
      [
        "પહો",
        "ંચા"
      ],
      [
        "જાણ",
        "કારી"
      ],
      [
        "વિશ્",
        "વાસ"
      ],
      [
        "મૃ",
        "ત"
      ],
      [
        "હોસ્પિટ",
        "લ"
      ],
      [
        "ઘટા",
        "ડો"
      ],
      [
        "સ્ટ્રે",
        "લિયા"
      ],
      [
        "પેટ્રો",
        "લ"
      ],
      [
        "યુનિવર્",
        "સિટી"
      ],
      [
        "એ",
        "ચ"
      ],
      [
        "ઓ",
        "ન"
      ],
      [
        "ક",
        "ટર"
      ],
      [
        "થ",
        "િ"
      ],
      [
        "ફ",
        "્રે"
      ],
      [
        "કર",
        "્યુ"
      ],
      [
        "તા",
        "ને"
      ],
      [
        "પ્ર",
        "સંગ"
      ],
      [
        "જા",
        "ળ"
      ],
      [
        "ટી",
        "ના"
      ],
      [
        "દ્",
        "ધિ"
      ],
      [
        "સમ",
        "ર્થ"
      ],
      [
        "ટા",
        "ઈ"
      ],
      [
        "ધા",
        "મ"
      ],
      [
        "વાર",
        "ં"
      ],
      [
        "સામે",
        "લ"
      ],
      [
        "માણ",
        "સ"
      ],
      [
        "વિશે",
        "ષ"
      ],
      [
        "સહિત",
        "ના"
      ],
      [
        "વ્યવ",
        "સાય"
      ],
      [
        "પ્રકાર",
        "ની"
      ],
      [
        "ં",
        "ડી"
      ],
      [
        "બ",
        "હુ"
      ],
      [
        "મ",
        "જબ"
      ],
      [
        "લ",
        "ૂ"
      ],
      [
        "શ",
        "ં"
      ],
      [
        "શ",
        "નિ"
      ],
      [
        "લા",
        "ડી"
      ],
      [
        "રે",
        "લ"
      ],
      [
        "લ્",
        "લી"
      ],
      [
        "ડા",
        "માં"
      ],
      [
        "દા",
        "વો"
      ],
      [
        "દ્",
        "ધા"
      ],
      [
        "ગા",
        "ળા"
      ],
      [
        "પુ",
        "ત્ર"
      ],
      [
        "શિ",
        "ક્ષ"
      ],
      [
        "રાખ",
        "વામાં"
      ],
      [
        "દિવસ",
        "માં"
      ],
      [
        "શુ",
        "ક્ર"
      ],
      [
        "સ્વા",
        "સ્થ"
      ],
      [
        "ઉત્પા",
        "દન"
      ],
      [
        "વિધાન",
        "સભા"
      ],
      [
        "દક્ષિ",
        "ણ"
      ],
      [
        "મજબ",
        "ૂ"
      ],
      [
        "આ",
        "સ"
      ],
      [
        "ઉ",
        "જ"
      ],
      [
        "છ",
        "ુ"
      ],
      [
        "જ",
        "મીન"
      ],
      [
        "ડ",
        "વામાં"
      ],
      [
        "થ",
        "વાની"
      ],
      [
        "ફ",
        "ટ"
      ],
      [
        "બ",
        "્રે"
      ]
    ]
  }
}