{
  "version": "1.0",
  "truncation": null,
  "padding": null,
  "added_tokens": [
    {
      "id": 0,
      "content": "[UNK]",
      "single_word": false,
      "lstrip": false,
      "rstrip": false,
      "normalized": false,
      "special": true
    },
    {
      "id": 1,
      "content": "[PAD]",
      "single_word": false,
      "lstrip": false,
      "rstrip": false,
      "normalized": false,
      "special": true
    },
    {
      "id": 2,
      "content": "[BOS]",
      "single_word": false,
      "lstrip": false,
      "rstrip": false,
      "normalized": false,
      "special": true
    },
    {
      "id": 3,
      "content": "[EOS]",
      "single_word": false,
      "lstrip": false,
      "rstrip": false,
      "normalized": false,
      "special": true
    }
  ],
  "normalizer": {
    "type": "NFC"
  },
  "pre_tokenizer": {
    "type": "Whitespace"
  },
  "post_processor": null,
  "decoder": null,
  "model": {
    "type": "WordPiece",
    "unk_token": "[UNK]",
    "continuing_subword_prefix": "##",
    "max_input_chars_per_word": 200,
    "vocab": {
      "[UNK]": 0,
      "[PAD]": 1,
      "[BOS]": 2,
      "[EOS]": 3,
      "!": 4,
      "\"": 5,
      "#": 6,
      "$": 7,
      "%": 8,
      "&": 9,
      "'": 10,
      "(": 11,
      ")": 12,
      "*": 13,
      "+": 14,
      ",": 15,
      "-": 16,
      ".": 17,
      "/": 18,
      "0": 19,
      "1": 20,
      "2": 21,
      "3": 22,
      "4": 23,
      "5": 24,
      "6": 25,
      "7": 26,
      "8": 27,
      "9": 28,
      ":": 29,
      ";": 30,
      "<": 31,
      "=": 32,
      ">": 33,
      "?": 34,
      "@": 35,
      "A": 36,
      "B": 37,
      "C": 38,
      "D": 39,
      "E": 40,
      "F": 41,
      "G": 42,
      "H": 43,
      "I": 44,
      "J": 45,
      "K": 46,
      "L": 47,
      "M": 48,
      "N": 49,
      "O": 50,
      "P": 51,
      "Q": 52,
      "R": 53,
      "S": 54,
      "T": 55,
      "U": 56,
      "V": 57,
      "W": 58,
      "X": 59,
      "Y": 60,
      "Z": 61,
      "[": 62,
      "\\": 63,
      "]": 64,
      "^": 65,
      "_": 66,
      "`": 67,
      "a": 68,
      "b": 69,
      "c": 70,
      "d": 71,
      "e": 72,
      "f": 73,
      "g": 74,
      "h": 75,
      "i": 76,
      "j": 77,
      "k": 78,
      "l": 79,
      "m": 80,
      "n": 81,
      "o": 82,
      "p": 83,
      "q": 84,
      "r": 85,
      "s": 86,
      "t": 87,
      "u": 88,
      "v": 89,
      "w": 90,
      "x": 91,
      "y": 92,
      "z": 93,
      "{": 94,
      "|": 95,
      "}": 96,
      "~": 97,
      "": 98,
      "": 99,
      "": 100,
      "": 101,
      "": 102,
      "": 103,
      "£": 104,
      "¤": 105,
      "¥": 106,
      "§": 107,
      "¨": 108,
      "©": 109,
      "«": 110,
      "¬": 111,
      "­": 112,
      "®": 113,
      "°": 114,
      "±": 115,
      "²": 116,
      "³": 117,
      "µ": 118,
      "·": 119,
      "¹": 120,
      "º": 121,
      "»": 122,
      "¼": 123,
      "½": 124,
      "¾": 125,
      "¿": 126,
      "À": 127,
      "Â": 128,
      "Ä": 129,
      "Å": 130,
      "Æ": 131,
      "Ç": 132,
      "È": 133,
      "É": 134,
      "Ê": 135,
      "Ì": 136,
      "Î": 137,
      "Ñ": 138,
      "×": 139,
      "Ù": 140,
      "Ú": 141,
      "Ý": 142,
      "Þ": 143,
      "ß": 144,
      "à": 145,
      "á": 146,
      "â": 147,
      "ã": 148,
      "ä": 149,
      "å": 150,
      "æ": 151,
      "ç": 152,
      "è": 153,
      "é": 154,
      "ê": 155,
      "ë": 156,
      "í": 157,
      "î": 158,
      "ï": 159,
      "ð": 160,
      "ñ": 161,
      "ò": 162,
      "ó": 163,
      "ô": 164,
      "õ": 165,
      "ö": 166,
      "÷": 167,
      "ú": 168,
      "û": 169,
      "ü": 170,
      "þ": 171,
      "ā": 172,
      "č": 173,
      "ě": 174,
      "ğ": 175,
      "ī": 176,
      "ı": 177,
      "ń": 178,
      "ō": 179,
      "ő": 180,
      "Ś": 181,
      "ş": 182,
      "š": 183,
      "ū": 184,
      "Ź": 185,
      "ǐ": 186,
      "ɑ": 187,
      "ɔ": 188,
      "ə": 189,
      "ɪ": 190,
      "ʃ": 191,
      "ˈ": 192,
      "ː": 193,
      "˗": 194,
      "˚": 195,
      "˜": 196,
      "̃": 197,
      "̊": 198,
      "Α": 199,
      "Δ": 200,
      "Μ": 201,
      "Ψ": 202,
      "ί": 203,
      "α": 204,
      "β": 205,
      "ε": 206,
      "ζ": 207,
      "η": 208,
      "θ": 209,
      "ι": 210,
      "κ": 211,
      "λ": 212,
      "μ": 213,
      "ν": 214,
      "ξ": 215,
      "ο": 216,
      "π": 217,
      "ρ": 218,
      "σ": 219,
      "τ": 220,
      "υ": 221,
      "φ": 222,
      "ω": 223,
      "А": 224,
      "В": 225,
      "С": 226,
      "а": 227,
      "б": 228,
      "в": 229,
      "г": 230,
      "д": 231,
      "е": 232,
      "з": 233,
      "и": 234,
      "й": 235,
      "к": 236,
      "л": 237,
      "м": 238,
      "н": 239,
      "о": 240,
      "п": 241,
      "р": 242,
      "с": 243,
      "т": 244,
      "у": 245,
      "х": 246,
      "ч": 247,
      "щ": 248,
      "ъ": 249,
      "ы": 250,
      "ь": 251,
      "ю": 252,
      "я": 253,
      "і": 254,
      "إ": 255,
      "ئ": 256,
      "ا": 257,
      "ة": 258,
      "ت": 259,
      "ج": 260,
      "ح": 261,
      "د": 262,
      "ر": 263,
      "س": 264,
      "ف": 265,
      "ق": 266,
      "ل": 267,
      "م": 268,
      "ن": 269,
      "ه": 270,
      "و": 271,
      "ي": 272,
      "َ": 273,
      "ِ": 274,
      "ْ": 275,
      "پ": 276,
      "ک": 277,
      "گ": 278,
      "ہ": 279,
      "ی": 280,
      "ँ": 281,
      "ं": 282,
      "ः": 283,
      "अ": 284,
      "आ": 285,
      "इ": 286,
      "ई": 287,
      "उ": 288,
      "ऊ": 289,
      "ऋ": 290,
      "ए": 291,
      "ओ": 292,
      "औ": 293,
      "क": 294,
      "ख": 295,
      "ग": 296,
      "घ": 297,
      "ङ": 298,
      "च": 299,
      "छ": 300,
      "ज": 301,
      "झ": 302,
      "ञ": 303,
      "ट": 304,
      "ड": 305,
      "ढ": 306,
      "ण": 307,
      "त": 308,
      "थ": 309,
      "द": 310,
      "ध": 311,
      "न": 312,
      "प": 313,
      "फ": 314,
      "ब": 315,
      "भ": 316,
      "म": 317,
      "य": 318,
      "र": 319,
      "ल": 320,
      "ळ": 321,
      "व": 322,
      "श": 323,
      "ष": 324,
      "स": 325,
      "ह": 326,
      "़": 327,
      "ऽ": 328,
      "ा": 329,
      "ि": 330,
      "ी": 331,
      "ु": 332,
      "ू": 333,
      "ृ": 334,
      "ॅ": 335,
      "े": 336,
      "ै": 337,
      "ॉ": 338,
      "ो": 339,
      "ौ": 340,
      "्": 341,
      "ॐ": 342,
      "।": 343,
      "॥": 344,
      "०": 345,
      "२": 346,
      "३": 347,
      "४": 348,
      "७": 349,
      "॰": 350,
      "ং": 351,
      "আ": 352,
      "ক": 353,
      "গ": 354,
      "চ": 355,
      "জ": 356,
      "ট": 357,
      "ড": 358,
      "ণ": 359,
      "ত": 360,
      "দ": 361,
      "ন": 362,
      "ম": 363,
      "র": 364,
      "শ": 365,
      "স": 366,
      "হ": 367,
      "়": 368,
      "া": 369,
      "ি": 370,
      "ী": 371,
      "ু": 372,
      "ৃ": 373,
      "ে": 374,
      "ো": 375,
      "্": 376,
      "ৰ": 377,
      "ৱ": 378,
      "੨": 379,
      "ઁ": 380,
      "ં": 381,
      "ઃ": 382,
      "અ": 383,
      "આ": 384,
      "ઇ": 385,
      "ઈ": 386,
      "ઉ": 387,
      "ઊ": 388,
      "ઋ": 389,
      "ઍ": 390,
      "એ": 391,
      "ઐ": 392,
      "ઑ": 393,
      "ઓ": 394,
      "ઔ": 395,
      "ક": 396,
      "ખ": 397,
      "ગ": 398,
      "ઘ": 399,
      "ઙ": 400,
      "ચ": 401,
      "છ": 402,
      "જ": 403,
      "ઝ": 404,
      "ઞ": 405,
      "ટ": 406,
      "ઠ": 407,
      "ડ": 408,
      "ઢ": 409,
      "ણ": 410,
      "ત": 411,
      "થ": 412,
      "દ": 413,
      "ધ": 414,
      "ન": 415,
      "પ": 416,
      "ફ": 417,
      "બ": 418,
      "ભ": 419,
      "મ": 420,
      "ય": 421,
      "ર": 422,
      "઱": 423,
      "લ": 424,
      "ળ": 425,
      "વ": 426,
      "શ": 427,
      "ષ": 428,
      "સ": 429,
      "હ": 430,
      "઼": 431,
      "ઽ": 432,
      "ા": 433,
      "િ": 434,
      "ી": 435,
      "ુ": 436,
      "ૂ": 437,
      "ૃ": 438,
      "ૄ": 439,
      "ૅ": 440,
      "ે": 441,
      "ૈ": 442,
      "ૉ": 443,
      "ો": 444,
      "ૌ": 445,
      "્": 446,
      "ૐ": 447,
      "ૠ": 448,
      "ૢ": 449,
      "૤": 450,
      "૦": 451,
      "૧": 452,
      "૨": 453,
      "૩": 454,
      "૪": 455,
      "૫": 456,
      "૬": 457,
      "૭": 458,
      "૮": 459,
      "૯": 460,
      "૱": 461,
      "૳": 462,
      "૴": 463,
      "ନ": 464,
      "ବ": 465,
      "ଭ": 466,
      "ର": 467,
      "ଶ": 468,
      "ୁ": 469,
      "େ": 470,
      "୍": 471,
      "ୱ": 472,
      "ச": 473,
      "ர": 474,
      "ழ": 475,
      "ோ": 476,
      "்": 477,
      "త": 478,
      "ప": 479,
      "భ": 480,
      "మ": 481,
      "ష": 482,
      "హ": 483,
      "ి": 484,
      "ూ": 485,
      "ే": 486,
      "్": 487,
      "ἐ": 488,
      "‎": 489,
      "–": 490,
      "—": 491,
      "‘": 492,
      "’": 493,
      "‚": 494,
      "‛": 495,
      "“": 496,
      "”": 497,
      "†": 498,
      "•": 499,
      "…": 500,
      "‪": 501,
      "‬": 502,
      "′": 503,
      "″": 504,
      "‹": 505,
      "⁠": 506,
      "€": 507,
      "₹": 508,
      "№": 509,
      "™": 510,
      "←": 511,
      "↑": 512,
      "→": 513,
      "⇓": 514,
      "−": 515,
      "√": 516,
      "≈": 517,
      "≤": 518,
      "⓿": 519,
      "▪": 520,
      "▲": 521,
      "►": 522,
      "◆": 523,
      "○": 524,
      "●": 525,
      "★": 526,
      "☔": 527,
      "☞": 528,
      "☺": 529,
      "♡": 530,
      "♦": 531,
      "♲": 532,
      "⚫": 533,
      "⛳": 534,
      "✓": 535,
      "✔": 536,
      "✖": 537,
      "❣": 538,
      "❤": 539,
      "➡": 540,
      "➢": 541,
      "⦁": 542,
      "⬛": 543,
      "⭕": 544,
      "、": 545,
      "【": 546,
      "】": 547,
      "〒": 548,
      "〖": 549,
      "〗": 550,
      "ア": 551,
      "ゲ": 552,
      "ナ": 553,
      "リ": 554,
      "ン": 555,
      "㎡": 556,
      "七": 557,
      "三": 558,
      "中": 559,
      "京": 560,
      "人": 561,
      "仏": 562,
      "佛": 563,
      "共": 564,
      "北": 565,
      "华": 566,
      "卐": 567,
      "合": 568,
      "同": 569,
      "和": 570,
      "国": 571,
      "國": 572,
      "夕": 573,
      "大": 574,
      "娜": 575,
      "子": 576,
      "学": 577,
      "安": 578,
      "宝": 579,
      "戈": 580,
      "東": 581,
      "棚": 582,
      "機": 583,
      "止": 584,
      "武": 585,
      "民": 586,
      "狮": 587,
      "獅": 588,
      "琵": 589,
      "琶": 590,
      "略": 591,
      "胡": 592,
      "菩": 593,
      "華": 594,
      "萄": 595,
      "萨": 596,
      "葡": 597,
      "薩": 598,
      "語": 599,
      "連": 600,
      "酪": 601,
      "際": 602,
      "": 603,
      "": 604,
      "": 605,
      "": 606,
      "": 607,
      "": 608,
      "": 609,
      "": 610,
      "️": 611,
      "（": 612,
      "，": 613,
      "／": 614,
      "：": 615,
      "｜": 616,
      "ﾍ": 617,
      "ﾗ": 618,
      "ﾠ": 619,
      "�": 620,
      "🍁": 621,
      "🍉": 622,
      "🍋": 623,
      "🍎": 624,
      "🍚": 625,
      "🎹": 626,
      "🎼": 627,
      "🏥": 628,
      "👈": 629,
      "👉": 630,
      "👍": 631,
      "👏": 632,
      "👣": 633,
      "💁": 634,
      "💐": 635,
      "💦": 636,
      "💫": 637,
      "📌": 638,
      "📱": 639,
      "📸": 640,
      "🔘": 641,
      "🔱": 642,
      "🔲": 643,
      "🕸": 644,
      "😀": 645,
      "😁": 646,
      "😊": 647,
      "😋": 648,
      "😲": 649,
      "😳": 650,
      "🙂": 651,
      "🙏": 652,
      "🚤": 653,
      "🚩": 654,
      "🤔": 655,
      "🥑": 656,
      "##એ": 657,
      "##ૂ": 658,
      "##ત": 659,
      "##્": 660,
      "##ર": 661,
      "##ધ": 662,
      "##ા": 663,
      "##ે": 664,
      "##ો": 665,
      "##ઝ": 666,
      "##લ": 667,
      "##ી": 668,
      "##ૅ": 669,
      "##બ": 670,
      "##ટ": 671,
      "##ન": 672,
      "##ભ": 673,
      "##િ": 674,
      "##જ": 675,
      "##ય": 676,
      "##મ": 677,
      "##ં": 678,
      "##ણ": 679,
      "##સ": 680,
      "##ુ": 681,
      "##દ": 682,
      "##૩": 683,
      "##થ": 684,
      "##W": 685,
      "##વ": 686,
      "##ખ": 687,
      "##9": 688,
      "##5": 689,
      "##6": 690,
      "##ૈ": 691,
      "##ઞ": 692,
      "##ક": 693,
      "##ગ": 694,
      "##ઉ": 695,
      "##ડ": 696,
      "##પ": 697,
      "##ઈ": 698,
      "##હ": 699,
      "##ઠ": 700,
      "##ફ": 701,
      "##ઇ": 702,
      "##૯": 703,
      "##૭": 704,
      "##૧": 705,
      "##૨": 706,
      "##૫": 707,
      "##7": 708,
      "##શ": 709,
      "##ઘ": 710,
      "##અ": 711,
      "##ઓ": 712,
      "##ળ": 713,
      "##0": 714,
      "##G": 715,
      "##C": 716,
      "##A": 717,
      "##F": 718,
      "##O": 719,
      "##ષ": 720,
      "##ૉ": 721,
      "##a": 722,
      "##h": 723,
      "##r": 724,
      "##j": 725,
      "##ચ": 726,
      "##1": 727,
      "##8": 728,
      "##૦": 729,
      "##ૃ": 730,
      "##4": 731,
      "##3": 732,
      "##ૌ": 733,
      "##u": 734,
      "##p": 735,
      "##T": 736,
      "##V": 737,
      "##2": 738,
      "##ઋ": 739,
      "##g": 740,
      "##e": 741,
      "##n": 742,
      "##i": 743,
      "##R": 744,
      "##P": 745,
      "##c": 746,
      "##I": 747,
      "##M": 748,
      "##ઃ": 749,
      "##d": 750,
      "##o": 751,
      "##m": 752,
      "##t": 753,
      "##s": 754,
      "##z": 755,
      "##k": 756,
      "##l": 757,
      "##y": 758,
      "##v": 759,
      "##છ": 760,
      "##૮": 761,
      "##૬": 762,
      "##S": 763,
      "##K": 764,
      "##H": 765,
      "##L": 766,
      "##b": 767,
      "##ઑ": 768,
      "##–": 769,
      "##આ": 770,
      "##ઢ": 771,
      "##f": 772,
      "##N": 773,
      "##E": 774,
      "##U": 775,
      "##D": 776,
      "##઼": 777,
      "##Q": 778,
      "##૪": 779,
      "##*": 780,
      "##,": 781,
      "##)": 782,
      "##w": 783,
      "##ઁ": 784,
      "##”": 785,
      "##…": 786,
      "##.": 787,
      "##ઙ": 788,
      "##ઔ": 789,
      "##ઊ": 790,
      "##B": 791,
      "##x": 792,
      "##:": 793,
      "##;": 794,
      "##त": 795,
      "##्": 796,
      "##र": 797,
      "##X": 798,
      "##q": 799,
      "##J": 800,
      "##?": 801,
      "##Z": 802,
      "##!": 803,
      "##~": 804,
      "##â": 805,
      "##ज": 806,
      "##é": 807,
      "##प": 808,
      "##ी": 809,
      "##Y": 810,
      "##_": 811,
      "##न": 812,
      "##Â": 813,
      "##“": 814,
      "##\"": 815,
      "##º": 816,
      "##ઍ": 817,
      "##'": 818,
      "##ઐ": 819,
      "##С": 820,
      "##%": 821,
      "##ī": 822,
      "##‘": 823,
      "##♲": 824,
      "##": 825,
      "###": 826,
      "##’": 827,
      "##ा": 828,
      "##ह": 829,
      "##े": 830,
      "##व": 831,
      "##ो": 832,
      "##Ù": 833,
      "##(": 834,
      "##👈": 835,
      "##>": 836,
      "##<": 837,
      "##/": 838,
      "##ૠ": 839,
      "##ૢ": 840,
      "##ळ": 841,
      "##@": 842,
      "##$": 843,
      "##ट": 844,
      "##á": 845,
      "##-": 846,
      "##ग": 847,
      "##ल": 848,
      "##б": 849,
      "##ы": 850,
      "##ч": 851,
      "##н": 852,
      "##е": 853,
      "##थ": 854,
      "##ै": 855,
      "##श": 856,
      "##च": 857,
      "##य": 858,
      "##Ý": 859,
      "##í": 860,
      "##म": 861,
      "##仏": 862,
      "##[": 863,
      "##ō": 864,
      "##�": 865,
      "##❤": 866,
      "##ृ": 867,
      "##ि": 868,
      "##ξ": 869,
      "##क": 870,
      "##ु": 871,
      "##ण": 872,
      "##ड": 873,
      "##ं": 874,
      "##इ": 875,
      "##ौ": 876,
      "##連": 877,
      "##ऊ": 878,
      "##|": 879,
      "##़": 880,
      "##⓿": 881,
      "##स": 882,
      "##०": 883,
      "##ऽ": 884,
      "##№": 885,
      "##૤": 886,
      "##द": 887,
      "##ष": 888,
      "##ँ": 889,
      "##и": 890,
      "##о": 891,
      "##г": 892,
      "##д": 893,
      "##।": 894,
      "##р": 895,
      "##з": 896,
      "##а": 897,
      "##к": 898,
      "##α": 899,
      "##π": 900,
      "##τ": 901,
      "##ί": 902,
      "##σ": 903,
      "##ω": 904,
      "##ν": 905,
      "##ι": 906,
      "##+": 907,
      "##ë": 908,
      "##‪": 909,
      "##ণ": 910,
      "##ॅ": 911,
      "##ૄ": 912,
      "##ख": 913,
      "##大": 914,
      "##š": 915,
      "##م": 916,
      "##ر": 917,
      "##ی": 918,
      "##子": 919,
      "##ୁ": 920,
      "##ବ": 921,
      "##ନ": 922,
      "##େ": 923,
      "##ଶ": 924,
      "##୍": 925,
      "##ୱ": 926,
      "##ର": 927,
      "##૳": 928,
      "##": 929,
      "##]": 930,
      "##ञ": 931,
      "##î": 932,
      "##`": 933,
      "##佛": 934,
      "##薩": 935,
      "##ß": 936,
      "##ó": 937,
      "##भ": 938,
      "##ﾠ": 939,
      "##ू": 940,
      "##झ": 941,
      "##ï": 942,
      "##·": 943,
      "##‎": 944,
      "##ः": 945,
      "##ब": 946,
      "##ě": 947,
      "##=": 948,
      "##₹": 949,
      "##萄": 950,
      "##●": 951,
      "##♦": 952,
      "##µ": 953,
      "##😲": 954,
      "##ş": 955,
      "##☔": 956,
      "##‚": 957,
      "##फ": 958,
      "##ध": 959,
      "##à": 960,
      "##機": 961,
      "##þ": 962,
      "##в": 963,
      "##ь": 964,
      "##я": 965,
      "##🚩": 966,
      "##🔱": 967,
      "##🙏": 968,
      "##ü": 969,
      "##β": 970,
      "##θ": 971,
      "##η": 972,
      "##琶": 973,
      "##ো": 974,
      "##ম": 975,
      "##র": 976,
      "##া": 977,
      "##জ": 978,
      "##т": 979,
      "##ğ": 980,
      "##ૐ": 981,
      "##✔": 982,
      "##ج": 983,
      "##ê": 984,
      "##å": 985,
      "##ç": 986,
      "##ã": 987,
      "##è": 988,
      "##\\": 989,
      "##—": 990,
      "##Î": 991,
      "##ö": 992,
      "##ক": 993,
      "##ু": 994,
      "##চ": 995,
      "##˜": 996,
      "##™": 997,
      "##ﾍ": 998,
      "##ı": 999,
      "##✓": 1000,
      "##«": 1001,
      "##際": 1002,
      "##合": 1003,
      "##•": 1004,
      "##👣": 1005,
      "##ॉ": 1006,
      "##ూ": 1007,
      "##ప": 1008,
      "##త": 1009,
      "##ి": 1010,
      "##й": 1011,
      "##х": 1012,
      "##ہ": 1013,
      "##ل": 1014,
      "##گ": 1015,
      "##ا": 1016,
      "##👉": 1017,
      "##Ê": 1018,
      "##§": 1019,
      "##❣": 1020,
      "##গ": 1021,
      "##ী": 1022,
      "##দ": 1023,
      "##ে": 1024,
      "##с": 1025,
      "##л": 1026,
      "##у": 1027,
      "##ń": 1028,
      "##È": 1029,
      "##ओ": 1030,
      "##‛": 1031,
      "##Ì": 1032,
      "##ə": 1033,
      "##ˈ": 1034,
      "##ɪ": 1035,
      "##ʃ": 1036,
      "##ِ": 1037,
      "##س": 1038,
      "##ْ": 1039,
      "##َ": 1040,
      "##ئ": 1041,
      "##ي": 1042,
      "##ت": 1043,
      "##ح": 1044,
      "##پ": 1045,
      "##و": 1046,
      "##ة": 1047,
      "##Ú": 1048,
      "##ন": 1049,
      "##د": 1050,
      "##ن": 1051,
      "##️": 1052,
      "##ढ": 1053,
      "##æ": 1054,
      "##Ñ": 1055,
      "##ﾗ": 1056,
      "##п": 1057,
      "##ъ": 1058,
      "##м": 1059,
      "##√": 1060,
      "##": 1061,
      "##ई": 1062,
      "##ζ": 1063,
      "##{": 1064,
      "##Ź": 1065,
      "##ā": 1066,
      "##華": 1067,
      "##人": 1068,
      "##民": 1069,
      "##共": 1070,
      "##和": 1071,
      "##國": 1072,
      "##ઽ": 1073,
      "##}": 1074,
      "##ε": 1075,
      "##ρ": 1076,
      "##φ": 1077,
      "##ο": 1078,
      "##娜": 1079,
      "##💐": 1080,
      "##щ": 1081,
      "##ä": 1082,
      "##ق": 1083,
      "##υ": 1084,
      "##⁠": 1085,
      "##č": 1086,
      "##夕": 1087,
      "##ए": 1088,
      "##ک": 1089,
      "##õ": 1090,
      "##华": 1091,
      "##国": 1092,
      "##హ": 1093,
      "##ే": 1094,
      "##ష": 1095,
      "##్": 1096,
      "##ò": 1097,
      "##ő": 1098,
      "##Þ": 1099,
      "##ோ": 1100,
      "##ழ": 1101,
      "##ர": 1102,
      "##்": 1103,
      "##萨": 1104,
      "##同": 1105,
      "##ɔ": 1106,
      "##ː": 1107,
      "##&": 1108,
      "##Å": 1109,
      "##ɑ": 1110,
      "##̃": 1111,
      "##κ": 1112,
      "##λ": 1113,
      "##ট": 1114,
      "##্": 1115,
      "##ङ": 1116,
      "##¤": 1117,
      "##ū": 1118,
      "##😁": 1119,
      "##ড": 1120,
      "##়": 1121,
      "##û": 1122,
      "##ú": 1123,
      "##छ": 1124,
      "##⬛": 1125,
      "##घ": 1126,
      "##ǐ": 1127,
      "##ং": 1128,
      "##স": 1129,
      "##ৃ": 1130,
      "##ত": 1131,
      "##ি": 1132,
      "##ю": 1133,
      "##ৱ": 1134,
      "##ৰ": 1135,
      "##ه": 1136,
      "##μ": 1137,
      "##宝": 1138,
      "##आ": 1139,
      "##京": 1140,
      "##学": 1141,
      "##ñ": 1142,
      "##語": 1143,
      "##ાં": 1144,
      "##ાર": 1145,
      "##્ય": 1146,
      "##ને": 1147,
      "##માં": 1148,
      "##્ર": 1149,
      "##ના": 1150,
      "##વા": 1151,
      "છે": 1152,
      "##ની": 1153,
      "##ું": 1154,
      "કર": 1155,
      "##ર્": 1156,
      "તે": 1157,
      "##તા": 1158,
      "અને": 1159,
      "##થી": 1160,
      "કે": 1161,
      "##્ટ": 1162,
      "મા": 1163,
      "##લા": 1164,
      "##ામ": 1165,
      "##નો": 1166,
      "આવ": 1167,
      "હત": 1168,
      "પ્ર": 1169,
      "##િક": 1170,
      "##યા": 1171,
      "પર": 1172,
      "##ાવ": 1173,
      "##્યા": 1174,
      "##ાય": 1175,
      "##હે": 1176,
      "##ન્": 1177,
      "##રી": 1178,
      "##ટે": 1179,
      "##સ્": 1180,
      "વિ": 1181,
      "##ક્": 1182,
      "##લી": 1183,
      "કો": 1184,
      "##ાન": 1185,
      "જે": 1186,
      "##ાત": 1187,
      "##કો": 1188,
      "##ંગ": 1189,
      "માટે": 1190,
      "##ાજ": 1191,
      "પણ": 1192,
      "##વામાં": 1193,
      "##શે": 1194,
      "##ારે": 1195,
      "એક": 1196,
      "સા": 1197,
      "##િત": 1198,
      "##્વ": 1199,
      "કરી": 1200,
      "##નું": 1201,
      "##લ્": 1202,
      "##ેશ": 1203,
      "##ારી": 1204,
      "##્યો": 1205,
      "હો": 1206,
      "##્યું": 1207,
      "જો": 1208,
      "##રો": 1209,
      "##િયા": 1210,
      "##વી": 1211,
      "##ાણ": 1212,
      "##હી": 1213,
      "##ંત": 1214,
      "##મે": 1215,
      "પો": 1216,
      "##ારા": 1217,
      "સમ": 1218,
      "##કે": 1219,
      "સ્": 1220,
      "##ાલ": 1221,
      "આપ": 1222,
      "##િવ": 1223,
      "મો": 1224,
      "##થે": 1225,
      "તેમ": 1226,
      "સુ": 1227,
      "##ાસ": 1228,
      "સં": 1229,
      "##ડી": 1230,
      "સાથે": 1231,
      "##તી": 1232,
      "##ાગ": 1233,
      "##લે": 1234,
      "##ાદ": 1235,
      "##્રી": 1236,
      "કાર": 1237,
      "##રે": 1238,
      "##ધી": 1239,
      "##તિ": 1240,
      "હતી": 1241,
      "લો": 1242,
      "##યો": 1243,
      "##ાઈ": 1244,
      "##ાળ": 1245,
      "બે": 1246,
      "##રા": 1247,
      "વધ": 1248,
      "મુ": 1249,
      "##ટી": 1250,
      "##ક્ષ": 1251,
      "##ણે": 1252,
      "##કા": 1253,
      "તો": 1254,
      "##ાઇ": 1255,
      "##કાર": 1256,
      "તમ": 1257,
      "##ત્": 1258,
      "##જી": 1259,
      "##્રે": 1260,
      "##િય": 1261,
      "##ણી": 1262,
      "##ડા": 1263,
      "##ંદ": 1264,
      "મળ": 1265,
      "##સ્ટ": 1266,
      "કરવા": 1267,
      "મે": 1268,
      "રહ": 1269,
      "##વે": 1270,
      "મહ": 1271,
      "ઉપ": 1272,
      "રાજ": 1273,
      "##કી": 1274,
      "##રૂ": 1275,
      "વર્": 1276,
      "##ાખ": 1277,
      "હતો": 1278,
      "##ન્ટ": 1279,
      "આવે": 1280,
      "##્યારે": 1281,
      "##સી": 1282,
      "##ાર્": 1283,
      "##દી": 1284,
      "##તે": 1285,
      "##લો": 1286,
      "હતા": 1287,
      "##િલ્": 1288,
      "##ંધ": 1289,
      "આવી": 1290,
      "સર": 1291,
      "નથી": 1292,
      "રો": 1293,
      "લોકો": 1294,
      "##સ્ત": 1295,
      "રહે": 1296,
      "કરવામાં": 1297,
      "ગુ": 1298,
      "##્યુ": 1299,
      "હતું": 1300,
      "સામ": 1301,
      "##મી": 1302,
      "##સે": 1303,
      "પા": 1304,
      "##ત્ર": 1305,
      "નિ": 1306,
      "##તો": 1307,
      "દ્વ": 1308,
      "અન": 1309,
      "હોય": 1310,
      "##ન્ડ": 1311,
      "વર્ષ": 1312,
      "##ારો": 1313,
      "##િટ": 1314,
      "##પી": 1315,
      "##થા": 1316,
      "##ેલ": 1317,
      "##દા": 1318,
      "##ેટ": 1319,
      "દ્વારા": 1320,
      "##ંચ": 1321,
      "લે": 1322,
      "##િંગ": 1323,
      "##મા": 1324,
      "##જા": 1325,
      "##વું": 1326,
      "ના": 1327,
      "##રમાં": 1328,
      "ભાર": 1329,
      "જી": 1330,
      "નો": 1331,
      "રી": 1332,
      "##દ્": 1333,
      "##મ્": 1334,
      "વધુ": 1335,
      "##વાની": 1336,
      "##તાં": 1337,
      "અમ": 1338,
      "પોલી": 1339,
      "##્યાં": 1340,
      "રૂ": 1341,
      "સુધી": 1342,
      "સે": 1343,
      "માં": 1344,
      "##ાહ": 1345,
      "##ાણી": 1346,
      "##જે": 1347,
      "યુ": 1348,
      "બી": 1349,
      "થઈ": 1350,
      "##વિ": 1351,
      "##ોલ": 1352,
      "દિવ": 1353,
      "##ચ્": 1354,
      "જણ": 1355,
      "પોતા": 1356,
      "પૂ": 1357,
      "##ોડ": 1358,
      "ની": 1359,
      "વે": 1360,
      "સમય": 1361,
      "શકે": 1362,
      "##િં": 1363,
      "##ંતુ": 1364,
      "##છી": 1365,
      "કોઈ": 1366,
      "##વાર": 1367,
      "બના": 1368,
      "##ટા": 1369,
      "સ્ટ": 1370,
      "દે": 1371,
      "##શન": 1372,
      "દર": 1373,
      "##રાત": 1374,
      "પહે": 1375,
      "સો": 1376,
      "##ેર": 1377,
      "વ્ય": 1378,
      "પરંતુ": 1379,
      "##્સ": 1380,
      "પડ": 1381,
      "##ોર્": 1382,
      "##ક્ર": 1383,
      "##હીં": 1384,
      "##શ્": 1385,
      "##ેલા": 1386,
      "પુ": 1387,
      "##િન": 1388,
      "##ષ્ટ": 1389,
      "કામ": 1390,
      "##ન્સ": 1391,
      "##ાવી": 1392,
      "તમે": 1393,
      "##રોના": 1394,
      "##બી": 1395,
      "રહી": 1396,
      "##ગી": 1397,
      "સ્થ": 1398,
      "રીતે": 1399,
      "બાદ": 1400,
      "##ગર": 1401,
      "કોરોના": 1402,
      "##ચે": 1403,
      "કહ": 1404,
      "##િલ": 1405,
      "##ણા": 1406,
      "શક": 1407,
      "રાખ": 1408,
      "લી": 1409,
      "##સા": 1410,
      "##ધા": 1411,
      "##હો": 1412,
      "કરે": 1413,
      "##ન્દ": 1414,
      "તેના": 1415,
      "સી": 1416,
      "##વો": 1417,
      "##ુક": 1418,
      "યો": 1419,
      "ને": 1420,
      "છો": 1421,
      "પી": 1422,
      "જણાવ": 1423,
      "##પ્": 1424,
      "##ુલ": 1425,
      "પછી": 1426,
      "##નમાં": 1427,
      "પોલીસ": 1428,
      "##ર્ણ": 1429,
      "દેશ": 1430,
      "20": 1431,
      "##રસ": 1432,
      "મહિ": 1433,
      "##ંક": 1434,
      "જા": 1435,
      "##હિત": 1436,
      "ત્યારે": 1437,
      "##પ્ર": 1438,
      "ટી": 1439,
      "દિવસ": 1440,
      "##બર": 1441,
      "##ક્ટ": 1442,
      "##ળી": 1443,
      "##ંડ": 1444,
      "થાય": 1445,
      "કહ્યું": 1446,
      "##માંથી": 1447,
      "##રણ": 1448,
      "ઉપર": 1449,
      "લગ": 1450,
      "##લાક": 1451,
      "ગુજ": 1452,
      "કાર્ય": 1453,
      "કા": 1454,
      "આગ": 1455,
      "સૌ": 1456,
      "##ેડ": 1457,
      "તેઓ": 1458,
      "સામે": 1459,
      "##્રા": 1460,
      "રહ્યા": 1461,
      "લાગ": 1462,
      "પાસ": 1463,
      "##નાં": 1464,
      "ભારત": 1465,
      "##ંપ": 1466,
      "સિ": 1467,
      "જ્યારે": 1468,
      "##વાદ": 1469,
      "##િસ્": 1470,
      "દી": 1471,
      "ગુજરાત": 1472,
      "કારણે": 1473,
      "##ેશન": 1474,
      "##હેર": 1475,
      "##દેશ": 1476,
      "##મો": 1477,
      "વાત": 1478,
      "હવે": 1479,
      "ટે": 1480,
      "સરકાર": 1481,
      "મળી": 1482,
      "ચૂ": 1483,
      "કેટ": 1484,
      "##ક્સ": 1485,
      "##ુર": 1486,
      "##વાનો": 1487,
      "તેની": 1488,
      "##િસ": 1489,
      "##દ્ધ": 1490,
      "અથ": 1491,
      "શરૂ": 1492,
      "##જન": 1493,
      "ચો": 1494,
      "બા": 1495,
      "##ઓને": 1496,
      "##્ષ": 1497,
      "##વાનું": 1498,
      "હા": 1499,
      "તેને": 1500,
      "##ન્દ્ર": 1501,
      "અધ": 1502,
      "નહીં": 1503,
      "##ંટ": 1504,
      "##ામાં": 1505,
      "બાળ": 1506,
      "અમે": 1507,
      "કેસ": 1508,
      "થય": 1509,
      "સ્વ": 1510,
      "##ોર": 1511,
      "##તર": 1512,
      "મી": 1513,
      "##ભાઈ": 1514,
      "પાસે": 1515,
      "##ષ્": 1516,
      "બનાવ": 1517,
      "અથવા": 1518,
      "##ર્સ": 1519,
      "##પૂ": 1520,
      "જરૂ": 1521,
      "##સર": 1522,
      "કર્યો": 1523,
      "રૂપ": 1524,
      "##યોગ": 1525,
      "ઉત્": 1526,
      "ગામ": 1527,
      "##માન": 1528,
      "આપી": 1529,
      "આજે": 1530,
      "જોઈ": 1531,
      "હે": 1532,
      "બો": 1533,
      "દરમ": 1534,
      "રાજ્ય": 1535,
      "જાણ": 1536,
      "##ક્તિ": 1537,
      "##ડો": 1538,
      "રા": 1539,
      "ભાગ": 1540,
      "##િલ્લા": 1541,
      "##્રો": 1542,
      "##હાર": 1543,
      "##ંત્રી": 1544,
      "##ટના": 1545,
      "ત્ર": 1546,
      "વિસ્ત": 1547,
      "મૂ": 1548,
      "ફર": 1549,
      "દર્": 1550,
      "જિલ્લા": 1551,
      "અભ": 1552,
      "##ચાર": 1553,
      "##િયાન": 1554,
      "પહો": 1555,
      "પે": 1556,
      "અનુ": 1557,
      "##િકા": 1558,
      "રે": 1559,
      "મુખ": 1560,
      "અંગ": 1561,
      "નામ": 1562,
      "##ાંત": 1563,
      "ધર": 1564,
      "લઈ": 1565,
      "##િમ": 1566,
      "##સ્પ": 1567,
      "તર": 1568,
      "આવ્યા": 1569,
      "કહે": 1570,
      "નોંધ": 1571,
      "##ૃત": 1572,
      "##પાસ": 1573,
      "##ર્વ": 1574,
      "ડિ": 1575,
      "આરો": 1576,
      "દુ": 1577,
      "વી": 1578,
      "##ડે": 1579,
      "તેમના": 1580,
      "આવ્યો": 1581,
      "વા": 1582,
      "કરતા": 1583,
      "ફિલ્": 1584,
      "##ટર": 1585,
      "વિક": 1586,
      "જેમાં": 1587,
      "##્રેસ": 1588,
      "પાણી": 1589,
      "##ટો": 1590,
      "જણાવ્યું": 1591,
      "હાલ": 1592,
      "તમારા": 1593,
      "##જબ": 1594,
      "##ંત્ર": 1595,
      "જુ": 1596,
      "તા": 1597,
      "પ્રમ": 1598,
      "થઇ": 1599,
      "તેમણે": 1600,
      "##00": 1601,
      "પહોંચ": 1602,
      "અન્ય": 1603,
      "ગ્ર": 1604,
      "તમામ": 1605,
      "મુખ્ય": 1606,
      "એટ": 1607,
      "##વન": 1608,
      "ગો": 1609,
      "##ાલુ": 1610,
      "##ગ્ર": 1611,
      "##ુમ": 1612,
      "##શી": 1613,
      "##િપ": 1614,
      "##વારે": 1615,
      "ખૂ": 1616,
      "##ર્ચ": 1617,
      "કરીને": 1618,
      "##ધાન": 1619,
      "તથા": 1620,
      "દરમિયાન": 1621,
      "તરી": 1622,
      "જોવા": 1623,
      "પોતાના": 1624,
      "##ભાઇ": 1625,
      "##િતિ": 1626,
      "જવા": 1627,
      "તરીકે": 1628,
      "માર્": 1629,
      "સૌથી": 1630,
      "ગયા": 1631,
      "કારણ": 1632,
      "સુર": 1633,
      "##રુ": 1634,
      "##લમાં": 1635,
      "##ાજપ": 1636,
      "##સ્થ": 1637,
      "##સો": 1638,
      "ખાત": 1639,
      "હજ": 1640,
      "કંપ": 1641,
      "##ાર્ટ": 1642,
      "##ૂર": 1643,
      "કરો": 1644,
      "##ભા": 1645,
      "##ળા": 1646,
      "એમ": 1647,
      "કંપની": 1648,
      "##શો": 1649,
      "અપ": 1650,
      "##ક્ત": 1651,
      "##ોમાં": 1652,
      "##થમ": 1653,
      "ભાજપ": 1654,
      "ટકા": 1655,
      "લાખ": 1656,
      "##વાય": 1657,
      "વખ": 1658,
      "##દે": 1659,
      "ઉપયોગ": 1660,
      "##િર": 1661,
      "##ચ્ચે": 1662,
      "તેમજ": 1663,
      "અધિક": 1664,
      "રહ્યો": 1665,
      "વચ્ચે": 1666,
      "માન": 1667,
      "##ત્વ": 1668,
      "##ભાગ": 1669,
      "ખુ": 1670,
      "##ર્મ": 1671,
      "આવશે": 1672,
      "ક્ર": 1673,
      "અંગે": 1674,
      "##્યાર": 1675,
      "કરોડ": 1676,
      "પહેલા": 1677,
      "ભાવ": 1678,
      "મહિલા": 1679,
      "માત્ર": 1680,
      "##ાંચ": 1681,
      "પરિવ": 1682,
      "સાં": 1683,
      "ચે": 1684,
      "તરફ": 1685,
      "##ક્ષા": 1686,
      "..": 1687,
      "##ર્થ": 1688,
      "##ાળા": 1689,
      "સાર": 1690,
      "##કારી": 1691,
      "##બે": 1692,
      "આવ્યું": 1693,
      "અલ": 1694,
      "શો": 1695,
      "પગ": 1696,
      "ખૂબ": 1697,
      "મેળ": 1698,
      "સ્પ": 1699,
      "##ર્ટ": 1700,
      "ફો": 1701,
      "કોંગ": 1702,
      "ઓફ": 1703,
      "##ડિયા": 1704,
      "હાથ": 1705,
      "##નગર": 1706,
      "ફે": 1707,
      "તેમને": 1708,
      "થયા": 1709,
      "##્મ": 1710,
      "જોઈએ": 1711,
      "ડો": 1712,
      "##પર": 1713,
      "##બંધ": 1714,
      "##લ્લા": 1715,
      "##ારીઓ": 1716,
      "બંધ": 1717,
      "ફિલ્મ": 1718,
      "##િશ": 1719,
      "બદ": 1720,
      "##સાર": 1721,
      "જાય": 1722,
      "થશે": 1723,
      "##દાર": 1724,
      "થયો": 1725,
      "##બા": 1726,
      "લોક": 1727,
      "સર્": 1728,
      "રૂપિયા": 1729,
      "સહિત": 1730,
      "##લાં": 1731,
      "લા": 1732,
      "##ગા": 1733,
      "ત્યાં": 1734,
      "ભૂ": 1735,
      "બેઠ": 1736,
      "##વાના": 1737,
      "તેમની": 1738,
      "##શ્વ": 1739,
      "##ખા": 1740,
      "##બ્": 1741,
      "##િંહ": 1742,
      "##્લા": 1743,
      "##જૂ": 1744,
      "##ચી": 1745,
      "અમદા": 1746,
      "અંત": 1747,
      "યોજ": 1748,
      "તૈ": 1749,
      "કર્યું": 1750,
      "રોજ": 1751,
      "બની": 1752,
      "##ેલી": 1753,
      "વિશે": 1754,
      "વ્યક્તિ": 1755,
      "અમદાવાદ": 1756,
      "##મત": 1757,
      "##સ્થા": 1758,
      "શું": 1759,
      "##ચ્છ": 1760,
      "##નની": 1761,
      "ચૂંટ": 1762,
      "##ારમાં": 1763,
      "##૦૦": 1764,
      "થી": 1765,
      "##ગ્ય": 1766,
      "ડે": 1767,
      "બન": 1768,
      "મોદી": 1769,
      "##ાયો": 1770,
      "મોટા": 1771,
      "ચી": 1772,
      "આધ": 1773,
      "##પા": 1774,
      "કર્યા": 1775,
      "તપાસ": 1776,
      "##જો": 1777,
      "##િયો": 1778,
      "બહાર": 1779,
      "##ોર્ટ": 1780,
      "##ામી": 1781,
      "##િતા": 1782,
      "પ્રો": 1783,
      "ત્રણ": 1784,
      "ડી": 1785,
      "આપવામાં": 1786,
      "સૂ": 1787,
      "વરસ": 1788,
      "##નના": 1789,
      "##નાર": 1790,
      "નવા": 1791,
      "##મ્પ": 1792,
      "કરવાની": 1793,
      "કોંગ્રેસ": 1794,
      "ઘટના": 1795,
      "##કરી": 1796,
      "ગાં": 1797,
      "##િટી": 1798,
      "ચૂંટણી": 1799,
      "##ક્રમ": 1800,
      "હું": 1801,
      "વાય": 1802,
      "પ્રતિ": 1803,
      "##સ્પિટ": 1804,
      "તૈય": 1805,
      "દિલ્": 1806,
      "##મેન્ટ": 1807,
      "##એસ": 1808,
      "##રની": 1809,
      "તમને": 1810,
      "##રેક": 1811,
      "##ંભ": 1812,
      "પોતાની": 1813,
      "બં": 1814,
      "અત": 1815,
      "##વાથી": 1816,
      "ભારતી": 1817,
      "જરૂર": 1818,
      "##રિક": 1819,
      "સફ": 1820,
      "ભર": 1821,
      "ખા": 1822,
      "મુજબ": 1823,
      "હોસ્પિટ": 1824,
      "ખાતે": 1825,
      "ફરી": 1826,
      "##ષ્ટ્ર": 1827,
      "##ધો": 1828,
      "##ટેલ": 1829,
      "નિય": 1830,
      "દિલ્હી": 1831,
      "નવી": 1832,
      "કમ": 1833,
      "##પો": 1834,
      "રહ્યું": 1835,
      "##વાસ": 1836,
      "પરિ": 1837,
      "##ાન્ય": 1838,
      "પ્રા": 1839,
      "##ાવે": 1840,
      "##રના": 1841,
      "રહેશે": 1842,
      "##ખ્યા": 1843,
      "જૂ": 1844,
      "પ્રથમ": 1845,
      "##ઓની": 1846,
      "કેટલાક": 1847,
      "ગઈ": 1848,
      "પાક": 1849,
      "શકો": 1850,
      "##મંત્રી": 1851,
      "પ્રે": 1852,
      "સહ": 1853,
      "##તું": 1854,
      "કુલ": 1855,
      "##દો": 1856,
      "##ત્રી": 1857,
      "મદ": 1858,
      "ખેડ": 1859,
      "વરસાદ": 1860,
      "વિદ": 1861,
      "દરેક": 1862,
      "ટીમ": 1863,
      "##વાન": 1864,
      "##િક્ષ": 1865,
      "ગયો": 1866,
      "##ગત": 1867,
      "##કોટ": 1868,
      "દર્દી": 1869,
      "અલગ": 1870,
      "##લું": 1871,
      "##કર": 1872,
      "શકાય": 1873,
      "##્ન": 1874,
      "...": 1875,
      "બંને": 1876,
      "##્લે": 1877,
      "##પણ": 1878,
      "પોલીસે": 1879,
      "##કડ": 1880,
      "##્યૂ": 1881,
      "##દર": 1882,
      "રાહ": 1883,
      "ખો": 1884,
      "##ુંબ": 1885,
      "##દર્": 1886,
      "માંગ": 1887,
      "10": 1888,
      "કરશે": 1889,
      "વ્યવ": 1890,
      "આર": 1891,
      "કિ": 1892,
      "પ્રમાણ": 1893,
      "ઘણા": 1894,
      "ગાંધી": 1895,
      "ટ્ર": 1896,
      "જાહેર": 1897,
      "મોત": 1898,
      "ખાસ": 1899,
      "જેમ": 1900,
      "૨૦": 1901,
      "માર": 1902,
      "શુ": 1903,
      "બાળકો": 1904,
      "201": 1905,
      "રિ": 1906,
      "લોકોને": 1907,
      "##જય": 1908,
      "ઝડ": 1909,
      "ભારતીય": 1910,
      "ચાલ": 1911,
      "મદદ": 1912,
      "##ુખ": 1913,
      "##્લ": 1914,
      "ગણ": 1915,
      "##પૂર્ણ": 1916,
      "તમારી": 1917,
      "##ાર્થી": 1918,
      "સામાન્ય": 1919,
      "જય": 1920,
      "##ઓમાં": 1921,
      "##સ્તા": 1922,
      "નિર્ણ": 1923,
      "મહે": 1924,
      "બાબ": 1925,
      "અહીં": 1926,
      "એટલે": 1927,
      "પાછ": 1928,
      "લઇ": 1929,
      "અનેક": 1930,
      "તાલુ": 1931,
      "પ્રકાર": 1932,
      "વધારે": 1933,
      "##પુર": 1934,
      "કરતાં": 1935,
      "##નિ": 1936,
      "##ક્ષણ": 1937,
      "##ીએ": 1938,
      "કોઇ": 1939,
      "ધ્યા": 1940,
      "બજ": 1941,
      "રાજકોટ": 1942,
      "મંદ": 1943,
      "ખે": 1944,
      "તાલુકા": 1945,
      "ક્ષ": 1946,
      "##ોની": 1947,
      "##કલ": 1948,
      "ઉપરાંત": 1949,
      "##ોને": 1950,
      "સત": 1951,
      "મૃત": 1952,
      "શ્રી": 1953,
      "અર": 1954,
      "##િસ્તા": 1955,
      "##વણી": 1956,
      "##ભાવ": 1957,
      "##દાન": 1958,
      "##વર": 1959,
      "એસ": 1960,
      "ટ્રે": 1961,
      "##ટક": 1962,
      "પરિવાર": 1963,
      "વિભાગ": 1964,
      "##વિધ": 1965,
      "##નુ": 1966,
      "##એમ": 1967,
      "##આત": 1968,
      "##સંદ": 1969,
      "##યુ": 1970,
      "શહેર": 1971,
      "મામ": 1972,
      "ખેડૂ": 1973,
      "##િયલ": 1974,
      "##ોર્ડ": 1975,
      "##િને": 1976,
      "મળે": 1977,
      "ઉમે": 1978,
      "##શા": 1979,
      "જગ": 1980,
      "##જ્": 1981,
      "જવાબ": 1982,
      "સારવાર": 1983,
      "શા": 1984,
      "##ગે": 1985,
      "પટેલ": 1986,
      "સમયે": 1987,
      "બીજી": 1988,
      "લખ": 1989,
      "ચા": 1990,
      "જેટ": 1991,
      "જેના": 1992,
      "આમ": 1993,
      "##ીર": 1994,
      "સ્વા": 1995,
      "##કમાં": 1996,
      "પસંદ": 1997,
      "19": 1998,
      "##રને": 1999,
      "કેન્દ્ર": 2000,
      "દો": 2001,
      "શિક્ષ": 2002,
      "##પ્ત": 2003,
      "આવેલા": 2004,
      "મહિના": 2005,
      "નિર્ણય": 2006,
      "સ્થિતિ": 2007,
      "##નિક": 2008,
      "ખરી": 2009,
      "માહિત": 2010,
      "મોટી": 2011,
      "##પુ": 2012,
      "દૂર": 2013,
      "લઈને": 2014,
      "વિદ્ય": 2015,
      "અસર": 2016,
      "કોર્": 2017,
      "કુ": 2018,
      "##લ્ડ": 2019,
      "તેણે": 2020,
      "પાંચ": 2021,
      "પાર્ટ": 2022,
      "જેથી": 2023,
      "ઘણી": 2024,
      "ગય": 2025,
      "તેમાં": 2026,
      "ઓછ": 2027,
      "માહિતી": 2028,
      "##કારે": 2029,
      "રાત": 2030,
      "બીજા": 2031,
      "અંદ": 2032,
      "જીવન": 2033,
      "જોકે": 2034,
      "જરૂરી": 2035,
      "##ાવવા": 2036,
      "શહે": 2037,
      "થયું": 2038,
      "##્રીય": 2039,
      "##ધ્ય": 2040,
      "રોક": 2041,
      "પડી": 2042,
      "##સ્ક": 2043,
      "યુવ": 2044,
      "##િયન": 2045,
      "##ઓના": 2046,
      "સંખ્યા": 2047,
      "ત્યાર": 2048,
      "વિવિધ": 2049,
      "બિ": 2050,
      "છેલ્લા": 2051,
      "વિદ્યાર્થી": 2052,
      "માતા": 2053,
      "બધા": 2054,
      "કપ": 2055,
      "પ્રવ": 2056,
      "તૈયાર": 2057,
      "##ૂટ": 2058,
      "વધી": 2059,
      "પૈ": 2060,
      "બોલ": 2061,
      "નેતા": 2062,
      "આરોપી": 2063,
      "મહત્વ": 2064,
      "##ચના": 2065,
      "હશે": 2066,
      "##ળતા": 2067,
      "ફરિયા": 2068,
      "ચાર": 2069,
      "##ર્ડ": 2070,
      "કાય": 2071,
      "મારી": 2072,
      "##ંબ": 2073,
      "ખાન": 2074,
      "સ્થાન": 2075,
      "આગળ": 2076,
      "આજ": 2077,
      "ટો": 2078,
      "હિ": 2079,
      "હજાર": 2080,
      "##ચર": 2081,
      "મત": 2082,
      "વિશ્વ": 2083,
      "##ડિયો": 2084,
      "મુંબ": 2085,
      "##ઓએ": 2086,
      "છતાં": 2087,
      "##વાહી": 2088,
      "થો": 2089,
      "સ્ક": 2090,
      "##વાલ": 2091,
      "તેથી": 2092,
      "પેટ": 2093,
      "સુરત": 2094,
      "રમ": 2095,
      "##બાદ": 2096,
      "##ાજી": 2097,
      "સ્થળ": 2098,
      "લેવા": 2099,
      "રોડ": 2100,
      "##સાય": 2101,
      "પાકિસ્તા": 2102,
      "ઉત્પ": 2103,
      "બ્ર": 2104,
      "દિવસે": 2105,
      "કલાક": 2106,
      "##ાવો": 2107,
      "જીવ": 2108,
      "વડા": 2109,
      "##બો": 2110,
      "યાદ": 2111,
      "##ાણા": 2112,
      "##તુ": 2113,
      "##ષ્ઠ": 2114,
      "વાર": 2115,
      "##મ્બર": 2116,
      "##ંમ": 2117,
      "ચર્ચ": 2118,
      "કર્મ": 2119,
      "##ચા": 2120,
      "ઘટા": 2121,
      "##પે": 2122,
      "##પાલ": 2123,
      "જન": 2124,
      "સંબંધ": 2125,
      "મને": 2126,
      "##લાઈ": 2127,
      "સમગ્ર": 2128,
      "જગ્યા": 2129,
      "##નને": 2130,
      "##સ્તુ": 2131,
      "હતાં": 2132,
      "સરકારે": 2133,
      "##ેદ": 2134,
      "યોજના": 2135,
      "લાભ": 2136,
      "જ્યાં": 2137,
      "##ીને": 2138,
      "પડે": 2139,
      "વર્ષે": 2140,
      "વિસ્તારમાં": 2141,
      "દેખ": 2142,
      "વખત": 2143,
      "આવતા": 2144,
      "##નીય": 2145,
      "રંગ": 2146,
      "છીએ": 2147,
      "##ત્તા": 2148,
      "પંચ": 2149,
      "##મમાં": 2150,
      "સતત": 2151,
      "ગર": 2152,
      "મીડિયા": 2153,
      "##ંકા": 2154,
      "હેઠ": 2155,
      "ધો": 2156,
      "ફાય": 2157,
      "આવેલ": 2158,
      "હેઠળ": 2159,
      "ખેડૂતો": 2160,
      "સમા": 2161,
      "ભારે": 2162,
      "##તમ": 2163,
      "મોર": 2164,
      "અનુસાર": 2165,
      "હોવાનું": 2166,
      "મુખ્યમંત્રી": 2167,
      "મળશે": 2168,
      "તેનો": 2169,
      "##ાયા": 2170,
      "##સ્યા": 2171,
      "બચ": 2172,
      "##સિંહ": 2173,
      "વિકાસ": 2174,
      "નં": 2175,
      "##ગીરી": 2176,
      "ઘરે": 2177,
      "બનાવી": 2178,
      "નજી": 2179,
      "##ર્ષ": 2180,
      "લગ્ન": 2181,
      "##ફે": 2182,
      "ગે": 2183,
      "અવ": 2184,
      "##લના": 2185,
      "પરી": 2186,
      "##્લો": 2187,
      "##કીય": 2188,
      "કર્મચ": 2189,
      "એવી": 2190,
      "પૂર્વ": 2191,
      "વધારો": 2192,
      "તેવી": 2193,
      "##લ્સ": 2194,
      "પહેલાં": 2195,
      "કેવી": 2196,
      "##ાયેલા": 2197,
      "##પ્ટ": 2198,
      "સંગ": 2199,
      "હર": 2200,
      "વૃ": 2201,
      "ફરિયાદ": 2202,
      "શરી": 2203,
      "##રલ": 2204,
      "##બલ": 2205,
      "મુદ્": 2206,
      "લાં": 2207,
      "આઈ": 2208,
      "આયો": 2209,
      "##સભ": 2210,
      "##વવા": 2211,
      "દિ": 2212,
      "બને": 2213,
      "જાત": 2214,
      "આપે": 2215,
      "પરિણ": 2216,
      "##લ્લે": 2217,
      "નવ": 2218,
      "સમસ્યા": 2219,
      "##ૂત": 2220,
      "સેવા": 2221,
      "પડશે": 2222,
      "એવું": 2223,
      "યોગ્ય": 2224,
      "ભા": 2225,
      "ઉત્પાદ": 2226,
      "વો": 2227,
      "આવા": 2228,
      "કાર્યવાહી": 2229,
      "પક્ષ": 2230,
      "જન્": 2231,
      "વખતે": 2232,
      "##રેન્દ્ર": 2233,
      "12": 2234,
      "મંત્રી": 2235,
      "પ્રમુખ": 2236,
      "પાર્ટી": 2237,
      "##બેન": 2238,
      "અધિકારી": 2239,
      "સભ": 2240,
      "શેર": 2241,
      "મેચ": 2242,
      "પાલ": 2243,
      "જાહે": 2244,
      "વીડિયો": 2245,
      "##સભા": 2246,
      "##તન": 2247,
      "રજૂ": 2248,
      "માલ": 2249,
      "##શ્કે": 2250,
      "વિરો": 2251,
      "##ધું": 2252,
      "એન": 2253,
      "##કાલ": 2254,
      "##નિયા": 2255,
      "પિતા": 2256,
      "##કત": 2257,
      "##નારા": 2258,
      "##કની": 2259,
      "15": 2260,
      "##કરણ": 2261,
      "શે": 2262,
      "##ાળી": 2263,
      "૧૦": 2264,
      "સારી": 2265,
      "બુ": 2266,
      "પત્": 2267,
      "##કેટ": 2268,
      "છું": 2269,
      "##્યે": 2270,
      "મં": 2271,
      "એર": 2272,
      "વ્યા": 2273,
      "##ડવા": 2274,
      "##ક્ટર": 2275,
      "વાહ": 2276,
      "ચૂક": 2277,
      "##િસ્ટ": 2278,
      "પ્રસ": 2279,
      "વાગ": 2280,
      "રોગ": 2281,
      "##ખી": 2282,
      "જેવા": 2283,
      "##જ્ઞ": 2284,
      "આપણે": 2285,
      "ઇન્": 2286,
      "સોશ": 2287,
      "દેશમાં": 2288,
      "પહોંચી": 2289,
      "##કના": 2290,
      "સમાજ": 2291,
      "કામગીરી": 2292,
      "ટેસ્ટ": 2293,
      "##દરા": 2294,
      "નિવ": 2295,
      "જોડ": 2296,
      "##ાઉ": 2297,
      "પરિણામ": 2298,
      "ચાલી": 2299,
      "રામ": 2300,
      "##શિ": 2301,
      "માર્ગ": 2302,
      "##મિક": 2303,
      "સંપ": 2304,
      "પ્લા": 2305,
      "##લાઇ": 2306,
      "##ફો": 2307,
      "પ્રત": 2308,
      "રિપ": 2309,
      "##ાનું": 2310,
      "ભો": 2311,
      "હાજ": 2312,
      "પ્રયા": 2313,
      "##લ્પ": 2314,
      "એવા": 2315,
      "નાખ": 2316,
      "સ્થા": 2317,
      "ચાલુ": 2318,
      "મિ": 2319,
      "જોઇ": 2320,
      "આગામી": 2321,
      "બહ": 2322,
      "સંપૂર્ણ": 2323,
      "##ર્ક": 2324,
      "##િત્ર": 2325,
      "દાખ": 2326,
      "વેચ": 2327,
      "જમી": 2328,
      "##ભગ": 2329,
      "એલ": 2330,
      "કલ": 2331,
      "પ્રદેશ": 2332,
      "##કળ": 2333,
      "##નિવ": 2334,
      "થતા": 2335,
      "કિં": 2336,
      "##જુ": 2337,
      "##ૂલ": 2338,
      "વિચાર": 2339,
      "વેપ": 2340,
      "##કસ": 2341,
      "ખર્ચ": 2342,
      "જેને": 2343,
      "જેવી": 2344,
      "હુમ": 2345,
      "##જર": 2346,
      "અગા": 2347,
      "મુશ્કે": 2348,
      "##ોના": 2349,
      "##કમ": 2350,
      "ઇન્ડ": 2351,
      "લગભગ": 2352,
      "##ાવતા": 2353,
      "મંદિર": 2354,
      "વૈ": 2355,
      "શક્ય": 2356,
      "શ્રે": 2357,
      "બાં": 2358,
      "##ાજુ": 2359,
      "આઇ": 2360,
      "અગાઉ": 2361,
      "આરોગ્ય": 2362,
      "પત્ની": 2363,
      "##ચ્ચ": 2364,
      "મુંબઈ": 2365,
      "પાછળ": 2366,
      "##આઈ": 2367,
      "સવારે": 2368,
      "##ઠા": 2369,
      "જિલ્લામાં": 2370,
      "##વાસી": 2371,
      "મારા": 2372,
      "ગ્રામ": 2373,
      "##ણો": 2374,
      "હજુ": 2375,
      "ગુજરાતમાં": 2376,
      "નુક": 2377,
      "આપવા": 2378,
      "##ભવ": 2379,
      "##ાવવામાં": 2380,
      "જાણી": 2381,
      "##ન્સી": 2382,
      "જશે": 2383,
      "વાયરસ": 2384,
      "જાહેરાત": 2385,
      "ઘર": 2386,
      "આસ": 2387,
      "વસ્તુ": 2388,
      "કં": 2389,
      "નીચે": 2390,
      "ગંભ": 2391,
      "જઈ": 2392,
      "##ખો": 2393,
      "નાગ": 2394,
      "વિજય": 2395,
      "મન": 2396,
      "પાસેથી": 2397,
      "ઉલ્લે": 2398,
      "ક્યારે": 2399,
      "શરૂઆત": 2400,
      "વિસ્તાર": 2401,
      "##ટ્સ": 2402,
      "શાળા": 2403,
      "૧૯": 2404,
      "કરવાનો": 2405,
      "બેઠક": 2406,
      "લાગે": 2407,
      "આધાર": 2408,
      "##હિ": 2409,
      "ધ્યાન": 2410,
      "ઉલ્લેખ": 2411,
      "હોવાથી": 2412,
      "કાર્": 2413,
      "કલા": 2414,
      "કાર્યક્રમ": 2415,
      "હાલમાં": 2416,
      "કૃ": 2417,
      "##લાકાત": 2418,
      "ડ્ર": 2419,
      "ઉદ": 2420,
      "રહ્યાં": 2421,
      "પ્રેમ": 2422,
      "##ાઇન": 2423,
      "##ાત્ર": 2424,
      "મુલાકાત": 2425,
      "##બ્ર": 2426,
      "અત્યાર": 2427,
      "જન્મ": 2428,
      "ગંભીર": 2429,
      "પ્રમાણે": 2430,
      "સલા": 2431,
      "કાઢ": 2432,
      "##ળો": 2433,
      "##કાશ": 2434,
      "કેટલી": 2435,
      "##તાવ": 2436,
      "સ્મ": 2437,
      "ક્ષે": 2438,
      "##શ્ચ": 2439,
      "કેમ": 2440,
      "##ત્તિ": 2441,
      "પાડ": 2442,
      "##ગ્રી": 2443,
      "રાજ્યમાં": 2444,
      "ચર્ચા": 2445,
      "##ફી": 2446,
      "##િકેટ": 2447,
      "##્રોલ": 2448,
      "ટ્રા": 2449,
      "ધારા": 2450,
      "નક્": 2451,
      "##ગઢ": 2452,
      "આશ": 2453,
      "##પતિ": 2454,
      "##જનો": 2455,
      "અસ": 2456,
      "##ડાઉ": 2457,
      "ઉમેદ": 2458,
      "##ાજે": 2459,
      "##ક્રિયા": 2460,
      "રહેલા": 2461,
      "એક્ટ": 2462,
      "ભારતમાં": 2463,
      "સોશિયલ": 2464,
      "##્યાસ": 2465,
      "નાના": 2466,
      "રિપોર્ટ": 2467,
      "હતુ": 2468,
      "##ાયત": 2469,
      "સમાવ": 2470,
      "રસી": 2471,
      "સોમ": 2472,
      "##દર્શન": 2473,
      "##પ્રધાન": 2474,
      "11": 2475,
      "ઓળ": 2476,
      "##ધન": 2477,
      "ઉઠ": 2478,
      "##મ્બ": 2479,
      "મૃત્યુ": 2480,
      "વિદેશ": 2481,
      "મોરબી": 2482,
      "આં": 2483,
      "જામ": 2484,
      "##લાવ": 2485,
      "##મણ": 2486,
      "##આરી": 2487,
      "સિંહ": 2488,
      "કોર્ટ": 2489,
      "##ષ્ટ્રીય": 2490,
      "સુધ": 2491,
      "##નર": 2492,
      "##ુપ": 2493,
      "સરકારી": 2494,
      "પોઝ": 2495,
      "અર્થ": 2496,
      "પતિ": 2497,
      "ઉત્તર": 2498,
      "રહેતા": 2499,
      "લીધો": 2500,
      "મધ્ય": 2501,
      "કરવો": 2502,
      "##ંઘ": 2503,
      "##ંધી": 2504,
      "##ોએ": 2505,
      "આયોજન": 2506,
      "##સાન": 2507,
      "દવા": 2508,
      "##ન્ટર": 2509,
      "તંત્ર": 2510,
      "કરવું": 2511,
      "શહેરમાં": 2512,
      "હોસ્પિટલમાં": 2513,
      "##કને": 2514,
      "##ડીને": 2515,
      "##દારો": 2516,
      "##લિ": 2517,
      "નંબર": 2518,
      "આદ": 2519,
      "અક": 2520,
      "પં": 2521,
      "##લાય": 2522,
      "અધિકારીઓ": 2523,
      "##ંકી": 2524,
      "મામલે": 2525,
      "આત": 2526,
      "##ીના": 2527,
      "કહી": 2528,
      "વર્ષની": 2529,
      "##મિ": 2530,
      "લેવામાં": 2531,
      "દર્શ": 2532,
      "વિરોધ": 2533,
      "202": 2534,
      "ટ્વ": 2535,
      "ધી": 2536,
      "૨૦૧": 2537,
      "પ્રશ્": 2538,
      "##ક્શન": 2539,
      "પત્ર": 2540,
      "થોડા": 2541,
      "દાખલ": 2542,
      "નિર્": 2543,
      "##ષ્ણ": 2544,
      "નક્કી": 2545,
      "##કલી": 2546,
      "##વાઈ": 2547,
      "આપ્યો": 2548,
      "##ારૂ": 2549,
      "સ્થાનિક": 2550,
      "ગયું": 2551,
      "સમાવેશ": 2552,
      "30": 2553,
      "##લની": 2554,
      "##ૃતિ": 2555,
      "વસ": 2556,
      "##નાથ": 2557,
      "##પોર્ટ": 2558,
      "જતા": 2559,
      "પાર": 2560,
      "થતાં": 2561,
      "##વાળા": 2562,
      "સુધીમાં": 2563,
      "શાહ": 2564,
      "પૂર": 2565,
      "દીધી": 2566,
      "સંક્રમ": 2567,
      "##ાર્થ": 2568,
      "અર્": 2569,
      "કરવાનું": 2570,
      "##ar": 2571,
      "આંત": 2572,
      "નજીક": 2573,
      "ફેર": 2574,
      "ત્યારબાદ": 2575,
      "શી": 2576,
      "##રિકા": 2577,
      "##જૂરી": 2578,
      "##ફ્ટ": 2579,
      "##દારી": 2580,
      "નરેન્દ્ર": 2581,
      "પ્રક્રિયા": 2582,
      "સમજ": 2583,
      "##ત્મ": 2584,
      "માણ": 2585,
      "અમેરિકા": 2586,
      "વિસ્તારો": 2587,
      "અરજી": 2588,
      "પ્રયાસ": 2589,
      "મેળવી": 2590,
      "શિક્ષણ": 2591,
      "##ાવ્યો": 2592,
      "##ષણ": 2593,
      "હોવા": 2594,
      "આંક": 2595,
      "સંસ્થા": 2596,
      "ઝડપ": 2597,
      "એજ": 2598,
      "મુક": 2599,
      "##વુ": 2600,
      "હાઈ": 2601,
      "વગર": 2602,
      "##ુમાર": 2603,
      "##ડોદરા": 2604,
      "લીધી": 2605,
      "તમારે": 2606,
      "તરફથી": 2607,
      "##ાયું": 2608,
      "##ાયેલ": 2609,
      "બેન્": 2610,
      "કરવી": 2611,
      "ધારાસભ": 2612,
      "પોસ્ટ": 2613,
      "પૂર્ણ": 2614,
      "રેલ": 2615,
      "અભ્યાસ": 2616,
      "રાષ્ટ્ર": 2617,
      "##ટ્ટ": 2618,
      "બેંક": 2619,
      "રસ": 2620,
      "દૂ": 2621,
      "સમયમાં": 2622,
      "પુર": 2623,
      "રન": 2624,
      "પ્રધાન": 2625,
      "જીત": 2626,
      "##ચાલ": 2627,
      "ઉજ": 2628,
      "તેનું": 2629,
      "મજબ": 2630,
      "##કટ": 2631,
      "હત્યા": 2632,
      "##પકડ": 2633,
      "કિંમત": 2634,
      "મંગ": 2635,
      "ગત": 2636,
      "બનાવવા": 2637,
      "હોઈ": 2638,
      "જાન": 2639,
      "##ભી": 2640,
      "##મુ": 2641,
      "ધરપકડ": 2642,
      "શોધ": 2643,
      "શ્ર": 2644,
      "##ાઇલ": 2645,
      "ક્રિકેટ": 2646,
      "રોકાણ": 2647,
      "વડોદરા": 2648,
      "શર": 2649,
      "પૈસા": 2650,
      "##હા": 2651,
      "##િઝ": 2652,
      "ફેલા": 2653,
      "##િકલ": 2654,
      "વન": 2655,
      "દુનિયા": 2656,
      "ફી": 2657,
      "##ૂડ": 2658,
      "##િયમ": 2659,
      "##નંદ": 2660,
      "લોકોએ": 2661,
      "##શુ": 2662,
      "વહે": 2663,
      "વ્યવસ્થા": 2664,
      "તબ": 2665,
      "ઝડપી": 2666,
      "##સ્મ": 2667,
      "ક્લ": 2668,
      "સું": 2669,
      "વડાપ્રધાન": 2670,
      "પરથી": 2671,
      "કરતી": 2672,
      "##ધિ": 2673,
      "નોકરી": 2674,
      "##in": 2675,
      "##આર": 2676,
      "થવા": 2677,
      "ઈન્ડ": 2678,
      "બસ": 2679,
      "##ટલ": 2680,
      "બાજુ": 2681,
      "ગી": 2682,
      "સ્ટે": 2683,
      "નહો": 2684,
      "પૂછ": 2685,
      "##ત્સ": 2686,
      "શિ": 2687,
      "##્યક્ષ": 2688,
      "લાગી": 2689,
      "અટક": 2690,
      "સર્જ": 2691,
      "કોરોનાના": 2692,
      "ગઇ": 2693,
      "##ાત્": 2694,
      "બોર્ડ": 2695,
      "હાઇ": 2696,
      "છોડ": 2697,
      "##ોર્મ": 2698,
      "અંદર": 2699,
      "અભિને": 2700,
      "ત્રી": 2701,
      "##કોને": 2702,
      "મહામ": 2703,
      "નિક": 2704,
      "##થ્": 2705,
      "##્યોગ": 2706,
      "પ્રાપ્ત": 2707,
      "ભી": 2708,
      "દેશના": 2709,
      "18": 2710,
      "ફોન": 2711,
      "ખરા": 2712,
      "##ારણ": 2713,
      "##પણે": 2714,
      "રસ્તા": 2715,
      "##સદ": 2716,
      "##િયર": 2717,
      "##મતા": 2718,
      "##આઇ": 2719,
      "##ન્જ": 2720,
      "##ગેરે": 2721,
      "##માર": 2722,
      "##વિધા": 2723,
      "સ્પષ્ટ": 2724,
      "મોબ": 2725,
      "આવેલી": 2726,
      "મેડ": 2727,
      "ટૂ": 2728,
      "##કારો": 2729,
      "##વિડ": 2730,
      "ઓળખ": 2731,
      "200": 2732,
      "##ાળો": 2733,
      "ખુબ": 2734,
      "વિધાન": 2735,
      "##નલ": 2736,
      "##ઓનો": 2737,
      "##્રીમ": 2738,
      "##at": 2739,
      "##ધે": 2740,
      "કોઈપણ": 2741,
      "##તમાં": 2742,
      "##ન્ન": 2743,
      "##કડી": 2744,
      "લઇને": 2745,
      "સુરક્ષા": 2746,
      "લાંબા": 2747,
      "સિવાય": 2748,
      "##તરી": 2749,
      "##ેશા": 2750,
      "નગર": 2751,
      "આર્થ": 2752,
      "પ્લે": 2753,
      "મિન": 2754,
      "##ગાર": 2755,
      "કિસ્": 2756,
      "14": 2757,
      "ચુક": 2758,
      "જાણવા": 2759,
      "સારા": 2760,
      "આધારે": 2761,
      "પગલે": 2762,
      "રાખી": 2763,
      "##ળે": 2764,
      "##િશન": 2765,
      "50": 2766,
      "આવતી": 2767,
      "##મર": 2768,
      "જમીન": 2769,
      "સ્ત્રી": 2770,
      "ગ્રાહ": 2771,
      "##પ્તા": 2772,
      "##ાડ": 2773,
      "હોવાની": 2774,
      "##શ્ય": 2775,
      "માગ": 2776,
      "ભાજપના": 2777,
      "##ાંડ": 2778,
      "વિના": 2779,
      "દેવામાં": 2780,
      "નિયમ": 2781,
      "ખરીદી": 2782,
      "મર": 2783,
      "સુવિધા": 2784,
      "ઓફિસ": 2785,
      "જણાવી": 2786,
      "પદ": 2787,
      "સાત": 2788,
      "બાકી": 2789,
      "##ઠી": 2790,
      "રકમ": 2791,
      "25": 2792,
      "શખ": 2793,
      "મૂક": 2794,
      "##રાશ": 2795,
      "ઘરમાં": 2796,
      "24": 2797,
      "ક્ષેત્ર": 2798,
      "લોકોના": 2799,
      "##ગ્": 2800,
      "દબ": 2801,
      "એન્ડ": 2802,
      "##િસ્થ": 2803,
      "સત્તા": 2804,
      "##વાળી": 2805,
      "યુવતી": 2806,
      "લોકોની": 2807,
      "##શું": 2808,
      "##િંતા": 2809,
      "સુંદર": 2810,
      "##ાડી": 2811,
      "ભે": 2812,
      "##કર્": 2813,
      "પુત્ર": 2814,
      "##ીય": 2815,
      "મક": 2816,
      "પરિસ્થ": 2817,
      "અડ": 2818,
      "##ાયક": 2819,
      "વિરુ": 2820,
      "કોલે": 2821,
      "ચિંતા": 2822,
      "##er": 2823,
      "ફરજ": 2824,
      "આર્થિક": 2825,
      "વર": 2826,
      "પ્રવેશ": 2827,
      "લોકડાઉ": 2828,
      "લાલ": 2829,
      "વાંચ": 2830,
      "##ધ્": 2831,
      "મોડ": 2832,
      "##ર્ન": 2833,
      "શિવ": 2834,
      "),": 2835,
      "મેં": 2836,
      "જોઇએ": 2837,
      "##થો": 2838,
      "અમેરિક": 2839,
      "અધ્યક્ષ": 2840,
      "##સમાં": 2841,
      "દેવ": 2842,
      "મહાન": 2843,
      "##રોજ": 2844,
      "આનંદ": 2845,
      "ઓછી": 2846,
      "રાહુલ": 2847,
      "૧૨": 2848,
      "પસાર": 2849,
      "કી": 2850,
      "આક": 2851,
      "મૂળ": 2852,
      "મોટો": 2853,
      "આદેશ": 2854,
      "હંમ": 2855,
      "સાધ": 2856,
      "કાયદા": 2857,
      "##ાવ્યા": 2858,
      "સરળ": 2859,
      "જિલ્લાના": 2860,
      "સમાચાર": 2861,
      "નુકસાન": 2862,
      "ગામમાં": 2863,
      "##ાત્મ": 2864,
      "દારૂ": 2865,
      "ઘટાડો": 2866,
      "નિવેદ": 2867,
      "##રૂપ": 2868,
      "સ્વી": 2869,
      "ભાઈ": 2870,
      "ચોક્": 2871,
      "૧૫": 2872,
      "વિચ": 2873,
      "##મેન": 2874,
      "##ઠવા": 2875,
      "કેટલીક": 2876,
      "##સવી": 2877,
      "##તરમાં": 2878,
      "સહિતના": 2879,
      "##સિક": 2880,
      "##ન્ચ": 2881,
      "##શ્મી": 2882,
      "##પોર": 2883,
      "નહિ": 2884,
      "મંત્ર": 2885,
      "##ફર": 2886,
      "વિષ": 2887,
      "સૈ": 2888,
      "##વાદી": 2889,
      "રાજ્યના": 2890,
      "તસવી": 2891,
      "પરિસ્થિતિ": 2892,
      "પંચાયત": 2893,
      "ગેર": 2894,
      "રાખવામાં": 2895,
      "ગુમ": 2896,
      "##દન": 2897,
      "##ાલય": 2898,
      "##બુ": 2899,
      "##શાન": 2900,
      "મેળવ": 2901,
      "હવા": 2902,
      "કર્": 2903,
      "સામેલ": 2904,
      "હાજર": 2905,
      "સાવ": 2906,
      "મળ્યા": 2907,
      "##પૂર્વ": 2908,
      "ભગ": 2909,
      "એપ": 2910,
      "૧૧": 2911,
      "થયેલા": 2912,
      "##સિ": 2913,
      "##ાંતિ": 2914,
      "નાગરિક": 2915,
      "વગેરે": 2916,
      "મંજૂરી": 2917,
      "##સ્માત": 2918,
      "##ાત્મક": 2919,
      "નહી": 2920,
      "##ાયેલી": 2921,
      "સ્થાપ": 2922,
      "સ્ટેશન": 2923,
      "કિલો": 2924,
      "કરીએ": 2925,
      "હોસ્પિટલ": 2926,
      "ખરીદ": 2927,
      "ફોટો": 2928,
      "અકસ્માત": 2929,
      "##ન્ને": 2930,
      "##ક્ષે": 2931,
      "ગૃ": 2932,
      "ખેલા": 2933,
      "સ્ટા": 2934,
      "ગર્": 2935,
      "13": 2936,
      "ખરાબ": 2937,
      "##શ્રી": 2938,
      "એન્ટ": 2939,
      "##ડીયા": 2940,
      "મહારા": 2941,
      "બળ": 2942,
      "##ષ્ય": 2943,
      "##ગો": 2944,
      "શુભ": 2945,
      "અહે": 2946,
      "તારી": 2947,
      "##ંજ": 2948,
      "ચોક્કસ": 2949,
      "નોટ": 2950,
      "તાલુકાના": 2951,
      "કલે": 2952,
      "##ાની": 2953,
      "સભ્યો": 2954,
      "દ્ર": 2955,
      "ગૌ": 2956,
      "##તંત્ર": 2957,
      "##es": 2958,
      "ઉચ્ચ": 2959,
      "##િત્રો": 2960,
      "ફક્ત": 2961,
      "બહે": 2962,
      "##હરણ": 2963,
      "ઓન": 2964,
      "કોવિડ": 2965,
      "પામ": 2966,
      "જયારે": 2967,
      "એક્સ": 2968,
      "મળ્યો": 2969,
      "ધરી": 2970,
      "કેસમાં": 2971,
      "લાઈ": 2972,
      "કર્મચારીઓ": 2973,
      "##રોમાં": 2974,
      "##ક્ષિ": 2975,
      "મહારાષ્ટ્ર": 2976,
      "100": 2977,
      "##િટિવ": 2978,
      "જેટલા": 2979,
      "સંભ": 2980,
      "##કામ": 2981,
      "મ્યુ": 2982,
      "રાશિ": 2983,
      "રાત્રે": 2984,
      "એડ": 2985,
      "પ્રકાશ": 2986,
      "દૂધ": 2987,
      "નદી": 2988,
      "##ાઈલ": 2989,
      "##ખર": 2990,
      "કોંગ્રેસના": 2991,
      "આસપાસ": 2992,
      "##ારંભ": 2993,
      "તેવા": 2994,
      "##ાર્ડ": 2995,
      "સ્ટો": 2996,
      "અદ": 2997,
      "પરત": 2998,
      "ક્યાં": 2999,
      "યોગ": 3000,
      "વધુમાં": 3001,
      "વળ": 3002,
      "##ાક": 3003,
      "કંઈ": 3004,
      "વિરુદ્ધ": 3005,
      "16": 3006,
      "ન્યૂ": 3007,
      "##િક્સ": 3008,
      "કાળ": 3009,
      "પહેલી": 3010,
      "બનાવવામાં": 3011,
      "ખાનગી": 3012,
      "##લર": 3013,
      "લીધા": 3014,
      "સફળતા": 3015,
      "વિશ્": 3016,
      "સાંજે": 3017,
      "##an": 3018,
      "ઘણ": 3019,
      "ધમ": 3020,
      "ઉલ્લેખનીય": 3021,
      "ડાય": 3022,
      "કાશ્મી": 3023,
      "##ાર્જ": 3024,
      "##સ્થાન": 3025,
      "##રીમાં": 3026,
      "ઈન્": 3027,
      "મુશ્કેલી": 3028,
      "અજ": 3029,
      "આવક": 3030,
      "પ્રકારની": 3031,
      "##ંદર": 3032,
      "શ્રેષ્ઠ": 3033,
      "##િકો": 3034,
      "##દ્ધિ": 3035,
      "વાળ": 3036,
      "ધર્મ": 3037,
      "##ાના": 3038,
      "ધરાવે": 3039,
      "##નનો": 3040,
      "##ભર": 3041,
      "વિસ્તારોમાં": 3042,
      "##વારો": 3043,
      "માર્કેટ": 3044,
      "સ્વાસ્થ": 3045,
      "સાંભ": 3046,
      "પોઝિટિવ": 3047,
      "ખેલાડી": 3048,
      "ગામના": 3049,
      "તાજે": 3050,
      "મનો": 3051,
      "ઉદ્યોગ": 3052,
      "વધાર": 3053,
      "નિર્મ": 3054,
      "##હાસ": 3055,
      "##થમિક": 3056,
      "બદલ": 3057,
      "વર્ષના": 3058,
      "##પોરે": 3059,
      "જણાવ્યા": 3060,
      "વ્યક્ત": 3061,
      "પ્રાથમિક": 3062,
      "##ાર્ક": 3063,
      "શૈ": 3064,
      "વિશેષ": 3065,
      "શહેરના": 3066,
      "##ણમાં": 3067,
      "##on": 3068,
      "##ડક": 3069,
      "ડૉ": 3070,
      "રાહત": 3071,
      "ઊંચ": 3072,
      "જૂના": 3073,
      "મિલ": 3074,
      "##તાઓ": 3075,
      "##લિયા": 3076,
      "જેની": 3077,
      "##્રેડ": 3078,
      "પરીક્ષા": 3079,
      "ખેતી": 3080,
      "નું": 3081,
      "વિવાદ": 3082,
      "મોદીએ": 3083,
      "ખબર": 3084,
      "બાળક": 3085,
      "નીતિ": 3086,
      "કિસ્સા": 3087,
      "##ઝી": 3088,
      "એપ્ર": 3089,
      "કર્મચારી": 3090,
      "લક્ષ": 3091,
      "સૂચ": 3092,
      "કૌ": 3093,
      "ચંદ": 3094,
      "બ્રા": 3095,
      "##ઉન્ડ": 3096,
      "##ાટ": 3097,
      "લેખ": 3098,
      "જોખ": 3099,
      "રાજ્યો": 3100,
      "સૂત્ર": 3101,
      "કહેવામાં": 3102,
      "##લેટ": 3103,
      "ગુજરાતના": 3104,
      "નાની": 3105,
      "દક્ષિ": 3106,
      "લડ": 3107,
      "પશ્ચ": 3108,
      "##નગ": 3109,
      "ઓગ": 3110,
      "જમ": 3111,
      "ઉપલ": 3112,
      "ઓછા": 3113,
      "કાર્ડ": 3114,
      "મિનિટ": 3115,
      "થયેલ": 3116,
      "પીએમ": 3117,
      "##તિહાસ": 3118,
      "ગામે": 3119,
      "ગુણ": 3120,
      "##બ્ધ": 3121,
      "થવાની": 3122,
      "વ્યવસાય": 3123,
      "વેચાણ": 3124,
      "અફ": 3125,
      "કરનાર": 3126,
      "શબ્": 3127,
      "બહુ": 3128,
      "વિધાનસભા": 3129,
      "રવ": 3130,
      "૩૦": 3131,
      "રણ": 3132,
      "સ્થિત": 3133,
      "##સ્ટમ": 3134,
      "મોટાભાગ": 3135,
      "સ્વાસ્થ્ય": 3136,
      "પેટ્રોલ": 3137,
      "દિવસમાં": 3138,
      "સંખ્યામાં": 3139,
      "##ડામાં": 3140,
      "##સ્તી": 3141,
      "આપ્યું": 3142,
      "##કારક": 3143,
      "ડિઝ": 3144,
      "##લ્લી": 3145,
      "મંગળ": 3146,
      "##રાષ્ટ્ર": 3147,
      "##કટર": 3148,
      "##વ્ય": 3149,
      "મોટ": 3150,
      "હી": 3151,
      "##ચ્છા": 3152,
      "એના": 3153,
      "ઉત્પાદન": 3154,
      "જાણકારી": 3155,
      "અઠવા": 3156,
      "મજબૂત": 3157,
      "ડોલ": 3158,
      "##સના": 3159,
      "શુક્ર": 3160,
      "##વલ": 3161,
      "કોલ": 3162,
      "મહામારી": 3163,
      "ચોરી": 3164,
      "##યર": 3165,
      "કરા": 3166,
      "પૂરી": 3167,
      "નાણ": 3168,
      "કાં": 3169,
      "##સની": 3170,
      "##જ્ઞાન": 3171,
      "##ટિંગ": 3172,
      "##િડ": 3173,
      "મળ્યું": 3174,
      "રાષ્ટ્રીય": 3175,
      "ઉંમ": 3176,
      "##લેન્ડ": 3177,
      "થતી": 3178,
      "પ્રોજે": 3179,
      "અના": 3180,
      "ક્વ": 3181,
      "##ંડા": 3182,
      "જગ્યાએ": 3183,
      "##સુ": 3184,
      "ધ્યાનમાં": 3185,
      "##્યાન": 3186,
      "બંગ": 3187,
      "##દ્ર": 3188,
      "સુપ": 3189,
      "બાબત": 3190,
      "વર્ષથી": 3191,
      "ગુરુ": 3192,
      "યાત": 3193,
      "વિશ": 3194,
      "પૈકી": 3195,
      "તી": 3196,
      "યુનિવ": 3197,
      "પ્રતિબંધ": 3198,
      "લાઇ": 3199,
      "##ાતી": 3200,
      "હળ": 3201,
      "પ્રશ": 3202,
      "વિપ": 3203,
      "પ્રકારના": 3204,
      "કોર્ટે": 3205,
      "શખ્સ": 3206,
      "##ટમાં": 3207,
      "બાબતે": 3208,
      "રેડ": 3209,
      "મગ": 3210,
      "આરોપ": 3211,
      "##લાવી": 3212,
      "બદલે": 3213,
      "આપણા": 3214,
      "17": 3215,
      "લક્ષણ": 3216,
      "વલ": 3217,
      "લીધે": 3218,
      "ઉપલબ્ધ": 3219,
      "આત્મ": 3220,
      "શક્તિ": 3221,
      "##હન": 3222,
      "મિત્રો": 3223,
      "દક્ષિણ": 3224,
      "સેના": 3225,
      "##શિયા": 3226,
      "ગૃહ": 3227,
      "જંગ": 3228,
      "##ભરમાં": 3229,
      "વાં": 3230,
      "##કાં": 3231,
      "પાલન": 3232,
      "હુમલા": 3233,
      "##રાજ": 3234,
      "સંચાલ": 3235,
      "અંતિમ": 3236,
      "કરેલ": 3237,
      "સબ": 3238,
      "પાં": 3239,
      "તેલ": 3240,
      "##જના": 3241,
      "તબક્": 3242,
      "હિં": 3243,
      "##ધ્ધ": 3244,
      "##ફિક": 3245,
      "##ૃત્તિ": 3246,
      "ભારતના": 3247,
      "સચ": 3248,
      "##કરો": 3249,
      "રવિવ": 3250,
      "હંમેશા": 3251,
      "ગાંધીનગર": 3252,
      "આપતા": 3253,
      "##મન": 3254,
      "સલાહ": 3255,
      "રાજકીય": 3256,
      "મથ": 3257,
      "ડા": 3258,
      "##વર્": 3259,
      "સંઘ": 3260,
      "બિલ": 3261,
      "આશા": 3262,
      "પ્રદર્શન": 3263,
      "અગ્ર": 3264,
      "##લોજી": 3265,
      "##વવામાં": 3266,
      "પાકિસ્તાન": 3267,
      "નજર": 3268,
      "##પ્ટે": 3269,
      "##નિંગ": 3270,
      "ગુનો": 3271,
      "શકશે": 3272,
      "નિયમો": 3273,
      "##એલ": 3274,
      "##યું": 3275,
      "નીકળ": 3276,
      "સામનો": 3277,
      "૧૮": 3278,
      "સમાન": 3279,
      "##ઉટ": 3280,
      "મેને": 3281,
      "રાજય": 3282,
      "##રેલી": 3283,
      "સ્પર્": 3284,
      "##્યાય": 3285,
      "સફળ": 3286,
      "##ર્સિટી": 3287,
      "બન્ને": 3288,
      "##િકાર": 3289,
      "##ઝને": 3290,
      "##ંડી": 3291,
      "દીધો": 3292,
      "અમારી": 3293,
      "કરાવ": 3294,
      "બનાવે": 3295,
      "નાં": 3296,
      "##રીને": 3297,
      "એવો": 3298,
      "સૂર": 3299,
      "થોડ": 3300,
      "##દિક": 3301,
      "સપ્ટે": 3302,
      "અમારા": 3303,
      "સૌરાષ્ટ્ર": 3304,
      "સાય": 3305,
      "રેલવે": 3306,
      "દાવો": 3307,
      "##ાવીને": 3308,
      "21": 3309,
      "તેનાથી": 3310,
      "સંક્રમણ": 3311,
      "નાણા": 3312,
      "ધારાસભ્ય": 3313,
      "પશ્ચિમ": 3314,
      "મોકલ": 3315,
      "મુસા": 3316,
      "જાન્યુ": 3317,
      "આખ": 3318,
      "જ્": 3319,
      "દિશ": 3320,
      "##ક્ટો": 3321,
      "##સ્વી": 3322,
      "માનવામાં": 3323,
      "આંતર": 3324,
      "સ્ટાફ": 3325,
      "##ેશનલ": 3326,
      "ફિલ્મો": 3327,
      "ફેરફ": 3328,
      "સવાર": 3329,
      "વ્": 3330,
      "નોંધાયા": 3331,
      "##ઝર": 3332,
      "##ફ્ર": 3333,
      "ગરમ": 3334,
      "સંગઠ": 3335,
      "##સ્થિત": 3336,
      "ડિસે": 3337,
      "કરવાના": 3338,
      "યુવા": 3339,
      "વાયરલ": 3340,
      "ફ્ર": 3341,
      "##પૂર": 3342,
      "વાહન": 3343,
      "નવે": 3344,
      "##દર્શ": 3345,
      "##વડ": 3346,
      "##or": 3347,
      "માર્ચ": 3348,
      "ચિ": 3349,
      "પસંદગી": 3350,
      "જાળ": 3351,
      "પ્રારંભ": 3352,
      "બાંધ": 3353,
      "કેન્દ": 3354,
      "દર્દીઓ": 3355,
      "હકી": 3356,
      "વર્ષમાં": 3357,
      "બુધ": 3358,
      "##પ્રિય": 3359,
      "રાખવા": 3360,
      "પ્રય": 3361,
      "૧૪": 3362,
      "હુમલો": 3363,
      "તારીખ": 3364,
      "સંત": 3365,
      "ધરાવતા": 3366,
      "જામનગર": 3367,
      "ડેટ": 3368,
      "સપા": 3369,
      "રચના": 3370,
      "##લાલ": 3371,
      "##ભાવના": 3372,
      "પ્રયત્": 3373,
      "યુનિવર્સિટી": 3374,
      "જાન્યુઆરી": 3375,
      "જાગ": 3376,
      "##એફ": 3377,
      "જાણો": 3378,
      "નાર": 3379,
      "##ત્ત": 3380,
      "વિદ્યાર્થીઓ": 3381,
      "માટેની": 3382,
      "ભાવનગર": 3383,
      "પોતે": 3384,
      "મતદાન": 3385,
      "જુઓ": 3386,
      "ફરીથી": 3387,
      "##લ્ટ": 3388,
      "##બિત": 3389,
      "##િજ": 3390,
      "##કાળ": 3391,
      "##કરા": 3392,
      "##ઝન": 3393,
      "સમર્થ": 3394,
      "દરમ્યાન": 3395,
      "મુદ્દે": 3396,
      "##બંધી": 3397,
      "##કાલે": 3398,
      "પકડ": 3399,
      "તળ": 3400,
      "પ્રસંગ": 3401,
      "શાક": 3402,
      ".’": 3403,
      "મંડ": 3404,
      "વિગ": 3405,
      "સહાય": 3406,
      "સેન્ટ": 3407,
      "##લિક": 3408,
      "તેવું": 3409,
      "અનુભવ": 3410,
      "તાપ": 3411,
      "વાર્": 3412,
      "ખોરા": 3413,
      "આંદ": 3414,
      "મેળવવા": 3415,
      "શર્": 3416,
      "##્વર": 3417,
      "##ેશનમાં": 3418,
      "તાજેતરમાં": 3419,
      "##ડાના": 3420,
      "ટેક્સ": 3421,
      "ઉજવણી": 3422,
      "કબ": 3423,
      "ઝડપથી": 3424,
      "આટ": 3425,
      "મુસાફ": 3426,
      "##ધુ": 3427,
      "સિવ": 3428,
      "વીજ": 3429,
      "જનતા": 3430,
      "ઝો": 3431,
      "લખ્યું": 3432,
      "એપ્રિલ": 3433,
      "##િયાત": 3434,
      "મંત્રાલય": 3435,
      "##મની": 3436,
      "સુપ્રીમ": 3437,
      "કચે": 3438,
      "ચમ": 3439,
      "અંતર્": 3440,
      "ઘટ": 3441,
      "ફેબ્ર": 3442,
      "અચ": 3443,
      "##ક્ષી": 3444,
      "લાગુ": 3445,
      "સારું": 3446,
      "##કનો": 3447,
      "બિન": 3448,
      "સોના": 3449,
      "સપ્તા": 3450,
      "વાગ્યા": 3451,
      "મિશ": 3452,
      "##સાયટી": 3453,
      "થયેલી": 3454,
      "ફળ": 3455,
      "શક્યતા": 3456,
      "ઉર્": 3457,
      "ભુ": 3458,
      "મહત્": 3459,
      "સોસાયટી": 3460,
      "પહેર": 3461,
      "##પાલિકા": 3462,
      "મળતી": 3463,
      "આઠ": 3464,
      "વર્લ્ડ": 3465,
      "##ષ્ટિ": 3466,
      "##વાઇ": 3467,
      "##ટેડ": 3468,
      "##ુટ": 3469,
      "કચ્છ": 3470,
      "##ાને": 3471,
      "અંતર્ગત": 3472,
      "પશુ": 3473,
      "આપ્યા": 3474,
      "રહેલી": 3475,
      "માનવ": 3476,
      "વાતાવ": 3477,
      "વાતચી": 3478,
      "ચૌ": 3479,
      "કોરોનાની": 3480,
      "છોકરી": 3481,
      "વાતાવરણ": 3482,
      "કૉ": 3483,
      "સાઇ": 3484,
      "##િગ": 3485,
      "##તાર": 3486,
      "દેખા": 3487,
      "જતાં": 3488,
      "##લાઇન": 3489,
      "##દય": 3490,
      "ઉત્સ": 3491,
      "બધી": 3492,
      "સમિતિ": 3493,
      "##મ્સ": 3494,
      "ઉદા": 3495,
      "કેન્દ્રીય": 3496,
      "સન્": 3497,
      "પોલીસને": 3498,
      "કું": 3499,
      "000": 3500,
      "સ્થળે": 3501,
      "જુદા": 3502,
      "મહિનામાં": 3503,
      "એજન્સી": 3504,
      "ફાયર": 3505,
      "આંદોલ": 3506,
      "વેબ": 3507,
      "##સ્ટ્રે": 3508,
      "આગે": 3509,
      "મકાન": 3510,
      "ઓપ": 3511,
      "##મતી": 3512,
      "તૈયારી": 3513,
      "પ્રિય": 3514,
      "ઉદાહરણ": 3515,
      "દીકરી": 3516,
      "##ધાર": 3517,
      "રાજસ્થાન": 3518,
      "##ોથી": 3519,
      "હકીકત": 3520,
      "કહેવાય": 3521,
      "ખસે": 3522,
      "પાવ": 3523,
      "સમુ": 3524,
      "અમિત": 3525,
      "વેક્સ": 3526,
      "ક્યારેય": 3527,
      "શનિવ": 3528,
      "##ઓનું": 3529,
      "##ન્ટરને": 3530,
      "પાઠ": 3531,
      "વિગતો": 3532,
      "અમુક": 3533,
      "છોડી": 3534,
      "ચુ": 3535,
      "સરકારના": 3536,
      "ચેર": 3537,
      "સિવિલ": 3538,
      "અંક": 3539,
      "તક": 3540,
      "##ડની": 3541,
      "પુરુ": 3542,
      "સાબિત": 3543,
      "##વાડી": 3544,
      "શર્મા": 3545,
      "ફૂ": 3546,
      "##સ્ત્ર": 3547,
      "##કોર્ડ": 3548,
      "ફટ": 3549,
      "નિષ્": 3550,
      "અનુભ": 3551,
      "ચીન": 3552,
      "##તના": 3553,
      "##ઢી": 3554,
      "દંડ": 3555,
      "##મના": 3556,
      "સિસ્ટમ": 3557,
      "40": 3558,
      "દબાણ": 3559,
      "વજન": 3560,
      "બેઠકો": 3561,
      "કરવાથી": 3562,
      "માલિક": 3563,
      "વધારા": 3564,
      "જીલ્લા": 3565,
      "આપવાની": 3566,
      "##પક": 3567,
      "આંખ": 3568,
      "કાન": 3569,
      "વિશ્વાસ": 3570,
      "ભાગી": 3571,
      "##નામાં": 3572,
      "ચક": 3573,
      "નિર્માણ": 3574,
      "નાણાં": 3575,
      "તબી": 3576,
      "પોતાનો": 3577,
      "બાર": 3578,
      "હૈ": 3579,
      "આપશે": 3580,
      "૧૩": 3581,
      "હેલ્": 3582,
      "##નગરમાં": 3583,
      "##ડર": 3584,
      "##ભાર": 3585,
      "પ્રભાવ": 3586,
      "##en": 3587,
      "સરકારની": 3588,
      "##ક્સી": 3589,
      "##ાનક": 3590,
      "##િટર": 3591,
      "##ભાજી": 3592,
      "હાર્": 3593,
      "આકર્ષ": 3594,
      "પાડી": 3595,
      "કલાકમાં": 3596,
      "ભગવાન": 3597,
      "જળ": 3598,
      "વોર્ડ": 3599,
      "શરીર": 3600,
      "ધોરણ": 3601,
      "આતંક": 3602,
      "##ઝા": 3603,
      "સુપર": 3604,
      "અભિનેત્રી": 3605,
      "ઓગસ્ટ": 3606,
      "મૂકી": 3607,
      "બન્યા": 3608,
      "##ાયણ": 3609,
      "અમદાવાદમાં": 3610,
      "યાત્રા": 3611,
      "##ખંડ": 3612,
      "##ાળામાં": 3613,
      "દર્શન": 3614,
      "ઇન્ડિયા": 3615,
      "માધ્ય": 3616,
      "થોડી": 3617,
      "##કારાત્મક": 3618,
      "નિયંત્ર": 3619,
      "સ્તર": 3620,
      "##ાગ્ર": 3621,
      "ચૂંટણીમાં": 3622,
      "જિ": 3623,
      "લૂ": 3624,
      "##નારી": 3625,
      "રેકોર્ડ": 3626,
      "મંદિ": 3627,
      "ચેક": 3628,
      "જવાબદારી": 3629,
      "22": 3630,
      "##લ્લ": 3631,
      "બોલી": 3632,
      "જેટલી": 3633,
      "##પૂર્વક": 3634,
      "##ાયલ": 3635,
      "સમયથી": 3636,
      "વાહનો": 3637,
      "હજી": 3638,
      "##ડાં": 3639,
      "##તરા": 3640,
      "વર્ત": 3641,
      "કરાવી": 3642,
      "કર્યુ": 3643,
      "બજેટ": 3644,
      "નિવેદન": 3645,
      "ભય": 3646,
      "રૂપાણી": 3647,
      "##રીયા": 3648,
      "પ્રોજેક્ટ": 3649,
      "એને": 3650,
      "##ષિ": 3651,
      "વિદેશી": 3652,
      "ટિક": 3653,
      "કોર્ટમાં": 3654,
      "##ન્ડર": 3655,
      "અમને": 3656,
      "શંકા": 3657,
      "##કોર": 3658,
      "સિક": 3659,
      "##રીના": 3660,
      "લોકપ્રિય": 3661,
      "ખેંચ": 3662,
      "ચાં": 3663,
      "દુર્": 3664,
      "રાષ્ટ્રપતિ": 3665,
      "##સ્તવ": 3666,
      "આવું": 3667,
      ".\"": 3668,
      "##જની": 3669,
      "##ક્રિય": 3670,
      "ભૂમ": 3671,
      "##પ્રદેશ": 3672,
      "કહેવું": 3673,
      "##યે": 3674,
      "પુરુષ": 3675,
      "##ુકાન": 3676,
      "ઉકે": 3677,
      "એફ": 3678,
      "ટ્રાન્સ": 3679,
      "૨૫": 3680,
      "ઓક્ટો": 3681,
      "યાદી": 3682,
      "પ્રવાસ": 3683,
      "##સ્ટ્રી": 3684,
      "##્યાલ": 3685,
      "##લાઈન": 3686,
      "ચહે": 3687,
      "##રોને": 3688,
      "પંજા": 3689,
      "##ન્ટે": 3690,
      "સંભાવના": 3691,
      "ટીવી": 3692,
      "##ભો": 3693,
      "કુમાર": 3694,
      "ગરી": 3695,
      "મુશ્કેલ": 3696,
      "કમિશન": 3697,
      "મિત્ર": 3698,
      "સોમવારે": 3699,
      "##કિત": 3700,
      "ભોગ": 3701,
      "##તની": 3702,
      "રાખો": 3703,
      "બીજ": 3704,
      "સિં": 3705,
      "માસ્ક": 3706,
      "પુસ્ત": 3707,
      "સવાલ": 3708,
      "તેમનું": 3709,
      "##ાસ્ટ": 3710,
      "દેવા": 3711,
      "ધન": 3712,
      "##ષા": 3713,
      "સ્માર્ટ": 3714,
      "##ાઇટ": 3715,
      "કરાઈ": 3716,
      "##વારી": 3717,
      "પોતાનું": 3718,
      "નેશનલ": 3719,
      "બાળકોને": 3720,
      "સંબંધિત": 3721,
      "શરુ": 3722,
      "સારો": 3723,
      "કેર": 3724,
      "લોકડાઉન": 3725,
      "રહેવા": 3726,
      "સામગ્રી": 3727,
      "નામે": 3728,
      "વર્ગ": 3729,
      "વિકેટ": 3730,
      "દા": 3731,
      "બતા": 3732,
      "શાંતિ": 3733,
      "##ટરી": 3734,
      "##સાઈ": 3735,
      "હાઉ": 3736,
      "કરતો": 3737,
      "##ોષ": 3738,
      "##યુક્ત": 3739,
      "પ્રતિક": 3740,
      "##દના": 3741,
      "કહ્યુ": 3742,
      "ગાય": 3743,
      "યુવાન": 3744,
      "2020": 3745,
      "ભારતની": 3746,
      "એચ": 3747,
      "##ક્ષિત": 3748,
      "જઇ": 3749,
      "રાખીને": 3750,
      "##ગ્રામ": 3751,
      "સેલ": 3752,
      "ટ્રમ્પ": 3753,
      "સપાટી": 3754,
      "દઈ": 3755,
      "દેશની": 3756,
      "અક્ષ": 3757,
      "મહત્વપૂર્ણ": 3758,
      "ભૂમિકા": 3759,
      "ખરે": 3760,
      "તેમનો": 3761,
      "સંપર્ક": 3762,
      "ફેબ્રુ": 3763,
      "##ડાની": 3764,
      "કંપનીઓ": 3765,
      "જીવનમાં": 3766,
      "બધું": 3767,
      "રાખે": 3768,
      "આંગ": 3769,
      "જથ્": 3770,
      "પહોંચ્યા": 3771,
      "પ્રોડ": 3772,
      "પાટ": 3773,
      "પૂજા": 3774,
      "સ્વાદ": 3775,
      "ક્ષમતા": 3776,
      "ઘટી": 3777,
      "પટે": 3778,
      "##ાજા": 3779,
      "વારં": 3780,
      "##ચો": 3781,
      "કોમ": 3782,
      "ગુજરાતી": 3783,
      "એવ": 3784,
      "કેન્સ": 3785,
      "ખાલી": 3786,
      "##લેશ": 3787,
      "##િના": 3788,
      "લોકસભા": 3789,
      "શાકભાજી": 3790,
      "વારંવાર": 3791,
      "સન્માન": 3792,
      "૧૬": 3793,
      "ભવિ": 3794,
      "સોલ": 3795,
      "##ડમાં": 3796,
      "##al": 3797,
      "##લામાં": 3798,
      "દીધું": 3799,
      "વસ્તુઓ": 3800,
      "સપ્તાહ": 3801,
      "##રમ": 3802,
      "##કાનો": 3803,
      "ફેબ્રુઆરી": 3804,
      "એક્": 3805,
      "##બજ": 3806,
      "##યોગી": 3807,
      "દિવસોમાં": 3808,
      "જવાનો": 3809,
      "##ાજિક": 3810,
      "સર્વે": 3811,
      "ઉમેદવારો": 3812,
      "કરાયો": 3813,
      "ભવિષ્ય": 3814,
      "પાટી": 3815,
      "ધંધ": 3816,
      "ચંદ્ર": 3817,
      "ફ્રે": 3818,
      "##ક્રો": 3819,
      "ઉપસ્થિત": 3820,
      "પ્રમાણમાં": 3821,
      "કદા": 3822,
      "બાદમાં": 3823,
      "##પજ": 3824,
      "વહી": 3825,
      "દીધા": 3826,
      "હાર્દિક": 3827,
      "કાપ": 3828,
      "નીક": 3829,
      "સલ": 3830,
      "##રાના": 3831,
      "જાડે": 3832,
      "લાગણી": 3833,
      "મૂલ": 3834,
      "૫૦": 3835,
      "##ફળ": 3836,
      "##હોલ": 3837,
      "##ારું": 3838,
      "કદાચ": 3839,
      "##માસ": 3840,
      "સ્થિતિમાં": 3841,
      "વેર": 3842,
      "એકાઉ": 3843,
      "સ્ત": 3844,
      "સપ્ટેમ્બર": 3845,
      "ઉમ": 3846,
      "રમત": 3847,
      "મહા": 3848,
      "##અલ": 3849,
      "##શીલ": 3850,
      "બ્લ": 3851,
      "ઝા": 3852,
      "બજાર": 3853,
      "માથા": 3854,
      "##ાવત": 3855,
      "વર્ષીય": 3856,
      "યુન": 3857,
      "વાસ્તવ": 3858,
      "પ્રત્યે": 3859,
      "કાલ": 3860,
      "આશરે": 3861,
      "જ્ઞ": 3862,
      "પટેલે": 3863,
      "##તામાં": 3864,
      "હોમ": 3865,
      "આંકડા": 3866,
      "##તાની": 3867,
      "##ાવવાની": 3868,
      "##હર": 3869,
      "##કામાં": 3870,
      "2019": 3871,
      "રજા": 3872,
      "બિઝને": 3873,
      "જાડેજા": 3874,
      "કઈ": 3875,
      "પુન": 3876,
      "આક્ષે": 3877,
      "એકાઉન્ટ": 3878,
      "કોર્પોર": 3879,
      "કેપ્ટ": 3880,
      "મહિલાઓ": 3881,
      "##પાત્ર": 3882,
      "ટ્વી": 3883,
      "દોડ": 3884,
      "##તાના": 3885,
      "નામના": 3886,
      "બ્રે": 3887,
      "##રબ": 3888,
      "એની": 3889,
      "સજા": 3890,
      "૧૭": 3891,
      "સર્વ": 3892,
      "##ડતા": 3893,
      "કોન્": 3894,
      "નર્મ": 3895,
      "તેજ": 3896,
      "કોહ": 3897,
      "યુવાનો": 3898,
      "##્રમ": 3899,
      "માળ": 3900,
      "સમી": 3901,
      "કોલેજ": 3902,
      "અપી": 3903,
      "તેઓએ": 3904,
      "બેઠકમાં": 3905,
      "ધીમે": 3906,
      "##પત્ર": 3907,
      "ઓસ્ટ્રે": 3908,
      "રવિવારે": 3909,
      "બિલ્": 3910,
      "રજૂઆત": 3911,
      "ઝી": 3912,
      "નાય": 3913,
      "ખરેખર": 3914,
      "##ઝો": 3915,
      "##તાને": 3916,
      "સંશો": 3917,
      "##સ્તો": 3918,
      "સ્કૂ": 3919,
      "##લીમ": 3920,
      "ફેસ": 3921,
      "વેપારી": 3922,
      "અત્યારે": 3923,
      "##રામ": 3924,
      "##ૈયા": 3925,
      "##દ્ધતિ": 3926,
      "ભાગમાં": 3927,
      "જમ્": 3928,
      "##િબ": 3929,
      "જાણે": 3930,
      "અચાનક": 3931,
      "આઉટ": 3932,
      "જોર": 3933,
      "મેડિકલ": 3934,
      "##્વે": 3935,
      "૨૦૨": 3936,
      "##ખ્": 3937,
      "##ર્વે": 3938,
      "તાત્": 3939,
      "ડિગ્રી": 3940,
      "તાપમાન": 3941,
      "##ૂળ": 3942,
      "ડોલર": 3943,
      "સક્રિય": 3944,
      "##દાય": 3945,
      "##ઠ્": 3946,
      "એકવાર": 3947,
      "ટ્રસ્ટ": 3948,
      "તહે": 3949,
      "##ટની": 3950,
      "ધમકી": 3951,
      "ઉમેદવાર": 3952,
      "દુકાન": 3953,
      "##્રહ": 3954,
      "પાન": 3955,
      "ટુ": 3956,
      "નેટ": 3957,
      "મુસ્": 3958,
      "ફેરફાર": 3959,
      "તુ": 3960,
      "રૃ": 3961,
      "એટલું": 3962,
      "શકી": 3963,
      "ફોર્મ": 3964,
      "છૂટ": 3965,
      "અવા": 3966,
      "બોલિવ": 3967,
      "ન્યુ": 3968,
      "વિષય": 3969,
      "##ડુ": 3970,
      "ખુશ": 3971,
      "##િફ": 3972,
      "મળતા": 3973,
      "##કુમાર": 3974,
      "વાઇ": 3975,
      "મુંબઇ": 3976,
      "##ાંગ": 3977,
      "##સમ": 3978,
      "##વિંદ": 3979,
      "ગાડી": 3980,
      "ફિલ્મમાં": 3981,
      "પદ્ધતિ": 3982,
      "લેતા": 3983,
      "બીમ": 3984,
      "મિશ્ર": 3985,
      "##વાલો": 3986,
      "##ર્જી": 3987,
      "##તિક": 3988,
      "##ડવામાં": 3989,
      "અઠવાડિયા": 3990,
      "પ્રભ": 3991,
      "##કોની": 3992,
      "સામાજિક": 3993,
      "કડક": 3994,
      "કુદર": 3995,
      "કોહલી": 3996,
      "23": 3997,
      "દાદ": 3998,
      "##રેજ": 3999,
      "##રીઝ": 4000,
      "હોવાનો": 4001,
      "નબ": 4002,
      "શાસ": 4003,
      "સરકારને": 4004,
      "અગ": 4005,
      "અપીલ": 4006,
      "માણસ": 4007,
      "ધરાવ": 4008,
      "બદલી": 4009,
      "##વાહ": 4010,
      "પરંપ": 4011,
      "બેન્ક": 4012,
      "૨૪": 4013,
      "##લીઝ": 4014,
      "પ્રશ્ન": 4015,
      "##તરણ": 4016,
      "##દેવ": 4017,
      "ભોજન": 4018,
      "તાલ": 4019,
      "ક્લા": 4020,
      "અંદાજ": 4021,
      "પ્રશ્નો": 4022,
      "##દીપ": 4023,
      "સૂર્ય": 4024,
      "ફંડ": 4025,
      "##ધામ": 4026,
      "##મદ": 4027,
      "ગરમી": 4028,
      "સદી": 4029,
      "##ણને": 4030,
      "સંજય": 4031,
      "માનસિક": 4032,
      "રજુ": 4033,
      "##સ્ટર": 4034,
      "સાંસદ": 4035,
      "સુખ": 4036,
      "##પુરા": 4037,
      "##મેટ": 4038,
      "સંપૂર્ણપણે": 4039,
      "##લિત": 4040,
      "##ભૂ": 4041,
      "##િની": 4042,
      "પાર્ક": 4043,
      "વાગ્યે": 4044,
      "##રિયા": 4045,
      "પ્રજા": 4046,
      "હિન્દ": 4047,
      "##ફા": 4048,
      "શબ્દ": 4049,
      "કારણો": 4050,
      "બનશે": 4051,
      "##મું": 4052,
      "લક્ષણો": 4053,
      "પૃ": 4054,
      "પગલાં": 4055,
      "ખોરાક": 4056,
      "વાઘ": 4057,
      "##ચન": 4058,
      "લગ્": 4059,
      "##લેક્ટ": 4060,
      "આથી": 4061,
      "શુક્રવારે": 4062,
      "હેર": 4063,
      "હેતુ": 4064,
      "ફૂટ": 4065,
      "ખેડૂત": 4066,
      "##રવ": 4067,
      "યૂ": 4068,
      "##રાષ્ટ્રીય": 4069,
      "ખાતરી": 4070,
      "પીડ": 4071,
      "ડિસેમ્બર": 4072,
      "26": 4073,
      "મોકલી": 4074,
      "બજારમાં": 4075,
      "મોટાભાગના": 4076,
      "સ્વીકાર": 4077,
      "ચલાવ": 4078,
      "ટીમે": 4079,
      "માસ": 4080,
      "##લુ": 4081,
      "સિદ્ધ": 4082,
      "વર્તમાન": 4083,
      "છૂ": 4084,
      "મોબાઈલ": 4085,
      "જોડા": 4086,
      "##માનો": 4087,
      "દરરોજ": 4088,
      "જૈ": 4089,
      "વાતચીત": 4090,
      "સ્વામી": 4091,
      "હવામાન": 4092,
      ".”": 4093,
      "##કોએ": 4094,
      "##ઇન": 4095,
      "એરપોર્ટ": 4096,
      "પંજાબ": 4097,
      "દેખાય": 4098,
      "31": 4099,
      "સેટ": 4100,
      "નર્મદા": 4101,
      "ચાર્જ": 4102,
      "##ફોર્મ": 4103,
      "મળીને": 4104,
      "કાઉ": 4105,
      "ડોઝ": 4106,
      "મર્યા": 4107,
      "બંગાળ": 4108,
      "##બાર": 4109,
      "##ન્ય": 4110,
      "28": 4111,
      "વૃક્ષ": 4112,
      "માંથી": 4113,
      "સ્ટેટ": 4114,
      "સભ્ય": 4115,
      "આધારિત": 4116,
      "કેપ્ટન": 4117,
      "એન્": 4118,
      "જુલાઈ": 4119,
      "હોવાના": 4120,
      "ટ્રાફિક": 4121,
      "પાણીની": 4122,
      "ફાયદો": 4123,
      "સગ": 4124,
      "##ંસ": 4125,
      "કરનારા": 4126,
      "કૃષિ": 4127,
      "મેનેજ": 4128,
      "ચેરમેન": 4129,
      "કરાશે": 4130,
      "બુધવારે": 4131,
      "ત્રણે": 4132,
      "વાન": 4133,
      "##્રીન": 4134,
      "જૂનાગઢ": 4135,
      "##as": 4136,
      "મીઠ": 4137,
      "વિશાળ": 4138,
      "સંદર્": 4139,
      "જોખમ": 4140,
      "કચેરી": 4141,
      "પાલિકા": 4142,
      "ખી": 4143,
      "તરત": 4144,
      "માન્ય": 4145,
      "કલમ": 4146,
      "ટ્રેન": 4147,
      "##બૂ": 4148,
      "ઓક્સ": 4149,
      "2021": 4150,
      "વેક્સિન": 4151,
      "કિસ્સામાં": 4152,
      "નિષ્ણ": 4153,
      "આરામ": 4154,
      "લગાવી": 4155,
      "સંભાળ": 4156,
      "##ેલો": 4157,
      "##ઇન્ટ": 4158,
      "વકી": 4159,
      "તાલુકામાં": 4160,
      "ઈન્ડિયા": 4161,
      "##પના": 4162,
      "પ્રવાસી": 4163,
      "##લીમાં": 4164,
      "આર્": 4165,
      "##ઘાત": 4166,
      "શોધી": 4167,
      "વિભાગના": 4168,
      "ધાર": 4169,
      "લોકોમાં": 4170,
      "પ્રગ": 4171,
      "##ર્તિ": 4172,
      "પ્રવૃત્તિ": 4173,
      "ટેલ": 4174,
      "ફાળ": 4175,
      "અતિ": 4176,
      "કંટ": 4177,
      "ગોઠ": 4178,
      "##્લેન્ડ": 4179,
      "માંડ": 4180,
      "મેચમાં": 4181,
      "મશી": 4182,
      "યુદ્ધ": 4183,
      "##ફોન": 4184,
      "ભલા": 4185,
      "એકબી": 4186,
      "##જનક": 4187,
      "ડીઝ": 4188,
      "૨૦૦": 4189,
      "સાફ": 4190,
      "જતી": 4191,
      "##ાંક": 4192,
      "પડ્યો": 4193,
      "સંદર્ભ": 4194,
      "ઇચ્છ": 4195,
      "શ્": 4196,
      "પુત્રી": 4197,
      "શકતા": 4198,
      "##ગામ": 4199,
      "બોટ": 4200,
      "ત્વ": 4201,
      "મંગળવારે": 4202,
      "બર": 4203,
      "લોન": 4204,
      "જમ્મુ": 4205,
      "##રાટ": 4206,
      "સર્વિ": 4207,
      "સૂચના": 4208,
      "આતંકી": 4209,
      "અંબ": 4210,
      "##ગુ": 4211,
      "ત્રીજા": 4212,
      "કેમે": 4213,
      "મીટર": 4214,
      "હાર": 4215,
      "કેમ્પ": 4216,
      "##ડિંગ": 4217,
      "પર્ય": 4218,
      "સ્ના": 4219,
      "બાળકી": 4220,
      "##પંચ": 4221,
      "શીખ": 4222,
      "અહેવાલ": 4223,
      "પર્વ": 4224,
      "##રત": 4225,
      "##ડીયો": 4226,
      "૨૧": 4227,
      "##ic": 4228,
      "એટલા": 4229,
      "##ળના": 4230,
      "નોંધાયો": 4231,
      "##એન": 4232,
      "વિતરણ": 4233,
      "નવેમ્બર": 4234,
      "૧૦૦": 4235,
      "મુદ્દા": 4236,
      "દિવાળી": 4237,
      "પ્રધાનમંત્રી": 4238,
      "બપોરે": 4239,
      "પોતાને": 4240,
      "અભિયાન": 4241,
      "ગણતરી": 4242,
      "વહીવ": 4243,
      "હેલ્થ": 4244,
      "એકબીજા": 4245,
      "##પરછ": 4246,
      "મહેસ": 4247,
      "નાણાકીય": 4248,
      "મોંઘ": 4249,
      "ક્યારેક": 4250,
      "ન્યાય": 4251,
      "##ભૂત": 4252,
      "નવો": 4253,
      "સરખ": 4254,
      "પાછા": 4255,
      "##પાન": 4256,
      "મદદથી": 4257,
      "##ed": 4258,
      "શનિવારે": 4259,
      "પરેશ": 4260,
      "ડિસ્": 4261,
      "વાતો": 4262,
      "માહોલ": 4263,
      "ફાયદા": 4264,
      "ટાઇ": 4265,
      "રદ": 4266,
      "જીતી": 4267,
      "આંતરરાષ્ટ્રીય": 4268,
      "દીપ": 4269,
      "ઘણાં": 4270,
      "સેક": 4271,
      "દિલ્હીમાં": 4272,
      "પ્રેર": 4273,
      "કેસો": 4274,
      "અમરેલી": 4275,
      "કપૂર": 4276,
      "પંડ": 4277,
      "બ્લે": 4278,
      "##રાની": 4279,
      "રવિ": 4280,
      "સફેદ": 4281,
      "##મીટર": 4282,
      "પ્લેટ": 4283,
      "##િત્વ": 4284,
      "જણા": 4285,
      "મના": 4286,
      "##ીક": 4287,
      "દ્વાર": 4288,
      "દઈએ": 4289,
      "અખ": 4290,
      "જમા": 4291,
      "બેડ": 4292,
      "##સલ": 4293,
      "ઇન": 4294,
      "અંતે": 4295,
      "રાવ": 4296,
      "કોણ": 4297,
      "પકડી": 4298,
      "પ્રિ": 4299,
      "રજ": 4300,
      "વય": 4301,
      "ભૂત": 4302,
      "દેખાવ": 4303,
      "વપ": 4304,
      "જૂન": 4305,
      "ઇન્સ્ટ": 4306,
      "ડું": 4307,
      "વિન": 4308,
      "જેનો": 4309,
      "##is": 4310,
      "##દેસર": 4311,
      "બાઈ": 4312,
      "ક્લિક": 4313,
      "કચ": 4314,
      "રુ": 4315,
      "ડ્રગ": 4316,
      "ડિઝાઇન": 4317,
      "ઓસ્ટ્રેલિયા": 4318,
      "મધ": 4319,
      "મોહ": 4320,
      "ગુણવ": 4321,
      "વાળા": 4322,
      "બિઝનેસ": 4323,
      "સ્વરૂપ": 4324,
      "27": 4325,
      "કરેલા": 4326,
      "##ન્ના": 4327,
      "માટેના": 4328,
      "શ્રેણી": 4329,
      "ઉના": 4330,
      "સુના": 4331,
      "બાબતો": 4332,
      "બેસી": 4333,
      "ગમે": 4334,
      "##ંદુ": 4335,
      "રાજીના": 4336,
      "##સેના": 4337,
      "##ાસી": 4338,
      "નમ": 4339,
      "##િદ": 4340,
      "##રોની": 4341,
      "રિસ": 4342,
      "બગ": 4343,
      "##ન્સે": 4344,
      "થતો": 4345,
      "##થ્થ": 4346,
      "ગ્રે": 4347,
      "સંતા": 4348,
      "##લિમ": 4349,
      "##શ્યક": 4350,
      "##િજન": 4351,
      "અભિ": 4352,
      "મોટું": 4353,
      "પ્લાન્ટ": 4354,
      "##ંતી": 4355,
      "રૂમ": 4356,
      "ખેડૂતોને": 4357,
      "##it": 4358,
      "##ંગ્લેન્ડ": 4359,
      "સંકે": 4360,
      "દસ": 4361,
      "##ગ્રા": 4362,
      "દરિયા": 4363,
      "##અપ": 4364,
      "સંબો": 4365,
      "##ળામાં": 4366,
      "નીકળી": 4367,
      "ચેપ": 4368,
      "શિયા": 4369,
      "હિત": 4370,
      "##ળું": 4371,
      "માંગણી": 4372,
      "ઓક્ટોબર": 4373,
      "વિગત": 4374,
      "##કાલિક": 4375,
      "##કાય": 4376,
      "કરાયું": 4377,
      "ટિકિટ": 4378,
      "પરમ": 4379,
      "35": 4380,
      "કરાયા": 4381,
      "##કોર્": 4382,
      "##દ્દ": 4383,
      "ભૂલ": 4384,
      "ઓવર": 4385,
      "મેદાન": 4386,
      "હાથમાં": 4387,
      "હિન્દુ": 4388,
      "ભજ": 4389,
      "આશ્": 4390,
      "વધીને": 4391,
      "બિહાર": 4392,
      "પ્રાણી": 4393,
      "ડેટા": 4394,
      "સંયુક્ત": 4395,
      "ઉકેલ": 4396,
      "હૃ": 4397,
      "સ્ટાર": 4398,
      "60": 4399,
      "કૂ": 4400,
      "સેન્ટર": 4401,
      "સંક્રમિત": 4402,
      "##સન": 4403,
      "પોરબ": 4404,
      "##ક્રમો": 4405,
      "અભિન": 4406,
      "ઘરની": 4407,
      "##વ્ર": 4408,
      "દરવા": 4409,
      "##સ્પે": 4410,
      "વિકલ્પ": 4411,
      "કાઢી": 4412,
      "લોન્ચ": 4413,
      "સરળતા": 4414,
      "ભારતે": 4415,
      "કહેવા": 4416,
      "એસો": 4417,
      "##ાઇડ": 4418,
      "##ત્સવ": 4419,
      "એન્જ": 4420,
      "##્યુલ": 4421,
      "વાઈ": 4422,
      "તાત્કાલિક": 4423,
      "ગા": 4424,
      "##ર્ત": 4425,
      "શૂટ": 4426,
      "ઉમેર": 4427,
      "તકલી": 4428,
      "વેપારીઓ": 4429,
      "પ્રયત્ન": 4430,
      "જેઓ": 4431,
      "ઓછું": 4432,
      "આધુ": 4433,
      "સ્કૂલ": 4434,
      "##કાર્": 4435,
      "બ્રિટ": 4436,
      "હૃદય": 4437,
      "ગ્રુપ": 4438,
      "ઉછ": 4439,
      "નેતાઓ": 4440,
      "કોર્પોરેશન": 4441,
      "##મથી": 4442,
      "##યાત": 4443,
      "##ાવ્યું": 4444,
      "વ્યાજ": 4445,
      "##કાંઠા": 4446,
      "મોડી": 4447,
      "ધરવામાં": 4448,
      "##કિંગ": 4449,
      "આપણી": 4450,
      "દાન": 4451,
      "નજ": 4452,
      "ગરીબ": 4453,
      "આવશ્યક": 4454,
      "પરિવારના": 4455,
      "ઉભી": 4456,
      "બીજો": 4457,
      "આધુનિક": 4458,
      "##વાને": 4459,
      "ભરત": 4460,
      "ધારાસભ્યો": 4461,
      "અગ્રણી": 4462,
      "##્યંત": 4463,
      "##ડીએ": 4464,
      "જોઈને": 4465,
      "મોબાઇલ": 4466,
      "##ઘર": 4467,
      "##રૂપે": 4468,
      "સમયગ": 4469,
      "જોગ": 4470,
      "કાર્યો": 4471,
      "નોંધી": 4472,
      "પુરા": 4473,
      "નામની": 4474,
      "500": 4475,
      "##સ્કાર": 4476,
      "##િયે": 4477,
      "વેપાર": 4478,
      "સંગી": 4479,
      "##બુક": 4480,
      "##ઇલ": 4481,
      "કરોડની": 4482,
      "શરીરમાં": 4483,
      "ઓલ": 4484,
      "##કાશે": 4485,
      "આના": 4486,
      "હોટ": 4487,
      "##ણીએ": 4488,
      "દુઃ": 4489,
      "સલમાન": 4490,
      "કુદરતી": 4491,
      "##ર્તન": 4492,
      "ટૂંક": 4493,
      "લેવાની": 4494,
      "##ચ્યુ": 4495,
      "જામી": 4496,
      "##કોર્ટ": 4497,
      "સમક્ષ": 4498,
      "##ામા": 4499,
      "##ેશભાઈ": 4500,
      "ઘણો": 4501,
      "આપીને": 4502,
      "ફ્લા": 4503,
      "##મિત": 4504,
      "આવો": 4505,
      "કાર્યક્રમમાં": 4506,
      "##ંગના": 4507,
      "##ક્ષણિક": 4508,
      "રાજકોટમાં": 4509,
      "દસ્તા": 4510,
      "સંકળ": 4511,
      "આંદોલન": 4512,
      "##સ્ટે": 4513,
      "સુનાવણી": 4514,
      "ખુશી": 4515,
      "##ત્સાહ": 4516,
      "હેડ": 4517,
      "##ing": 4518,
      "પાત્ર": 4519,
      "હટ": 4520,
      "૪૦": 4521,
      "વિરૂ": 4522,
      "##જ્જ": 4523,
      "##કર્તા": 4524,
      "ફાઈ": 4525,
      "સંસ્ક": 4526,
      "સુરતમાં": 4527,
      "જથ્થો": 4528,
      "રૂપિયાની": 4529,
      "વધારી": 4530,
      "ચોક": 4531,
      "સાઈ": 4532,
      "મેસે": 4533,
      "મચી": 4534,
      "વાદ": 4535,
      "દિવસની": 4536,
      "હોત": 4537,
      "##ડીમાં": 4538,
      "દસ્તાવે": 4539,
      "તત્વ": 4540,
      "લોહી": 4541,
      "મહેન": 4542,
      "રેટ": 4543,
      "ભાગે": 4544,
      "પગાર": 4545,
      "ત્વચા": 4546,
      "##માન્ડ": 4547,
      "વ્યવહાર": 4548,
      "કાળજી": 4549,
      "##સીબી": 4550,
      "કંઈક": 4551,
      "##ેક": 4552,
      "મૃતદે": 4553,
      "##સણ": 4554,
      "##સ્ટિક": 4555,
      "હાજરી": 4556,
      "ફ્રી": 4557,
      "રિલીઝ": 4558,
      "ગુણવત્તા": 4559,
      "માર્ગદર્શન": 4560,
      "નોંધાવી": 4561,
      "પ્રતિનિ": 4562,
      "સાંભળ": 4563,
      "પ્રસંગે": 4564,
      "દિવસો": 4565,
      "દૃ": 4566,
      "દિવસથી": 4567,
      "આવ્યુ": 4568,
      "##વાનગી": 4569,
      "ગતિ": 4570,
      "ધાર્": 4571,
      "રહેતી": 4572,
      "##શ્વર": 4573,
      "કરેલી": 4574,
      "સિલ": 4575,
      "અસરકારક": 4576,
      "##ાદે": 4577,
      "એમાં": 4578,
      "સ્વચ્છ": 4579,
      "##કિ": 4580,
      "જુના": 4581,
      "##ર્ગ": 4582,
      "ઠંડી": 4583,
      "ધોર": 4584,
      "##ૂહ": 4585,
      "##ેરી": 4586,
      "ઓછામાં": 4587,
      "ગ્રામ્ય": 4588,
      "આતંકવાદી": 4589,
      "શારી": 4590,
      "ઠા": 4591,
      "તણ": 4592,
      "##ઉં": 4593,
      "નિયમિત": 4594,
      "ભ્ર": 4595,
      "##ગેટ": 4596,
      "તમારું": 4597,
      "તીવ્ર": 4598,
      "##ક્કર": 4599,
      "સાથેની": 4600,
      "ગુરૂ": 4601,
      "ઘૂ": 4602,
      "વિચારો": 4603,
      "શામ": 4604,
      "સહી": 4605,
      "##ંડો": 4606,
      "##જીત": 4607,
      "##ંકર": 4608,
      "વહેલી": 4609,
      "બાઇ": 4610,
      "૦૦૦": 4611,
      "##..": 4612,
      "ગ્રા": 4613,
      "પાણીમાં": 4614,
      "##ધાની": 4615,
      "##ણંદ": 4616,
      "##કન": 4617,
      "##કોના": 4618,
      "29": 4619,
      "##્રિયા": 4620,
      "પ્રી": 4621,
      "સંભવ": 4622,
      "ગોળી": 4623,
      "મારફ": 4624,
      "##ષ્ક": 4625,
      "આક્ષેપ": 4626,
      "##દમ": 4627,
      "અજાણ": 4628,
      "લંબ": 4629,
      "##વાયું": 4630,
      "ઉભા": 4631,
      "ડર": 4632,
      "ધોની": 4633,
      "બૉ": 4634,
      "પ્રોત્સાહ": 4635,
      "અંગેની": 4636,
      "બરા": 4637,
      "##કુ": 4638,
      "##સ્પદ": 4639,
      "ડોક્ટ": 4640,
      "સંપત્તિ": 4641,
      "કાળા": 4642,
      "પરમાર": 4643,
      "##પ્પ": 4644,
      "સ્થાને": 4645,
      "ફોર્": 4646,
      "સરે": 4647,
      "લાગ્યો": 4648,
      "કપડાં": 4649,
      "પ્રિયંકા": 4650,
      "ટા": 4651,
      "સિંગ": 4652,
      "##ાતો": 4653,
      "પરવાનગી": 4654,
      "##કાને": 4655,
      "##ચર્ય": 4656,
      "વળી": 4657,
      "##વાં": 4658,
      "##ળમાં": 4659,
      "કાપી": 4660,
      "સેક્સ": 4661,
      "વ્યક્તિને": 4662,
      "પદાર્થ": 4663,
      "##ુડ": 4664,
      "સોંપ": 4665,
      "ગેસ": 4666,
      "અફઘ": 4667,
      "મૌ": 4668,
      "##ાઉન": 4669,
      "છા": 4670,
      "##ધરી": 4671,
      "ચાહ": 4672,
      "##શનલ": 4673,
      "કમિટી": 4674,
      "બીમારી": 4675,
      "પક": 4676,
      "##ાદી": 4677,
      "ઓક્સિજન": 4678,
      "ધાર્મિક": 4679,
      "રમી": 4680,
      "લિ": 4681,
      "વધે": 4682,
      "45": 4683,
      "આયુ": 4684,
      "કાગ": 4685,
      "દુર": 4686,
      "આવેલું": 4687,
      "આગા": 4688,
      "કલેકટર": 4689,
      "અવાજ": 4690,
      "લાગ્યા": 4691,
      "અલી": 4692,
      "ઓફર": 4693,
      "જેનાથી": 4694,
      "લવ": 4695,
      "##મુખ": 4696,
      "વાયરસના": 4697,
      "ભલામણ": 4698,
      "##ઓથી": 4699,
      "પોલ": 4700,
      "##રેટ": 4701,
      "અત્યંત": 4702,
      "ઓપર": 4703,
      "##ક્ષમ": 4704,
      "##જાત": 4705,
      "સ્પે": 4706,
      "હાઉસ": 4707,
      "પ્રચાર": 4708,
      "##સેસ": 4709,
      "વિડીયો": 4710,
      "##પ્રદ": 4711,
      "વૃદ્ધિ": 4712,
      "બતાવ": 4713,
      "##રોએ": 4714,
      "વિદ્યાર્થીઓને": 4715,
      "બોલિવૂડ": 4716,
      "કન": 4717,
      "વિરાટ": 4718,
      "સુરક્ષિત": 4719,
      "જણાવ્યુ": 4720,
      "તુલ": 4721,
      "##યન": 4722,
      "વ્યક્તિગત": 4723,
      "આગાહી": 4724,
      "ખોલ": 4725,
      "##રામાં": 4726,
      "##ત્રા": 4727,
      "અભિનેતા": 4728,
      "કંપનીએ": 4729,
      "આખા": 4730,
      "તાલીમ": 4731,
      "વિકસ": 4732,
      "યુવક": 4733,
      "શારીરિક": 4734,
      "##ચિત": 4735,
      "જવાબદાર": 4736,
      "બચાવ": 4737,
      "૨૨": 4738,
      "સમીક્ષા": 4739,
      "##રેક્ટર": 4740,
      "તસવીર": 4741,
      "##દાસ": 4742,
      "##ro": 4743,
      "સાઉ": 4744,
      "સહિતની": 4745,
      "મજા": 4746,
      "##ાઈમ": 4747,
      "પામી": 4748,
      "કંપનીના": 4749,
      "દોડી": 4750,
      "નહોતી": 4751,
      "ગુલા": 4752,
      "ભંગ": 4753,
      "##હત": 4754,
      "ઇન્ટરને": 4755,
      "દિલ": 4756,
      "અમેરિકન": 4757,
      "મહાર": 4758,
      "ચેત": 4759,
      "આપો": 4760,
      "સર્વિસ": 4761,
      "અં": 4762,
      "##શાંત": 4763,
      "વિમાન": 4764,
      "સાચ": 4765,
      "આઝ": 4766,
      "સોમનાથ": 4767,
      "સુરેન્દ્ર": 4768,
      "ટુક": 4769,
      "ભણ": 4770,
      "કાર્યક્રમો": 4771,
      "બન્યો": 4772,
      "ફાર્": 4773,
      "##કાવ": 4774,
      "આભાર": 4775,
      "ભટ્ટ": 4776,
      "મેઘ": 4777,
      "ફાઇ": 4778,
      "ભલે": 4779,
      "આશ્ચર્ય": 4780,
      "રસો": 4781,
      "જ્યો": 4782,
      "બાત": 4783,
      "કુટ": 4784,
      "કરશો": 4785,
      "અધિકાર": 4786,
      "ખુલા": 4787,
      "મામલો": 4788,
      "ફ્લો": 4789,
      "##ૂમ": 4790,
      "##િયાર": 4791,
      "મુસ્લિમ": 4792,
      "ફોર": 4793,
      "##ણના": 4794,
      "ચોમાસ": 4795,
      "કૌભ": 4796,
      "ગ્રહ": 4797,
      "તસવીરો": 4798,
      "##ઇડ": 4799,
      "સરહ": 4800,
      "અપના": 4801,
      "ક્રો": 4802,
      "ક્રેડ": 4803,
      "પ્રદ": 4804,
      "##કુલ": 4805,
      "##ત્રે": 4806,
      "જુદી": 4807,
      "એવોર્ડ": 4808,
      "માઇ": 4809,
      "##ાનાં": 4810,
      "રોકડ": 4811,
      "દેશો": 4812,
      "રસીકરણ": 4813,
      "ઉપયોગી": 4814,
      "પોલીસની": 4815,
      "કોંગ્રે": 4816,
      "અટ": 4817,
      "##દની": 4818,
      "આવતાં": 4819,
      "મહત્ત્વ": 4820,
      "##ીઓ": 4821,
      "ઘો": 4822,
      "દરો": 4823,
      "##સીએ": 4824,
      "સરદાર": 4825,
      "હજારો": 4826,
      "કયા": 4827,
      "નવું": 4828,
      "તેમાંથી": 4829,
      "2018": 4830,
      "##શ્ચિત": 4831,
      "અફઘાન": 4832,
      "સુધારો": 4833,
      "મહાનગર": 4834,
      "સૈનિક": 4835,
      "ઇજા": 4836,
      "ઓનલાઇન": 4837,
      "ભરતી": 4838,
      "તૂ": 4839,
      "##મસ": 4840,
      "##લિંગ": 4841,
      "અમલ": 4842,
      "વાવા": 4843,
      "પાડવામાં": 4844,
      "વાસ્તવિક": 4845,
      "##ટન": 4846,
      "આખરે": 4847,
      "જનરલ": 4848,
      "રક્ષણ": 4849,
      "મુક્ત": 4850,
      "##ઈન": 4851,
      "નોંધપાત્ર": 4852,
      "રશિયા": 4853,
      "પગલા": 4854,
      "તેવો": 4855,
      "##ન્શન": 4856,
      "નગરપાલિકા": 4857,
      "##પમાં": 4858,
      "ભાવમાં": 4859,
      "વાંચો": 4860,
      "##સીટી": 4861,
      "યોજા": 4862,
      "ગોલ્ડ": 4863,
      "લેશે": 4864,
      "પલ": 4865,
      "બાંધકામ": 4866,
      "##ત્રો": 4867,
      "##પીએ": 4868,
      "ઓવ": 4869,
      "ભવ્ય": 4870,
      "##જીની": 4871,
      "વેસ્ટ": 4872,
      "ગેરકાય": 4873,
      "ક્રેડિટ": 4874,
      "સમજી": 4875,
      "રહેલ": 4876,
      "ઓછો": 4877,
      "##કોમાં": 4878,
      "અનુક": 4879,
      "બનાવ્યા": 4880,
      "##ઉન્ટ": 4881,
      "મેટ": 4882,
      "70": 4883,
      "##ષિક": 4884,
      "##ેલું": 4885,
      "##ખે": 4886,
      "ગુના": 4887,
      "##માની": 4888,
      "પરિવારજનો": 4889,
      "અમેરિકાના": 4890,
      "વાસ": 4891,
      "હોઇ": 4892,
      "##તરના": 4893,
      "સાધનો": 4894,
      "કેટલાં": 4895,
      "કેન્સર": 4896,
      "હિસ્": 4897,
      "આકાર": 4898,
      "કાર્યકરો": 4899,
      "ઉર્ફે": 4900,
      "199": 4901,
      "બંદ": 4902,
      "સત્ય": 4903,
      "રક્ત": 4904,
      "##િટલ": 4905,
      "બાળકને": 4906,
      "ચીફ": 4907,
      "સદ": 4908,
      "વૈજ્ઞાન": 4909,
      "જલ": 4910,
      "##ૂક": 4911,
      "કોઈને": 4912,
      "સમાજના": 4913,
      "##પુરમાં": 4914,
      "સાથ": 4915,
      "સંસદ": 4916,
      "લાવ": 4917,
      "##દમાં": 4918,
      "##હાણ": 4919,
      "સ્પર્ધા": 4920,
      "મારે": 4921,
      "લોકોનો": 4922,
      "ઇતિહાસ": 4923,
      "##િલે": 4924,
      "ઉત્તમ": 4925,
      "નાયબ": 4926,
      "##ઠો": 4927,
      "##ાર્ટમેન્ટ": 4928,
      "ટોચ": 4929,
      "સરખામ": 4930,
      "વપરાશ": 4931,
      "તકલીફ": 4932,
      "##જિત": 4933,
      "જૂથ": 4934,
      "વિભાગે": 4935,
      "##વેર": 4936,
      "ગીત": 4937,
      "શ્વાસ": 4938,
      "કોન્ટ": 4939,
      "કોર્પોરે": 4940,
      "ઠેર": 4941,
      "પરિણામે": 4942,
      "આફ્ર": 4943,
      "##વર્ક": 4944,
      "આવ્યાં": 4945,
      "દેવી": 4946,
      "વાલી": 4947,
      "રિઝ": 4948,
      "સરેરાશ": 4949,
      "બેં": 4950,
      "ત્રણેય": 4951,
      "રાજકાર": 4952,
      "##ખ્યાત": 4953,
      "##શાળી": 4954,
      "મેસેજ": 4955,
      "ફર્": 4956,
      "##્મી": 4957,
      "ઘણું": 4958,
      "ચૂક્યા": 4959,
      "આગેવાનો": 4960,
      "જોતા": 4961,
      "##ટીંગ": 4962,
      "કાયદો": 4963,
      "અપે": 4964,
      "પરીક્ષણ": 4965,
      "બ્લો": 4966,
      "પાર્ટીના": 4967,
      "કલાકે": 4968,
      "##ૃત્વ": 4969,
      "ત્રીજી": 4970,
      "સમર્થન": 4971,
      "જેલ": 4972,
      "##સાડ": 4973,
      "##ગ્રસ્ત": 4974,
      "##પ્શન": 4975,
      "ડુંગ": 4976,
      "##હેબ": 4977,
      "##્વી": 4978,
      "વધતા": 4979,
      "##ત્મક": 4980,
      "હાં": 4981,
      "સ્વસ્થ": 4982,
      "લીધું": 4983,
      "જવાની": 4984,
      "ગણેશ": 4985,
      "નુકશાન": 4986,
      "##રોધ": 4987,
      "સંજો": 4988,
      "પત્રકાર": 4989,
      "ચલા": 4990,
      "##ur": 4991,
      "અશો": 4992,
      "હુ": 4993,
      "લાંબી": 4994,
      "ઉંમર": 4995,
      "જાતે": 4996,
      "આંકડો": 4997,
      "મહેનત": 4998,
      "##ટણી": 4999,
      "##સ્ટ્ર": 5000,
      "સ્પેશ": 5001,
      "અંતર": 5002,
      "##લન": 5003,
      "જારી": 5004,
      "##મિન": 5005,
      "સંદેશ": 5006,
      "મારો": 5007,
      "##કાના": 5008,
      "ઉત્પાદનો": 5009,
      "કેપ": 5010,
      "##સ્તે": 5011,
      "##શ્વિક": 5012,
      "શાન": 5013,
      "##le": 5014,
      "યુરો": 5015,
      "##સભામાં": 5016,
      "શરૂઆતમાં": 5017,
      "સુધાર": 5018,
      "પાવર": 5019,
      "મની": 5020,
      "લાખની": 5021,
      "નોટિસ": 5022,
      "##મ્બરે": 5023,
      "દિશામાં": 5024,
      "##ાએ": 5025,
      "##ગારી": 5026,
      "##સીપી": 5027,
      "##સ્ત્રી": 5028,
      "૩૧": 5029,
      "સહે": 5030,
      "લહેર": 5031,
      "રહેવું": 5032,
      "સગી": 5033,
      "દર્દીઓને": 5034,
      "ખોટ": 5035,
      "જાણીતા": 5036,
      "પૂછપરછ": 5037,
      "ઓનલાઈન": 5038,
      "આચાર": 5039,
      "સાથેના": 5040,
      "રોહિત": 5041,
      "ઉત્સાહ": 5042,
      "આખી": 5043,
      "વિટ": 5044,
      "સ્પી": 5045,
      "મચ": 5046,
      "##ુત": 5047,
      "##ેશભાઇ": 5048,
      "ઉંચ": 5049,
      "તેટ": 5050,
      "તોડી": 5051,
      "ભાઇ": 5052,
      "મૃતદેહ": 5053,
      "##ાઈડ": 5054,
      "##લોમાં": 5055,
      "માને": 5056,
      "પોર્ટ": 5057,
      "તમારો": 5058,
      "વૈશ્વિક": 5059,
      "ઉતર": 5060,
      "##ોબ": 5061,
      "કેસની": 5062,
      "##ઝર્સ": 5063,
      "##લને": 5064,
      "એકદમ": 5065,
      "સ્વતંત્ર": 5066,
      "સ્તરે": 5067,
      "એન્જિન": 5068,
      "શકાશે": 5069,
      "ટ્વીટ": 5070,
      "##લાની": 5071,
      "તળાવ": 5072,
      "##લીપ": 5073,
      "##પ્લે": 5074,
      "મંજ": 5075,
      "પ્લાન": 5076,
      "ક્ષેત્રમાં": 5077,
      "લૂંટ": 5078,
      "ગૂ": 5079,
      "પવન": 5080,
      "પ્રતિક્રિયા": 5081,
      "##નિસ": 5082,
      "જામીન": 5083,
      "ચિત્ર": 5084,
      "બુક": 5085,
      "##કાત": 5086,
      "80": 5087,
      "##તૃત્વ": 5088,
      "ફરીયા": 5089,
      "અનામત": 5090,
      "૨૩": 5091,
      "સ્ટેશનમાં": 5092,
      "મહત્વનું": 5093,
      "ચહેરા": 5094,
      "##વેલ": 5095,
      "પૃથ": 5096,
      "##ીન": 5097,
      "##વીને": 5098,
      "2017": 5099,
      "##િયાણા": 5100,
      "બ્રાન્ડ": 5101,
      "વિશ્વમાં": 5102,
      "ઉડ": 5103,
      "સરળતાથી": 5104,
      "કન્": 5105,
      "જર": 5106,
      "વેક": 5107,
      "ભેટ": 5108,
      "ગોંડ": 5109,
      "##લત": 5110,
      "ચામ": 5111,
      "##પરા": 5112,
      "વિરોધી": 5113,
      "##ઝે": 5114,
      "રેલી": 5115,
      "ઈજા": 5116,
      "લાખો": 5117,
      "##વાડ": 5118,
      "માની": 5119,
      "ભરી": 5120,
      "##કાની": 5121,
      "કમાણી": 5122,
      "##ંદગી": 5123,
      "પહોંચ્યો": 5124,
      "વર્ક": 5125,
      "હથ": 5126,
      "પડકાર": 5127,
      "પ્રેમી": 5128,
      "ખોટી": 5129,
      "કમિશનર": 5130,
      "દેશોમાં": 5131,
      "કેબ": 5132,
      "આવવા": 5133,
      "રાજ્યોમાં": 5134,
      "પથ્થ": 5135,
      "ફા": 5136,
      "વૃદ્ધ": 5137,
      "કિલોમીટર": 5138,
      "##િત્ય": 5139,
      "મળવા": 5140,
      "દોઢ": 5141,
      "બચ્ચ": 5142,
      "સ્ટી": 5143,
      "##ગ્ન": 5144,
      "ઉપકરણ": 5145,
      "ઘણીવાર": 5146,
      "રાય": 5147,
      "##ંજન": 5148,
      "વર્ણ": 5149,
      "મહિને": 5150,
      "સમસ્યાઓ": 5151,
      "તણાવ": 5152,
      "અશોક": 5153,
      "32": 5154,
      "સંબંધી": 5155,
      "સાથી": 5156,
      "##રાઇ": 5157,
      "પડ્યા": 5158,
      "આંતરિક": 5159,
      "##િઓ": 5160,
      "દાય": 5161,
      "##ાઇમ": 5162,
      "નિયંત્રણ": 5163,
      "##િષ્ઠ": 5164,
      "જેવું": 5165,
      "સ્કી": 5166,
      "દવાઓ": 5167,
      "##ધ્યા": 5168,
      "કૌભાંડ": 5169,
      "ઉદ્": 5170,
      "જેમાંથી": 5171,
      "##ણું": 5172,
      "##ેશને": 5173,
      "બહેન": 5174,
      "##દામ": 5175,
      "પુલ": 5176,
      "જેલમાં": 5177,
      "##ટીવ": 5178,
      "મહેતા": 5179,
      "સંગ્રહ": 5180,
      "##હત્યા": 5181,
      "શહેરી": 5182,
      "શૂટિંગ": 5183,
      "બરાબર": 5184,
      "વ્યકિત": 5185,
      "ચૂકી": 5186,
      "ફેસબુક": 5187,
      "તિ": 5188,
      "સિટી": 5189,
      "##ati": 5190,
      "પર્યાવ": 5191,
      "##om": 5192,
      "બાતમી": 5193,
      "હોવી": 5194,
      "ટેક્": 5195,
      "ચાવ": 5196,
      "##ગલ": 5197,
      "પેદા": 5198,
      "##યલ": 5199,
      "##સ્ય": 5200,
      "મેન": 5201,
      "ફોટા": 5202,
      "એકમ": 5203,
      "પીડા": 5204,
      "સંબંધો": 5205,
      "સચિવ": 5206,
      "##જને": 5207,
      "##્યાલય": 5208,
      "ઓર": 5209,
      "નિર્દેશ": 5210,
      "નારાજ": 5211,
      "આર્ટ": 5212,
      "ઓપરેશન": 5213,
      "લૉ": 5214,
      "સહયોગ": 5215,
      "સ્વાગત": 5216,
      "કાલે": 5217,
      "જ્ઞાન": 5218,
      "પાત": 5219,
      "રસ્તો": 5220,
      "##ઈન્ટ": 5221,
      "હોવું": 5222,
      "##ાહો": 5223,
      "ગામની": 5224,
      "##હાજ": 5225,
      "ઉપાય": 5226,
      "વિલ": 5227,
      "રીત": 5228,
      "રિક": 5229,
      "જરૂરિયાત": 5230,
      "પંથ": 5231,
      "ગઢ": 5232,
      "સુશાંત": 5233,
      "રાજુ": 5234,
      "હાલત": 5235,
      "વર્ષો": 5236,
      "કેટલા": 5237,
      "કંઇ": 5238,
      "નેતૃત્વ": 5239,
      "અમેરિકામાં": 5240,
      "થોડો": 5241,
      "##્રિ": 5242,
      "ઓટો": 5243,
      "ચાલે": 5244,
      "એક્ટિવ": 5245,
      "વળતર": 5246,
      "આણંદ": 5247,
      "##ર્મો": 5248,
      "##માને": 5249,
      "##શિયન": 5250,
      "##ાગત": 5251,
      "##વારના": 5252,
      "##જીવન": 5253,
      "દુકાનો": 5254,
      "બન્યું": 5255,
      "સ્થાપના": 5256,
      "મંદિરમાં": 5257,
      "##ંખ": 5258,
      "##બીઆઈ": 5259,
      "ટેકનો": 5260,
      "આદિ": 5261,
      "ટ્વિટ": 5262,
      "દુઃખ": 5263,
      "ઉત": 5264,
      "##ર્ડર": 5265,
      "રસપ્રદ": 5266,
      "ઇલેક્ટ": 5267,
      "ટીમો": 5268,
      "સંશોધન": 5269,
      "કન્ટે": 5270,
      "37": 5271,
      "ચલાવી": 5272,
      "##ઘુ": 5273,
      "##જીના": 5274,
      "##એસટી": 5275,
      "ફિટ": 5276,
      "સક્ષમ": 5277,
      "##લાયન્સ": 5278,
      "##ળીને": 5279,
      "એટલી": 5280,
      "##ત્વે": 5281,
      "કર્ણા": 5282,
      "##સ્વ": 5283,
      "બનાવો": 5284,
      "##ંદા": 5285,
      "નાખી": 5286,
      "વિસ": 5287,
      "ટ્રક": 5288,
      "કલ્પ": 5289,
      "તત્": 5290,
      "##લીયા": 5291,
      "ગુરુવારે": 5292,
      "આજના": 5293,
      "##નોને": 5294,
      "બ્લેક": 5295,
      "અમદાવાદના": 5296,
      "સૂત્રો": 5297,
      "##ર્દી": 5298,
      "કાર્યરત": 5299,
      "વરસાદની": 5300,
      "પ્રોડક્ટ": 5301,
      "એપ્": 5302,
      "બનાસ": 5303,
      "મશીન": 5304,
      "શાખ": 5305,
      "૨૬": 5306,
      "માછ": 5307,
      "રચ": 5308,
      "##્ટી": 5309,
      "ફરાર": 5310,
      "સત્ર": 5311,
      "##વ્યા": 5312,
      "##ષી": 5313,
      "ગુજરાતની": 5314,
      "મીડિયામાં": 5315,
      "છબી": 5316,
      "##ધિક": 5317,
      "સીટ": 5318,
      "વિસ્તારના": 5319,
      "તસ્વી": 5320,
      "મોક": 5321,
      "ભાવના": 5322,
      "તું": 5323,
      "એકત્ર": 5324,
      "તેઓને": 5325,
      "જોડાયેલા": 5326,
      "આત્મહત્યા": 5327,
      "##ચંદ": 5328,
      "કોશ": 5329,
      "ચાંદી": 5330,
      "ચારે": 5331,
      "સુધીની": 5332,
      "ઊભી": 5333,
      "સરપંચ": 5334,
      "કોરોનાથી": 5335,
      "##ળીયા": 5336,
      "##ાનુ": 5337,
      "કિશ": 5338,
      "વસ્તી": 5339,
      "હનુ": 5340,
      "જૂની": 5341,
      "કોચ": 5342,
      "નિમણ": 5343,
      "પોરબંદર": 5344,
      "અજય": 5345,
      "ઇન્ટર": 5346,
      "નર": 5347,
      "##નક": 5348,
      "પડતા": 5349,
      "ગાંધીએ": 5350,
      "દિગ્": 5351,
      "ડ્રેસ": 5352,
      "##ેશ્વર": 5353,
      "નીચ": 5354,
      "##્સમાં": 5355,
      "ત્યાંથી": 5356,
      "વાનગી": 5357,
      "ઈચ્છ": 5358,
      "કટ": 5359,
      "##ાણે": 5360,
      "સીએમ": 5361,
      "દેશભરમાં": 5362,
      "વ્હ": 5363,
      "વડે": 5364,
      "##મંડ": 5365,
      "##am": 5366,
      "##ંગી": 5367,
      "લીલા": 5368,
      "સોલંકી": 5369,
      "##us": 5370,
      "##ડીના": 5371,
      "દિવસના": 5372,
      "નજીકના": 5373,
      "નિશાન": 5374,
      "પહોંચાડ": 5375,
      "નિષ્ફળ": 5376,
      "ઊંઘ": 5377,
      "ખાંડ": 5378,
      "વધારવા": 5379,
      "શાનદાર": 5380,
      "ક્": 5381,
      "૨૮": 5382,
      "અફઘાનિસ્તા": 5383,
      "ઠાક": 5384,
      "તોડ": 5385,
      "##સીના": 5386,
      "અસ્થ": 5387,
      "##સને": 5388,
      "હિંસા": 5389,
      "ફ્લ": 5390,
      "બેન": 5391,
      "##ડીંગ": 5392,
      "##રાન": 5393,
      "અંગ્રે": 5394,
      "ડ્રાઇ": 5395,
      "##ad": 5396,
      "પુરી": 5397,
      "લગાવ": 5398,
      "બનાવવાની": 5399,
      "મહેસાણા": 5400,
      "ગીર": 5401,
      "ફુ": 5402,
      "##એશન": 5403,
      "મહત્વની": 5404,
      "હિંમત": 5405,
      "##બળ": 5406,
      "વરિષ્ઠ": 5407,
      "કાશ્મીર": 5408,
      "વિપક્ષ": 5409,
      "કરાર": 5410,
      "રેસ્ટ": 5411,
      "દર્દીઓની": 5412,
      "કર્ણાટક": 5413,
      "સાબર": 5414,
      "સંવે": 5415,
      "દીકરા": 5416,
      "દુનિયામાં": 5417,
      "વીજળી": 5418,
      "ભરે": 5419,
      "##જમાં": 5420,
      "વાર્ષિક": 5421,
      "##ાગ્રામ": 5422,
      "પાર્": 5423,
      "##દ્રા": 5424,
      "જસ્ટ": 5425,
      "##લીન": 5426,
      "અંધ": 5427,
      "બાયો": 5428,
      "દુખ": 5429,
      "##ચીન": 5430,
      "પુરવ": 5431,
      "સંગીત": 5432,
      "ચેતવણી": 5433,
      "સળ": 5434,
      "##્યોર": 5435,
      "ઇંચ": 5436,
      "ખંડ": 5437,
      "કરાઇ": 5438,
      "અપેક્ષા": 5439,
      "લક્ષ્મી": 5440,
      "વહીવટી": 5441,
      "##સિસ": 5442,
      "કોરોનાને": 5443,
      "ભાગના": 5444,
      "ડેરી": 5445,
      "વેલ": 5446,
      "36": 5447,
      "75": 5448,
      "##ાઇઝ": 5449,
      "નજરે": 5450,
      "##શય": 5451,
      "##સ્ત્રો": 5452,
      "રાઠ": 5453,
      "તકે": 5454,
      "##ંગા": 5455,
      "એક્સપ": 5456,
      "સભા": 5457,
      "કય": 5458,
      "##તોને": 5459,
      "ભરૂ": 5460,
      "જુગાર": 5461,
      "સેવાઓ": 5462,
      "##િટે": 5463,
      "##્યલ": 5464,
      "ખુલાસો": 5465,
      "##ુબ": 5466,
      "જણાવે": 5467,
      "##છે": 5468,
      "કરાવવા": 5469,
      "ગ્રાહકો": 5470,
      "અણ": 5471,
      "##ોનો": 5472,
      "વધશે": 5473,
      "##િયત": 5474,
      "કલ્યા": 5475,
      "ટેકનોલોજી": 5476,
      "##લમ": 5477,
      "ગયેલા": 5478,
      "##તાથી": 5479,
      "લીંબ": 5480,
      "મૂલ્ય": 5481,
      "રૂા": 5482,
      "કુટુંબ": 5483,
      "વેક્સી": 5484,
      "##ોરન્ટ": 5485,
      "ર૦": 5486,
      "##િંક": 5487,
      "માંગે": 5488,
      "##જરી": 5489,
      "દિલ્હીઃ": 5490,
      "ઝઘ": 5491,
      "ભારતને": 5492,
      "સત્તાવાર": 5493,
      "ચર": 5494,
      "કોંગ્રેસે": 5495,
      "ચિક": 5496,
      "થવું": 5497,
      "સખ": 5498,
      "##20": 5499,
      "##વાયા": 5500,
      "વીમા": 5501,
      "મુખ્યત્વે": 5502,
      "ઉપયોગમાં": 5503,
      "મધ્યમ": 5504,
      "૬૦": 5505,
      "મહો": 5506,
      "થઈને": 5507,
      "બ્રહ": 5508,
      "જઈને": 5509,
      "બીજું": 5510,
      "પવ": 5511,
      "##નીતિ": 5512,
      "અર્થે": 5513,
      "મુસાફરી": 5514,
      "ડુંગળી": 5515,
      "##દામાલ": 5516,
      "માછલી": 5517,
      "##દિવ": 5518,
      "##િવે": 5519,
      "પ્રયાસો": 5520,
      "યથ": 5521,
      "##el": 5522,
      "મોઢ": 5523,
      "દરવાજા": 5524,
      "મરી": 5525,
      "##ch": 5526,
      "##ol": 5527,
      "ત્રાસ": 5528,
      "કને": 5529,
      "##ંસા": 5530,
      "ભાષા": 5531,
      "##લોડ": 5532,
      "રોલ": 5533,
      "નિપજ": 5534,
      "ગઈકાલે": 5535,
      "જવું": 5536,
      "છેલ્": 5537,
      "પ્રમો": 5538,
      "બીજે": 5539,
      "મિશ્રણ": 5540,
      "##ચાર્જ": 5541,
      "ઘેર": 5542,
      "ફૂલ": 5543,
      "વાવે": 5544,
      "છેતર": 5545,
      "પુરૂ": 5546,
      "ઉતાર": 5547,
      "માટી": 5548,
      "સેવન": 5549,
      "આમાં": 5550,
      "ભ્રષ્ટ": 5551,
      "પિ": 5552,
      "બાય": 5553,
      "##લાના": 5554,
      "કારકિ": 5555,
      "##ડાને": 5556,
      "અધિકારીએ": 5557,
      "ડ્રાઈ": 5558,
      "સ્થાપિત": 5559,
      "પર્યાવરણ": 5560,
      "ઘાયલ": 5561,
      "સુધીના": 5562,
      "તપાસમાં": 5563,
      "પ્રસિ": 5564,
      "હનુમાન": 5565,
      "કરોડના": 5566,
      "ચર્ચામાં": 5567,
      "માગણી": 5568,
      "ફિ": 5569,
      "##િયાના": 5570,
      "##િપલ": 5571,
      "કારકિર્દી": 5572,
      "##્રિક": 5573,
      "અલબ": 5574,
      "જાળવી": 5575,
      "મેનેજમેન્ટ": 5576,
      "ઇચ્છા": 5577,
      "છુ": 5578,
      "ટોપ": 5579,
      "##િષ્ટ": 5580,
      "ક્ષેત્રે": 5581,
      "વલણ": 5582,
      "સંકેત": 5583,
      "દાહો": 5584,
      "પાડે": 5585,
      "આવતો": 5586,
      "તબીબી": 5587,
      "કપાસ": 5588,
      "રહ્યુ": 5589,
      "##િંગમાં": 5590,
      "ચમચી": 5591,
      "રાખવું": 5592,
      "નોંધનીય": 5593,
      "આજથી": 5594,
      "સુરેન્દ્રનગર": 5595,
      "##કતા": 5596,
      "જાે": 5597,
      "મૂકવામાં": 5598,
      "ચકાસ": 5599,
      "લુ": 5600,
      "લેવી": 5601,
      "##ન્સમાં": 5602,
      "##ાયર": 5603,
      "જીએસટી": 5604,
      "##nd": 5605,
      "હર્ષ": 5606,
      "જેટલો": 5607,
      "વાયુ": 5608,
      "કૈ": 5609,
      "ડાયા": 5610,
      "૨૭": 5611,
      "મર્યાદા": 5612,
      "અહ": 5613,
      "ઘા": 5614,
      "ડ્રો": 5615,
      "##ંટી": 5616,
      "પરના": 5617,
      "##્રેટ": 5618,
      "રાઉન્ડ": 5619,
      "અંદાજે": 5620,
      "90": 5621,
      "નહ": 5622,
      "પ્લો": 5623,
      "બોલાવ": 5624,
      "રાઠોડ": 5625,
      "કોમ્પ": 5626,
      ").": 5627,
      "સંર": 5628,
      "બેસ": 5629,
      "સફાઈ": 5630,
      "પ્રભાવિત": 5631,
      "બપોર": 5632,
      "આપવાનો": 5633,
      "ન્યૂઝ": 5634,
      "સંગઠન": 5635,
      "લાવવા": 5636,
      "પરિવારો": 5637,
      "બચાવવા": 5638,
      "સન": 5639,
      "ગુસ્": 5640,
      "પડતી": 5641,
      "બાઈક": 5642,
      "પ્રયોગ": 5643,
      "રાજા": 5644,
      "ટિ": 5645,
      "##વાડા": 5646,
      "તેણી": 5647,
      "પ્લાસ્ટિક": 5648,
      "નેટવર્ક": 5649,
      "ચક્ર": 5650,
      "શાંત": 5651,
      "કરું": 5652,
      "આપવાનું": 5653,
      "કેટલાંક": 5654,
      "ફ્લે": 5655,
      "લાવી": 5656,
      "ભાજપે": 5657,
      "શહેરની": 5658,
      "##શિષ્ટ": 5659,
      "કક્ષા": 5660,
      "ફૂડ": 5661,
      "હુક": 5662,
      "રોષ": 5663,
      "રિલાયન્સ": 5664,
      "##ફ્ટી": 5665,
      "દૈ": 5666,
      "દિને": 5667,
      "રાખવી": 5668,
      "હોલ": 5669,
      "##ov": 5670,
      "સમુદ્ર": 5671,
      "જોડાયા": 5672,
      "##પિત": 5673,
      "##ાયી": 5674,
      "નવરાત": 5675,
      "મારફતે": 5676,
      "##ર્ચે": 5677,
      "વલસાડ": 5678,
      "પોઇન્ટ": 5679,
      "##િલના": 5680,
      "##દુ": 5681,
      "મોટે": 5682,
      "બેગ": 5683,
      "અદાલ": 5684,
      "કર્મચારીઓને": 5685,
      "સાહેબ": 5686,
      "સમૃ": 5687,
      "ઑફ": 5688,
      "૩૫": 5689,
      "ગણવામાં": 5690,
      "રોકવા": 5691,
      "આંખો": 5692,
      "શૈલી": 5693,
      "કવિ": 5694,
      "બનવા": 5695,
      "પાકિસ્તાની": 5696,
      "##કલ્પ": 5697,
      "##કોનો": 5698,
      "ઊભા": 5699,
      "ઓડ": 5700,
      "##શક": 5701,
      "##ti": 5702,
      "કરાય": 5703,
      "પૂરા": 5704,
      "બોલાવી": 5705,
      "પશુપાલ": 5706,
      "મીઠું": 5707,
      "##ોનું": 5708,
      "##રાને": 5709,
      "##ણાં": 5710,
      "વર્ષોથી": 5711,
      "શામેલ": 5712,
      "અરવિંદ": 5713,
      "ઉમેરો": 5714,
      "મગફ": 5715,
      ".'": 5716,
      "##ડું": 5717,
      "જોરદાર": 5718,
      "અશ્વ": 5719,
      "ઘરના": 5720,
      "##શિપ": 5721,
      "સીધી": 5722,
      "ડાન્સ": 5723,
      "રજિસ્ટ": 5724,
      "યાદીમાં": 5725,
      "##લક": 5726,
      "ડેમ": 5727,
      "સંતોષ": 5728,
      "આદિવાસી": 5729,
      "માઈ": 5730,
      "ચુકાદ": 5731,
      "એન્ટી": 5732,
      "નીતિન": 5733,
      "ફટકાર": 5734,
      "રુપ": 5735,
      "પ્રસ્તા": 5736,
      "સમાપ્ત": 5737,
      "વ્યાપ": 5738,
      "તેજસ્વી": 5739,
      "##ક્તા": 5740,
      "કન્યા": 5741,
      "મસ": 5742,
      "ટીમના": 5743,
      "અક્ષય": 5744,
      "આવરી": 5745,
      "લાખથી": 5746,
      "બનેલા": 5747,
      "##મીએ": 5748,
      "રૂમમાં": 5749,
      "યાદવ": 5750,
      "એન્ટ્રી": 5751,
      "શબ્દો": 5752,
      "સાજા": 5753,
      "દુષ્ક": 5754,
      "##વેટ": 5755,
      "##સીસી": 5756,
      "ટીમને": 5757,
      "દર્શાવે": 5758,
      "અલબત્ત": 5759,
      "ચઢ": 5760,
      "પરિષ": 5761,
      "દિશા": 5762,
      "પરેશાન": 5763,
      "અમી": 5764,
      "કોઇપણ": 5765,
      "કોન્ટ્રા": 5766,
      "##ણીમાં": 5767,
      "રેખા": 5768,
      "વાપ": 5769,
      "ટન": 5770,
      "##000": 5771,
      "સંભવિત": 5772,
      "##રાદ": 5773,
      "##્યુટી": 5774,
      "હેન્ડ": 5775,
      "##કડા": 5776,
      "આવનાર": 5777,
      "##લોની": 5778,
      "કલ્યાણ": 5779,
      "ગું": 5780,
      "વોલ": 5781,
      "##ધર": 5782,
      "##ઘટના": 5783,
      "વિશિષ્ટ": 5784,
      "પીએસ": 5785,
      "પુનઃ": 5786,
      "ગુમાવી": 5787,
      "બ્લડ": 5788,
      "અજાણ્યા": 5789,
      "આવીને": 5790,
      "વ્યાપક": 5791,
      "ડ્રગ્સ": 5792,
      "મનમાં": 5793,
      "##સારી": 5794,
      "જેવો": 5795,
      "બાકીના": 5796,
      "સંજોગ": 5797,
      "##લેથી": 5798,
      "અત્રે": 5799,
      "અંબાણી": 5800,
      "મિસ": 5801,
      "##ન્દ્રસિંહ": 5802,
      "મહેશ": 5803,
      "સ્ત્રીઓ": 5804,
      "##દાયક": 5805,
      "##નેટ": 5806,
      "છેલ્લી": 5807,
      "શકશો": 5808,
      "##િશ્": 5809,
      "##વુડ": 5810,
      "સંસ્કૃતિ": 5811,
      "કિશોર": 5812,
      "વિજે": 5813,
      "પુછ": 5814,
      "##સામાં": 5815,
      "રૂપે": 5816,
      "મધ્યપ્રદેશ": 5817,
      "વિધાનસભાની": 5818,
      "##ાચાર": 5819,
      "##ર્ના": 5820,
      "આપઘાત": 5821,
      "પડ્યું": 5822,
      "પોલીસના": 5823,
      "થયાં": 5824,
      "પરિવર્તન": 5825,
      "##ર્કમાં": 5826,
      "માન્યતા": 5827,
      "છુપ": 5828,
      "પ્રવાહ": 5829,
      "સરસ": 5830,
      "અનિલ": 5831,
      "માધ્યમથી": 5832,
      "##કીને": 5833,
      "અરજ": 5834,
      "જગત": 5835,
      "મનુ": 5836,
      "##ર્સને": 5837,
      "મતદારો": 5838,
      "૨૦૧૯": 5839,
      "દુષ્કર્મ": 5840,
      "ચું": 5841,
      "##ગ્લા": 5842,
      "##et": 5843,
      "રહેવાની": 5844,
      "નાંખ": 5845,
      "ઐતિહાસ": 5846,
      "મફ": 5847,
      "માફ": 5848,
      "સ્થિર": 5849,
      "પગલું": 5850,
      "ચાલો": 5851,
      "પાકિસ્તાનના": 5852,
      "ટકાનો": 5853,
      "કિન": 5854,
      "સ્વપ્": 5855,
      "પરિવારને": 5856,
      "##પ્તિ": 5857,
      "હોવ": 5858,
      "પરિણામો": 5859,
      "ડિવ": 5860,
      "રાં": 5861,
      "##ંદન": 5862,
      "એમને": 5863,
      "એક્ટ્રેસ": 5864,
      "થોડું": 5865,
      "યુપી": 5866,
      "રાત્રી": 5867,
      "પ્રસ્તાવ": 5868,
      "ચડ": 5869,
      "બેંગ": 5870,
      "વિશ્વના": 5871,
      "બનેલી": 5872,
      "ગૌરવ": 5873,
      "રિસર્ચ": 5874,
      "કથ": 5875,
      "##કાજ": 5876,
      "##રીની": 5877,
      "કંટ્રોલ": 5878,
      "પ્લેટફોર્મ": 5879,
      "મમતા": 5880,
      "##ાઈટ": 5881,
      "સીર": 5882,
      "હાલતમાં": 5883,
      "મોદીના": 5884,
      "અંજ": 5885,
      "દિન": 5886,
      "કલાકાર": 5887,
      "ત્યારથી": 5888,
      "આરોપીઓ": 5889,
      "વિધ": 5890,
      "વાર્તા": 5891,
      "##રાગત": 5892,
      "મળેલી": 5893,
      "કૃષ્ણ": 5894,
      "હિસ્સો": 5895,
      "મગફળી": 5896,
      "##સીની": 5897,
      "ટ્વિટર": 5898,
      "તહેવાર": 5899,
      "##જીભાઈ": 5900,
      "ભીડ": 5901,
      "##ંશ": 5902,
      "##િંગ્સ": 5903,
      "2016": 5904,
      "થતું": 5905,
      "સંકટ": 5906,
      "##દ્ધા": 5907,
      "અનુસ": 5908,
      "કોરોનાનો": 5909,
      "ડિજ": 5910,
      "સુવિધાઓ": 5911,
      "વિટામ": 5912,
      "અબજ": 5913,
      "એસ્ટ": 5914,
      "##ર્જ": 5915,
      "આપણને": 5916,
      "સિરીઝ": 5917,
      "તૈયારીઓ": 5918,
      "શાહે": 5919,
      "નક": 5920,
      "ગ્લો": 5921,
      "##તરો": 5922,
      "માણસો": 5923,
      "ઝોન": 5924,
      "વર્ષનો": 5925,
      "હાઇવે": 5926,
      "આમંત્ર": 5927,
      "##ભૂમિ": 5928,
      "કબ્": 5929,
      "પૂરું": 5930,
      "નિદાન": 5931,
      "કાયદેસર": 5932,
      "તૂટી": 5933,
      "કિસ": 5934,
      "કેબિને": 5935,
      "નહોતો": 5936,
      "વાવેતર": 5937,
      "જલ્": 5938,
      "##૦૦૦": 5939,
      "પુસ્તક": 5940,
      "કદ": 5941,
      "##નમ": 5942,
      "ભેગા": 5943,
      "કેમેરા": 5944,
      "ચલ": 5945,
      "ખાતા": 5946,
      "મોડેલ": 5947,
      "તબક્કામાં": 5948,
      "વ્હી": 5949,
      "પુરાવા": 5950,
      "બાઇક": 5951,
      "લિસ્ટ": 5952,
      "##ઝનમાં": 5953,
      "##ાઈન": 5954,
      "રાજકો": 5955,
      "##ૃતિક": 5956,
      "૨૦૨૦": 5957,
      "પ્રોત્સાહન": 5958,
      "સજ્જ": 5959,
      "##હુ": 5960,
      "##લીના": 5961,
      "##િંગની": 5962,
      "આસપાસના": 5963,
      "##કશન": 5964,
      "રહેતો": 5965,
      "ટેક": 5966,
      "અસ્ત": 5967,
      "જપ્ત": 5968,
      "##વાયો": 5969,
      "પાણીના": 5970,
      "સુરતના": 5971,
      "માપ": 5972,
      "##્યુટ": 5973,
      "રાજ્યની": 5974,
      "મહત્વના": 5975,
      "વિરૂદ્ધ": 5976,
      "##સ્ફો": 5977,
      "વૈજ્ઞાનિક": 5978,
      "##ળની": 5979,
      "મામલત": 5980,
      "મુદ્દો": 5981,
      "પેટા": 5982,
      "ગ્રીન": 5983,
      "દંપ": 5984,
      "નુ": 5985,
      "##ડીઓ": 5986,
      "ભરૂચ": 5987,
      "ટ્રેડ": 5988,
      "બનાવીને": 5989,
      "##વ્યો": 5990,
      "##ાગર": 5991,
      "બહેનો": 5992,
      "પ્રતિનિધિ": 5993,
      "ઈન્ટરને": 5994,
      "ટાળ": 5995,
      "દોર": 5996,
      "ચૌધરી": 5997,
      "ચૌહાણ": 5998,
      "આંગણ": 5999,
      "પ્રગતિ": 6000,
      "૪૫": 6001,
      "##ક્તો": 6002,
      "જેનું": 6003,
      "મેક": 6004,
      "મોકલવામાં": 6005,
      "અનુકૂળ": 6006,
      "##ૂન": 6007,
      "કોર": 6008,
      "ખુલ્લા": 6009,
      "ફાઇન": 6010,
      "બેઠા": 6011,
      "હિંદુ": 6012,
      "બાંગ્લા": 6013,
      "મનોર": 6014,
      "સંઘર્ષ": 6015,
      "ઐતિહાસિક": 6016,
      "##કૃ": 6017,
      "##id": 6018,
      "મૂર્તિ": 6019,
      "પોપ": 6020,
      "ડોક્ટર": 6021,
      "અવસાન": 6022,
      "ભાષ": 6023,
      "##કોર્ટે": 6024,
      "તારા": 6025,
      "શહી": 6026,
      "##એચ": 6027,
      "##ધાં": 6028,
      "##ઠે": 6029,
      "##ir": 6030,
      "તલ": 6031,
      "નીપજ": 6032,
      "રાખવાની": 6033,
      "મહારાષ્ટ્રમાં": 6034,
      "કોટ": 6035,
      "ખોટા": 6036,
      "પરંપરાગત": 6037,
      "ડાઉન": 6038,
      "##વેન્ટ": 6039,
      "કાશ્મીરમાં": 6040,
      "તાર": 6041,
      "બિમ": 6042,
      "##il": 6043,
      "સાવચે": 6044,
      "##વીર": 6045,
      "મિલિયન": 6046,
      "##જાગ્ર": 6047,
      "જ્યોતિ": 6048,
      "નકારાત્મક": 6049,
      "હસ્ત": 6050,
      "પોઈન્ટ": 6051,
      "શિવસેના": 6052,
      "રિવ": 6053,
      "મુકા": 6054,
      "પવિત્ર": 6055,
      "##ફોર્": 6056,
      "કારમાં": 6057,
      "##સીબ": 6058,
      "હાલના": 6059,
      "##કર્મી": 6060,
      "આને": 6061,
      "પેકે": 6062,
      "વીડિયોમાં": 6063,
      "##િકારક": 6064,
      "શિકાર": 6065,
      "##પથ": 6066,
      "બોલા": 6067,
      "ક્રિયા": 6068,
      "ઠાકોર": 6069,
      "ગાર્ડ": 6070,
      "ડૂ": 6071,
      "થવાના": 6072,
      "##ોટ": 6073,
      "##ફ્": 6074,
      "##વાણી": 6075,
      "##લીને": 6076,
      "રહો": 6077,
      "લોકોનું": 6078,
      "જિંદગી": 6079,
      "ખર્ચે": 6080,
      "બેટ્સ": 6081,
      "પેપર": 6082,
      "ઈન": 6083,
      "૨૯": 6084,
      "##સુખ": 6085,
      "પ્રારંભિક": 6086,
      "વેબસ": 6087,
      "આંગણવાડી": 6088,
      "એનો": 6089,
      "2014": 6090,
      "ટૂંકા": 6091,
      "શહેરોમાં": 6092,
      "નવસારી": 6093,
      "અધિકારીઓએ": 6094,
      "પ્રશંસા": 6095,
      "સુધારા": 6096,
      "પાય": 6097,
      "વાવ": 6098,
      "##બોલ": 6099,
      "##ગન": 6100,
      "##લીક": 6101,
      "પહેલેથી": 6102,
      "રોજગાર": 6103,
      "સાઉથ": 6104,
      "ઝાડ": 6105,
      "ફ્": 6106,
      "##કાઉન્ટ": 6107,
      "નિમિત": 6108,
      "સીધા": 6109,
      "પરિવારમાં": 6110,
      "ભરવા": 6111,
      "શિક્ષક": 6112,
      "ભવિષ્યમાં": 6113,
      "રથ": 6114,
      "##પેટ": 6115,
      "રાજધાની": 6116,
      "પાડવા": 6117,
      "ધ્યાને": 6118,
      "ઈંચ": 6119,
      "##ણની": 6120,
      "ઉપચાર": 6121,
      "##દ્દી": 6122,
      "ભાજપની": 6123,
      "રક્ષા": 6124,
      "સાચી": 6125,
      "રહેવાસી": 6126,
      "નિધન": 6127,
      "ચેમ્પ": 6128,
      "જાણીએ": 6129,
      "રેલ્વે": 6130,
      "ઉભ": 6131,
      "33": 6132,
      "અવાર": 6133,
      "લાગશે": 6134,
      "પ્રદેશમાં": 6135,
      "જન્મદિવ": 6136,
      "દલી": 6137,
      "પર્": 6138,
      "સપોર્ટ": 6139,
      "કેશ": 6140,
      "સ્ટ્ર": 6141,
      "##પની": 6142,
      "પાટીદાર": 6143,
      "બ્રેક": 6144,
      "##ાદુ": 6145,
      "ચીનના": 6146,
      "મહિનાથી": 6147,
      "બતાવી": 6148,
      "ધ્ર": 6149,
      "લશ્": 6150,
      "લાશ": 6151,
      "##ાર્થના": 6152,
      "##ઘા": 6153,
      "##નનું": 6154,
      "##સાદ": 6155,
      "##વાલા": 6156,
      "સ્વય": 6157,
      "##રસિંહ": 6158,
      "સખત": 6159,
      "સપ્": 6160,
      "૭૦": 6161,
      "એમના": 6162,
      "હરિયાણા": 6163,
      "માર્કેટમાં": 6164,
      "મહત્તમ": 6165,
      "જલ્દી": 6166,
      "રિટ": 6167,
      "##લબ": 6168,
      "આવેદન": 6169,
      "શક્યા": 6170,
      "ગ્રાહક": 6171,
      "ખસેડવામાં": 6172,
      "રજુઆત": 6173,
      "વાવાઝો": 6174,
      "આચાર્ય": 6175,
      "રખ": 6176,
      "અનો": 6177,
      "##ન્ગ": 6178,
      "માંગી": 6179,
      "##ઘાટ": 6180,
      "અમિતા": 6181,
      "એશિયા": 6182,
      "##ન્સના": 6183,
      "બાળકોના": 6184,
      "##ટ્સએ": 6185,
      "વહેંચ": 6186,
      "જુનાગઢ": 6187,
      "##પ્સ": 6188,
      "##ષિત": 6189,
      "##ડાસ": 6190,
      "કામો": 6191,
      "##મરાન": 6192,
      "વકીલ": 6193,
      "પૃથ્વી": 6194,
      "##કંપ": 6195,
      "પ્રોફ": 6196,
      "હજારથી": 6197,
      "##િએ": 6198,
      "રાજી": 6199,
      "બળાત્": 6200,
      "એમની": 6201,
      "હાઈવે": 6202,
      "સ્માર્ટફોન": 6203,
      "દૈનિક": 6204,
      "શાળામાં": 6205,
      "હલ": 6206,
      "##્યુટર": 6207,
      "યુએસ": 6208,
      "##પ્પા": 6209,
      "આકાશ": 6210,
      "બાહ": 6211,
      "સપ": 6212,
      "કોન્ફર": 6213,
      "ઉલ્લ": 6214,
      "##વરી": 6215,
      "રાશિના": 6216,
      "યોજાશે": 6217,
      "##જાગ્રસ્ત": 6218,
      "મહી": 6219,
      "##વત": 6220,
      "##ત્તી": 6221,
      "બહુમ": 6222,
      "અનુભવી": 6223,
      "સંબોધ": 6224,
      "ઇંગ્લેન્ડ": 6225,
      "એવામાં": 6226,
      "સહકાર": 6227,
      "મુંબઈમાં": 6228,
      "પ્રયત્નો": 6229,
      "ધરાવતી": 6230,
      "##iv": 6231,
      "લખી": 6232,
      "##ખ્ત": 6233,
      "##ઠ્ઠી": 6234,
      "ખુલ": 6235,
      "રાજકોટના": 6236,
      "કથા": 6237,
      "##હાન": 6238,
      "પ્રવાહી": 6239,
      "અપહરણ": 6240,
      "ભાવે": 6241,
      "રિયા": 6242,
      "આપવી": 6243,
      "##ારોહ": 6244,
      "યોગી": 6245,
      "શ્રીલ": 6246,
      "દુર્ઘટના": 6247,
      "કપૂ": 6248,
      "જતો": 6249,
      "##ંથ": 6250,
      "કરીશું": 6251,
      "##ણીય": 6252,
      "પ્રાચીન": 6253,
      "મંદિરના": 6254,
      "વિચારી": 6255,
      ".)": 6256,
      "##લનો": 6257,
      "કરાયેલા": 6258,
      "કેજરી": 6259,
      "મહાદે": 6260,
      "હોસ્પિટલના": 6261,
      "198": 6262,
      "સંસ્થાઓ": 6263,
      "આપને": 6264,
      "ઉપા": 6265,
      "##વાનુ": 6266,
      "##ાઉન્ડ": 6267,
      "શરૃ": 6268,
      "દ્વારકા": 6269,
      "મહારાજ": 6270,
      "દિનેશ": 6271,
      "ફેશન": 6272,
      "##જીને": 6273,
      "વ્યસ્ત": 6274,
      "ગ્રાહકોને": 6275,
      "લગાવવામાં": 6276,
      "લગાવ્યો": 6277,
      "યુનિટ": 6278,
      "થયુ": 6279,
      "અડધા": 6280,
      "જાપાન": 6281,
      "મહિલાને": 6282,
      "##કેલા": 6283,
      "વધતી": 6284,
      "વાંકાને": 6285,
      "ધોરણે": 6286,
      "સંરક્ષણ": 6287,
      "##ટોક": 6288,
      "જોગવાઈ": 6289,
      "એપ્લિક": 6290,
      "થા": 6291,
      "બિર": 6292,
      "વૉ": 6293,
      "##ાવર": 6294,
      "ટેબલ": 6295,
      "માંગો": 6296,
      "##વતા": 6297,
      "##લ્ફ": 6298,
      "માંસ": 6299,
      "પૂરો": 6300,
      "મિશન": 6301,
      "સંજોગોમાં": 6302,
      "##ST": 6303,
      "બોક્સ": 6304,
      "ત્યા": 6305,
      "પ્રક": 6306,
      "ધીરે": 6307,
      "ગર્ભ": 6308,
      "અમિતાભ": 6309,
      "પ્રસાર": 6310,
      "##ડીની": 6311,
      "ઘટનામાં": 6312,
      "શુભે": 6313,
      "મોહમ્": 6314,
      "રાજીનામું": 6315,
      "બનાસકાંઠા": 6316,
      "માફી": 6317,
      "સાહ": 6318,
      "ખુદ": 6319,
      "ગ્રામજનો": 6320,
      "##ટેક": 6321,
      "##જીએ": 6322,
      "નિરા": 6323,
      "ઘટનાઓ": 6324,
      "આદિત્ય": 6325,
      "વિષે": 6326,
      "##િયામાં": 6327,
      "##િવાર": 6328,
      "કારણોસર": 6329,
      "48": 6330,
      "##ીની": 6331,
      "કરોડો": 6332,
      "સમાધાન": 6333,
      "##ગણ": 6334,
      "આહાર": 6335,
      "##ંદુર": 6336,
      "ઘટનાની": 6337,
      "જેમણે": 6338,
      "નિકાસ": 6339,
      "હિમ": 6340,
      "મહાસ": 6341,
      "સ્ટેડ": 6342,
      "શૈક્ષણિક": 6343,
      "એમ્": 6344,
      "પ્રાર્થના": 6345,
      "##ન્ક": 6346,
      "##ારીયા": 6347,
      "બેટિંગ": 6348,
      "સીસીટી": 6349,
      "આત્": 6350,
      "અર્જુ": 6351,
      "મુકેશ": 6352,
      "બાંગ્લાદેશ": 6353,
      "ડબલ": 6354,
      "##ાઈને": 6355,
      "નાશ": 6356,
      "##ર્સની": 6357,
      "ચેનલ": 6358,
      "##ેક્સ": 6359,
      "##ફ્રે": 6360,
      "સહન": 6361,
      "ઓફિસર": 6362,
      "પુરૂષ": 6363,
      "બોટલ": 6364,
      "દીપિકા": 6365,
      "વિજેતા": 6366,
      "કુશ": 6367,
      "પ્રદેશના": 6368,
      "##ટિલ": 6369,
      "આવનારા": 6370,
      "દિપ": 6371,
      "##ટને": 6372,
      "વિજ્ઞાન": 6373,
      "પોલિ": 6374,
      "અછ": 6375,
      "કસર": 6376,
      "છતા": 6377,
      "માછી": 6378,
      "રૂપિયાનો": 6379,
      "શ્રદ્ધ": 6380,
      "મામલતદાર": 6381,
      "સીસીટીવી": 6382,
      "##્રલ": 6383,
      "ભ્રષ્ટાચાર": 6384,
      "કેના": 6385,
      "પાટણ": 6386,
      "દલિત": 6387,
      "##ન્દી": 6388,
      "સફર": 6389,
      "##સ્લા": 6390,
      "લાગ્યું": 6391,
      "મોદીની": 6392,
      "ઇન્ડસ્ટ્રી": 6393,
      "પ્રેરણા": 6394,
      "મહાનગરપાલિકા": 6395,
      ".,": 6396,
      "પત": 6397,
      "યાર્ડ": 6398,
      "સ્કે": 6399,
      "પ્રોગ્રામ": 6400,
      "અટકાયત": 6401,
      "આફ્રિકા": 6402,
      "સંતુ": 6403,
      "ડિજિટલ": 6404,
      "કમ્પ": 6405,
      "ઘુ": 6406,
      "##ાંતર": 6407,
      "પ્રખ્યાત": 6408,
      "ખેડુ": 6409,
      "ગેંગ": 6410,
      "સંચાલન": 6411,
      "પૌ": 6412,
      "સાહિત": 6413,
      "પૂર્વે": 6414,
      "અથડ": 6415,
      "સચિન": 6416,
      "મેદાનમાં": 6417,
      "બળાત્કાર": 6418,
      "રોગચ": 6419,
      "મેડલ": 6420,
      "લાવવામાં": 6421,
      "આવતું": 6422,
      "યુનિ": 6423,
      "આઈપી": 6424,
      "આશી": 6425,
      "##કું": 6426,
      "##ેટર": 6427,
      "બાપુ": 6428,
      "ડૉક્ટર": 6429,
      "##નાલ્ડ": 6430,
      "##સ્કો": 6431,
      "સીટી": 6432,
      "બાંધી": 6433,
      "અલ્પ": 6434,
      "ચીની": 6435,
      "મહાદેવ": 6436,
      "આય": 6437,
      "જેણે": 6438,
      "સ્ટોક": 6439,
      "38": 6440,
      "##યાત્રા": 6441,
      "##બીર": 6442,
      "થકી": 6443,
      "બાજ": 6444,
      "##os": 6445,
      "બેસ્ટ": 6446,
      "ફટકારી": 6447,
      "ગ્લા": 6448,
      "ફાં": 6449,
      "હૉ": 6450,
      "##ાળુ": 6451,
      "ભાજપને": 6452,
      "પૂરતી": 6453,
      "સિન": 6454,
      "##કતો": 6455,
      "ભૂલી": 6456,
      "ખાને": 6457,
      "માંગતા": 6458,
      "સમુદાય": 6459,
      "ઘઉં": 6460,
      "આક્રમ": 6461,
      "##વાયેલા": 6462,
      "અધિકારીઓને": 6463,
      "સેવ": 6464,
      "55": 6465,
      "ઈચ્છા": 6466,
      "જવાનું": 6467,
      "રહીને": 6468,
      "બ્રિજ": 6469,
      "રૂપાણીએ": 6470,
      "સંદર્ભે": 6471,
      "કંગના": 6472,
      "##uj": 6473,
      "જોયું": 6474,
      "##ન્ટી": 6475,
      "ઘટનાસ્થ": 6476,
      "##પ્પણી": 6477,
      "બીએસ": 6478,
      "ચાલતી": 6479,
      "ગોંડલ": 6480,
      "હોટેલ": 6481,
      "છોકરા": 6482,
      "દિલીપ": 6483,
      "એટી": 6484,
      "ટાઈ": 6485,
      "લિમ": 6486,
      "સામાન": 6487,
      "##ૂની": 6488,
      "##ડાએ": 6489,
      "પ્રભુ": 6490,
      "34": 6491,
      "ચોથા": 6492,
      "##સ્પતિ": 6493,
      "ઉઠાવી": 6494,
      "ફિલ્મોમાં": 6495,
      "વિનંતી": 6496,
      "in": 6497,
      "જણાવવામાં": 6498,
      "કપડા": 6499,
      "''": 6500,
      "માટેનો": 6501,
      "##ent": 6502,
      "રિઝર્વ": 6503,
      "હરી": 6504,
      "હડતા": 6505,
      "##પત": 6506,
      "જોડી": 6507,
      "દિલ્હીના": 6508,
      "સૈન્ય": 6509,
      "ખેલાડીઓ": 6510,
      "પેર": 6511,
      "મેયર": 6512,
      "શેખ": 6513,
      "સ્ટેન્ડ": 6514,
      "##દનશીલ": 6515,
      "ખરીદવા": 6516,
      "##મને": 6517,
      "##પિતા": 6518,
      "આગળની": 6519,
      "##સન્સ": 6520,
      "##દિત": 6521,
      "##ગમાં": 6522,
      "મોટર": 6523,
      "##ક્ષામાં": 6524,
      "સંપર્કમાં": 6525,
      "ઉલ્લંઘ": 6526,
      "અબ્": 6527,
      "##સીને": 6528,
      "દાહોદ": 6529,
      "દિક": 6530,
      "ઊંચી": 6531,
      "સિંહે": 6532,
      "સાહિત્ય": 6533,
      "ગાળા": 6534,
      "ધ્વ": 6535,
      "પથ": 6536,
      "##ચક": 6537,
      "##નામ": 6538,
      "##ક્ચર": 6539,
      "##ઝીલેન્ડ": 6540,
      "શંકાસ્પદ": 6541,
      "મહોત્સવ": 6542,
      "##ર્વાદ": 6543,
      "##લ્પો": 6544,
      "શોધવા": 6545,
      "યથાવત": 6546,
      "કુમ": 6547,
      "ટ્રી": 6548,
      "ઠીક": 6549,
      "રાતે": 6550,
      "##દરાબાદ": 6551,
      "હકીકતમાં": 6552,
      "##તાનો": 6553,
      "##ામે": 6554,
      "ક્વાર્ટ": 6555,
      "શખ્સો": 6556,
      "લાઇન": 6557,
      "તેનાં": 6558,
      "બેક": 6559,
      "શુદ્ધ": 6560,
      "જાતને": 6561,
      "હોટલ": 6562,
      "છોટા": 6563,
      "દેખાઈ": 6564,
      "##કાળમાં": 6565,
      "આની": 6566,
      "##ડાઓ": 6567,
      "##લાત": 6568,
      "વરસાદી": 6569,
      "હિન્દી": 6570,
      "શ્રીલંકા": 6571,
      "તંદુર": 6572,
      "લેન્ડ": 6573,
      "પ્રતિષ્ઠ": 6574,
      "જેટલું": 6575,
      "દુખાવો": 6576,
      "અવિ": 6577,
      "ઓક": 6578,
      "ધુ": 6579,
      "##સં": 6580,
      "માથ": 6581,
      "ઈન્સ્ટ": 6582,
      "ઘટીને": 6583,
      "##ર્નામેન્ટ": 6584,
      "##રીત": 6585,
      "પુષ્": 6586,
      "અભાવ": 6587,
      "છુટ": 6588,
      "##િટેડ": 6589,
      "##ળુ": 6590,
      "##ંદી": 6591,
      "મિલકત": 6592,
      "##વ્યવ": 6593,
      "ઓર્ડર": 6594,
      "નાસ": 6595,
      "જરૂરિયા": 6596,
      "દોરી": 6597,
      "ઘાટ": 6598,
      "બૂ": 6599,
      "##જીવ": 6600,
      "##ૃત્ય": 6601,
      "ચાલક": 6602,
      "અસામ": 6603,
      "અટકાવવા": 6604,
      "તફ": 6605,
      "સસ્પે": 6606,
      "##ામણ": 6607,
      "હૈદરાબાદ": 6608,
      "સમયગાળા": 6609,
      "##ૂના": 6610,
      "હેરાન": 6611,
      "ટીમમાં": 6612,
      "##નથી": 6613,
      "##પિંગ": 6614,
      "ચોંક": 6615,
      "ડિસ્ટ": 6616,
      "##િનેશન": 6617,
      "ગયાં": 6618,
      "અગત": 6619,
      "##માર્": 6620,
      "##ર્જા": 6621,
      "સીમા": 6622,
      "વિક્રમ": 6623,
      "##મ્પલ": 6624,
      "શિક્ષકો": 6625,
      "બિગ": 6626,
      "પાંદ": 6627,
      "સાધન": 6628,
      "સામેની": 6629,
      "ચૂકવણી": 6630,
      "હાંસલ": 6631,
      "અગત્ય": 6632,
      "ગમ": 6633,
      "જર્મ": 6634,
      "##લેસ": 6635,
      "હળવા": 6636,
      "મંજૂર": 6637,
      "ગણા": 6638,
      "મલ્ટ": 6639,
      "##પિં": 6640,
      "##તોમાં": 6641,
      "વટ": 6642,
      "પ્રાંત": 6643,
      "જાઓ": 6644,
      "ખ્યાલ": 6645,
      "##ગાડ": 6646,
      "બાળકોની": 6647,
      "કલેક્ટર": 6648,
      "વિર": 6649,
      "સિને": 6650,
      "વિભાગની": 6651,
      "જૈન": 6652,
      "ઉગ્ર": 6653,
      "મિક્સ": 6654,
      "##he": 6655,
      "ગુપ્ત": 6656,
      "##સાથી": 6657,
      "સલામત": 6658,
      "ફરજિયાત": 6659,
      "ઝોનમાં": 6660,
      "સંશોધ": 6661,
      "ભરા": 6662,
      "શનિ": 6663,
      "કામકાજ": 6664,
      "મારું": 6665,
      "ચુંટણી": 6666,
      "ગિ": 6667,
      "બ્લા": 6668,
      "મસ્": 6669,
      "ઉપરથી": 6670,
      "મહિલાએ": 6671,
      "મેનેજર": 6672,
      "આકર્ષક": 6673,
      "બદલા": 6674,
      "ભાગીદારી": 6675,
      "ફિલ્મના": 6676,
      "આખો": 6677,
      "##ટેગ": 6678,
      "પાણીનો": 6679,
      "એસિડ": 6680,
      "ગેટ": 6681,
      "નર્સ": 6682,
      "##હાલ": 6683,
      "આપેલ": 6684,
      "ઓવરમાં": 6685,
      "ગઠ": 6686,
      "તદ્": 6687,
      "મંત્રાલયે": 6688,
      "પ્રદાન": 6689,
      "##માના": 6690,
      "જણાય": 6691,
      "2015": 6692,
      "65": 6693,
      "ઇન્ટ": 6694,
      "ક્યાંક": 6695,
      "થવાનું": 6696,
      "##ઝિક": 6697,
      "ફેન્સ": 6698,
      "##ખાના": 6699,
      "આરોપીને": 6700,
      "##જ્ઞા": 6701,
      "પ્રવાસીઓ": 6702,
      "##શ્ર": 6703,
      "છોડીને": 6704,
      "હંમેશ": 6705,
      "વાતાવરણમાં": 6706,
      "જોયા": 6707,
      "રાજપૂ": 6708,
      "પ્રકાશિત": 6709,
      "નિષ્ણાત": 6710,
      "વપર": 6711,
      "##કરે": 6712,
      "##ન્દ્રા": 6713,
      "રોગો": 6714,
      "સંકળાયેલા": 6715,
      "કલ્પના": 6716,
      "સવારથી": 6717,
      "૩૭": 6718,
      "##ેન્દ્ર": 6719,
      "##ay": 6720,
      "##ાંજ": 6721,
      "હોદ્": 6722,
      "ત્રિવે": 6723,
      "ક્રાઇમ": 6724,
      "ભૂકંપ": 6725,
      "300": 6726,
      "એમ્બ": 6727,
      "ઠંડ": 6728,
      "##દાતા": 6729,
      "કામદારો": 6730,
      "અબ": 6731,
      "વણ": 6732,
      "વિસ્ફો": 6733,
      "સ્ટોર": 6734,
      "અપા": 6735,
      "સ્થળોએ": 6736,
      "##ujar": 6737,
      "ફેડ": 6738,
      "##નાઇ": 6739,
      "રોકી": 6740,
      "રહેતાં": 6741,
      "શુભેચ્છા": 6742,
      "##શલ": 6743,
      "##ારના": 6744,
      "##ર્સે": 6745,
      "યોજાન": 6746,
      "આશ્ર": 6747,
      "નદીમાં": 6748,
      "કોર્પોરેટ": 6749,
      "PM": 6750,
      "જટિલ": 6751,
      "બાથ": 6752,
      "ડોનાલ્ડ": 6753,
      "##નાત": 6754,
      "સમારોહ": 6755,
      "આપતાં": 6756,
      "##ટીના": 6757,
      "યોગદાન": 6758,
      "આટલી": 6759,
      "##દ્યોગ": 6760,
      "##ચલ": 6761,
      "##િયાએ": 6762,
      "એમણે": 6763,
      "પટેલની": 6764,
      "મહિનાની": 6765,
      "મુદ્દામાલ": 6766,
      "વોટર": 6767,
      "સવાલો": 6768,
      "##ધારી": 6769,
      "નીચેના": 6770,
      "૨૦૧૮": 6771,
      "વનસ્પતિ": 6772,
      "ઉતરી": 6773,
      "પૂજ": 6774,
      "પેઢી": 6775,
      "આંચ": 6776,
      "પર્સ": 6777,
      "##re": 6778,
      "##િયાં": 6779,
      "સુધીનો": 6780,
      "##ડેટ": 6781,
      "##ાઈઝ": 6782,
      "વેચી": 6783,
      "દીઠ": 6784,
      "તાકાત": 6785,
      "ઠંડા": 6786,
      "##વણ": 6787,
      "જોશી": 6788,
      "અમર": 6789,
      "##સરા": 6790,
      "સ્ટ્રો": 6791,
      "જણાવેલ": 6792,
      "જોડાયેલ": 6793,
      "વધારાની": 6794,
      "પરંપરા": 6795,
      "ફરીયાદ": 6796,
      "હુકમ": 6797,
      "આદર્શ": 6798,
      "##ાવેલ": 6799,
      "ચકાસણી": 6800,
      "સપ્લાય": 6801,
      "##ચિ": 6802,
      "##વાલે": 6803,
      "મુકી": 6804,
      "મુક્તિ": 6805,
      "....": 6806,
      "રસ્તાઓ": 6807,
      "ફ્રા": 6808,
      "સજ": 6809,
      "૮૦": 6810,
      "##માતા": 6811,
      "##પ્રમુખ": 6812,
      "અંગત": 6813,
      "##બાની": 6814,
      "વેબસાઇટ": 6815,
      "રવાના": 6816,
      "##મેલ": 6817,
      "બેદર": 6818,
      "મહિલાઓને": 6819,
      "કિરણ": 6820,
      "વડોદરામાં": 6821,
      "દ્રષ્ટિ": 6822,
      "જસ્ટિસ": 6823,
      "44": 6824,
      "મોહન": 6825,
      "અંગ્રેજી": 6826,
      "થવાનો": 6827,
      "ઉપરો": 6828,
      "કાચ": 6829,
      "ડિરેક્ટર": 6830,
      "પહેલાથી": 6831,
      "જયંત": 6832,
      "મ્યુનિસ": 6833,
      "મણ": 6834,
      "##્સની": 6835,
      "ફેલાય": 6836,
      "સેન્ટ્રલ": 6837,
      "કાઉન્સ": 6838,
      "જણાવાયું": 6839,
      "છેલ્લાં": 6840,
      "ચેમ્પિયન": 6841,
      "##ia": 6842,
      "##રીંગ": 6843,
      "સુચના": 6844,
      "વાપર": 6845,
      "સંવેદનશીલ": 6846,
      "ઉક": 6847,
      "ઊર્જા": 6848,
      "##્યુલર": 6849,
      "ભારતીયો": 6850,
      "ભૂતપૂર્વ": 6851,
      "of": 6852,
      "ખતરના": 6853,
      "સુપ્ર": 6854,
      "પક્ષના": 6855,
      "દઇ": 6856,
      "માર્યા": 6857,
      "સોશ્યલ": 6858,
      "અરે": 6859,
      "##ાવતી": 6860,
      "આપવું": 6861,
      "કિમી": 6862,
      "##ચ્યુઅલ": 6863,
      "અહી": 6864,
      "અયો": 6865,
      "##તને": 6866,
      "વિધિ": 6867,
      "પહેલો": 6868,
      "વિકલ્પો": 6869,
      "મેળવો": 6870,
      "મૃતક": 6871,
      "વાંચવા": 6872,
      "મનોજ": 6873,
      "##િઝન": 6874,
      "પશુપાલન": 6875,
      "ટક્કર": 6876,
      "તાવ": 6877,
      "બટા": 6878,
      "શપથ": 6879,
      "સોફ્ટ": 6880,
      "સીલ": 6881,
      "આવતીકાલે": 6882,
      "અસ્તિત્વ": 6883,
      "ટર્મ": 6884,
      "દહે": 6885,
      "##મ્બરમાં": 6886,
      "ડિલ": 6887,
      "##સંગ": 6888,
      "##વેસ્ટ": 6889,
      "ઉઠી": 6890,
      "વાઇરસ": 6891,
      "ખેલ": 6892,
      "દરખા": 6893,
      "ફૂલો": 6894,
      "પંડ્યા": 6895,
      "પ્રસિદ્ધ": 6896,
      "ખતરનાક": 6897,
      "ક્રાઈમ": 6898,
      "ખર": 6899,
      "##ાતું": 6900,
      "##ટીસ": 6901,
      "રોજગારી": 6902,
      "આશંકા": 6903,
      "##ધારા": 6904,
      "પીડિત": 6905,
      "ડાયાબ": 6906,
      "મોહમ્મદ": 6907,
      "##ૂં": 6908,
      "##િયાની": 6909,
      "મેર": 6910,
      "દેવું": 6911,
      "ચીનની": 6912,
      "અર્થતંત્ર": 6913,
      "નિકાલ": 6914,
      "મૂળભૂત": 6915,
      "ઈંગ્લેન્ડ": 6916,
      "બગી": 6917,
      "ખેડૂતોની": 6918,
      "ઇન્ડિયન": 6919,
      "કર્યાં": 6920,
      "સમયસર": 6921,
      "કોર્ટના": 6922,
      "વોર": 6923,
      "##ગાવી": 6924,
      "##ર્ગે": 6925,
      "કિંમ": 6926,
      "બાજુમાં": 6927,
      "ટિપ્પણી": 6928,
      "લડી": 6929,
      "સ્ને": 6930,
      "અનિ": 6931,
      "સિંધ": 6932,
      "હળવ": 6933,
      "ભક્તો": 6934,
      "રાસ": 6935,
      "##્ડ": 6936,
      "વરસાદના": 6937,
      "બજારો": 6938,
      "ગયેલ": 6939,
      "ઊંચા": 6940,
      "કશું": 6941,
      "દાં": 6942,
      "##ાળે": 6943,
      "અનુમાન": 6944,
      "##્સે": 6945,
      "પરિવારની": 6946,
      "##ાત્મા": 6947,
      "##લેષ": 6948,
      "ચોપ": 6949,
      "રમતા": 6950,
      "શકીએ": 6951,
      "વાઘેલા": 6952,
      "શિલ્": 6953,
      "સાંજ": 6954,
      "આદમી": 6955,
      "એજન્ટ": 6956,
      "….": 6957,
      "પ્રતી": 6958,
      "૨૦૨૧": 6959,
      "ઘોષ": 6960,
      "દળ": 6961,
      "##ડાયા": 6962,
      "##જેક્શન": 6963,
      "ફ્લાઇ": 6964,
      "સ્પોર્ટ": 6965,
      "કિડની": 6966,
      "નાગરિકો": 6967,
      "39": 6968,
      "ભેદ": 6969,
      "##કેશ": 6970,
      "એકલા": 6971,
      "સ્થળો": 6972,
      "મ્યુનિ": 6973,
      "લક્ષ્ય": 6974,
      "તદ્દન": 6975,
      "અયોધ્યા": 6976,
      "આરતી": 6977,
      "પંથકમાં": 6978,
      "\",": 6979,
      "##વલ્લી": 6980,
      "##નોમાં": 6981,
      "સંવાદ": 6982,
      "મંડળ": 6983,
      "દસ્તાવેજો": 6984,
      "હાઈકોર્ટ": 6985,
      "##કર્તાઓ": 6986,
      "મથકે": 6987,
      "ચકચાર": 6988,
      "નિત": 6989,
      "પ્લ": 6990,
      "##સાથે": 6991,
      "જાહેરમાં": 6992,
      "કૃપા": 6993,
      "શાખા": 6994,
      "ડાં": 6995,
      "હકારાત્મક": 6996,
      "##મય": 6997,
      "##નોની": 6998,
      "ટીકા": 6999,
      "નોંધણી": 7000,
      "##પુરના": 7001,
      "લાઈફ": 7002,
      "પાછી": 7003,
      "વાગે": 7004,
      "મોરબીના": 7005,
      "##્ઝ": 7006,
      "##રેક્ટ": 7007,
      "અમૃત": 7008,
      "વીર": 7009,
      "વોટ": 7010,
      "##ગંધ": 7011,
      "##ડના": 7012,
      "##ાતાં": 7013,
      "##રાધ": 7014,
      "સરહદ": 7015,
      "એકમાત્ર": 7016,
      "ઘટનાસ્થળે": 7017,
      "ખામી": 7018,
      "કેને": 7019,
      "નહોતું": 7020,
      "અકસ્માતમાં": 7021,
      "લડાઈ": 7022,
      "મનોરંજન": 7023,
      "99": 7024,
      "ઘન": 7025,
      "બાગ": 7026,
      "માગે": 7027,
      "##લોક": 7028,
      "વેગ": 7029,
      "બાળકના": 7030,
      "##બ્લિક": 7031,
      "મંજુ": 7032,
      "લિટર": 7033,
      "હોવાને": 7034,
      "ચુકવણી": 7035,
      "૩૨": 7036,
      "મળેલ": 7037,
      "ડોકટ": 7038,
      "વ્યક્તિઓ": 7039,
      "અરવલ્લી": 7040,
      "વિચારણા": 7041,
      "લાઇફ": 7042,
      "##વાટ": 7043,
      "##ાસા": 7044,
      "સેક્ટ": 7045,
      "એપાર્ટમેન્ટ": 7046,
      "મૈ": 7047,
      "રજી": 7048,
      "રિપોર્ટમાં": 7049,
      "પોઝી": 7050,
      "મફત": 7051,
      "સ્વપ્ન": 7052,
      "રાંધ": 7053,
      "ભૌ": 7054,
      "##બાગ": 7055,
      "##ન્સની": 7056,
      "કંપનીમાં": 7057,
      "શરીરને": 7058,
      "##ફ્રેન્ડ": 7059,
      "વિભ": 7060,
      "શરીરના": 7061,
      "ગ્રાઉન્ડ": 7062,
      "છાપ": 7063,
      "ઝેરી": 7064,
      "લાયક": 7065,
      "##ેરા": 7066,
      "##વાશે": 7067,
      "##નમાંથી": 7068,
      "કંપનીની": 7069,
      "પ્રેસ": 7070,
      "શોધખો": 7071,
      "##ess": 7072,
      "ખાદ": 7073,
      "##ત્તમ": 7074,
      "##કીંગ": 7075,
      "માનવું": 7076,
      "ચીજ": 7077,
      "ફ્લોર": 7078,
      "ટેક્નો": 7079,
      "ચરબી": 7080,
      "ક્રીમ": 7081,
      "નગ": 7082,
      "##બિ": 7083,
      "##મૂ": 7084,
      "મ્યુનિસિપલ": 7085,
      "બાલ": 7086,
      "મજ": 7087,
      "૩૩": 7088,
      "વિજ": 7089,
      "##ટીન": 7090,
      "બચત": 7091,
      "એલર્ટ": 7092,
      "##નારો": 7093,
      "##જીભાઇ": 7094,
      "##રૂમ": 7095,
      "બ્રહ્મ": 7096,
      "રમા": 7097,
      "માસિક": 7098,
      "##ંતર": 7099,
      "સૂત્રોના": 7100,
      "ડીઝલ": 7101,
      "એસોસિ": 7102,
      "લીંબુ": 7103,
      "તેજી": 7104,
      "ચોર": 7105,
      "લઘુ": 7106,
      "##BI": 7107,
      "ગુન્": 7108,
      "રૂપિયાના": 7109,
      "બચી": 7110,
      "##હૂ": 7111,
      "##સાની": 7112,
      "કિસ્સાઓમાં": 7113,
      "કાગળ": 7114,
      "વડ": 7115,
      "કરતું": 7116,
      "##કાતા": 7117,
      "૩૬": 7118,
      "##શાહી": 7119,
      "કાયમી": 7120,
      "ઘટાડવા": 7121,
      "અનાજ": 7122,
      "ઉલ્લંઘન": 7123,
      "ભંડો": 7124,
      "૫૦૦": 7125,
      "##વ્યૂ": 7126,
      "સેન્સે": 7127,
      "કેટલાય": 7128,
      "રાજ્યપાલ": 7129,
      "નોંધાઈ": 7130,
      "##િક્ષા": 7131,
      "દારૂની": 7132,
      "લોકસભાની": 7133,
      "કોશિશ": 7134,
      "ફાઉન્ડ": 7135,
      "##ઝિટ": 7136,
      "રહસ્ય": 7137,
      "સમાજમાં": 7138,
      "દૂધની": 7139,
      "છૂટા": 7140,
      "પ્રકૃતિ": 7141,
      "પ્રાઇ": 7142,
      "##ાવશે": 7143,
      "સાર્વ": 7144,
      "નહોતા": 7145,
      "બીજેપી": 7146,
      "##ટ્સએપ": 7147,
      "આશીર્વાદ": 7148,
      "મચ્છ": 7149,
      "##ul": 7150,
      "સોની": 7151,
      "આર્મી": 7152,
      "પિત": 7153,
      "રશિયન": 7154,
      "દુબ": 7155,
      "ગઇકાલે": 7156,
      "ગૃહમંત્રી": 7157,
      "ડ્રાઇવ": 7158,
      "##વતી": 7159,
      "એક્ટર": 7160,
      "ગાઈડ": 7161,
      "##ડતી": 7162,
      "##િકામાં": 7163,
      "વિવે": 7164,
      "માટેનું": 7165,
      "જેમને": 7166,
      "માર્યો": 7167,
      "ઉત્પન્ન": 7168,
      "તહેવારો": 7169,
      "ઉતારી": 7170,
      "સ્વયં": 7171,
      "ધારણ": 7172,
      "હમ": 7173,
      "##ભરના": 7174,
      "##્રેશન": 7175,
      "મોદીને": 7176,
      "પાછલા": 7177,
      "અમેરિકી": 7178,
      "વિટામિન": 7179,
      "ભરો": 7180,
      "##વાણા": 7181,
      "છેલ્લે": 7182,
      "સ્ક્રીન": 7183,
      "સલામતી": 7184,
      "રોકાણકાર": 7185,
      "##િલનાડુ": 7186,
      "શોધખોળ": 7187,
      "ગ્રો": 7188,
      "##ળાના": 7189,
      "સ્પેશિયલ": 7190,
      "પેન": 7191,
      "નિર્ણયો": 7192,
      "ખેડૂતોના": 7193,
      "શેરી": 7194,
      "ઉભો": 7195,
      "નકલી": 7196,
      "##ન્વ": 7197,
      "દેશે": 7198,
      "બનાવ્યો": 7199,
      "ઝાલા": 7200,
      "પ્લોટ": 7201,
      "દાંત": 7202,
      "વસા": 7203,
      "નિફ્ટી": 7204,
      "પાછો": 7205,
      "અર્પણ": 7206,
      "માછીમ": 7207,
      "ખાઈ": 7208,
      "##ખું": 7209,
      "##નાન્સ": 7210,
      "પેમેન્ટ": 7211,
      "ફોટોગ્રા": 7212,
      "મહારાષ્ટ્રના": 7213,
      "પ્રગટ": 7214,
      "સિનિયર": 7215,
      "આચર": 7216,
      "જેમા": 7217,
      "ડૉક્ટ": 7218,
      "પુરુષો": 7219,
      "હંમેશાં": 7220,
      "અલ્": 7221,
      "ચોકડી": 7222,
      "કમી": 7223,
      "##બન": 7224,
      "##્યુઅલ": 7225,
      "##મ્મી": 7226,
      "અંતમાં": 7227,
      "જાતિ": 7228,
      "પ્રસાદ": 7229,
      "સોસાયટીમાં": 7230,
      "41": 7231,
      "##ot": 7232,
      "##સ્વા": 7233,
      "ઉમેદવારી": 7234,
      "મુશ્કેલીઓ": 7235,
      "અઠવાડ": 7236,
      "આટલા": 7237,
      "સ્વાદિષ્ટ": 7238,
      "લેવાનું": 7239,
      "પહોંચે": 7240,
      "વ્યક્તિએ": 7241,
      "##ગ્ને": 7242,
      "સંભળ": 7243,
      "ગેરકાયદેસર": 7244,
      "કવ": 7245,
      "જોવામાં": 7246,
      "અમલી": 7247,
      "જિલ્લાની": 7248,
      "મેટ્રો": 7249,
      "43": 7250,
      "ખતમ": 7251,
      "રાણા": 7252,
      "લોટ": 7253,
      "મહેમાનો": 7254,
      "એસટી": 7255,
      "શ્રમિક": 7256,
      "ટ્રાન્સફર": 7257,
      "##વમાં": 7258,
      "મસા": 7259,
      "મજૂ": 7260,
      "હસ": 7261,
      "સમૂહ": 7262,
      "ઉત્તરપ્રદેશ": 7263,
      "ખોટું": 7264,
      "ઠાકરે": 7265,
      "તને": 7266,
      "##ra": 7267,
      "##ળાની": 7268,
      "કપિલ": 7269,
      "શાળાના": 7270,
      "##નાએ": 7271,
      "વિદ્યા": 7272,
      "ડાયાબિટી": 7273,
      "42": 7274,
      "હસ્તે": 7275,
      "##છા": 7276,
      "ઉપવાસ": 7277,
      "લોકોનાં": 7278,
      "##ુરુ": 7279,
      "વ્યક્તિની": 7280,
      "ઘટનાને": 7281,
      "ફેરફારો": 7282,
      "બિલ્ડિંગ": 7283,
      "એપ્લિકેશન": 7284,
      "ગોલ": 7285,
      "##શ્યો": 7286,
      "##ચય": 7287,
      "એકતા": 7288,
      "પરિણી": 7289,
      "ડુ": 7290,
      "સાન": 7291,
      "##ઈલ": 7292,
      "કેટેગ": 7293,
      "સર્વો": 7294,
      "યોજનાઓ": 7295,
      "કોન્સ્ટે": 7296,
      "આયુર્વે": 7297,
      "આંધ": 7298,
      "ટાં": 7299,
      "##ુશ": 7300,
      "##લાન": 7301,
      "નોટો": 7302,
      "પીપ": 7303,
      "ધરતી": 7304,
      "કારણકે": 7305,
      "અપાઈ": 7306,
      "શાળાઓ": 7307,
      "સર્જાયો": 7308,
      "##દ્વ": 7309,
      "નિર": 7310,
      "મામલામાં": 7311,
      "પાકિસ્તાનની": 7312,
      "##મિશન": 7313,
      "વેબસાઈ": 7314,
      "અર્જુન": 7315,
      "આલ્": 7316,
      "ખતરો": 7317,
      "જાવ": 7318,
      "કામમાં": 7319,
      "ખુલ્લી": 7320,
      "ફાર્મ": 7321,
      "ઠર": 7322,
      "કરણ": 7323,
      "##યાની": 7324,
      "લેવાય": 7325,
      "દેશને": 7326,
      "સેકન્ડ": 7327,
      "દરખાસ્ત": 7328,
      "સુન": 7329,
      "હાથે": 7330,
      "ઇંડા": 7331,
      "ગ્રી": 7332,
      "શણ": 7333,
      "##ુન": 7334,
      "તોફ": 7335,
      "પટેલના": 7336,
      "વેચવા": 7337,
      "લેખિત": 7338,
      "ચિંત": 7339,
      "દિગ્ગ": 7340,
      "ચોંકાવ": 7341,
      "બેદરકારી": 7342,
      "સવલ": 7343,
      "કેદી": 7344,
      "વર્તન": 7345,
      "સ્ટ્રે": 7346,
      "##િપ્સ": 7347,
      "ટકાથી": 7348,
      "શેરબજ": 7349,
      "##pp": 7350,
      "##યાના": 7351,
      "શકય": 7352,
      "નેપ": 7353,
      "મૂડી": 7354,
      "બનીને": 7355,
      "વસંત": 7356,
      "બોટાદ": 7357,
      "રિયલ": 7358,
      "##તક": 7359,
      "##યમ": 7360,
      "##લીંગ": 7361,
      "સાડા": 7362,
      "રમતો": 7363,
      "##મતિ": 7364,
      "##વને": 7365,
      "સ્ક્ર": 7366,
      "મેહ": 7367,
      "ભાગરૂપે": 7368,
      "પહોંચા": 7369,
      "કચ્છમાં": 7370,
      "##ાવવાનો": 7371,
      "##રેન": 7372,
      "##કાર્ડ": 7373,
      "##ગમ": 7374,
      "##શ્વાસ": 7375,
      "લીડ": 7376,
      "લીટર": 7377,
      "##પ્લો": 7378,
      "રંગો": 7379,
      "ચુક્યા": 7380,
      "જાગૃત": 7381,
      "ઉર્જા": 7382,
      "ક્રે": 7383,
      "કહેર": 7384,
      "ઝૂ": 7385,
      "બચવા": 7386,
      "રેસ્ટોરન્ટ": 7387,
      "ગણી": 7388,
      "લાય": 7389,
      "લંડ": 7390,
      "##રાએ": 7391,
      "નિરી": 7392,
      "કાફ": 7393,
      "સિંચ": 7394,
      "ભાજપમાં": 7395,
      "જીવનસાથી": 7396,
      "સિક્": 7397,
      "ટાટા": 7398,
      "પાઇ": 7399,
      "શોમાં": 7400,
      "તત્વો": 7401,
      "કેદ": 7402,
      "પહેરે": 7403,
      "##ગ્રહ": 7404,
      "નવીન": 7405,
      "##દોષ": 7406,
      "પ્રવક્તા": 7407,
      "મર્યાદિત": 7408,
      "##ંુ": 7409,
      "ડેવલ": 7410,
      "કેન્દ્રિત": 7411,
      "સ્પષ્ટતા": 7412,
      "##પન": 7413,
      "##શિયમ": 7414,
      "રૂપમાં": 7415,
      "ફિલ્મનું": 7416,
      "આર્ય": 7417,
      "જવાબમાં": 7418,
      "હાર્ટ": 7419,
      "##વાણ": 7420,
      "યોજવામાં": 7421,
      "લખન": 7422,
      "##ારુ": 7423,
      "##ંડર": 7424,
      "સિર": 7425,
      "૨૦૧૭": 7426,
      "ટંક": 7427,
      "##ાયેલો": 7428,
      "##ચ્ચાર": 7429,
      "ધંધા": 7430,
      "તજ": 7431,
      "નોન": 7432,
      "હેમ": 7433,
      "ભૂમિ": 7434,
      "શરતો": 7435,
      "કૉંગ": 7436,
      "શાસન": 7437,
      "અભિનય": 7438,
      "ગ્લોબલ": 7439,
      "આમંત્રણ": 7440,
      "ઉમર": 7441,
      "દશ": 7442,
      "##ટકો": 7443,
      "મોડે": 7444,
      "ખાવા": 7445,
      "બાબુ": 7446,
      "##ભાવસ્થા": 7447,
      "આજુબ": 7448,
      "કલર": 7449,
      "હાઇકોર્ટ": 7450,
      "##દર્શક": 7451,
      "શહીદ": 7452,
      "નાન": 7453,
      "પેશ": 7454,
      "ફાસ્ટ": 7455,
      "##લભ": 7456,
      "##લીની": 7457,
      "સ્કોર": 7458,
      "##ટ્ટી": 7459,
      "ઓપન": 7460,
      "સ્નાયુ": 7461,
      "IP": 7462,
      "કસ્ટ": 7463,
      "વિભાગમાં": 7464,
      "લાઈન": 7465,
      "ગાજ": 7466,
      "ફિલ": 7467,
      "##ર્જન": 7468,
      "##સ્પી": 7469,
      "ટેકો": 7470,
      "##ર્સના": 7471,
      "તબિયત": 7472,
      "માઇક્રો": 7473,
      "આજુબાજુ": 7474,
      "49": 7475,
      "##િત્સ": 7476,
      "કાર્યાલય": 7477,
      "##ધાને": 7478,
      "અપડેટ": 7479,
      "કોંગ્રેસની": 7480,
      "ક્લિન": 7481,
      "પ્રીમ": 7482,
      "પોઝીટીવ": 7483,
      "પદ્": 7484,
      "બાવ": 7485,
      "બ્રો": 7486,
      "કારોબ": 7487,
      "##સીમાં": 7488,
      "##મ્પિક": 7489,
      "માતાપિતા": 7490,
      "ચહેરો": 7491,
      "કઠ": 7492,
      "##!!": 7493,
      "ચૂકવ": 7494,
      "લિમિટેડ": 7495,
      "ઇન્સ": 7496,
      "થિય": 7497,
      "નખ": 7498,
      "રોય": 7499,
      "સાઇટ": 7500,
      "46": 7501,
      "આપનાર": 7502,
      "##લોને": 7503,
      "જુલાઇ": 7504,
      "ચાલતા": 7505,
      "ગેરકાયદે": 7506,
      "ત્રિવેદી": 7507,
      "૦૦": 7508,
      "##બદ્ધ": 7509,
      "##ન્ટ્સ": 7510,
      "સોનિયા": 7511,
      "વિશ્વની": 7512,
      "સાંભળી": 7513,
      "છેતરપિં": 7514,
      "પેનલ": 7515,
      "ખાતર": 7516,
      "વ્યક્તિના": 7517,
      "પક્ષી": 7518,
      "પહેલીવાર": 7519,
      "સ્નાન": 7520,
      "આયાત": 7521,
      "વ્ર": 7522,
      "મૂકે": 7523,
      "કર્મી": 7524,
      "નસીબ": 7525,
      "કહેતા": 7526,
      "મહેન્દ્ર": 7527,
      "જાગૃતિ": 7528,
      "તલા": 7529,
      "##ઝના": 7530,
      "##શક્તિ": 7531,
      "ફરવા": 7532,
      "લાક્ષણિક": 7533,
      "ફાયદાકારક": 7534,
      "છાં": 7535,
      "વાળી": 7536,
      "##્તે": 7537,
      "##વાળ": 7538,
      "વર્ષોમાં": 7539,
      "ક્રમે": 7540,
      "કહીને": 7541,
      "દુનિયાના": 7542,
      "સહીત": 7543,
      "એક્સપ્રેસ": 7544,
      "આવાસ": 7545,
      "ઈતિહાસ": 7546,
      "હિટ": 7547,
      "##િલા": 7548,
      "અગ્ન": 7549,
      "ગોર": 7550,
      "મતે": 7551,
      "પાડો": 7552,
      "ગણાય": 7553,
      "બચાવી": 7554,
      "હક": 7555,
      "વિનો": 7556,
      "##માએ": 7557,
      "સાંસ": 7558,
      "હીરો": 7559,
      "ઇન્ટરનેટ": 7560,
      "હથિયાર": 7561,
      "##આઉટ": 7562,
      "નિવાસ": 7563,
      "જોડાણ": 7564,
      "મોડલ": 7565,
      "સરકારમાં": 7566,
      "ઇસ": 7567,
      "૭૫": 7568,
      "બંધારણ": 7569,
      "150": 7570,
      "અઠવાડિયામાં": 7571,
      "પટ": 7572,
      "પ્રસ્તુ": 7573,
      "કરોડથી": 7574,
      "વિરોધમાં": 7575,
      "ઇન્ટરનેશનલ": 7576,
      "પ્રકારે": 7577,
      "જોતાં": 7578,
      "લેવલ": 7579,
      "સમયની": 7580,
      "પાર્ટીમાં": 7581,
      "બ્લોક": 7582,
      "ખાદ્ય": 7583,
      "સાગર": 7584,
      "##સીસ": 7585,
      "કાબૂ": 7586,
      "બધાને": 7587,
      "બરફ": 7588,
      "ચાઇ": 7589,
      "જર્": 7590,
      "કોડ": 7591,
      "સર્કલ": 7592,
      "આરોપીઓને": 7593,
      "બેસીને": 7594,
      "આનાથી": 7595,
      "લૉક": 7596,
      "##ઘાટન": 7597,
      "વાંકાનેર": 7598,
      "તંદુરસ્ત": 7599,
      "00": 7600,
      "Gujar": 7601,
      "ધામ": 7602,
      "ફુલ": 7603,
      "##યાં": 7604,
      "કરાવવામાં": 7605,
      "##ડાઉન": 7606,
      "ગર્લ": 7607,
      "નરમ": 7608,
      "હેલ": 7609,
      "પ્રજ": 7610,
      "જેત": 7611,
      "સંસ્કાર": 7612,
      "##ત્રિક": 7613,
      "##રમાંથી": 7614,
      "ક્લબ": 7615,
      "ચાહકો": 7616,
      "ઓલિ": 7617,
      "૩૪": 7618,
      "પ્રોફે": 7619,
      "પ્રકારનું": 7620,
      "કિસ્સો": 7621,
      "મકવાણા": 7622,
      "ફુટ": 7623,
      "બોર": 7624,
      "મું": 7625,
      "##ારામ": 7626,
      "સોનું": 7627,
      "આજકાલ": 7628,
      "##પમેન્ટ": 7629,
      "આપતી": 7630,
      "પીઠ": 7631,
      "પોલીસમાં": 7632,
      "જયાં": 7633,
      "આડ": 7634,
      "જિયો": 7635,
      "નિશા": 7636,
      "કરોડનું": 7637,
      "પાછળથી": 7638,
      "વધારાના": 7639,
      "##ation": 7640,
      "દાગ": 7641,
      "લાંચ": 7642,
      "શૂ": 7643,
      "ફિલ્મની": 7644,
      "જાહેરના": 7645,
      "ફરિયાદી": 7646,
      "પરિસ્થિતિમાં": 7647,
      "##બહે": 7648,
      "##શિક": 7649,
      "દેશી": 7650,
      "ખેતમ": 7651,
      "ઈન્ડિયન": 7652,
      "પીડિતા": 7653,
      "સંદર્ભમાં": 7654,
      "પ્રદૂ": 7655,
      "##કિટ": 7656,
      "##કૃત": 7657,
      "દેતા": 7658,
      "સીબીઆઈ": 7659,
      "બંન્ને": 7660,
      "જોઇને": 7661,
      "મનસુખ": 7662,
      "ઓફિસમાં": 7663,
      "શાકભાજીના": 7664,
      "સાચું": 7665,
      "લુક": 7666,
      "વતન": 7667,
      "##વેરા": 7668,
      "પહોંચાડી": 7669,
      "વરસાદને": 7670,
      "વાસ્તવમાં": 7671,
      "અભિનંદન": 7672,
      "પરિપ": 7673,
      "પડયો": 7674,
      "ઉત્તરા": 7675,
      "દુશ્": 7676,
      "દર્દીને": 7677,
      "મોતને": 7678,
      "વિચિત્ર": 7679,
      "કસરત": 7680,
      "ઉધ": 7681,
      "##ષેક": 7682,
      "સ્વભાવ": 7683,
      "નામનો": 7684,
      "કણ": 7685,
      "લસણ": 7686,
      "##ew": 7687,
      "##od": 7688,
      "ડિપ": 7689,
      "જીવનની": 7690,
      "મહત્વનો": 7691,
      "હીરા": 7692,
      "નફો": 7693,
      "##વીએ": 7694,
      "##સેટ": 7695,
      "##સેવ": 7696,
      "હિસા": 7697,
      "પામ્યા": 7698,
      "ધંધો": 7699,
      "##ાન્ટ": 7700,
      "##ટીમાં": 7701,
      "##ર્સમાં": 7702,
      "વિસ્તૃત": 7703,
      "ધોધ": 7704,
      "પિતાએ": 7705,
      "ફ્રેન્ચ": 7706,
      "51": 7707,
      "બોલમાં": 7708,
      "સોમવાર": 7709,
      "બળતરા": 7710,
      "ઇન્સ્ટાગ્રામ": 7711,
      "##ગેટિવ": 7712,
      "કિસાન": 7713,
      "જહાજ": 7714,
      "##av": 7715,
      "સ્વરાજ": 7716,
      "સર્જા": 7717,
      "કોંગ્રેસને": 7718,
      "ચુસ્ત": 7719,
      "દયા": 7720,
      "ગ્રૂ": 7721,
      "સહકારી": 7722,
      "પટેલને": 7723,
      "વિપરીત": 7724,
      "ઘાસ": 7725,
      "થવાથી": 7726,
      "##વ્યું": 7727,
      "##ક્ષક": 7728,
      "સ્ટાઇલ": 7729,
      "કાર્યકર્તા": 7730,
      "ભાગ્ય": 7731,
      "વખાણ": 7732,
      "રૃપ": 7733,
      "ઘી": 7734,
      "ટ્રો": 7735,
      "##ગાં": 7736,
      "પ્રકરણ": 7737,
      "સંયો": 7738,
      "જાણીતી": 7739,
      "પાંડે": 7740,
      "દાવા": 7741,
      "અછત": 7742,
      "જબર": 7743,
      "સકારાત્મક": 7744,
      "પોષણ": 7745,
      "પાકની": 7746,
      "આરંભ": 7747,
      "ખેડૂતોએ": 7748,
      "85": 7749,
      "કટોક": 7750,
      "તાજ": 7751,
      "કાબુ": 7752,
      "ભરપૂર": 7753,
      "સર્જરી": 7754,
      "ટોલ": 7755,
      "શૌ": 7756,
      "##યૂ": 7757,
      "##પ્ય": 7758,
      "લોખંડ": 7759,
      "બનાવની": 7760,
      "##ya": 7761,
      "માયા": 7762,
      "નેગેટિવ": 7763,
      "અભિગ": 7764,
      "બોર્ડર": 7765,
      "કાઉન્સિલ": 7766,
      "અવર": 7767,
      "ર્": 7768,
      "##વડી": 7769,
      "##ાદર": 7770,
      "શાહી": 7771,
      "1000": 7772,
      "સોનાની": 7773,
      "દરોડા": 7774,
      "થનાર": 7775,
      "##શિયલ": 7776,
      "અમદાવાદની": 7777,
      "બાહ્ય": 7778,
      "ગ્લાસ": 7779,
      "સવલતો": 7780,
      "જજ": 7781,
      "આપેલા": 7782,
      "કેસોમાં": 7783,
      "ખાતામાં": 7784,
      "##ષ્ણુ": 7785,
      "મુસાફરો": 7786,
      "##મિનાર": 7787,
      "દમ": 7788,
      "##ેશન્સ": 7789,
      "નિશ્ચિત": 7790,
      "ટ્રાયલ": 7791,
      "##િગેડ": 7792,
      "વિલંબ": 7793,
      "હારી": 7794,
      "સ્ત્રો": 7795,
      "લેવાનો": 7796,
      "અમલમાં": 7797,
      "લીધ": 7798,
      "માત્રામાં": 7799,
      "મુકવામાં": 7800,
      "બેટ્સમેન": 7801,
      "47": 7802,
      "કૅ": 7803,
      "##બારી": 7804,
      "##નસ": 7805,
      "પ્રવા": 7806,
      "##ેશર": 7807,
      "##્મણ": 7808,
      "દર્દીઓના": 7809,
      "ખેંચી": 7810,
      "એસ્ટેટ": 7811,
      "400": 7812,
      "##ઠાણ": 7813,
      "##ાલે": 7814,
      "રાજેશ": 7815,
      "લીગ": 7816,
      "યોજાઈ": 7817,
      "ભાડે": 7818,
      "નારાયણ": 7819,
      "કુંડ": 7820,
      "બીચ": 7821,
      "બોન્ડ": 7822,
      "રેતી": 7823,
      "એટલો": 7824,
      "મદદરૂપ": 7825,
      "પુરવઠા": 7826,
      "મશ": 7827,
      "૯૦": 7828,
      "##મનો": 7829,
      "##નીઝ": 7830,
      "આગ્રહ": 7831,
      "દવે": 7832,
      "##જિસ્ટ": 7833,
      "##ચારો": 7834,
      "##ભાઈએ": 7835,
      "તાપી": 7836,
      "ફેક્ટ": 7837,
      "ટ્રેક": 7838,
      "સાધુ": 7839,
      "લગ્નની": 7840,
      "યશ": 7841,
      "##નીંગ": 7842,
      "નોંધા": 7843,
      "કાશ્મીરના": 7844,
      "નબળી": 7845,
      "જ્વ": 7846,
      "બસો": 7847,
      "##વામા": 7848,
      "##લાને": 7849,
      "##રીનો": 7850,
      "રેન્જ": 7851,
      "જવાના": 7852,
      "સમિતિના": 7853,
      "ગુરૂવારે": 7854,
      "તુર": 7855,
      "સઘ": 7856,
      "કોન્સ": 7857,
      "આંગળી": 7858,
      "કાપડ": 7859,
      "અઢી": 7860,
      "સપના": 7861,
      "રાજનીતિ": 7862,
      "ગોવિંદ": 7863,
      "ખસેડ": 7864,
      "સેક્રે": 7865,
      "ચાવડા": 7866,
      "વપરાય": 7867,
      "ફાઉન્ડેશન": 7868,
      "##રાહ": 7869,
      "મહાત્મા": 7870,
      "##્યુન": 7871,
      "##િંગના": 7872,
      "રેમ": 7873,
      "ડેબ": 7874,
      "નાગરિકોને": 7875,
      "સાયકલ": 7876,
      "ટ્રમ્પે": 7877,
      "લંબાઈ": 7878,
      "આહ": 7879,
      "બદલાવ": 7880,
      "જગ્યાઓ": 7881,
      "મૂલ્યાં": 7882,
      "એમ્બ્યુલ": 7883,
      "નૌ": 7884,
      "રેશ": 7885,
      "##ંઝ": 7886,
      "##છો": 7887,
      "##્ટર": 7888,
      "પુષ્ટિ": 7889,
      "ગ્રાન્ટ": 7890,
      "પૈકીના": 7891,
      "પ્રમોશન": 7892,
      "ટેક્નોલોજી": 7893,
      "ગયુ": 7894,
      "ગાળામાં": 7895,
      "પૉ": 7896,
      "૩૮": 7897,
      "એકાદ": 7898,
      "##્યુશન": 7899,
      "ફેંક": 7900,
      "બિમારી": 7901,
      "રાજીવ": 7902,
      "ફટા": 7903,
      "##ેય": 7904,
      "##િનો": 7905,
      "##્યામ": 7906,
      "ફેફ": 7907,
      "ડેપ": 7908,
      "સર્ચ": 7909,
      "##જન્સી": 7910,
      "##લ્લો": 7911,
      "સમર્": 7912,
      "બેટરી": 7913,
      "મહુ": 7914,
      "બનતા": 7915,
      "અસામાન્ય": 7916,
      "##દિન": 7917,
      "##ac": 7918,
      "કરોડનો": 7919,
      "64": 7920,
      "ઔષ": 7921,
      "વચ્ચેના": 7922,
      "અત્યા": 7923,
      "પ્રેક્ટ": 7924,
      "આસામ": 7925,
      "##ટિક": 7926,
      "##ાતુ": 7927,
      "##ડીપી": 7928,
      "રાજ્યસભા": 7929,
      "પેસે": 7930,
      "ખેત": 7931,
      "તાલિબ": 7932,
      "એનું": 7933,
      "એકસાથે": 7934,
      "##દ્દીન": 7935,
      "સસ્પેન્ડ": 7936,
      "રત્": 7937,
      "##રેખ": 7938,
      "રાખ્યું": 7939,
      "દિલ્હીની": 7940,
      "મહામંત્રી": 7941,
      "તસ્વીર": 7942,
      "મુકાબ": 7943,
      "તાલિબાન": 7944,
      "ખંભ": 7945,
      "કમિશ્": 7946,
      "આજનો": 7947,
      "ઈન્ડસ્ટ્રી": 7948,
      "તફાવત": 7949,
      "##દ્યોગિક": 7950,
      "##હારી": 7951,
      "કરવામા": 7952,
      "2013": 7953,
      "શાસ્ત્રી": 7954,
      "197": 7955,
      "સમૃદ્ધ": 7956,
      "સેક્રેટરી": 7957,
      "##સિં": 7958,
      "સંકલ": 7959,
      "કેટલું": 7960,
      "ખોલી": 7961,
      "આરટી": 7962,
      "વોશ": 7963,
      "ખુબજ": 7964,
      "પંચાયતના": 7965,
      "સંકલ્પ": 7966,
      "હાલની": 7967,
      "ભૂખ": 7968,
      "પ્રકારનો": 7969,
      "મોંઘવારી": 7970,
      "આઝાદી": 7971,
      "નવરાત્રી": 7972,
      "કોન્ફરન્સ": 7973,
      "ગઠબંધ": 7974,
      "પરિવહન": 7975,
      "ગીતો": 7976,
      "મૂક્યો": 7977,
      "દિગ્ગજ": 7978,
      "##ડીઝ": 7979,
      "##્સના": 7980,
      "પુખ્ત": 7981,
      "ચીનમાં": 7982,
      "પ્રાપ્ય": 7983,
      "સગર્": 7984,
      "સેન્સેક્સ": 7985,
      "ઢી": 7986,
      "ભવન": 7987,
      "##પલ": 7988,
      "પ્રાઈ": 7989,
      "આપવાના": 7990,
      "સિદ્ધિ": 7991,
      "બદલાઈ": 7992,
      "કબજે": 7993,
      "આરામદાયક": 7994,
      "ગ્રહણ": 7995,
      "ચારેય": 7996,
      "વેક્સીન": 7997,
      "ખેડુતો": 7998,
      "શેટ": 7999,
      "કરીના": 8000,
      "સુશો": 8001,
      "રૂપિયાનું": 8002,
      "કિશો": 8003,
      "લાંબો": 8004,
      "કાઢવામાં": 8005,
      "ઇનિંગ": 8006,
      "એણે": 8007,
      "જવામાં": 8008,
      "વેન્ટ": 8009,
      "માનવી": 8010,
      "સંચાલિત": 8011,
      "સંગઠનો": 8012,
      "52": 8013,
      "એક્શન": 8014,
      "##ર્ટી": 8015,
      "##ળાટ": 8016,
      "ગરબા": 8017,
      "પિતાને": 8018,
      "સોંપવામાં": 8019,
      "કૂત": 8020,
      "સાચા": 8021,
      "વધવા": 8022,
      "યુઝર્સ": 8023,
      "વ્યાવ": 8024,
      "કલાકારો": 8025,
      "ભેજ": 8026,
      "એડવા": 8027,
      "##સાઇ": 8028,
      "શક્યો": 8029,
      "પક્ષો": 8030,
      "ભુજ": 8031,
      "આગેવાની": 8032,
      "વાઈરસ": 8033,
      "સુશોભ": 8034,
      "56": 8035,
      "કઇ": 8036,
      "##વર્ડ": 8037,
      "##ak": 8038,
      "##ંગો": 8039,
      "મળતાં": 8040,
      "##સીન": 8041,
      "શકું": 8042,
      "પેન્શન": 8043,
      "ફરિયાદો": 8044,
      "લાભાર્થી": 8045,
      "કડ": 8046,
      "મય": 8047,
      "મકાનો": 8048,
      "વચ": 8049,
      "સંડો": 8050,
      "રાખેલ": 8051,
      "સાંસ્ક": 8052,
      "ક્રિકેટર": 8053,
      "ચોક્કસપણે": 8054,
      "ટેલિ": 8055,
      "જન્મદિવસ": 8056,
      "ઈન્ટર": 8057,
      "કવર": 8058,
      "##ધરા": 8059,
      "##ાંગી": 8060,
      "સાગ": 8061,
      "ન્યૂઝીલેન્ડ": 8062,
      "પાઠવી": 8063,
      "કિનારે": 8064,
      "કબ્જે": 8065,
      "કૉંગ્રેસ": 8066,
      "માસમાં": 8067,
      "કોરિયા": 8068,
      "પોષ": 8069,
      "##ન્ડો": 8070,
      "૧૯૯": 8071,
      "ઉત્સવ": 8072,
      "ધ્રુ": 8073,
      "ડાંગર": 8074,
      "મમ્મી": 8075,
      "સર્જન": 8076,
      "વાયર": 8077,
      "બજાવતા": 8078,
      "પત્નીને": 8079,
      "અડધી": 8080,
      "##ોબસ્ત": 8081,
      "કાવ": 8082,
      "નૈ": 8083,
      "દેસાઈ": 8084,
      "બોય": 8085,
      "લાખનો": 8086,
      "##િષ્": 8087,
      "સીટો": 8088,
      "અમદાવાદઃ": 8089,
      "##સ્વામી": 8090,
      "##અર": 8091,
      "મોં": 8092,
      "મતલબ": 8093,
      "જોડાયેલી": 8094,
      "ઉમેર્યું": 8095,
      "બ્રિટિશ": 8096,
      "ઈસ": 8097,
      "સતા": 8098,
      "##કાંત": 8099,
      "આપના": 8100,
      "કોઈએ": 8101,
      "વિદ્યાર્થીઓએ": 8102,
      "બચ્ચન": 8103,
      "સાવચેતી": 8104,
      "નિમિત્તે": 8105,
      "ગટર": 8106,
      "##હિલ": 8107,
      "રાખ્યો": 8108,
      "બાલા": 8109,
      "બોલે": 8110,
      "અપાશે": 8111,
      "ખેતમજૂરી": 8112,
      "ખુર": 8113,
      "##ાતિ": 8114,
      "##જીવી": 8115,
      "કોઈની": 8116,
      "બોમ્બ": 8117,
      "##ers": 8118,
      "##ટુ": 8119,
      "સિસ્ટ": 8120,
      "ઉત્તે": 8121,
      "જમીનમાં": 8122,
      "##ક્ષેત્ર": 8123,
      "અહેવાલો": 8124,
      "સ્વચ્છતા": 8125,
      "##લેષણ": 8126,
      "##રૂમમાં": 8127,
      "સીધો": 8128,
      "ભારતનો": 8129,
      "દર્દીના": 8130,
      "ઓળખવામાં": 8131,
      "ડિસ": 8132,
      "કંપનીઓને": 8133,
      "સરખામણીમાં": 8134,
      "/-": 8135,
      "કુર": 8136,
      "સરો": 8137,
      "એકમો": 8138,
      "નાનો": 8139,
      "##્રોનિક": 8140,
      "##દેપુર": 8141,
      "ટીમની": 8142,
      "મનપા": 8143,
      "દર્શાવી": 8144,
      "સ્વીકારી": 8145,
      "સૂત્રોએ": 8146,
      "પ્રવૃત્તિઓ": 8147,
      "ઊભ": 8148,
      "રહયા": 8149,
      "સેમ્પલ": 8150,
      "તાકી": 8151,
      "ધોરાજી": 8152,
      "ઉદ્દેશ": 8153,
      "પેકેજ": 8154,
      "ખાં": 8155,
      "તકની": 8156,
      "સાથો": 8157,
      "##સાના": 8158,
      "કેટલો": 8159,
      "ઉંમરના": 8160,
      "તબક્કે": 8161,
      "થવી": 8162,
      "ધર્": 8163,
      "હોવો": 8164,
      "બીમાર": 8165,
      "ગોળ": 8166,
      "સ્મૃતિ": 8167,
      "ગીતા": 8168,
      "##મરજન્સી": 8169,
      "દંપતી": 8170,
      "કોન્સ્ટેબલ": 8171,
      "72": 8172,
      "##ાણુ": 8173,
      "મેડી": 8174,
      "##બીઆઇ": 8175,
      "##સ્થિતિ": 8176,
      "ચેન": 8177,
      "##સ્થાને": 8178,
      "બુટ": 8179,
      "સપ્તાહમાં": 8180,
      "બંદોબસ્ત": 8181,
      "રુપિયા": 8182,
      "કેજરીવાલ": 8183,
      "ગંદ": 8184,
      "જશો": 8185,
      "##ક્યુ": 8186,
      "રાકેશ": 8187,
      "ફેંકી": 8188,
      "પ્રમાણપત્ર": 8189,
      "વિજયભાઈ": 8190,
      "નિવેદનમાં": 8191,
      "હુમલામાં": 8192,
      "58": 8193,
      "આલિયા": 8194,
      "નિરાશ": 8195,
      "##્યોરિટી": 8196,
      "વેબસાઈટ": 8197,
      "કેવ": 8198,
      "વાતને": 8199,
      "માર્ક": 8200,
      "ડાયરેક્ટર": 8201,
      "યુરોપ": 8202,
      "ઇવેન્ટ": 8203,
      "ઉશ્કે": 8204,
      "કોફી": 8205,
      "લાગતા": 8206,
      "મુખ્યમંત્રીએ": 8207,
      "શર્માએ": 8208,
      "અલ્પેશ": 8209,
      "95": 8210,
      "ડ્રે": 8211,
      "હોબ": 8212,
      "આરોપીની": 8213,
      "ચુકાદો": 8214,
      "આનો": 8215,
      "બધુ": 8216,
      "બેઝ": 8217,
      "##સાધ": 8218,
      "બાબા": 8219,
      "યોજાયો": 8220,
      "કલાકની": 8221,
      "ચુકી": 8222,
      "તબીબો": 8223,
      "સ્વરૂપમાં": 8224,
      "ઋતુ": 8225,
      "૪૨": 8226,
      "##ષભ": 8227,
      "##લાસ": 8228,
      "##્સને": 8229,
      "રાખતા": 8230,
      "ચોકી": 8231,
      "ઘટાડ": 8232,
      "ગેમ": 8233,
      "અગાઉના": 8234,
      "વાયરસની": 8235,
      "માધ્યમિક": 8236,
      "સિલિ": 8237,
      "ડિલિવ": 8238,
      "વ્યાવસાય": 8239,
      "આંબ": 8240,
      "લડવા": 8241,
      "’,": 8242,
      "વાતની": 8243,
      "શાહરૂ": 8244,
      "ઓપરે": 8245,
      "જથ્થા": 8246,
      "ફર્નિ": 8247,
      "એસોસિએશન": 8248,
      "##em": 8249,
      "હોસ્ટ": 8250,
      "મુદ": 8251,
      "આઇપી": 8252,
      "ચિહ": 8253,
      "મસ્જ": 8254,
      "##ટલી": 8255,
      "સ્ટ્રી": 8256,
      "સોન": 8257,
      "##ડેન્ટ": 8258,
      "##શીપ": 8259,
      "પાકિસ્તાનમાં": 8260,
      "પંચમ": 8261,
      "ઘટકો": 8262,
      "વિનોદ": 8263,
      "જસદ": 8264,
      "વલ્લ": 8265,
      "સસ્તા": 8266,
      "##ંપી": 8267,
      "##સક": 8268,
      "##ાયુ": 8269,
      "2000": 8270,
      "ખાનની": 8271,
      "બોર્ડની": 8272,
      "ક્લાસ": 8273,
      "શસ્ત્ર": 8274,
      "માસ્ટર": 8275,
      "ઉપપ્રમુખ": 8276,
      "તૈનાત": 8277,
      "આત્મવિ": 8278,
      "મકાનમાં": 8279,
      "વેરાવ": 8280,
      "સ્પીડ": 8281,
      "છત": 8282,
      "પાસપોર્ટ": 8283,
      "બનાવવાનો": 8284,
      "જાણીને": 8285,
      "કબજો": 8286,
      "જલદી": 8287,
      "##સૂ": 8288,
      "ગુડ": 8289,
      "રાખવો": 8290,
      "બાળકની": 8291,
      "ગામોમાં": 8292,
      "##દેવી": 8293,
      "કાનૂની": 8294,
      "વયના": 8295,
      "કચરો": 8296,
      "અંડર": 8297,
      "નંબ": 8298,
      "ફાઇલ": 8299,
      "મંચ": 8300,
      "##વાળો": 8301,
      "માત": 8302,
      "સાક્ષી": 8303,
      "મૂકો": 8304,
      "ફ્રેન્ડ": 8305,
      "ભજવી": 8306,
      "##ચંદ્ર": 8307,
      "ગર્વ": 8308,
      "ટાર્": 8309,
      "##નિય": 8310,
      "##ag": 8311,
      "##ut": 8312,
      "સ્થિતિને": 8313,
      "ડ્રાઈવ": 8314,
      "દત્ત": 8315,
      "પરાજ": 8316,
      "પેઇન્ટ": 8317,
      "કેન્દ્રમાં": 8318,
      "માર્કેટિંગ": 8319,
      "આટલું": 8320,
      "નિયંત્રિત": 8321,
      "પુસ્તકો": 8322,
      "સાંસ્કૃતિક": 8323,
      "છેવ": 8324,
      "##નીલ": 8325,
      "તેવામાં": 8326,
      "કેળ": 8327,
      "ટોચના": 8328,
      "વોટ્સએપ": 8329,
      "હાઈકોર્ટે": 8330,
      "પંચાયતઘર": 8331,
      "ઉંમરે": 8332,
      "છોટાઉ": 8333,
      "વચન": 8334,
      "##નેસ": 8335,
      "ચેન્ન": 8336,
      "##ભવતી": 8337,
      "દેખાશે": 8338,
      "રાજકારણ": 8339,
      "કથિત": 8340,
      "##ુતિ": 8341,
      "ગુપ્તા": 8342,
      "કંપનીને": 8343,
      "જામનગરમાં": 8344,
      "અમેરિકાની": 8345,
      "ચેટ": 8346,
      "બૅ": 8347,
      "૪૮": 8348,
      "##બરે": 8349,
      "##ec": 8350,
      "સાસુ": 8351,
      "##િયારો": 8352,
      "પેસ્ટ": 8353,
      "મેળવે": 8354,
      "આજરોજ": 8355,
      "ઘરેથી": 8356,
      "નિર્માતા": 8357,
      "##ગ્ગા": 8358,
      "લેખક": 8359,
      "સાયન્સ": 8360,
      "વાતચીતમાં": 8361,
      "વસાવા": 8362,
      "હાસ": 8363,
      "કેમિક": 8364,
      "કોઠ": 8365,
      "લોકાર્": 8366,
      "##ક્ટેર": 8367,
      "વિદેશમાં": 8368,
      "ક્લો": 8369,
      "ખાય": 8370,
      "##દુલ": 8371,
      "પડયા": 8372,
      "ઓફી": 8373,
      "##્યૂટ": 8374,
      "રાત્રિ": 8375,
      "આંધ્ર": 8376,
      "પદ્મ": 8377,
      "કાળી": 8378,
      "ફસાય": 8379,
      "ભંડ": 8380,
      "##ૃત્ત": 8381,
      "કામના": 8382,
      "યુવતીએ": 8383,
      "ડિસ્ટન્સ": 8384,
      "પાઈ": 8385,
      "પૂર્": 8386,
      "પૂજન": 8387,
      "સ્ટાર્": 8388,
      "##એસપી": 8389,
      "ખેતરમાં": 8390,
      "ધીમી": 8391,
      "ઓળખાય": 8392,
      "ભંડોળ": 8393,
      "ઉત્તરાખંડ": 8394,
      "ડબ્": 8395,
      "વડી": 8396,
      "##વવાની": 8397,
      "##ક્યો": 8398,
      "નિર્ધાર": 8399,
      "વિપુલ": 8400,
      "જંગલ": 8401,
      "કારોબારી": 8402,
      "છી": 8403,
      "##ભુત": 8404,
      "##વંત": 8405,
      "##નિકલ": 8406,
      "વોર્ડમાં": 8407,
      "વૃક્ષો": 8408,
      "અભિષેક": 8409,
      "દઇએ": 8410,
      "ટંકારા": 8411,
      "લોકાર્પણ": 8412,
      "ઓર્ગે": 8413,
      "પંક": 8414,
      "લાગતું": 8415,
      "ભરૃ": 8416,
      "સૈનિકો": 8417,
      "ચરણ": 8418,
      "ઢો": 8419,
      "બેરોજ": 8420,
      "##િયું": 8421,
      "સેન": 8422,
      "બોલ્ડ": 8423,
      "ગાંધીનગરમાં": 8424,
      "ભાષણ": 8425,
      "જન્મે": 8426,
      "ટેસ્ટમાં": 8427,
      "વાંધો": 8428,
      "વેકેશન": 8429,
      "અન્ન": 8430,
      "પચ": 8431,
      "##ફળતા": 8432,
      "આવવાની": 8433,
      "પ્રવિ": 8434,
      "મંદી": 8435,
      "કર્ફ": 8436,
      "જોખમી": 8437,
      "નબળા": 8438,
      "મનીષ": 8439,
      "એટીએમ": 8440,
      "છેતરપિંડી": 8441,
      "66": 8442,
      "વાલ": 8443,
      "##નિયર": 8444,
      "##ાંતો": 8445,
      "નીચા": 8446,
      "લગા": 8447,
      "બોડી": 8448,
      "સ્કુલ": 8449,
      "આયોજિત": 8450,
      "વસવાટ": 8451,
      "પુરસ્કાર": 8452,
      "શ્રાવ": 8453,
      "સોનાના": 8454,
      "જીલ્લામાં": 8455,
      "સંતાન": 8456,
      "રનની": 8457,
      "##રેશન": 8458,
      "##બના": 8459,
      "##રીએ": 8460,
      "યુઝ": 8461,
      "ક્રમ": 8462,
      "આજની": 8463,
      "મેળવ્યો": 8464,
      "છોકરીઓ": 8465,
      "નિષ્ણાતો": 8466,
      "કાયદેસરની": 8467,
      "તડ": 8468,
      "##વાળું": 8469,
      "પરની": 8470,
      "પડતો": 8471,
      "કોલેજમાં": 8472,
      "મુદ્દાઓ": 8473,
      "59": 8474,
      "પંપ": 8475,
      "૪૪": 8476,
      "નિવાસી": 8477,
      "અર્ધ": 8478,
      "યુવતીને": 8479,
      "નોટબંધી": 8480,
      "આક્ષેપો": 8481,
      "જર્મની": 8482,
      "૪૧": 8483,
      "૫૫": 8484,
      "રિમાન્ડ": 8485,
      "યુવકે": 8486,
      "માર્ગદર્શ": 8487,
      "કોન્ટ્રાક્ટ": 8488,
      "હળવદ": 8489,
      "દાગીના": 8490,
      "ગડ": 8491,
      "તૃ": 8492,
      "તસ્ક": 8493,
      "##જલ": 8494,
      "તેમા": 8495,
      "તેમનાં": 8496,
      "ફરતા": 8497,
      "સૂચવે": 8498,
      "અફવા": 8499,
      "સેનાના": 8500,
      "##ાંજલિ": 8501,
      "સાંસદો": 8502,
      "ટાર્ગેટ": 8503,
      "ઊભો": 8504,
      "##વિક": 8505,
      "વિડ": 8506,
      "લેવો": 8507,
      "##ણામાં": 8508,
      "સુરેશ": 8509,
      "વચ્ચેની": 8510,
      "પરિવારે": 8511,
      "પ્રત્યેક": 8512,
      "54": 8513,
      "પ્રહાર": 8514,
      "પાણીથી": 8515,
      "ગોપાલ": 8516,
      "માર્ગો": 8517,
      "કુંભ": 8518,
      "નંગ": 8519,
      "બધાં": 8520,
      "શોર્ટ": 8521,
      "હાર્ડ": 8522,
      "##યત": 8523,
      "##યક": 8524,
      "રૂપિયામાં": 8525,
      "##વરાજ": 8526,
      "##ાયેલું": 8527,
      "ફેલાઈ": 8528,
      "##and": 8529,
      "રવિવાર": 8530,
      "સ્પર્શ": 8531,
      "ઔદ્યોગિક": 8532,
      "##ટકી": 8533,
      "##િક્": 8534,
      "મહંત": 8535,
      "નાટક": 8536,
      "આગમન": 8537,
      "ગ્રામી": 8538,
      "અલ્ટ": 8539,
      "દરેકને": 8540,
      "હજારની": 8541,
      "ભેળ": 8542,
      "ઉલ": 8543,
      "##un": 8544,
      "માધ": 8545,
      "##રોગ": 8546,
      "બેસા": 8547,
      "પોલીસકર્મી": 8548,
      "રેસ": 8549,
      "ભાવિ": 8550,
      "યોજાયેલી": 8551,
      "લેવાયો": 8552,
      "આવેદનપત્ર": 8553,
      "અરુ": 8554,
      "શેડ": 8555,
      "##ડલ": 8556,
      "પ્રચ": 8557,
      "સોનુ": 8558,
      "અનુષ્": 8559,
      "નામથી": 8560,
      "ખાવાથી": 8561,
      "ગણાવી": 8562,
      "પ્રિન્ટ": 8563,
      "ગાયક": 8564,
      "વારો": 8565,
      "શર્ટ": 8566,
      "લેવું": 8567,
      "##ાણીએ": 8568,
      "એસપી": 8569,
      "ગર્ભવતી": 8570,
      "નદીના": 8571,
      "ચમક": 8572,
      "સંબોધન": 8573,
      "રાત્રીના": 8574,
      "રોગચાળા": 8575,
      "##્યની": 8576,
      "##વનાર": 8577,
      "ધારણા": 8578,
      "ઉપરોક્ત": 8579,
      "મૂલ્યાંકન": 8580,
      "આયોગ": 8581,
      "બારી": 8582,
      "##હારો": 8583,
      "પરા": 8584,
      "##ાવું": 8585,
      "દિવ્યાં": 8586,
      "પહેલ": 8587,
      "પડેલા": 8588,
      "##નિર્": 8589,
      "મહિનાના": 8590,
      "આશ્રમ": 8591,
      "ગેરહાજ": 8592,
      "સૌરાષ્ટ્રમાં": 8593,
      "દસ્તાવેજ": 8594,
      "##સોલ": 8595,
      "##વર્ષ": 8596,
      "##શમાં": 8597,
      "કોને": 8598,
      "રૂટ": 8599,
      "ચીને": 8600,
      "ઉદ્યોગપતિ": 8601,
      "પથ્થર": 8602,
      "મંજુરી": 8603,
      "ઇમાર": 8604,
      "ધા": 8605,
      "##રીય": 8606,
      "##ડાટ": 8607,
      "##પ્રથમ": 8608,
      "અપમાન": 8609,
      "##ગાડી": 8610,
      "સવારના": 8611,
      "##ist": 8612,
      "57": 8613,
      "એમે": 8614,
      "એન્ટર": 8615,
      "સર્ટ": 8616,
      "##ભાવી": 8617,
      "કરીશ": 8618,
      "જીતુ": 8619,
      "##ક્રમે": 8620,
      "ફોરે": 8621,
      "પાર્ટનર": 8622,
      "બ્રાહ": 8623,
      "શરમ": 8624,
      "પ્રશાસ": 8625,
      "શક્તિશાળી": 8626,
      "વર્ણન": 8627,
      "પ્રસ્તુત": 8628,
      "યુગ": 8629,
      "ગોહિલ": 8630,
      "અશ્વિન": 8631,
      "કેબિનેટ": 8632,
      "##કૃષ્ણ": 8633,
      "મસાલા": 8634,
      "##િવિ": 8635,
      "લાભો": 8636,
      "##શિષ": 8637,
      "૨૦૧૬": 8638,
      "સંસ્થાના": 8639,
      "ધમધ": 8640,
      "યુનિવર્સિટીના": 8641,
      "અંકલેશ": 8642,
      "અટકી": 8643,
      "દાયકા": 8644,
      "પ્રોફેસર": 8645,
      "પ્રદૂષણ": 8646,
      "53": 8647,
      "##ભેર": 8648,
      "આપવો": 8649,
      "પ્રોપ": 8650,
      "વિદાય": 8651,
      "દિવાલ": 8652,
      "કાઢવા": 8653,
      "રોકાણકારો": 8654,
      "વનડે": 8655,
      "મંત્રાલયના": 8656,
      "બોલીવુડ": 8657,
      "આક્રમક": 8658,
      "શણગાર": 8659,
      "ખુરશી": 8660,
      "ઇમરાન": 8661,
      "ઝાર": 8662,
      "૬૫": 8663,
      "સુનિ": 8664,
      "##ત્તર": 8665,
      "પડતાં": 8666,
      "##પ્રત": 8667,
      "એલર્જી": 8668,
      "સૌરાષ્ટ્રના": 8669,
      "સિક્યોરિટી": 8670,
      "છેવટે": 8671,
      "રિલ": 8672,
      "##િન્સ": 8673,
      "રાખવાનો": 8674,
      "રાજસ્થાનના": 8675,
      "ડાઉનલોડ": 8676,
      "પડો": 8677,
      "##દારોને": 8678,
      "શ્યામ": 8679,
      "##MC": 8680,
      "##નાબેન": 8681,
      "મળવાની": 8682,
      "પીવાના": 8683,
      "પ્રોટીન": 8684,
      "કોંગ્રેસમાં": 8685,
      "બિલા": 8686,
      "સ્પર્ધ": 8687,
      "ભાષામાં": 8688,
      "##લીએ": 8689,
      "કોમે": 8690,
      "ભાગોમાં": 8691,
      "ઇન્ડેક્સ": 8692,
      "વિસ્તારની": 8693,
      "મુલાકાતે": 8694,
      "સ્મશાન": 8695,
      "##મણાં": 8696,
      "ઝાં": 8697,
      "##સમી": 8698,
      "##પને": 8699,
      "##પાયા": 8700,
      "પેટમાં": 8701,
      "વિશ્લેષણ": 8702,
      "કચ્છના": 8703,
      "લગ્નના": 8704,
      "કોર્પોરેટર": 8705,
      "બ્લાસ્ટ": 8706,
      "જ્વેલ": 8707,
      "તકો": 8708,
      "થાક": 8709,
      "##ાણો": 8710,
      "સીઝન": 8711,
      "મહિલાના": 8712,
      "નિર્દોષ": 8713,
      "મથક": 8714,
      "પેડ": 8715,
      "મિલ્": 8716,
      "##ુંક": 8717,
      "##ચ્છી": 8718,
      "બાળપણ": 8719,
      "બંનેએ": 8720,
      "2012": 8721,
      "વ્યાખ્યા": 8722,
      "આતંકવાદ": 8723,
      "ઉનાળામાં": 8724,
      "પ્રતિનિધ": 8725,
      "ડાંગ": 8726,
      "##ઝમાં": 8727,
      "##ગસ": 8728,
      "અગ્રવાલ": 8729,
      "રાજયમાં": 8730,
      "સાબરકાંઠા": 8731,
      "ઉદ્ધ": 8732,
      "વંચ": 8733,
      "##્ત": 8734,
      "શકતી": 8735,
      "આમિર": 8736,
      "કલાકો": 8737,
      "હથિયારો": 8738,
      "દહીં": 8739,
      "નાસી": 8740,
      "શ્વે": 8741,
      "##નાની": 8742,
      "##યાએ": 8743,
      "તરફે": 8744,
      "રિટેલ": 8745,
      "##બ્રે": 8746,
      "કરાયેલી": 8747,
      "માગી": 8748,
      "##ન્ડા": 8749,
      "##લ્ક": 8750,
      "જોબ": 8751,
      "સોદા": 8752,
      "સાંજના": 8753,
      "બોલર": 8754,
      "પાકિસ્તાને": 8755,
      "જીવલે": 8756,
      "હાજરીમાં": 8757,
      "##વર્તી": 8758,
      "2019માં": 8759,
      "62": 8760,
      "ગિર": 8761,
      "##ાવટ": 8762,
      "##સ્ક્ર": 8763,
      "બનાવ્યું": 8764,
      "આરોપો": 8765,
      "##શાસ્ત્ર": 8766,
      "દ્રારા": 8767,
      "ક્યાંય": 8768,
      "વાગ્યાથી": 8769,
      "બજેટમાં": 8770,
      "નારાજગી": 8771,
      "શાહરૂખ": 8772,
      "ખડ": 8773,
      "##કેશન": 8774,
      "પરિસ": 8775,
      "##િયમમાં": 8776,
      "શાળાઓમાં": 8777,
      "ફાયરિંગ": 8778,
      "બતાવે": 8779,
      "અશક": 8780,
      "ઘાત": 8781,
      "##ઝરી": 8782,
      "##ઝેશન": 8783,
      "શોષણ": 8784,
      "મોરબીમાં": 8785,
      "પૂછ્યું": 8786,
      "એન્જી": 8787,
      "પંચમહાલ": 8788,
      "જીવલેણ": 8789,
      "જંતુ": 8790,
      "ધીર": 8791,
      "##ક્ષર": 8792,
      "મેટલ": 8793,
      "રાખ્યા": 8794,
      "યોજી": 8795,
      "લોકશાહી": 8796,
      "અર્થવ્યવ": 8797,
      "ગૌતમ": 8798,
      "સિંઘ": 8799,
      "વિરૂધ્ધ": 8800,
      "વિકસિત": 8801,
      "રસોઈ": 8802,
      "પ્રતીક": 8803,
      "ખોડ": 8804,
      "##રીક": 8805,
      "મુળ": 8806,
      "કાચા": 8807,
      "તેઓની": 8808,
      "ફાળવણી": 8809,
      "##નવાર": 8810,
      "##દિ": 8811,
      "હોસ્પી": 8812,
      "સ્વામિનાર": 8813,
      "ચૂક્યો": 8814,
      "શ્રમ": 8815,
      "પાવડર": 8816,
      "પરિષદ": 8817,
      "ઘડ": 8818,
      "ફાળો": 8819,
      "##સાગર": 8820,
      "મળતો": 8821,
      "હાથી": 8822,
      "રેગ": 8823,
      "##એમસી": 8824,
      "દેખરેખ": 8825,
      "વિધાનસભામાં": 8826,
      "પાલનપુર": 8827,
      "આઝાદ": 8828,
      "હાન": 8829,
      "##શાળા": 8830,
      "##વીજ": 8831,
      "સિઝનમાં": 8832,
      "ક્રિસ": 8833,
      "અડધો": 8834,
      "મોટાભાગની": 8835,
      "ગ્રેડ": 8836,
      "મકર": 8837,
      "##ત્ય": 8838,
      "##મંદ": 8839,
      "પ્રાણ": 8840,
      "શકતો": 8841,
      "મીઠા": 8842,
      "ભાગ્યે": 8843,
      "પરિચિત": 8844,
      "વ્યાસ": 8845,
      "મનપ": 8846,
      "લાલચ": 8847,
      "બંગાળમાં": 8848,
      "ર૦૧": 8849,
      "રોમાં": 8850,
      "બનાવશે": 8851,
      "જાણતા": 8852,
      "ચૂંટણીના": 8853,
      "શૈલેષ": 8854,
      "વાદળી": 8855,
      "રિટર્ન": 8856,
      "પ્રવિણ": 8857,
      "61": 8858,
      "શંક": 8859,
      "##ફોડ": 8860,
      "ગુનામાં": 8861,
      "સમાજની": 8862,
      "પતિને": 8863,
      "કરાવ્યું": 8864,
      "અભિપ્ર": 8865,
      "દલીલ": 8866,
      "દાળ": 8867,
      "પછ": 8868,
      "##આંક": 8869,
      "##નીએ": 8870,
      "પ્રતા": 8871,
      "##ક્વિ": 8872,
      "વધ્યો": 8873,
      "##િયસ": 8874,
      "##પીપ": 8875,
      "બીસીસી": 8876,
      "કમલેશ": 8877,
      "પતિએ": 8878,
      "શરદ": 8879,
      "દૃષ્ટિ": 8880,
      "તેટલી": 8881,
      "મનુષ્ય": 8882,
      "પતંગ": 8883,
      "૩૯": 8884,
      "##પ્રે": 8885,
      "હોળી": 8886,
      "લેતી": 8887,
      "સેલે": 8888,
      "સોંપી": 8889,
      "ચોખા": 8890,
      "રાફ": 8891,
      "જિલ્લાઓમાં": 8892,
      "##બેક": 8893,
      "જીવંત": 8894,
      "અટકાવી": 8895,
      "પામ્યો": 8896,
      "સાંભળીને": 8897,
      "સ્કૂલમાં": 8898,
      "##બળો": 8899,
      "રાખશે": 8900,
      "સ્વરૂપે": 8901,
      "##ભાષ": 8902,
      "ફોલો": 8903,
      "બેઠેલા": 8904,
      "યે": 8905,
      "વિડિયો": 8906,
      "મોન": 8907,
      "##્યુબ": 8908,
      "જવાન": 8909,
      "##િરાણ": 8910,
      "ચાલશે": 8911,
      "એલસીબી": 8912,
      "અધિકારીઓની": 8913,
      "ફ્રન્ટ": 8914,
      "નિષ્ફળતા": 8915,
      "ક્રોસ": 8916,
      "નેપાળ": 8917,
      "કટોકટી": 8918,
      "):": 8919,
      "63": 8920,
      "##લક્ષી": 8921,
      "છેઃ": 8922,
      "##કેલી": 8923,
      "સુમ": 8924,
      "મેગા": 8925,
      "##સીંગ": 8926,
      "પહેરીને": 8927,
      "ખેડા": 8928,
      "સર્જાઈ": 8929,
      "ઊંચાઈ": 8930,
      "નિયમોનું": 8931,
      "સ્વતંત્રતા": 8932,
      "રજિસ્ટ્રેશન": 8933,
      "પીએસઆઇ": 8934,
      "ઓલિમ્પિક": 8935,
      "?’": 8936,
      "ગાઇડ": 8937,
      "તાજા": 8938,
      "ફળો": 8939,
      "ફિઝ": 8940,
      "##ુએ": 8941,
      "##કુમ": 8942,
      "##પક્ષ": 8943,
      "##ટેજ": 8944,
      "ઉપાડ": 8945,
      "સફાઇ": 8946,
      "##ટ્ટા": 8947,
      "2008": 8948,
      "નમૂના": 8949,
      "શિલ્પા": 8950,
      "ગ્રામીણ": 8951,
      "ઝેર": 8952,
      "##ામક": 8953,
      "##ાલો": 8954,
      "આવેલો": 8955,
      "મીમી": 8956,
      "ભરવામાં": 8957,
      "યાત્રી": 8958,
      "અવારનવાર": 8959,
      "સ્વામિનારાયણ": 8960,
      "##ચૂ": 8961,
      "વિઝા": 8962,
      "દેશોના": 8963,
      "ઉપરના": 8964,
      "લગતી": 8965,
      "આખું": 8966,
      "જીલ્લાના": 8967,
      "કયારે": 8968,
      "ગંદકી": 8969,
      "ઈરાન": 8970,
      "ગુર": 8971,
      "રિફ": 8972,
      "જગદી": 8973,
      "રાજયના": 8974,
      "અઠવાડિયે": 8975,
      "ભરૃચ": 8976,
      "71": 8977,
      ":-": 8978,
      "##ામંત્રી": 8979,
      "બોગસ": 8980,
      "##પુરી": 8981,
      "હરિ": 8982,
      "મંડળી": 8983,
      "એકત્રિત": 8984,
      "નિમણૂક": 8985,
      "ડિપાર્ટમેન્ટ": 8986,
      "એસી": 8987,
      "તિવ": 8988,
      "##ઝની": 8989,
      "##મકી": 8990,
      "##um": 8991,
      "મહિલાની": 8992,
      "સંપાદ": 8993,
      "પ્રક્રિયામાં": 8994,
      "કૌશલ": 8995,
      "કોહલીએ": 8996,
      "સંસદમાં": 8997,
      "નિરીક્ષણ": 8998,
      "ઝારખંડ": 8999,
      "##િકે": 9000,
      "##રીટ": 9001,
      "##ોડું": 9002,
      "##પ્લા": 9003,
      "પ્રતિભા": 9004,
      "રાહુ": 9005,
      "રમેશ": 9006,
      "બ્રાન્ચ": 9007,
      "ડિસ્કાઉન્ટ": 9008,
      "હોબાળો": 9009,
      "ગાળો": 9010,
      "વધ્યા": 9011,
      "કામે": 9012,
      "લીમ": 9013,
      "પ્રાપ્તિ": 9014,
      "આકર્ષણ": 9015,
      "આડે": 9016,
      "કિંગ": 9017,
      "ખેર": 9018,
      "૪૩": 9019,
      "##ખાન": 9020,
      "##રીઓ": 9021,
      "પરીક્ષામાં": 9022,
      "##ફિકેશન": 9023,
      "બારડો": 9024,
      "ઢોર": 9025,
      "##me": 9026,
      "વિષ્ણુ": 9027,
      "શરીરની": 9028,
      "પ્રશાંત": 9029,
      "##ંખ્ય": 9030,
      "અશક્ય": 9031,
      "67": 9032,
      "ભયા": 9033,
      "##મણી": 9034,
      "##ન્જર": 9035,
      "##રૂણ": 9036,
      "ચોખ્": 9037,
      "નિયુ": 9038,
      "બંનેને": 9039,
      "ઘટાડે": 9040,
      "સહેજ": 9041,
      "બપોરના": 9042,
      "લશ્કરી": 9043,
      "વાણી": 9044,
      "##વસ્તુ": 9045,
      "##રોનો": 9046,
      "સંકુલ": 9047,
      "##િલ્ડ": 9048,
      "બાબતમાં": 9049,
      "વધારીને": 9050,
      "કુમારે": 9051,
      "રાજપૂત": 9052,
      "ત્રા": 9053,
      "યજ્ઞ": 9054,
      "રાણી": 9055,
      "##ઈડ": 9056,
      "પ્રેશર": 9057,
      "સેલ્સ": 9058,
      "શિયાળામાં": 9059,
      "ઇન્ટરવ્યૂ": 9060,
      "નીપજ્યું": 9061,
      "કાજ": 9062,
      "ફગાવી": 9063,
      "લિંક": 9064,
      "વાજ": 9065,
      "મેના": 9066,
      "વ્યકત": 9067,
      "મેળવવામાં": 9068,
      "આભ": 9069,
      "ચળ": 9070,
      "ગુણો": 9071,
      "અવરોધ": 9072,
      "કલેક્ટ": 9073,
      "શરુઆત": 9074,
      "સિંગલ": 9075,
      "તૂટ": 9076,
      "૧પ": 9077,
      "##બેર": 9078,
      "##પદ": 9079,
      "##્ટન": 9080,
      "દિવાલો": 9081,
      "વડોદરાના": 9082,
      "જાળવણી": 9083,
      "સ્પેસ": 9084,
      "આત્મા": 9085,
      "સુનિશ્ચિત": 9086,
      "ચણા": 9087,
      "##મૂલ": 9088,
      "##કથા": 9089,
      "મોજ": 9090,
      "પિતાની": 9091,
      "શનિવાર": 9092,
      "ચુડાસ": 9093,
      "ફ્લાઈ": 9094,
      "કુશળતા": 9095,
      "અભિગમ": 9096,
      "પબ્લિક": 9097,
      "##ૂઝ": 9098,
      "##લગ્ન": 9099,
      "દિવ્ય": 9100,
      "##બાપુ": 9101,
      "યુનિટી": 9102,
      "બરો": 9103,
      "##શની": 9104,
      "વિગેરે": 9105,
      "લેબ": 9106,
      "##ન્સર": 9107,
      "##ન્સને": 9108,
      "ગ્રહો": 9109,
      "2011": 9110,
      "પૂછવામાં": 9111,
      "ગોઠવી": 9112,
      "મચાવી": 9113,
      "સાબરમતી": 9114,
      "ઉઘર": 9115,
      "તપ": 9116,
      "સુગંધ": 9117,
      "સૌપ્રથમ": 9118,
      "##ેડે": 9119,
      "કેસોની": 9120,
      "ત્રિપ": 9121,
      "##ખાને": 9122,
      "મંદિરની": 9123,
      "કિંમતમાં": 9124,
      "##આરપી": 9125,
      "સ્ટેશનના": 9126,
      "સભ્યોની": 9127,
      "##કામના": 9128,
      "વેક્સિનેશન": 9129,
      "મરણ": 9130,
      "##ટનો": 9131,
      "##જક": 9132,
      "##ab": 9133,
      "##રેન્ટ": 9134,
      "અહીંયા": 9135,
      "એન્ટિ": 9136,
      "સંભાળી": 9137,
      "કરાતા": 9138,
      "મેડીકલ": 9139,
      "ફફ": 9140,
      "##કાલીન": 9141,
      "ગુને": 9142,
      "પેટે": 9143,
      "ઉત્પાદક": 9144,
      "ઉછાળો": 9145,
      "તુલસી": 9146,
      "ઝઘડો": 9147,
      "પાંદડા": 9148,
      "વિવેક": 9149,
      "##ણ્ય": 9150,
      "##સગઢ": 9151,
      "##ફોલ": 9152,
      "##તાએ": 9153,
      "##નોના": 9154,
      "હોતી": 9155,
      "બનાવવાનું": 9156,
      "વાડી": 9157,
      "ચેન્ના": 9158,
      "લાક": 9159,
      "પ્રતિમા": 9160,
      "પ્રેસિ": 9161,
      "રાજકોટઃ": 9162,
      "એનર્જી": 9163,
      "જાન્યુઆરીએ": 9164,
      "સ્માર્ટફો": 9165,
      "લગ્નમાં": 9166,
      "વિગતવાર": 9167,
      "જગદીશ": 9168,
      "ભક્તિ": 9169,
      "ભરીને": 9170,
      "##ોરિટી": 9171,
      "બેંકના": 9172,
      "સ્ટીલ": 9173,
      "સ્કીમ": 9174,
      "બાજરી": 9175,
      "ઇસ્લા": 9176,
      "ઓઇલ": 9177,
      "ચશ્": 9178,
      "ડેલ": 9179,
      "મરા": 9180,
      "નેતાઓએ": 9181,
      "કર્મચારીઓની": 9182,
      "તારીખે": 9183,
      "પ્રાણીઓ": 9184,
      "ભિ": 9185,
      "પરો": 9186,
      "ઉપસ્થિતિ": 9187,
      "રીક્ષા": 9188,
      "યુકે": 9189,
      "ભૌતિક": 9190,
      "આદર": 9191,
      "##ૂતિ": 9192,
      "##ઝલ": 9193,
      "બેક્ટેર": 9194,
      "##મીના": 9195,
      "પુનર": 9196,
      "સાવર": 9197,
      "એડવો": 9198,
      "નાંખી": 9199,
      "કેરળ": 9200,
      "પ્રભારી": 9201,
      "અખિલ": 9202,
      "હટાવી": 9203,
      "કાળજીપૂર્વક": 9204,
      "કંઇક": 9205,
      "માછીમારો": 9206,
      "જડ": 9207,
      "શાર": 9208,
      "હવામાં": 9209,
      "૧ર": 9210,
      "##બત": 9211,
      "##ચારી": 9212,
      "કેક": 9213,
      "પ્રણ": 9214,
      "##કાયા": 9215,
      "દેવાની": 9216,
      "##ોર્સ": 9217,
      "ભારતનું": 9218,
      "ફર્યા": 9219,
      "લાખના": 9220,
      "##બાના": 9221,
      "હિમા": 9222,
      "લેવાશે": 9223,
      "અદાણી": 9224,
      "માથું": 9225,
      "સઘન": 9226,
      "ઇમ": 9227,
      "કમા": 9228,
      "##િબ્ર": 9229,
      "##ID": 9230,
      "કરનારી": 9231,
      "માણી": 9232,
      "##િયાને": 9233,
      "##દેદારો": 9234,
      "વાયદા": 9235,
      "ટોળ": 9236,
      "મૃત્યુઆંક": 9237,
      "જ્યોતિષ": 9238,
      "બહુમતી": 9239,
      "ડિલિવરી": 9240,
      "લહે": 9241,
      "##હિક": 9242,
      "સ્થાયી": 9243,
      "નેહા": 9244,
      "બાળકોમાં": 9245,
      "મુંબઈના": 9246,
      "કાર્તિક": 9247,
      "સ્ટોરી": 9248,
      "કોમર્સ": 9249,
      "સિનેમા": 9250,
      "વસ્ત્રો": 9251,
      "પહોંચતા": 9252,
      "બિંદુ": 9253,
      "દ્રશ્યો": 9254,
      "##ઠ્ઠ": 9255,
      "બેનર્જી": 9256,
      "સ્ટેડિયમ": 9257,
      "જયંતિ": 9258,
      "ડેપ્યુટી": 9259,
      "ટાઉન": 9260,
      "સ્તન": 9261,
      "જીતે": 9262,
      "ડેમો": 9263,
      "સુંદરતા": 9264,
      "પંચાયતની": 9265,
      "ઉમટી": 9266,
      "##ઝોન": 9267,
      "વિસર્જન": 9268,
      "ઈજાગ્રસ્ત": 9269,
      "શંકર": 9270,
      "સરકારનો": 9271,
      "ક્રૂડ": 9272,
      "પ્રોસેસ": 9273,
      "દોષ": 9274,
      "પાર્ટીએ": 9275,
      "ગયેલી": 9276,
      "કાંઈ": 9277,
      "માંડવી": 9278,
      "ચામડી": 9279,
      "પ્રાઇવેટ": 9280,
      "અનુષ્કા": 9281,
      "નાજ": 9282,
      "##જનમાં": 9283,
      "##નાના": 9284,
      "કારો": 9285,
      "108": 9286,
      "પ્રસન્ન": 9287,
      "૧૯૮": 9288,
      "મહામારીના": 9289,
      "મંદિરે": 9290,
      "માથે": 9291,
      "હોર્મો": 9292,
      "સમારંભ": 9293,
      "બેલે": 9294,
      "શોખ": 9295,
      "બોર્ડના": 9296,
      "સ્ટોપ": 9297,
      "તબીબ": 9298,
      "સિંહો": 9299,
      "##મેટિક": 9300,
      "સુધારવા": 9301,
      "હડ": 9302,
      "##વ્યુ": 9303,
      "##ક્ક": 9304,
      "ભાગો": 9305,
      "અસરગ્રસ્ત": 9306,
      "ધોવા": 9307,
      "ક્વોલ": 9308,
      "ડ્રાઈવર": 9309,
      "આફ": 9310,
      "ઓથ": 9311,
      "જાં": 9312,
      "ન્યા": 9313,
      "લાકડી": 9314,
      "વસૂલ": 9315,
      "નીકળ્યા": 9316,
      "દાદા": 9317,
      "##ધિકારી": 9318,
      "ઓમ": 9319,
      "બર્": 9320,
      "હ્યુ": 9321,
      "##ડીએફ": 9322,
      "રોપ": 9323,
      "ચોથી": 9324,
      "અંગેના": 9325,
      "હોસ્પિટલોમાં": 9326,
      "વહીવટ": 9327,
      "પંડિત": 9328,
      "એન્જિનિયર": 9329,
      "પુરવઠો": 9330,
      "વ્યાપાર": 9331,
      "નડ": 9332,
      "##બડ": 9333,
      "જોષી": 9334,
      "પાચન": 9335,
      "પહેરી": 9336,
      "વોશિંગ": 9337,
      "છોટાઉદેપુર": 9338,
      "હમણાં": 9339,
      "##સનો": 9340,
      "##કાઇ": 9341,
      "##સેલ": 9342,
      "##ુકત": 9343,
      "નોંધવામાં": 9344,
      "જરૃ": 9345,
      "પરાજય": 9346,
      "દરે": 9347,
      "બર્થ": 9348,
      "##સ્યો": 9349,
      "##ચર્સ": 9350,
      "##ાવવાનું": 9351,
      "##્યાત્": 9352,
      "એકઠા": 9353,
      "યુવકને": 9354,
      "એક્સચે": 9355,
      "ડાયમંડ": 9356,
      "યુવાનોને": 9357,
      "શકયતા": 9358,
      "ધૂમ": 9359,
      "૩૦૦": 9360,
      "##ig": 9361,
      "196": 9362,
      "ડિસેમ્બરે": 9363,
      "ટુકડા": 9364,
      "વાપરી": 9365,
      "વ્યાવસાયિક": 9366,
      "પાળ": 9367,
      "સગા": 9368,
      "##રનો": 9369,
      "લેતાં": 9370,
      "સિન્ડ": 9371,
      "##િપ્ટ": 9372,
      "મહિલાઓની": 9373,
      "વિકાસના": 9374,
      "મંત્રીએ": 9375,
      "ટ્રાન્સપોર્ટ": 9376,
      "પાડોશી": 9377,
      "હવાઈ": 9378,
      "##ખમ": 9379,
      "##ંગલ": 9380,
      "##લેન્ટ": 9381,
      "નાક": 9382,
      "જીવી": 9383,
      "ટેલી": 9384,
      "સહયોગી": 9385,
      "ટ્રેન્ડ": 9386,
      "કોલેજો": 9387,
      "સેલિબ્ર": 9388,
      "ટાઇમ": 9389,
      "સર્વોચ્ચ": 9390,
      "ઇમે": 9391,
      "પદે": 9392,
      "૪૭": 9393,
      "##ટમ": 9394,
      "સેક્ટર": 9395,
      "માર્ચે": 9396,
      "અભ્યાસમાં": 9397,
      "મથકમાં": 9398,
      "ધિરાણ": 9399,
      "વતી": 9400,
      "સેમી": 9401,
      "શ્રદ્ધા": 9402,
      "મજાક": 9403,
      "##ews": 9404,
      "માર્ગદર્શિકા": 9405,
      "છાતી": 9406,
      "આવકાર": 9407,
      "પેજ": 9408,
      "કંપનીઓએ": 9409,
      "માતાના": 9410,
      "ચૂકવવા": 9411,
      "નિવૃત્ત": 9412,
      "અગાઉથી": 9413,
      "તુરંત": 9414,
      "જસ": 9415,
      "ટેમ્પ": 9416,
      "ઘૂંટ": 9417,
      "2018માં": 9418,
      "સ્પર્ધામાં": 9419,
      "સરખામણીએ": 9420,
      "વાનગીઓ": 9421,
      "બિસ્": 9422,
      "##ંછ": 9423,
      "બેનર": 9424,
      "લગાવ્યા": 9425,
      "ઘટાડી": 9426,
      "##પેન્દ્ર": 9427,
      "સ્ટેજ": 9428,
      "પ્રોજેકટ": 9429,
      "પાઇપ": 9430,
      "રજની": 9431,
      "દુધ": 9432,
      "જાતીય": 9433,
      "નાખ્યો": 9434,
      "પૃષ્ઠ": 9435,
      "ગુસ્સો": 9436,
      "મસ્જિદ": 9437,
      "##ૂંક": 9438,
      "##hat": 9439,
      "##ડાકા": 9440,
      "##સ્ટાર": 9441,
      "અનન્ય": 9442,
      "પીવા": 9443,
      "ફોનમાં": 9444,
      "જાતકો": 9445,
      "ગર્ભાવસ્થા": 9446,
      "74": 9447,
      "ક્યા": 9448,
      "કન્ટ": 9449,
      "##િઅ": 9450,
      "##યાત્ર": 9451,
      "મળતું": 9452,
      "મીઠી": 9453,
      "પ્રેમમાં": 9454,
      "રાજકોટની": 9455,
      "રમવા": 9456,
      "સંબંધમાં": 9457,
      "##દાયી": 9458,
      "પોરબંદ": 9459,
      "કમિશ્નર": 9460,
      "છંટ": 9461,
      "##ળાઈ": 9462,
      "##ન્ડી": 9463,
      "મેક્સ": 9464,
      "લેપ": 9465,
      "સમજવા": 9466,
      "અભિપ્રાય": 9467,
      "ઝુંબ": 9468,
      "પ્રદીપ": 9469,
      "પ્રજાત": 9470,
      "##યાન": 9471,
      "##બીસી": 9472,
      "કોલેજના": 9473,
      "સૈફ": 9474,
      "સાઉદી": 9475,
      "મેઘરાજ": 9476,
      "વલ્લભ": 9477,
      "77": 9478,
      "કંડ": 9479,
      "કિમ": 9480,
      "દાવ": 9481,
      "૪૬": 9482,
      "##્મા": 9483,
      "##ંબા": 9484,
      "##cc": 9485,
      "##ઢા": 9486,
      "કરાવ્યો": 9487,
      "માવ": 9488,
      "વિદ્યાર્થીઓની": 9489,
      "ટોળા": 9490,
      "##પ્ટર": 9491,
      "નાખવાની": 9492,
      "મિની": 9493,
      "રણવીર": 9494,
      "ટેલિકો": 9495,
      "સંકેતો": 9496,
      "દ્રષ્ટિએ": 9497,
      "જરા": 9498,
      "જોડે": 9499,
      "સુત્રો": 9500,
      "##ત્રિમ": 9501,
      "પીવાથી": 9502,
      "પંચાય": 9503,
      "વિજયભાઇ": 9504,
      "દર્શાવવામાં": 9505,
      "ક્લાસિક": 9506,
      "વાવાઝ": 9507,
      "સર્ટિફ": 9508,
      "ગળે": 9509,
      "પપ્પા": 9510,
      "##િલ્લો": 9511,
      "##પ્રદાય": 9512,
      "લોકલ": 9513,
      "શરત": 9514,
      "ઇચ્છે": 9515,
      "એડવોકેટ": 9516,
      "ડામ": 9517,
      "##ીટ": 9518,
      "##શંકર": 9519,
      "રાજપીપ": 9520,
      "વર્તુ": 9521,
      "સિઝન": 9522,
      "ચોરસ": 9523,
      "##ટોપ": 9524,
      "##લ્સને": 9525,
      "પ્રતિબંધિત": 9526,
      "બિલ્ડ": 9527,
      "નહિં": 9528,
      "ફર્નિચર": 9529,
      "CM": 9530,
      "ઇશ": 9531,
      "ઈશ": 9532,
      "દળો": 9533,
      "કરાયેલ": 9534,
      "જેમની": 9535,
      "પાકિસ્તાનને": 9536,
      "સમીક્ષાઓ": 9537,
      "ફ્લેટ": 9538,
      "ખવડ": 9539,
      "છરી": 9540,
      "છત્તી": 9541,
      "ધૂ": 9542,
      "સશ": 9543,
      "કેલ": 9544,
      "##ટેશન": 9545,
      "વિવા": 9546,
      "##ંગે": 9547,
      "##કીટ": 9548,
      "પાઉ": 9549,
      "જુએ": 9550,
      "કમર": 9551,
      "શિખર": 9552,
      "મેળવ્યા": 9553,
      "મ્યુઝ": 9554,
      "આઈપીએલ": 9555,
      "ભરાયા": 9556,
      "જબરદ": 9557,
      "વંચિત": 9558,
      "૯૯": 9559,
      "રીપોર્ટ": 9560,
      "2010": 9561,
      "કેન્દ્રો": 9562,
      "વિશ્વભરમાં": 9563,
      "પેટ્રો": 9564,
      "કાયદાકીય": 9565,
      "મગજ": 9566,
      "તિવારી": 9567,
      "ખોર": 9568,
      "જળા": 9569,
      "##ભે": 9570,
      "##ાઈના": 9571,
      "##િનર": 9572,
      "દિવસોથી": 9573,
      "કાયમ": 9574,
      "ભગવા": 9575,
      "વધારવામાં": 9576,
      "ગુણધ": 9577,
      "ડોલરની": 9578,
      "મિશ્રા": 9579,
      "હેતુથી": 9580,
      "પ્રેક્ટિસ": 9581,
      "રહીશો": 9582,
      "દીધુ": 9583,
      "##ફેક્ટ": 9584,
      "જોડાઈ": 9585,
      "ચલાવવા": 9586,
      "ગઢવી": 9587,
      "છંટકાવ": 9588,
      "ઊંડ": 9589,
      "એલાન": 9590,
      "ટક": 9591,
      "રદ્દ": 9592,
      "##ૃહ": 9593,
      "##્યુમ": 9594,
      "ગામડા": 9595,
      "ત્રિમ": 9596,
      "##ઠ્ઠા": 9597,
      "73": 9598,
      "તામ": 9599,
      "પારો": 9600,
      "રિક્ષા": 9601,
      "##બુલ": 9602,
      "##ev": 9603,
      "##લાએ": 9604,
      "##લાકી": 9605,
      "સમજૂ": 9606,
      "સોજો": 9607,
      "કહો": 9608,
      "કંપનીઓના": 9609,
      "સહાયક": 9610,
      "અવસર": 9611,
      "નિવૃત્તિ": 9612,
      "કૃત્રિમ": 9613,
      "થોડાક": 9614,
      "રિકવરી": 9615,
      "સ્ત્રોત": 9616,
      "ગ્લ": 9617,
      "ચિત": 9618,
      "હૂં": 9619,
      "##રફ": 9620,
      "##બાલ": 9621,
      "કોળી": 9622,
      "દેશોની": 9623,
      "વિસ્તરણ": 9624,
      "માત્રા": 9625,
      "વ્યક્તિત્વ": 9626,
      "સાયબર": 9627,
      "એકબીજાને": 9628,
      "ચિકિત્સ": 9629,
      "રજીસ્ટ્ર": 9630,
      "દુબઈ": 9631,
      "પંકજ": 9632,
      "76": 9633,
      "આર્ક": 9634,
      "હદ": 9635,
      "કેરી": 9636,
      "સેલ્": 9637,
      "સૌર": 9638,
      "ગોધરા": 9639,
      "##ાજીક": 9640,
      "એજ્યુ": 9641,
      "નિકળ": 9642,
      "ક્વો": 9643,
      "##કોર્ટના": 9644,
      "ટાપુ": 9645,
      "આઘાત": 9646,
      "ચિર": 9647,
      "##માલ": 9648,
      "##નાઈ": 9649,
      "સીડી": 9650,
      "સૌંદર": 9651,
      "##લાઇટ": 9652,
      "##est": 9653,
      "ભયંકર": 9654,
      "બિલ્ડીંગ": 9655,
      "ઈલેક્ટ": 9656,
      "તાં": 9657,
      "##છોડ": 9658,
      "##તીય": 9659,
      "##સીબે": 9660,
      "સંગ્ર": 9661,
      "દુનિયાની": 9662,
      "ગુલાબ": 9663,
      "##છેડા": 9664,
      "ઈન્ટરનેટ": 9665,
      "પોલિસી": 9666,
      "મધુ": 9667,
      "##શને": 9668,
      "મીની": 9669,
      "ભરાઈ": 9670,
      "બેંકો": 9671,
      "તકેદારી": 9672,
      "કનેક્ટ": 9673,
      "કાફલો": 9674,
      "##િથ": 9675,
      "##ફટ": 9676,
      "કેન": 9677,
      "નિહ": 9678,
      "અનિવાર": 9679,
      "દીકરો": 9680,
      "રેપ": 9681,
      "ડોકટર": 9682,
      "હરાજી": 9683,
      "પૂરતા": 9684,
      "##ાકુ": 9685,
      "દુર્લભ": 9686,
      "પદાર્થો": 9687,
      "મલ્ટી": 9688,
      "નિર્ધારિત": 9689,
      "કિટ": 9690,
      "ગંગા": 9691,
      "લટક": 9692,
      "હાય": 9693,
      "##ાનંદ": 9694,
      "જવાથી": 9695,
      "શોક": 9696,
      "નાખવામાં": 9697,
      "પૈસાની": 9698,
      "૧૫૦": 9699,
      "સમયગાળામાં": 9700,
      "સગીર": 9701,
      "##નિર્ભર": 9702,
      "ટેલિકોમ": 9703,
      "ઇજાગ્રસ્ત": 9704,
      "##િયુ": 9705,
      "##મીર": 9706,
      "કોઇને": 9707,
      "##ભાવિક": 9708,
      "સભામાં": 9709,
      "તંત્રને": 9710,
      "જીત્યા": 9711,
      "લેખમાં": 9712,
      "મૂકીને": 9713,
      "વાલીઓ": 9714,
      "સીરિઝ": 9715,
      "જરૂરિયાતો": 9716,
      "##્યાત્મિક": 9717,
      "અનિવાર્ય": 9718,
      "નવાર": 9719,
      "##ાણિક": 9720,
      "ડિફે": 9721,
      "##સ્થામાં": 9722,
      "નેતાઓને": 9723,
      "કસ્ટમ": 9724,
      "ગળા": 9725,
      "થનારા": 9726,
      "ષડ": 9727,
      "##ૅર": 9728,
      "##CB": 9729,
      "##આતો": 9730,
      "##ટીની": 9731,
      "સીતાર": 9732,
      "ડીવી": 9733,
      "અહીંથી": 9734,
      "બ્રિગેડ": 9735,
      "પાછળના": 9736,
      "ઉદય": 9737,
      "કબૂ": 9738,
      "ફેબ્રુઆરીએ": 9739,
      "સિદ્ધાંત": 9740,
      "##શ્વર્યા": 9741,
      "ડેવલપમેન્ટ": 9742,
      "##ર્ભ": 9743,
      "##્રીત": 9744,
      "##સ્તાન": 9745,
      "ટ્રેનિંગ": 9746,
      "ઉમેરી": 9747,
      "લક્ષ્યાં": 9748,
      "ગાયબ": 9749,
      "મુસ્લિ": 9750,
[...]
