{
  "version": "1.0",
  "truncation": null,
  "padding": null,
  "added_tokens": [
    {
      "id": 0,
      "content": "[UNK]",
      "single_word": false,
      "lstrip": false,
      "rstrip": false,
      "normalized": false,
      "special": true
    },
    {
      "id": 1,
      "content": "[PAD]",
      "single_word": false,
      "lstrip": false,
      "rstrip": false,
      "normalized": false,
      "special": true
    },
    {
      "id": 2,
      "content": "[BOS]",
      "single_word": false,
      "lstrip": false,
      "rstrip": false,
      "normalized": false,
      "special": true
    },
    {
      "id": 3,
      "content": "[EOS]",
      "single_word": false,
      "lstrip": false,
      "rstrip": false,
      "normalized": false,
      "special": true
    }
  ],
  "normalizer": {
    "type": "NFC"
  },
  "pre_tokenizer": {
    "type": "Whitespace"
  },
  "post_processor": null,
  "decoder": null,
  "model": {
    "type": "WordPiece",
    "unk_token": "[UNK]",
    "continuing_subword_prefix": "##",
    "max_input_chars_per_word": 200,
    "vocab": {
      "[UNK]": 0,
      "[PAD]": 1,
      "[BOS]": 2,
      "[EOS]": 3,
      "!": 4,
      "\"": 5,
      "#": 6,
      "$": 7,
      "%": 8,
      "&": 9,
      "'": 10,
      "(": 11,
      ")": 12,
      "*": 13,
      "+": 14,
      ",": 15,
      "-": 16,
      ".": 17,
      "/": 18,
      "0": 19,
      "1": 20,
      "2": 21,
      "3": 22,
      "4": 23,
      "5": 24,
      "6": 25,
      "7": 26,
      "8": 27,
      "9": 28,
      ":": 29,
      ";": 30,
      "<": 31,
      "=": 32,
      ">": 33,
      "?": 34,
      "@": 35,
      "A": 36,
      "B": 37,
      "C": 38,
      "D": 39,
      "E": 40,
      "F": 41,
      "G": 42,
      "H": 43,
      "I": 44,
      "J": 45,
      "K": 46,
      "L": 47,
      "M": 48,
      "N": 49,
      "O": 50,
      "P": 51,
      "Q": 52,
      "R": 53,
      "S": 54,
      "T": 55,
      "U": 56,
      "V": 57,
      "W": 58,
      "X": 59,
      "Y": 60,
      "Z": 61,
      "[": 62,
      "\\": 63,
      "]": 64,
      "_": 65,
      "`": 66,
      "a": 67,
      "b": 68,
      "c": 69,
      "d": 70,
      "e": 71,
      "f": 72,
      "g": 73,
      "h": 74,
      "i": 75,
      "j": 76,
      "k": 77,
      "l": 78,
      "m": 79,
      "n": 80,
      "o": 81,
      "p": 82,
      "q": 83,
      "r": 84,
      "s": 85,
      "t": 86,
      "u": 87,
      "v": 88,
      "w": 89,
      "x": 90,
      "y": 91,
      "z": 92,
      "{": 93,
      "|": 94,
      "}": 95,
      "~": 96,
      "": 97,
      "": 98,
      "": 99,
      "": 100,
      "": 101,
      "": 102,
      "£": 103,
      "¤": 104,
      "¨": 105,
      "©": 106,
      "«": 107,
      "­": 108,
      "®": 109,
      "°": 110,
      "±": 111,
      "²": 112,
      "·": 113,
      "º": 114,
      "»": 115,
      "¼": 116,
      "½": 117,
      "¾": 118,
      "Â": 119,
      "Ä": 120,
      "Æ": 121,
      "Ì": 122,
      "Î": 123,
      "×": 124,
      "Ù": 125,
      "Ú": 126,
      "Ý": 127,
      "à": 128,
      "á": 129,
      "â": 130,
      "ç": 131,
      "é": 132,
      "ê": 133,
      "ë": 134,
      "í": 135,
      "î": 136,
      "ï": 137,
      "ð": 138,
      "ò": 139,
      "ó": 140,
      "÷": 141,
      "ü": 142,
      "þ": 143,
      "č": 144,
      "ī": 145,
      "ı": 146,
      "ń": 147,
      "ő": 148,
      "ş": 149,
      "š": 150,
      "Ź": 151,
      "˗": 152,
      "˚": 153,
      "˜": 154,
      "Μ": 155,
      "ί": 156,
      "α": 157,
      "ε": 158,
      "ι": 159,
      "λ": 160,
      "μ": 161,
      "ν": 162,
      "ο": 163,
      "π": 164,
      "ρ": 165,
      "σ": 166,
      "υ": 167,
      "φ": 168,
      "а": 169,
      "б": 170,
      "в": 171,
      "е": 172,
      "к": 173,
      "л": 174,
      "н": 175,
      "о": 176,
      "п": 177,
      "с": 178,
      "т": 179,
      "у": 180,
      "ч": 181,
      "ы": 182,
      "ю": 183,
      "я": 184,
      "і": 185,
      "إ": 186,
      "ئ": 187,
      "ا": 188,
      "ة": 189,
      "د": 190,
      "ر": 191,
      "س": 192,
      "ل": 193,
      "و": 194,
      "ي": 195,
      "َ": 196,
      "ِ": 197,
      "ْ": 198,
      "ँ": 199,
      "ं": 200,
      "ः": 201,
      "अ": 202,
      "आ": 203,
      "उ": 204,
      "ऊ": 205,
      "ए": 206,
      "क": 207,
      "ख": 208,
      "ग": 209,
      "घ": 210,
      "च": 211,
      "छ": 212,
      "ज": 213,
      "झ": 214,
      "ट": 215,
      "ड": 216,
      "ण": 217,
      "त": 218,
      "थ": 219,
      "द": 220,
      "ध": 221,
      "न": 222,
      "प": 223,
      "फ": 224,
      "ब": 225,
      "भ": 226,
      "म": 227,
      "य": 228,
      "र": 229,
      "ल": 230,
      "ळ": 231,
      "व": 232,
      "श": 233,
      "ष": 234,
      "स": 235,
      "ह": 236,
      "़": 237,
      "ा": 238,
      "ि": 239,
      "ी": 240,
      "ु": 241,
      "ू": 242,
      "ृ": 243,
      "ॅ": 244,
      "े": 245,
      "ै": 246,
      "ॉ": 247,
      "ो": 248,
      "्": 249,
      "ॐ": 250,
      "।": 251,
      "॥": 252,
      "०": 253,
      "२": 254,
      "३": 255,
      "४": 256,
      "ઁ": 257,
      "ં": 258,
      "ઃ": 259,
      "અ": 260,
      "આ": 261,
      "ઇ": 262,
      "ઈ": 263,
      "ઉ": 264,
      "ઊ": 265,
      "ઋ": 266,
      "ઍ": 267,
      "એ": 268,
      "ઐ": 269,
      "ઑ": 270,
      "ઓ": 271,
      "ઔ": 272,
      "ક": 273,
      "ખ": 274,
      "ગ": 275,
      "ઘ": 276,
      "ઙ": 277,
      "ચ": 278,
      "છ": 279,
      "જ": 280,
      "ઝ": 281,
      "ઞ": 282,
      "ટ": 283,
      "ઠ": 284,
      "ડ": 285,
      "ઢ": 286,
      "ણ": 287,
      "ત": 288,
      "થ": 289,
      "દ": 290,
      "ધ": 291,
      "ન": 292,
      "પ": 293,
      "ફ": 294,
      "બ": 295,
      "ભ": 296,
      "મ": 297,
      "ય": 298,
      "ર": 299,
      "લ": 300,
      "ળ": 301,
      "વ": 302,
      "શ": 303,
      "ષ": 304,
      "સ": 305,
      "હ": 306,
      "઼": 307,
      "ા": 308,
      "િ": 309,
      "ી": 310,
      "ુ": 311,
      "ૂ": 312,
      "ૃ": 313,
      "ૄ": 314,
      "ૅ": 315,
      "ે": 316,
      "ૈ": 317,
      "ૉ": 318,
      "ો": 319,
      "ૌ": 320,
      "્": 321,
      "ૐ": 322,
      "ૠ": 323,
      "ૢ": 324,
      "૤": 325,
      "૦": 326,
      "૧": 327,
      "૨": 328,
      "૩": 329,
      "૪": 330,
      "૫": 331,
      "૬": 332,
      "૭": 333,
      "૮": 334,
      "૯": 335,
      "ச": 336,
      "ர": 337,
      "ழ": 338,
      "ோ": 339,
      "்": 340,
      "‎": 341,
      "–": 342,
      "—": 343,
      "‘": 344,
      "’": 345,
      "‚": 346,
      "“": 347,
      "”": 348,
      "•": 349,
      "…": 350,
      "‬": 351,
      "″": 352,
      "‹": 353,
      "€": 354,
      "₹": 355,
      "№": 356,
      "™": 357,
      "↑": 358,
      "→": 359,
      "−": 360,
      "√": 361,
      "▲": 362,
      "►": 363,
      "○": 364,
      "●": 365,
      "★": 366,
      "☞": 367,
      "♡": 368,
      "♲": 369,
      "✓": 370,
      "❣": 371,
      "⦁": 372,
      "⬛": 373,
      "⭕": 374,
      "、": 375,
      "㎡": 376,
      "": 377,
      "": 378,
      "": 379,
      "": 380,
      "": 381,
      "️": 382,
      "｜": 383,
      "ﾍ": 384,
      "ﾠ": 385,
      "�": 386,
      "🎹": 387,
      "🎼": 388,
      "👈": 389,
      "👉": 390,
      "👍": 391,
      "💐": 392,
      "📱": 393,
      "😋": 394,
      "##પ": 395,
      "##ે": 396,
      "##લ": 397,
      "##ા": 398,
      "##ળ": 399,
      "##સ": 400,
      "##ી": 401,
      "##મ": 402,
      "##ન": 403,
      "##્": 404,
      "##ર": 405,
      "##ક": 406,
      "##ુ": 407,
      "##ં": 408,
      "##1": 409,
      "##0": 410,
      "##ણ": 411,
      "##જ": 412,
      "##ટ": 413,
      "##ૂ": 414,
      "##ભ": 415,
      "##એ": 416,
      "##ધ": 417,
      "##થ": 418,
      "##િ": 419,
      "##ગ": 420,
      "##ઝ": 421,
      "##ડ": 422,
      "##ત": 423,
      "##ો": 424,
      "##ય": 425,
      "##ઇ": 426,
      "##વ": 427,
      "##c": 428,
      "##ૌ": 429,
      "##ઘ": 430,
      "##ૃ": 431,
      "##ખ": 432,
      "##ચ": 433,
      "##દ": 434,
      "##3": 435,
      "##8": 436,
      "##2": 437,
      "##ૉ": 438,
      "##ઠ": 439,
      "##બ": 440,
      "##b": 441,
      "##i": 442,
      "##ઉ": 443,
      "##શ": 444,
      "##હ": 445,
      "##૩": 446,
      "##૨": 447,
      "##૭": 448,
      "##ૈ": 449,
      "##ઃ": 450,
      "##ઓ": 451,
      "##r": 452,
      "##a": 453,
      "##k": 454,
      "##e": 455,
      "##s": 456,
      "##ષ": 457,
      "##૫": 458,
      "##ઈ": 459,
      "##;": 460,
      "##J": 461,
      "##P": 462,
      "##9": 463,
      "##૬": 464,
      "##ફ": 465,
      "##n": 466,
      "##h": 467,
      "##o": 468,
      "##t": 469,
      "##v": 470,
      "##6": 471,
      "##7": 472,
      "##D": 473,
      "##X": 474,
      "##O": 475,
      "##છ": 476,
      "##૯": 477,
      "##૮": 478,
      "##૦": 479,
      "##આ": 480,
      "##5": 481,
      "##ઢ": 482,
      "##અ": 483,
      "##૧": 484,
      "##g": 485,
      "##u": 486,
      "##C": 487,
      "##V": 488,
      "##I": 489,
      "##j": 490,
      "##ઞ": 491,
      "##f": 492,
      "##૪": 493,
      "##ं": 494,
      "##ग": 495,
      "##े": 496,
      "##E": 497,
      "##W": 498,
      "##m": 499,
      "##N": 500,
      "##G": 501,
      "##l": 502,
      "##d": 503,
      "##A": 504,
      "##S": 505,
      "##T": 506,
      "##M": 507,
      "##ૅ": 508,
      "##4": 509,
      "##y": 510,
      "##ઁ": 511,
      "##'": 512,
      "##w": 513,
      "##R": 514,
      "##઼": 515,
      "##K": 516,
      "##ń": 517,
      "##p": 518,
      "##U": 519,
      "##F": 520,
      "##B": 521,
      "##H": 522,
      "##L": 523,
      "##.": 524,
      "##(": 525,
      "##Y": 526,
      "##,": 527,
      "##[": 528,
      "##’": 529,
      "##ઐ": 530,
      "##z": 531,
      "##q": 532,
      "##™": 533,
      "##ઊ": 534,
      "##‘": 535,
      "##…": 536,
      "##ड": 537,
      "##्": 538,
      "##य": 539,
      "##ा": 540,
      "##)": 541,
      "##>": 542,
      "##!": 543,
      "##x": 544,
      "##ॅ": 545,
      "##ઙ": 546,
      "##।": 547,
      "##ઍ": 548,
      "##:": 549,
      "##?": 550,
      "##ઔ": 551,
      "##भ": 552,
      "##_": 553,
      "##ï": 554,
      "##र": 555,
      "##स": 556,
      "##व": 557,
      "##त": 558,
      "##ै": 559,
      "##\"": 560,
      "##Ú": 561,
      "##ઑ": 562,
      "##Ù": 563,
      "##”": 564,
      "###": 565,
      "##-": 566,
      "##न": 567,
      "##ृ": 568,
      "##Q": 569,
      "##ज": 570,
      "##ी": 571,
      "##ल": 572,
      "##प": 573,
      "##ए": 574,
      "##}": 575,
      "##ş": 576,
      "##घ": 577,
      "##ळ": 578,
      "##ु": 579,
      "##क": 580,
      "##ि": 581,
      "##ो": 582,
      "##ઋ": 583,
      "##०": 584,
      "##ह": 585,
      "##म": 586,
      "##+": 587,
      "##ट": 588,
      "##–": 589,
      "##<": 590,
      "##]": 591,
      "##{": 592,
      "##•": 593,
      "##у": 594,
      "##н": 595,
      "##к": 596,
      "##т": 597,
      "##ы": 598,
      "##Z": 599,
      "##द": 600,
      "##@": 601,
      "##�": 602,
      "##ﾠ": 603,
      "##√": 604,
      "##â": 605,
      "##í": 606,
      "##ष": 607,
      "##þ": 608,
      "##Î": 609,
      "##Ý": 610,
      "##ण": 611,
      "##*": 612,
      "##î": 613,
      "##ू": 614,
      "##झ": 615,
      "##ॉ": 616,
      "##é": 617,
      "##š": 618,
      "##ૢ": 619,
      "##थ": 620,
      "##$": 621,
      "##ε": 622,
      "##ρ": 623,
      "##ι": 624,
      "##φ": 625,
      "##ο": 626,
      "##α": 627,
      "##श": 628,
      "##च": 629,
      "##\\": 630,
      "##ः": 631,
      "##َ": 632,
      "##و": 633,
      "##ْ": 634,
      "##ل": 635,
      "##ة": 636,
      "##л": 637,
      "##ю": 638,
      "##ч": 639,
      "##а": 640,
      "##υ": 641,
      "##σ": 642,
      "##ί": 643,
      "##ν": 644,
      "##ë": 645,
      "##Â": 646,
      "##/": 647,
      "##‎": 648,
      "##|": 649,
      "##á": 650,
      "##ૐ": 651,
      "##ૠ": 652,
      "##º": 653,
      "##ँ": 654,
      "##“": 655,
      "##ૄ": 656,
      "##ò": 657,
      "##": 658,
      "##Ź": 659,
      "##ő": 660,
      "##Ì": 661,
      "##♲": 662,
      "##👈": 663,
      "##ī": 664,
      "##ध": 665,
      "##ó": 666,
      "##૤": 667,
      "##ç": 668,
      "##ı": 669,
      "##ख": 670,
      "##˜": 671,
      "##е": 672,
      "##б": 673,
      "##я": 674,
      "##💐": 675,
      "##‚": 676,
      "##ü": 677,
      "##छ": 678,
      "##❣": 679,
      "##ê": 680,
      "##¤": 681,
      "##ِ": 682,
      "##س": 683,
      "##ر": 684,
      "##ا": 685,
      "##ئ": 686,
      "##ي": 687,
      "##ब": 688,
      "##ோ": 689,
      "##ழ": 690,
      "##ர": 691,
      "##்": 692,
      "##👉": 693,
      "##č": 694,
      "##✓": 695,
      "##़": 696,
      "##ऊ": 697,
      "##ાં": 698,
      "##ાર": 699,
      "##્ય": 700,
      "##ને": 701,
      "##માં": 702,
      "##્ર": 703,
      "##ના": 704,
      "##વા": 705,
      "છે": 706,
      "##ની": 707,
      "##ું": 708,
      "કર": 709,
      "##ર્": 710,
      "તે": 711,
      "##તા": 712,
      "અને": 713,
      "##થી": 714,
      "કે": 715,
      "##્ટ": 716,
      "મા": 717,
      "##લા": 718,
      "##ામ": 719,
      "##નો": 720,
      "આવ": 721,
      "હત": 722,
      "પ્ર": 723,
      "##િક": 724,
      "##યા": 725,
      "પર": 726,
      "##ાવ": 727,
      "##્યા": 728,
      "##ાય": 729,
      "##હે": 730,
      "##ન્": 731,
      "##ટે": 732,
      "##રી": 733,
      "##સ્": 734,
      "વિ": 735,
      "##ક્": 736,
      "##લી": 737,
      "કો": 738,
      "##ાન": 739,
      "જે": 740,
      "##ાત": 741,
      "માટે": 742,
      "##કો": 743,
      "##ંગ": 744,
      "##ાજ": 745,
      "પણ": 746,
      "##શે": 747,
      "##વામાં": 748,
      "એક": 749,
      "##ારે": 750,
      "સા": 751,
      "##િત": 752,
      "કરી": 753,
      "##્વ": 754,
      "##નું": 755,
      "##લ્": 756,
      "##ેશ": 757,
      "##ારી": 758,
      "##્યો": 759,
      "હો": 760,
      "##્યું": 761,
      "જો": 762,
      "##રો": 763,
      "##િયા": 764,
      "##ાણ": 765,
      "##હી": 766,
      "##વી": 767,
      "##ંત": 768,
      "##મે": 769,
      "##ારા": 770,
      "પો": 771,
      "##કે": 772,
      "સમ": 773,
      "સ્": 774,
      "આપ": 775,
      "##ાલ": 776,
      "##િવ": 777,
      "##થે": 778,
      "મો": 779,
      "તેમ": 780,
      "સુ": 781,
      "##ાસ": 782,
      "સં": 783,
      "##ડી": 784,
      "સાથે": 785,
      "##તી": 786,
      "##ાગ": 787,
      "##લે": 788,
      "##ધી": 789,
      "##ાદ": 790,
      "##તિ": 791,
      "કાર": 792,
      "##રે": 793,
      "હતી": 794,
      "લો": 795,
      "##્રી": 796,
      "##યો": 797,
      "##ાઈ": 798,
      "##ાળ": 799,
      "##રા": 800,
      "બે": 801,
      "વધ": 802,
      "મુ": 803,
      "##ક્ષ": 804,
      "##ણે": 805,
      "##ટી": 806,
      "તો": 807,
      "તમ": 808,
      "##ાઇ": 809,
      "##કા": 810,
      "##કાર": 811,
      "##ત્": 812,
      "##જી": 813,
      "##્રે": 814,
      "##ડા": 815,
      "##ણી": 816,
      "##િય": 817,
      "##ંદ": 818,
      "કરવા": 819,
      "મે": 820,
      "##સ્ટ": 821,
      "મળ": 822,
      "##વે": 823,
      "રાજ": 824,
      "રહ": 825,
      "##રૂ": 826,
      "ઉપ": 827,
      "##ાખ": 828,
      "##કી": 829,
      "મહ": 830,
      "વર્": 831,
      "હતો": 832,
      "##ન્ટ": 833,
      "આવે": 834,
      "##ાર્": 835,
      "##્યારે": 836,
      "##તે": 837,
      "##સી": 838,
      "##દી": 839,
      "##લો": 840,
      "હતા": 841,
      "##િલ્": 842,
      "નથી": 843,
      "##સ્ત": 844,
      "આવી": 845,
      "##ંધ": 846,
      "સર": 847,
      "લોકો": 848,
      "રો": 849,
      "રહે": 850,
      "ગુ": 851,
      "કરવામાં": 852,
      "##્યુ": 853,
      "સામ": 854,
      "##મી": 855,
      "હતું": 856,
      "##સે": 857,
      "પા": 858,
      "##ત્ર": 859,
      "નિ": 860,
      "##તો": 861,
      "દ્વ": 862,
      "હોય": 863,
      "##ન્ડ": 864,
      "##ારો": 865,
      "અન": 866,
      "વર્ષ": 867,
      "##પી": 868,
      "##થા": 869,
      "##િટ": 870,
      "##દા": 871,
      "લે": 872,
      "##ંચ": 873,
      "##ેલ": 874,
      "દ્વારા": 875,
      "##ેટ": 876,
      "##િંગ": 877,
      "##વું": 878,
      "##મા": 879,
      "##જા": 880,
      "રી": 881,
      "ના": 882,
      "##દ્": 883,
      "##રમાં": 884,
      "નો": 885,
      "##તાં": 886,
      "ભાર": 887,
      "##મ્": 888,
      "જી": 889,
      "##વાની": 890,
      "અમ": 891,
      "વધુ": 892,
      "પોલી": 893,
      "સુધી": 894,
      "##્યાં": 895,
      "સે": 896,
      "##જે": 897,
      "##ાહ": 898,
      "માં": 899,
      "##ોલ": 900,
      "રૂ": 901,
      "##ાણી": 902,
      "યુ": 903,
      "##વિ": 904,
      "પોતા": 905,
      "થઈ": 906,
      "બી": 907,
      "##ોડ": 908,
      "દિવ": 909,
      "##ચ્": 910,
      "ની": 911,
      "જણ": 912,
      "##િં": 913,
      "વે": 914,
      "શકે": 915,
      "પૂ": 916,
      "##છી": 917,
      "સમય": 918,
      "##ંતુ": 919,
      "##વાર": 920,
      "કોઈ": 921,
      "દે": 922,
      "બના": 923,
      "સ્ટ": 924,
      "વ્ય": 925,
      "##ટા": 926,
      "##શન": 927,
      "સો": 928,
      "##રાત": 929,
      "દર": 930,
      "પડ": 931,
      "પરંતુ": 932,
      "##્સ": 933,
      "##હીં": 934,
      "##ન્સ": 935,
      "તમે": 936,
      "##ોર્": 937,
      "પહે": 938,
      "##ેલા": 939,
      "##િન": 940,
      "##ેર": 941,
      "કામ": 942,
      "##ષ્ટ": 943,
      "##શ્": 944,
      "##ક્ર": 945,
      "પુ": 946,
      "##ાવી": 947,
      "##ગી": 948,
      "##હો": 949,
      "રીતે": 950,
      "##રોના": 951,
      "રહી": 952,
      "##ચે": 953,
      "##બી": 954,
      "સ્થ": 955,
      "બાદ": 956,
      "શક": 957,
      "##ણા": 958,
      "કહ": 959,
      "રાખ": 960,
      "##ગર": 961,
      "કોરોના": 962,
      "##િલ": 963,
      "કરે": 964,
      "લી": 965,
      "##સા": 966,
      "તેના": 967,
      "##ધા": 968,
      "ને": 969,
      "##ન્દ": 970,
      "##વો": 971,
      "છો": 972,
      "##ુક": 973,
      "સી": 974,
      "પછી": 975,
      "યો": 976,
      "પોલીસ": 977,
      "##નમાં": 978,
      "પી": 979,
      "##પ્": 980,
      "જણાવ": 981,
      "##ર્ણ": 982,
      "##ુલ": 983,
      "ટી": 984,
      "દેશ": 985,
      "ત્યારે": 986,
      "##ળી": 987,
      "##ક્ટ": 988,
      "##હિત": 989,
      "##ંક": 990,
      "##રસ": 991,
      "મહિ": 992,
      "કહ્યું": 993,
      "જા": 994,
      "તેઓ": 995,
      "થાય": 996,
      "દિવસ": 997,
      "##માંથી": 998,
      "##બર": 999,
      "##પ્ર": 1000,
      "##ંડ": 1001,
      "લગ": 1002,
      "20": 1003,
      "##લાક": 1004,
      "કા": 1005,
      "ઉપર": 1006,
      "##ેડ": 1007,
      "##રણ": 1008,
      "પાસ": 1009,
      "સામે": 1010,
      "ગુજ": 1011,
      "રહ્યા": 1012,
      "સૌ": 1013,
      "કાર્ય": 1014,
      "આગ": 1015,
      "લાગ": 1016,
      "##નાં": 1017,
      "##્રા": 1018,
      "દી": 1019,
      "સિ": 1020,
      "##વાદ": 1021,
      "##ંપ": 1022,
      "##િસ્": 1023,
      "જ્યારે": 1024,
      "ભારત": 1025,
      "વાત": 1026,
      "કારણે": 1027,
      "ગુજરાત": 1028,
      "##ેશન": 1029,
      "કેટ": 1030,
      "##મો": 1031,
      "##દેશ": 1032,
      "હવે": 1033,
      "ટે": 1034,
      "ચૂ": 1035,
      "##સર": 1036,
      "##દ્ધ": 1037,
      "##ુર": 1038,
      "અથ": 1039,
      "##ક્સ": 1040,
      "તેની": 1041,
      "##હેર": 1042,
      "મળી": 1043,
      "##વાનો": 1044,
      "##ઓને": 1045,
      "સરકાર": 1046,
      "શરૂ": 1047,
      "ચો": 1048,
      "હા": 1049,
      "##્ષ": 1050,
      "તેને": 1051,
      "##જન": 1052,
      "##વાનું": 1053,
      "અધ": 1054,
      "બા": 1055,
      "નહીં": 1056,
      "અમે": 1057,
      "##ન્દ્ર": 1058,
      "##િકા": 1059,
      "કેસ": 1060,
      "##ષ્": 1061,
      "સ્વ": 1062,
      "##િસ": 1063,
      "બાળ": 1064,
      "અથવા": 1065,
      "પાસે": 1066,
      "##ંટ": 1067,
      "થય": 1068,
      "જરૂ": 1069,
      "##ોર": 1070,
      "##તર": 1071,
      "મી": 1072,
      "કર્યો": 1073,
      "આજે": 1074,
      "##ક્તિ": 1075,
      "##ર્સ": 1076,
      "##પૂ": 1077,
      "બનાવ": 1078,
      "રૂપ": 1079,
      "ગામ": 1080,
      "જાણ": 1081,
      "રા": 1082,
      "##ભાઈ": 1083,
      "##યોગ": 1084,
      "##માન": 1085,
      "જોઈ": 1086,
      "આપી": 1087,
      "હે": 1088,
      "પહો": 1089,
      "##હાર": 1090,
      "રાજ્ય": 1091,
      "ઉત્": 1092,
      "ફર": 1093,
      "##િલ્લા": 1094,
      "##ડો": 1095,
      "ભાગ": 1096,
      "વિસ્ત": 1097,
      "મૂ": 1098,
      "દરમ": 1099,
      "##ટના": 1100,
      "બો": 1101,
      "##ચાર": 1102,
      "##્રો": 1103,
      "##ંત્રી": 1104,
      "ત્ર": 1105,
      "જિલ્લા": 1106,
      "અભ": 1107,
      "કહે": 1108,
      "ધર": 1109,
      "##ળા": 1110,
      "દર્": 1111,
      "##િયાન": 1112,
      "લઈ": 1113,
      "તર": 1114,
      "આવ્યા": 1115,
      "##ાંત": 1116,
      "અનુ": 1117,
      "અંગ": 1118,
      "પે": 1119,
      "નામ": 1120,
      "##ટર": 1121,
      "મુખ": 1122,
      "##સ્પ": 1123,
      "તમારા": 1124,
      "ડિ": 1125,
      "તેમના": 1126,
      "વા": 1127,
      "##પાસ": 1128,
      "નોંધ": 1129,
      "આવ્યો": 1130,
      "##િમ": 1131,
      "દુ": 1132,
      "પહોંચ": 1133,
      "રે": 1134,
      "##ર્વ": 1135,
      "##ડે": 1136,
      "##ૃત": 1137,
      "##્રેસ": 1138,
      "##ભા": 1139,
      "કરતા": 1140,
      "જુ": 1141,
      "##ટો": 1142,
      "જેમાં": 1143,
      "આરો": 1144,
      "વી": 1145,
      "##ુમ": 1146,
      "પ્રમ": 1147,
      "તેમણે": 1148,
      "પાણી": 1149,
      "##જબ": 1150,
      "વિક": 1151,
      "તા": 1152,
      "હાલ": 1153,
      "ગ્ર": 1154,
      "જણાવ્યું": 1155,
      "ફિલ્": 1156,
      "અન્ય": 1157,
      "એટ": 1158,
      "થઇ": 1159,
      "પોતાના": 1160,
      "##ગ્ર": 1161,
      "##શી": 1162,
      "##ર્ચ": 1163,
      "તમામ": 1164,
      "##ંત્ર": 1165,
      "##િપ": 1166,
      "મુખ્ય": 1167,
      "ગો": 1168,
      "ખૂ": 1169,
      "##ાળા": 1170,
      "##00": 1171,
      "##વારે": 1172,
      "##ાલુ": 1173,
      "કરીને": 1174,
      "કારણ": 1175,
      "જવા": 1176,
      "##સો": 1177,
      "##રુ": 1178,
      "##ભાઇ": 1179,
      "##વન": 1180,
      "##ધાન": 1181,
      "ગયા": 1182,
      "તરી": 1183,
      "કરો": 1184,
      "તથા": 1185,
      "દરમિયાન": 1186,
      "##િતિ": 1187,
      "સૌથી": 1188,
      "તરીકે": 1189,
      "જોવા": 1190,
      "માર્": 1191,
      "##ાજપ": 1192,
      "##લમાં": 1193,
      "સુર": 1194,
      "કંપ": 1195,
      "##ાર્ટ": 1196,
      "##ૂર": 1197,
      "એમ": 1198,
      "હજ": 1199,
      "##ક્ત": 1200,
      "##શો": 1201,
      "##ક્ષા": 1202,
      "કંપની": 1203,
      "##સ્થ": 1204,
      "ખાત": 1205,
      "શો": 1206,
      "##વાય": 1207,
      "અપ": 1208,
      "##થમ": 1209,
      "##દે": 1210,
      "લાખ": 1211,
      "##િર": 1212,
      "વચ્": 1213,
      "માન": 1214,
      "અધિક": 1215,
      "ભાજપ": 1216,
      "વખ": 1217,
      "##ર્મ": 1218,
      "વચ્ચે": 1219,
      "કરોડ": 1220,
      "ખુ": 1221,
      "ઉપયોગ": 1222,
      "તેમજ": 1223,
      "સાં": 1224,
      "માત્ર": 1225,
      "ટકા": 1226,
      "ભાવ": 1227,
      "ક્ર": 1228,
      "##ત્વ": 1229,
      "રહ્યો": 1230,
      "##ાંચ": 1231,
      "આવશે": 1232,
      "અંગે": 1233,
      "ચે": 1234,
      "કોંગ": 1235,
      "પરિવ": 1236,
      "તરફ": 1237,
      "ખૂબ": 1238,
      "##બે": 1239,
      "મહિલા": 1240,
      "##કારી": 1241,
      "..": 1242,
      "##ભાગ": 1243,
      "હાથ": 1244,
      "પગ": 1245,
      "સાર": 1246,
      "##્યાર": 1247,
      "પહેલા": 1248,
      "##ર્થ": 1249,
      "##ોમાં": 1250,
      "અલ": 1251,
      "મેળ": 1252,
      "ફે": 1253,
      "આવ્યું": 1254,
      "ઓફ": 1255,
      "##ર્ટ": 1256,
      "સ્પ": 1257,
      "##બા": 1258,
      "થશે": 1259,
      "થયા": 1260,
      "ફો": 1261,
      "##નગર": 1262,
      "##ડિયા": 1263,
      "##ારીઓ": 1264,
      "તેમને": 1265,
      "જોઈએ": 1266,
      "ડો": 1267,
      "##દાર": 1268,
      "વ્યક્તિ": 1269,
      "##્મ": 1270,
      "##ગા": 1271,
      "##સાર": 1272,
      "##િશ": 1273,
      "ત્યાં": 1274,
      "##્લા": 1275,
      "##ખા": 1276,
      "ભૂ": 1277,
      "થયો": 1278,
      "લા": 1279,
      "બંધ": 1280,
      "##પર": 1281,
      "##લ્લા": 1282,
      "જાય": 1283,
      "રૂપિયા": 1284,
      "##લાં": 1285,
      "શું": 1286,
      "##ચી": 1287,
      "અમદા": 1288,
      "બની": 1289,
      "લોક": 1290,
      "ફિલ્મ": 1291,
      "##િંહ": 1292,
      "##બ્": 1293,
      "##વાના": 1294,
      "સહિત": 1295,
      "##બંધ": 1296,
      "તેમની": 1297,
      "##ેલી": 1298,
      "અમદાવાદ": 1299,
      "સર્": 1300,
      "બદ": 1301,
      "હું": 1302,
      "##ોર્ટ": 1303,
      "##જૂ": 1304,
      "##જો": 1305,
      "તૈ": 1306,
      "##મત": 1307,
      "##શ્વ": 1308,
      "વિસ્તાર": 1309,
      "##મ્પ": 1310,
      "અંત": 1311,
      "બેઠ": 1312,
      "વિશે": 1313,
      "બન": 1314,
      "##ચ્છ": 1315,
      "##નની": 1316,
      "ચી": 1317,
      "બહાર": 1318,
      "ડે": 1319,
      "##કરી": 1320,
      "પ્રો": 1321,
      "યોજ": 1322,
      "##સ્થા": 1323,
      "રોજ": 1324,
      "મોટા": 1325,
      "##ગ્ય": 1326,
      "કોંગ્રેસ": 1327,
      "આધ": 1328,
      "કર્યું": 1329,
      "##૦૦": 1330,
      "થી": 1331,
      "ચૂંટ": 1332,
      "તપાસ": 1333,
      "##નાર": 1334,
      "કર્યા": 1335,
      "મોદી": 1336,
      "કરવાની": 1337,
      "##િયો": 1338,
      "##પા": 1339,
      "##િતા": 1340,
      "##ાયો": 1341,
      "ત્રણ": 1342,
      "આપવામાં": 1343,
      "ઘટના": 1344,
      "ગાં": 1345,
      "ડી": 1346,
      "##નના": 1347,
      "સૂ": 1348,
      "તમને": 1349,
      "##મેન્ટ": 1350,
      "##િટી": 1351,
      "##ામી": 1352,
      "વાય": 1353,
      "વરસ": 1354,
      "તૈય": 1355,
      "નવા": 1356,
      "પ્રતિ": 1357,
      "દિલ્": 1358,
      "##એસ": 1359,
      "જરૂર": 1360,
      "##રેક": 1361,
      "પોતાની": 1362,
      "##વાસ": 1363,
      "ચૂંટણી": 1364,
      "અત": 1365,
      "##ંભ": 1366,
      "કમ": 1367,
      "##ધો": 1368,
      "##રની": 1369,
      "##સ્પિટ": 1370,
      "બં": 1371,
      "##ક્રમ": 1372,
      "##વાથી": 1373,
      "ભારતી": 1374,
      "##ષ્ટ્ર": 1375,
      "ભર": 1376,
      "##ટેલ": 1377,
      "ખા": 1378,
      "દિલ્હી": 1379,
      "મુજબ": 1380,
      "સફ": 1381,
      "ગઈ": 1382,
      "કેટલાક": 1383,
      "નિય": 1384,
      "પરિ": 1385,
      "##ાન્ય": 1386,
      "ફરી": 1387,
      "મદ": 1388,
      "ટીમ": 1389,
      "##દો": 1390,
      "હોસ્પિટ": 1391,
      "##પો": 1392,
      "ખાતે": 1393,
      "##ઓની": 1394,
      "##િક્ષ": 1395,
      "પ્રે": 1396,
      "પ્રા": 1397,
      "વિદ": 1398,
      "રહ્યું": 1399,
      "##ાવે": 1400,
      "##રના": 1401,
      "પ્રથમ": 1402,
      "રહેશે": 1403,
      "નવી": 1404,
      "ખેડ": 1405,
      "##ખ્યા": 1406,
      "##મંત્રી": 1407,
      "##તું": 1408,
      "જૂ": 1409,
      "##લું": 1410,
      "દરેક": 1411,
      "શકો": 1412,
      "##વાન": 1413,
      "સહ": 1414,
      "માંગ": 1415,
      "##્યૂ": 1416,
      "જેમ": 1417,
      "પાક": 1418,
      "રાજકો": 1419,
      "ગયો": 1420,
      "##પણ": 1421,
      "રાહ": 1422,
      "શકાય": 1423,
      "જગ": 1424,
      "અલગ": 1425,
      "...": 1426,
      "વરસાદ": 1427,
      "પરિવાર": 1428,
      "##નિ": 1429,
      "બંને": 1430,
      "દર્દી": 1431,
      "મદદ": 1432,
      "ગાંધી": 1433,
      "ઝડ": 1434,
      "પ્રમાણ": 1435,
      "કુલ": 1436,
      "##ાર્થી": 1437,
      "##ુંબ": 1438,
      "##ત્રી": 1439,
      "તમારી": 1440,
      "##કર": 1441,
      "ટ્ર": 1442,
      "માર": 1443,
      "શુ": 1444,
      "કરશે": 1445,
      "##દર્": 1446,
      "ઘણા": 1447,
      "##જય": 1448,
      "ખો": 1449,
      "10": 1450,
      "અહીં": 1451,
      "ચાલ": 1452,
      "પોલીસે": 1453,
      "વ્યવ": 1454,
      "##કડ": 1455,
      "પાછ": 1456,
      "સામાન્ય": 1457,
      "##દર": 1458,
      "બાળકો": 1459,
      "લોકોને": 1460,
      "ખાસ": 1461,
      "##ુખ": 1462,
      "મોત": 1463,
      "લઇ": 1464,
      "##્લે": 1465,
      "ગણ": 1466,
      "૨૦": 1467,
      "આર": 1468,
      "નિર્ણ": 1469,
      "##્લ": 1470,
      "ભારતીય": 1471,
      "મહે": 1472,
      "રિ": 1473,
      "##ામાં": 1474,
      "##રિક": 1475,
      "કરતાં": 1476,
      "##ીએ": 1477,
      "જય": 1478,
      "કિ": 1479,
      "એટલે": 1480,
      "##પૂર્ણ": 1481,
      "##ઓમાં": 1482,
      "##તમાં": 1483,
      "કોઇ": 1484,
      "મંદ": 1485,
      "ક્ષ": 1486,
      "##વર": 1487,
      "જાહેર": 1488,
      "##ટક": 1489,
      "ધ્યા": 1490,
      "##પુર": 1491,
      "##ભાવ": 1492,
      "##ોની": 1493,
      "201": 1494,
      "એસ": 1495,
      "ઉપરાંત": 1496,
      "ખે": 1497,
      "સત": 1498,
      "પ્રકાર": 1499,
      "તાલુ": 1500,
      "##્ન": 1501,
      "રાજકોટ": 1502,
      "##સ્તા": 1503,
      "વધારે": 1504,
      "ગય": 1505,
      "##ક્ષણ": 1506,
      "અર": 1507,
      "##કલ": 1508,
      "બાબ": 1509,
      "અનેક": 1510,
      "##િસ્તા": 1511,
      "##િયલ": 1512,
      "તાલુકા": 1513,
      "##ોને": 1514,
      "ઉમે": 1515,
      "ખેડૂ": 1516,
      "##ોર્ડ": 1517,
      "##વણી": 1518,
      "મૃત": 1519,
      "મામ": 1520,
      "જવાબ": 1521,
      "##દાન": 1522,
      "##વિધ": 1523,
      "##એમ": 1524,
      "##ગત": 1525,
      "શ્રી": 1526,
      "##નુ": 1527,
      "ટ્રે": 1528,
      "##જ્": 1529,
      "મળે": 1530,
      "લખ": 1531,
      "બજ": 1532,
      "##િને": 1533,
      "પટેલ": 1534,
      "શા": 1535,
      "##સંદ": 1536,
      "##શા": 1537,
      "ચા": 1538,
      "બીજી": 1539,
      "અસર": 1540,
      "શહેર": 1541,
      "વિભાગ": 1542,
      "વિદ્ય": 1543,
      "સમયે": 1544,
      "ખરી": 1545,
      "માહિત": 1546,
      "આવેલા": 1547,
      "મોટી": 1548,
      "સારવાર": 1549,
      "આમ": 1550,
      "દૂર": 1551,
      "##પુ": 1552,
      "##પ્ત": 1553,
      "નિર્ણય": 1554,
      "દો": 1555,
      "ઘણી": 1556,
      "##ગે": 1557,
      "જેટ": 1558,
      "સ્વા": 1559,
      "શિક્ષ": 1560,
      "##કમાં": 1561,
      "##યુ": 1562,
      "19": 1563,
      "##ીર": 1564,
      "તેણે": 1565,
      "જેના": 1566,
      "માહિતી": 1567,
      "અંદ": 1568,
      "લઈને": 1569,
      "##લ્ડ": 1570,
      "તેમાં": 1571,
      "કેન્દ્ર": 1572,
      "વિદ્યાર્થી": 1573,
      "મહિના": 1574,
      "##રને": 1575,
      "પાંચ": 1576,
      "##નિક": 1577,
      "મારી": 1578,
      "પસંદ": 1579,
      "જરૂરી": 1580,
      "કુ": 1581,
      "સ્થિતિ": 1582,
      "જોકે": 1583,
      "##કારે": 1584,
      "બીજા": 1585,
      "ઓછ": 1586,
      "શહે": 1587,
      "રોક": 1588,
      "જેથી": 1589,
      "કોર્": 1590,
      "કપ": 1591,
      "રાત": 1592,
      "થયું": 1593,
      "બોલ": 1594,
      "આજ": 1595,
      "##ૂટ": 1596,
      "##ઓના": 1597,
      "##િયન": 1598,
      "નેતા": 1599,
      "પૈ": 1600,
      "જીવન": 1601,
      "પડી": 1602,
      "પ્રવ": 1603,
      "પાર્ટ": 1604,
      "મહત્વ": 1605,
      "યુવ": 1606,
      "ખાન": 1607,
      "છેલ્લા": 1608,
      "ચાર": 1609,
      "##ધ્ય": 1610,
      "##સ્ક": 1611,
      "##ળતા": 1612,
      "આગળ": 1613,
      "હશે": 1614,
      "##ંબ": 1615,
      "તૈયાર": 1616,
      "સંખ્યા": 1617,
      "કાય": 1618,
      "વિવિધ": 1619,
      "##ાવવા": 1620,
      "પેટ": 1621,
      "##્રીય": 1622,
      "ફરિયા": 1623,
      "સ્થાન": 1624,
      "માતા": 1625,
      "##આત": 1626,
      "બધા": 1627,
      "##ર્ડ": 1628,
      "બિ": 1629,
      "મુંબ": 1630,
      "ટો": 1631,
      "તેથી": 1632,
      "થો": 1633,
      "##ડિયો": 1634,
      "ત્યાર": 1635,
      "##ચના": 1636,
      "##ચર": 1637,
      "રોડ": 1638,
      "હજાર": 1639,
      "##વાહી": 1640,
      "મને": 1641,
      "હિ": 1642,
      "વધી": 1643,
      "##ંમ": 1644,
      "આરોપી": 1645,
      "વાર": 1646,
      "##ઓએ": 1647,
      "જગ્યા": 1648,
      "દિવસે": 1649,
      "મત": 1650,
      "##સભા": 1651,
      "લેવા": 1652,
      "સ્થળ": 1653,
      "જીવ": 1654,
      "રમ": 1655,
      "છતાં": 1656,
      "##ાજી": 1657,
      "##વાલ": 1658,
      "સ્ક": 1659,
      "વિશ્વ": 1660,
      "##સાય": 1661,
      "##સ્તુ": 1662,
      "##બાદ": 1663,
      "##બો": 1664,
      "##મ્બર": 1665,
      "##ાણા": 1666,
      "પાકિસ્તા": 1667,
      "વડા": 1668,
      "##ચા": 1669,
      "લાભ": 1670,
      "કલાક": 1671,
      "ચર્ચ": 1672,
      "યાદ": 1673,
      "##ાવો": 1674,
      "##ષ્ઠ": 1675,
      "વિસ્તારમાં": 1676,
      "આવતા": 1677,
      "##પાલ": 1678,
      "કર્મ": 1679,
      "સમગ્ર": 1680,
      "છીએ": 1681,
      "વર્ષે": 1682,
      "##તુ": 1683,
      "જન": 1684,
      "મળશે": 1685,
      "##ેદ": 1686,
      "##નને": 1687,
      "બચ": 1688,
      "પડે": 1689,
      "ઉત્પ": 1690,
      "સરકારે": 1691,
      "વખત": 1692,
      "##પે": 1693,
      "##લાઈ": 1694,
      "જ્યાં": 1695,
      "તેનો": 1696,
      "##ીને": 1697,
      "બ્ર": 1698,
      "દેખ": 1699,
      "સમા": 1700,
      "##ગીરી": 1701,
      "ગે": 1702,
      "##ત્તા": 1703,
      "મીડિયા": 1704,
      "હતાં": 1705,
      "સતત": 1706,
      "##તમ": 1707,
      "##ાયા": 1708,
      "##ર્ષ": 1709,
      "યોજના": 1710,
      "##નીય": 1711,
      "ઘટા": 1712,
      "ફાય": 1713,
      "આવેલ": 1714,
      "##મમાં": 1715,
      "રંગ": 1716,
      "સંબંધ": 1717,
      "હેઠ": 1718,
      "##ફે": 1719,
      "નં": 1720,
      "પંચ": 1721,
      "આપે": 1722,
      "એવી": 1723,
      "તેવી": 1724,
      "ખેડૂતો": 1725,
      "##લના": 1726,
      "હોવાનું": 1727,
      "હેઠળ": 1728,
      "નજી": 1729,
      "ઘરે": 1730,
      "જાત": 1731,
      "હર": 1732,
      "##ાયેલા": 1733,
      "અનુસાર": 1734,
      "મુખ્યમંત્રી": 1735,
      "અવ": 1736,
      "ગર": 1737,
      "##ંકા": 1738,
      "##બેન": 1739,
      "આઈ": 1740,
      "પડશે": 1741,
      "ધો": 1742,
      "દિ": 1743,
      "##સ્યા": 1744,
      "##ૂત": 1745,
      "બનાવી": 1746,
      "##રલ": 1747,
      "ભારે": 1748,
      "કર્મચ": 1749,
      "મુદ્": 1750,
      "વધારો": 1751,
      "પરી": 1752,
      "લાં": 1753,
      "##વવા": 1754,
      "##લ્લે": 1755,
      "##સિંહ": 1756,
      "##કીય": 1757,
      "##પ્ટ": 1758,
      "નવ": 1759,
      "##્લો": 1760,
      "પૂર્વ": 1761,
      "મોર": 1762,
      "લગ્ન": 1763,
      "ફરિયાદ": 1764,
      "##ધું": 1765,
      "યોગ્ય": 1766,
      "વૃ": 1767,
      "કેવી": 1768,
      "સેવા": 1769,
      "##લ્સ": 1770,
      "##નારા": 1771,
      "આવા": 1772,
      "જાહે": 1773,
      "છું": 1774,
      "જન્": 1775,
      "બને": 1776,
      "પહેલાં": 1777,
      "શરી": 1778,
      "પ્રમુખ": 1779,
      "કાર્યવાહી": 1780,
      "રજૂ": 1781,
      "વખતે": 1782,
      "વિકાસ": 1783,
      "પરિણ": 1784,
      "##કેટ": 1785,
      "સારી": 1786,
      "##નિયા": 1787,
      "પક્ષ": 1788,
      "વાહ": 1789,
      "મંત્રી": 1790,
      "એન": 1791,
      "મેચ": 1792,
      "એવું": 1793,
      "##ીના": 1794,
      "##બલ": 1795,
      "માલ": 1796,
      "સમસ્યા": 1797,
      "##કાલ": 1798,
      "##તન": 1799,
      "મારા": 1800,
      "વો": 1801,
      "સંગ": 1802,
      "##ાળી": 1803,
      "ચૂક": 1804,
      "ભા": 1805,
      "##કરણ": 1806,
      "##રેન્દ્ર": 1807,
      "##શિ": 1808,
      "અધિકારી": 1809,
      "15": 1810,
      "પહોંચી": 1811,
      "##શ્કે": 1812,
      "12": 1813,
      "##કની": 1814,
      "##જ્ઞ": 1815,
      "વિરો": 1816,
      "આપણે": 1817,
      "વીડિયો": 1818,
      "કામગીરી": 1819,
      "ભો": 1820,
      "રોગ": 1821,
      "##્યે": 1822,
      "પિતા": 1823,
      "શે": 1824,
      "પત્": 1825,
      "૧૦": 1826,
      "પાડ": 1827,
      "##દરા": 1828,
      "બુ": 1829,
      "##ક્ટર": 1830,
      "નાખ": 1831,
      "પ્લા": 1832,
      "આયો": 1833,
      "વાગ": 1834,
      "##િસ્ટ": 1835,
      "જોડ": 1836,
      "જેવા": 1837,
      "##કના": 1838,
      "ચાલી": 1839,
      "ઇન્": 1840,
      "પ્રસ": 1841,
      "પાલ": 1842,
      "સોશ": 1843,
      "##રિકા": 1844,
      "દેશમાં": 1845,
      "શાળા": 1846,
      "ઉત્પાદ": 1847,
      "મં": 1848,
      "હુમ": 1849,
      "વ્યા": 1850,
      "એવા": 1851,
      "પ્રયા": 1852,
      "##ખી": 1853,
      "સ્થા": 1854,
      "અમેરિકા": 1855,
      "એર": 1856,
      "##ાનું": 1857,
      "વેચ": 1858,
      "રિપ": 1859,
      "##ફો": 1860,
      "એલ": 1861,
      "નિવ": 1862,
      "##જુ": 1863,
      "ચાલુ": 1864,
      "સંપ": 1865,
      "શેર": 1866,
      "##ભગ": 1867,
      "સમાજ": 1868,
      "##િત્ર": 1869,
      "ટેસ્ટ": 1870,
      "કિં": 1871,
      "##હિ": 1872,
      "સંપૂર્ણ": 1873,
      "પરિણામ": 1874,
      "મંદિર": 1875,
      "##નિવ": 1876,
      "હાજ": 1877,
      "##ાઉ": 1878,
      "##કસ": 1879,
      "પ્રત": 1880,
      "##લાઇ": 1881,
      "વેપ": 1882,
      "##જર": 1883,
      "લગભગ": 1884,
      "મિ": 1885,
      "માર્ગ": 1886,
      "સુરત": 1887,
      "ખર્ચ": 1888,
      "વિચાર": 1889,
      "##ાવતા": 1890,
      "જોઇ": 1891,
      "શક્ય": 1892,
      "પાછળ": 1893,
      "આઇ": 1894,
      "##લ્પ": 1895,
      "જેને": 1896,
      "##કમ": 1897,
      "##ર્ક": 1898,
      "##કળ": 1899,
      "જેવી": 1900,
      "જમી": 1901,
      "સભ": 1902,
      "અગા": 1903,
      "##ૂલ": 1904,
      "પ્રદેશ": 1905,
      "થતા": 1906,
      "દાખ": 1907,
      "ઇન્ડ": 1908,
      "##ખો": 1909,
      "##ાજુ": 1910,
      "રામ": 1911,
      "આગામી": 1912,
      "નુક": 1913,
      "કેમ": 1914,
      "જઈ": 1915,
      "અગાઉ": 1916,
      "જિલ્લામાં": 1917,
      "બાં": 1918,
      "પત્ની": 1919,
      "કલ": 1920,
      "વસ્તુ": 1921,
      "મુંબઈ": 1922,
      "જશે": 1923,
      "જાહેરાત": 1924,
      "આરોગ્ય": 1925,
      "મુશ્કે": 1926,
      "##ભવ": 1927,
      "##ળો": 1928,
      "##વાસી": 1929,
      "ગ્રામ": 1930,
      "ગુજરાતમાં": 1931,
      "નીચે": 1932,
      "કં": 1933,
      "##આઈ": 1934,
      "વિજય": 1935,
      "##ચ્ચ": 1936,
      "વાયરસ": 1937,
      "બહ": 1938,
      "હજુ": 1939,
      "##ઠા": 1940,
      "કલા": 1941,
      "શ્રે": 1942,
      "##કાશ": 1943,
      "ક્યારે": 1944,
      "જાણી": 1945,
      "આપવા": 1946,
      "##ગ્રી": 1947,
      "સવારે": 1948,
      "સ્મ": 1949,
      "નાગ": 1950,
      "ઉલ્લે": 1951,
      "આધાર": 1952,
      "##મણ": 1953,
      "##ટ્સ": 1954,
      "આસ": 1955,
      "ઘર": 1956,
      "મન": 1957,
      "પ્રેમ": 1958,
      "હાલમાં": 1959,
      "ઉલ્લેખ": 1960,
      "ઉદ": 1961,
      "ડ્ર": 1962,
      "નાના": 1963,
      "ક્ષે": 1964,
      "૧૯": 1965,
      "હોવાથી": 1966,
      "આં": 1967,
      "##બ્ર": 1968,
      "ગંભ": 1969,
      "કરવાનો": 1970,
      "પાસેથી": 1971,
      "લાગે": 1972,
      "ધ્યાન": 1973,
      "બેઠક": 1974,
      "કાર્": 1975,
      "જન્મ": 1976,
      "સિંહ": 1977,
      "##શ્ચ": 1978,
      "##્યાસ": 1979,
      "પ્રમાણે": 1980,
      "##િકેટ": 1981,
      "##ક્રિયા": 1982,
      "રાજ્યમાં": 1983,
      "##લાકાત": 1984,
      "અત્યાર": 1985,
      "##ન્સી": 1986,
      "કાઢ": 1987,
      "##ાત્ર": 1988,
      "##ાઇન": 1989,
      "##ત્રો": 1990,
      "##ત્તિ": 1991,
      "##ાવવામાં": 1992,
      "સલા": 1993,
      "11": 1994,
      "મુલાકાત": 1995,
      "##કત": 1996,
      "##સભ": 1997,
      "##્રોલ": 1998,
      "ધારા": 1999,
      "ચર્ચા": 2000,
      "ટ્રા": 2001,
      "વૈ": 2002,
      "આશ": 2003,
      "##પતિ": 2004,
      "રિપોર્ટ": 2005,
      "ગંભીર": 2006,
      "##ડાઉ": 2007,
      "કેટલી": 2008,
      "##ત્મ": 2009,
      "ઉમેદ": 2010,
      "કાર્યક્રમ": 2011,
      "##ાડ": 2012,
      "ઓળ": 2013,
      "રહ્યાં": 2014,
      "નક્": 2015,
      "##ફી": 2016,
      "સોશિયલ": 2017,
      "##તાવ": 2018,
      "કોર્ટ": 2019,
      "અસ": 2020,
      "રહેતા": 2021,
      "કૃ": 2022,
      "હતુ": 2023,
      "##જનો": 2024,
      "##ુપ": 2025,
      "સરકારી": 2026,
      "##દર્શન": 2027,
      "ભારતમાં": 2028,
      "ઉઠ": 2029,
      "રહેલા": 2030,
      "સમાવ": 2031,
      "##ધન": 2032,
      "##ાજે": 2033,
      "લીધો": 2034,
      "##ંકી": 2035,
      "જામ": 2036,
      "રસી": 2037,
      "##મ્બ": 2038,
      "##આરી": 2039,
      "સોમ": 2040,
      "વિદેશ": 2041,
      "##વાળા": 2042,
      "##પ્રધાન": 2043,
      "અધિકારીઓ": 2044,
      "##ડીને": 2045,
      "દવા": 2046,
      "કરવું": 2047,
      "અર્થ": 2048,
      "##ણો": 2049,
      "##ગઢ": 2050,
      "એક્ટ": 2051,
      "કહી": 2052,
      "##સાન": 2053,
      "પતિ": 2054,
      "##ંઘ": 2055,
      "મૃત્યુ": 2056,
      "આત": 2057,
      "નિર્": 2058,
      "##પોર્ટ": 2059,
      "પં": 2060,
      "##લાવ": 2061,
      "##ંધી": 2062,
      "##લાય": 2063,
      "કરવો": 2064,
      "##નર": 2065,
      "પ્રશ્": 2066,
      "##િકો": 2067,
      "ગયું": 2068,
      "નંબર": 2069,
      "##િકલ": 2070,
      "##કારો": 2071,
      "મામલે": 2072,
      "મધ્ય": 2073,
      "##ધાર": 2074,
      "##વાઈ": 2075,
      "ધી": 2076,
      "##કને": 2077,
      "પાર": 2078,
      "આદ": 2079,
      "ટ્વ": 2080,
      "કરવાનું": 2081,
      "વસ": 2082,
      "પોઝ": 2083,
      "ઉત્તર": 2084,
      "વર્ષની": 2085,
      "##ષ્ટ્રીય": 2086,
      "તંત્ર": 2087,
      "##મિ": 2088,
      "શહેરમાં": 2089,
      "##નાથ": 2090,
      "##ષ્ણ": 2091,
      "##દારો": 2092,
      "૨૦૧": 2093,
      "##ન્ટર": 2094,
      "સમજ": 2095,
      "દીધી": 2096,
      "રાષ્ટ્ર": 2097,
      "ઝડપ": 2098,
      "##ક્શન": 2099,
      "લેવામાં": 2100,
      "અર્": 2101,
      "##ાર્થ": 2102,
      "##ુમાર": 2103,
      "માણ": 2104,
      "પાર્ટી": 2105,
      "શી": 2106,
      "પ્રક્રિયા": 2107,
      "સુધીમાં": 2108,
      "મોરબી": 2109,
      "વિરોધ": 2110,
      "નજીક": 2111,
      "થોડા": 2112,
      "આપ્યો": 2113,
      "તેનું": 2114,
      "શાહ": 2115,
      "અભ્યાસ": 2116,
      "નક્કી": 2117,
      "આયોજન": 2118,
      "ફેર": 2119,
      "ગી": 2120,
      "##ડોદરા": 2121,
      "પ્રયાસ": 2122,
      "મેળવી": 2123,
      "થતાં": 2124,
      "હાઈ": 2125,
      "મુક": 2126,
      "લીધી": 2127,
      "તમારે": 2128,
      "##ાવ્યો": 2129,
      "હોસ્પિટલમાં": 2130,
      "##કલી": 2131,
      "##લની": 2132,
      "##ાયત": 2133,
      "સમાવેશ": 2134,
      "સમયમાં": 2135,
      "30": 2136,
      "પ્રધાન": 2137,
      "આંત": 2138,
      "##ૃતિ": 2139,
      "વિસ્તારો": 2140,
      "દાખલ": 2141,
      "અરજી": 2142,
      "##કટ": 2143,
      "##ગ્": 2144,
      "પૂર્ણ": 2145,
      "##વુ": 2146,
      "##દારી": 2147,
      "રસ": 2148,
      "કિંમત": 2149,
      "પૂર": 2150,
      "નરેન્દ્ર": 2151,
      "વગર": 2152,
      "રેલ": 2153,
      "અક": 2154,
      "##લિ": 2155,
      "દૂ": 2156,
      "મજબ": 2157,
      "દર્શ": 2158,
      "##ષણ": 2159,
      "ક્રિકેટ": 2160,
      "મંગ": 2161,
      "##ભી": 2162,
      "##ચાલ": 2163,
      "જતા": 2164,
      "##ારૂ": 2165,
      "વડોદરા": 2166,
      "##પકડ": 2167,
      "શોધ": 2168,
      "એજ": 2169,
      "##ટ્ટ": 2170,
      "##િયમ": 2171,
      "નોકરી": 2172,
      "શિક્ષણ": 2173,
      "જીત": 2174,
      "##જૂરી": 2175,
      "પત્ર": 2176,
      "##મુ": 2177,
      "સંસ્થા": 2178,
      "ધારાસભ": 2179,
      "વન": 2180,
      "##ફ્ટ": 2181,
      "દુનિયા": 2182,
      "ધરપકડ": 2183,
      "##સ્મ": 2184,
      "બસ": 2185,
      "202": 2186,
      "##નંદ": 2187,
      "તરફથી": 2188,
      "અટક": 2189,
      "##ાયું": 2190,
      "કરવી": 2191,
      "શિ": 2192,
      "##મર": 2193,
      "શર": 2194,
      "પોસ્ટ": 2195,
      "બેન્": 2196,
      "લોકોએ": 2197,
      "સ્થાનિક": 2198,
      "આંક": 2199,
      "છોડ": 2200,
      "જાન": 2201,
      "પૈસા": 2202,
      "ઝડપી": 2203,
      "થવા": 2204,
      "##નલ": 2205,
      "શ્ર": 2206,
      "હોવા": 2207,
      "ઉજ": 2208,
      "લાગી": 2209,
      "##ાયેલ": 2210,
      "##ાઇલ": 2211,
      "ત્યારબાદ": 2212,
      "બેંક": 2213,
      "પુર": 2214,
      "અંદર": 2215,
      "સું": 2216,
      "ક્લ": 2217,
      "રોકાણ": 2218,
      "##ગાર": 2219,
      "નહો": 2220,
      "##ાડી": 2221,
      "ફી": 2222,
      "##ાની": 2223,
      "##ડવા": 2224,
      "બનાવવા": 2225,
      "હોઈ": 2226,
      "હત્યા": 2227,
      "##િઝ": 2228,
      "સંક્રમ": 2229,
      "ગત": 2230,
      "વહે": 2231,
      "સ્ટે": 2232,
      "##્યક્ષ": 2233,
      "##િયર": 2234,
      "##સદ": 2235,
      "##આઇ": 2236,
      "રન": 2237,
      "##ટલ": 2238,
      "ફેલા": 2239,
      "બાજુ": 2240,
      "##્યોગ": 2241,
      "##ૂડ": 2242,
      "##આર": 2243,
      "##ાળો": 2244,
      "##વિડ": 2245,
      "પ્રાપ્ત": 2246,
      "ઈન્ડ": 2247,
      "##ન્ન": 2248,
      "તબ": 2249,
      "લઇને": 2250,
      "##કોને": 2251,
      "ખુબ": 2252,
      "ભી": 2253,
      "પરથી": 2254,
      "મહામ": 2255,
      "પૂછ": 2256,
      "ઓળખ": 2257,
      "##ar": 2258,
      "નગર": 2259,
      "સારા": 2260,
      "રાખી": 2261,
      "સર્જ": 2262,
      "વ્યવસ્થા": 2263,
      "મિન": 2264,
      "સ્પષ્ટ": 2265,
      "પદ": 2266,
      "વિરુ": 2267,
      "##શ્ય": 2268,
      "કોઈપણ": 2269,
      "સિવાય": 2270,
      "દેશના": 2271,
      "##ાત્": 2272,
      "વડાપ્રધાન": 2273,
      "##તરી": 2274,
      "##ાંડ": 2275,
      "શરૂઆત": 2276,
      "##પણે": 2277,
      "##શુ": 2278,
      "##ધિ": 2279,
      "##પ્તા": 2280,
      "કિસ્": 2281,
      "બોર્ડ": 2282,
      "##થ્": 2283,
      "સુરક્ષા": 2284,
      "પગલે": 2285,
      "##રાશ": 2286,
      "સાત": 2287,
      "ફરજ": 2288,
      "લીધ": 2289,
      "મોબ": 2290,
      "બાકી": 2291,
      "18": 2292,
      "ટૂ": 2293,
      "##ળે": 2294,
      "જણાવી": 2295,
      "##ઓનો": 2296,
      "##મતા": 2297,
      "આવેલી": 2298,
      "શખ": 2299,
      "##કડી": 2300,
      "લાંબા": 2301,
      "હાઇ": 2302,
      "કરતી": 2303,
      "દેવ": 2304,
      "દેવામાં": 2305,
      "કોરોનાના": 2306,
      "##ઠી": 2307,
      "ગઇ": 2308,
      "ઘરમાં": 2309,
      "##ન્જ": 2310,
      "મેડ": 2311,
      "200": 2312,
      "14": 2313,
      "રકમ": 2314,
      "##િશન": 2315,
      "ખરીદી": 2316,
      "ખરા": 2317,
      "ત્રી": 2318,
      "##ત્સ": 2319,
      "નિયમ": 2320,
      "પરિસ્": 2321,
      "##વિધા": 2322,
      "ગ્રાહ": 2323,
      "આર્થ": 2324,
      "ઓછી": 2325,
      "સત્તા": 2326,
      "વિના": 2327,
      "ફોન": 2328,
      "##ર્ન": 2329,
      "બજાર": 2330,
      "પરિસ્થ": 2331,
      "મેં": 2332,
      "##માર": 2333,
      "કી": 2334,
      "પ્લે": 2335,
      "અભિને": 2336,
      "મૂક": 2337,
      "જાણવા": 2338,
      "##ગેરે": 2339,
      "અડ": 2340,
      "##વાળી": 2341,
      "દબ": 2342,
      "રસ્તા": 2343,
      "##ંમેશ": 2344,
      "ચુક": 2345,
      "આધારે": 2346,
      "સમાચાર": 2347,
      "લોકોના": 2348,
      "ચિં": 2349,
      "માગ": 2350,
      "હોવાની": 2351,
      "મર": 2352,
      "વાંચ": 2353,
      "જમીન": 2354,
      "ભાજપના": 2355,
      "25": 2356,
      "હંમેશ": 2357,
      "પસાર": 2358,
      "સરળ": 2359,
      "ક્ષેત્ર": 2360,
      "સુંદર": 2361,
      "ચિંતા": 2362,
      "આનંદ": 2363,
      "આવતી": 2364,
      "પ્રવેશ": 2365,
      "ભે": 2366,
      "મહાન": 2367,
      "નહિ": 2368,
      "##ોર્મ": 2369,
      "13": 2370,
      "આદેશ": 2371,
      "મોટો": 2372,
      "રાહુલ": 2373,
      "##મિક": 2374,
      "##શું": 2375,
      "50": 2376,
      "સાવ": 2377,
      "પરીક્ષા": 2378,
      "સ્ત્રી": 2379,
      "##રૂપ": 2380,
      "સુવિધા": 2381,
      "૧૫": 2382,
      "લોકોની": 2383,
      "વિધાન": 2384,
      "આક": 2385,
      "આર્થિક": 2386,
      "ગેર": 2387,
      "##્રીમ": 2388,
      "શિવ": 2389,
      "લાલ": 2390,
      "ચોક્": 2391,
      "કાયદા": 2392,
      "એપ": 2393,
      "##બુ": 2394,
      "નિવેદ": 2395,
      "##ાવ્યા": 2396,
      "વિચ": 2397,
      "અધ્યક્ષ": 2398,
      "લોકડાઉ": 2399,
      "યુવતી": 2400,
      "નિક": 2401,
      "##સમાં": 2402,
      "વર": 2403,
      "કોલે": 2404,
      "##કર્": 2405,
      "##ષ્ય": 2406,
      "##ાયક": 2407,
      "##રોજ": 2408,
      "પરિસ્થિતિ": 2409,
      "##થો": 2410,
      "નુકસાન": 2411,
      "##ીય": 2412,
      "જિલ્લાના": 2413,
      "ગામમાં": 2414,
      "##સિક": 2415,
      "જોઇએ": 2416,
      "મોડ": 2417,
      "##વાદી": 2418,
      "##ધ્": 2419,
      "##શાન": 2420,
      "રાશિ": 2421,
      "##ાયેલી": 2422,
      "વિરુદ્ધ": 2423,
      "૧૨": 2424,
      "ખરીદ": 2425,
      "એન્ડ": 2426,
      "ખેલા": 2427,
      "##સિ": 2428,
      "ભાઈ": 2429,
      "##ાના": 2430,
      "24": 2431,
      "ઈન્": 2432,
      "મળ્યા": 2433,
      "સ્થાપ": 2434,
      "કેટલીક": 2435,
      "મક": 2436,
      "સૈ": 2437,
      "મૂળ": 2438,
      "જયારે": 2439,
      "##દન": 2440,
      "રાજ્યના": 2441,
      "થયેલા": 2442,
      "##પોર": 2443,
      "##ાંતિ": 2444,
      "સ્ટા": 2445,
      "સ્વી": 2446,
      "પુત્ર": 2447,
      "ગર્": 2448,
      "તારી": 2449,
      "લાઈ": 2450,
      "નાગરિક": 2451,
      "નદી": 2452,
      "##તરમાં": 2453,
      "રાખવામાં": 2454,
      "ચોક્કસ": 2455,
      "બહે": 2456,
      "##શ્મી": 2457,
      "##ાલય": 2458,
      "સ્ટેશન": 2459,
      "),": 2460,
      "વિષ": 2461,
      "##ફર": 2462,
      "પામ": 2463,
      "કરીએ": 2464,
      "મંત્ર": 2465,
      "ગુમ": 2466,
      "દારૂ": 2467,
      "સહિતના": 2468,
      "કર્": 2469,
      "એક્સ": 2470,
      "દૂધ": 2471,
      "હવા": 2472,
      "સંભ": 2473,
      "ફોટો": 2474,
      "પ્રકાશ": 2475,
      "##ઠવા": 2476,
      "મ્યુ": 2477,
      "##પૂર્વ": 2478,
      "ખાનગી": 2479,
      "##ાત્મ": 2480,
      "શુભ": 2481,
      "કલે": 2482,
      "ગૌ": 2483,
      "##ગો": 2484,
      "ક્યાં": 2485,
      "દ્ર": 2486,
      "##ડીયા": 2487,
      "કેસમાં": 2488,
      "નહી": 2489,
      "##ાક": 2490,
      "##in": 2491,
      "##હરણ": 2492,
      "મેળવ": 2493,
      "ગૃ": 2494,
      "##ાર્ક": 2495,
      "##સવી": 2496,
      "હાજર": 2497,
      "બળ": 2498,
      "વ્યક્ત": 2499,
      "ડાય": 2500,
      "કિલો": 2501,
      "ન્યૂ": 2502,
      "નોટ": 2503,
      "કોવિડ": 2504,
      "લીધા": 2505,
      "સાંભ": 2506,
      "##મેન": 2507,
      "મહારા": 2508,
      "##ભર": 2509,
      "કોંગ્રેસના": 2510,
      "ધર્મ": 2511,
      "##ણમાં": 2512,
      "તેવા": 2513,
      "##ક્ષિ": 2514,
      "ઉચ્ચ": 2515,
      "##રોમાં": 2516,
      "સાંજે": 2517,
      "આસપાસ": 2518,
      "ફક્ત": 2519,
      "##ંજ": 2520,
      "જેટલા": 2521,
      "તસવી": 2522,
      "વગેરે": 2523,
      "કર્મચારીઓ": 2524,
      "એન્ટ": 2525,
      "મનો": 2526,
      "રાત્રે": 2527,
      "ઘટાડો": 2528,
      "વિશ્": 2529,
      "એડ": 2530,
      "##શ્રી": 2531,
      "ખરાબ": 2532,
      "##ોના": 2533,
      "બનાવવામાં": 2534,
      "૧૧": 2535,
      "##ક્ષે": 2536,
      "##્રેડ": 2537,
      "નિર્મ": 2538,
      "##સ્માત": 2539,
      "##લર": 2540,
      "##ડક": 2541,
      "ખેલાડી": 2542,
      "ભગ": 2543,
      "હોસ્પિટલ": 2544,
      "તાલુકાના": 2545,
      "##તંત્ર": 2546,
      "અદ": 2547,
      "વિધાનસભા": 2548,
      "##ાત્મક": 2549,
      "##ખર": 2550,
      "યોગ": 2551,
      "માર્કેટ": 2552,
      "મહારાષ્ટ્ર": 2553,
      "સામેલ": 2554,
      "કંઈ": 2555,
      "પરત": 2556,
      "અહે": 2557,
      "કાળ": 2558,
      "##સ્થાન": 2559,
      "અજ": 2560,
      "લક્ષ": 2561,
      "##િટિવ": 2562,
      "મંજૂરી": 2563,
      "વિસ્તારોમાં": 2564,
      "16": 2565,
      "##લિયા": 2566,
      "##ન્ચ": 2567,
      "##રીમાં": 2568,
      "##er": 2569,
      "##ન્ને": 2570,
      "આવક": 2571,
      "અકસ્માત": 2572,
      "##ણાં": 2573,
      "##િત્રો": 2574,
      "પ્રકારની": 2575,
      "##નનો": 2576,
      "સુધ": 2577,
      "##ાર્ડ": 2578,
      "##િડ": 2579,
      "##ાર્જ": 2580,
      "ઉદ્યોગ": 2581,
      "ધરી": 2582,
      "##ારંભ": 2583,
      "ગામના": 2584,
      "વાળ": 2585,
      "સફળતા": 2586,
      "100": 2587,
      "##દ્ધિ": 2588,
      "##પોરે": 2589,
      "શ્રેષ્ઠ": 2590,
      "##વારો": 2591,
      "##at": 2592,
      "સભ્યો": 2593,
      "રાહત": 2594,
      "જોખ": 2595,
      "કૌ": 2596,
      "ઓન": 2597,
      "પ્રોજે": 2598,
      "પંચાયત": 2599,
      "##બ્ધ": 2600,
      "ઉલ્લેખનીય": 2601,
      "સ્ટો": 2602,
      "કાશ્મી": 2603,
      "##લેટ": 2604,
      "મિનિટ": 2605,
      "ડૉ": 2606,
      "મળ્યો": 2607,
      "પહેલી": 2608,
      "ધમ": 2609,
      "મિલ": 2610,
      "વિશેષ": 2611,
      "જેની": 2612,
      "##થમિક": 2613,
      "પ્રાથમિક": 2614,
      "##તાઓ": 2615,
      "ઉપલ": 2616,
      "##ડામાં": 2617,
      "પોઝિટિવ": 2618,
      "##ણું": 2619,
      "રાજ્યો": 2620,
      "##ઝી": 2621,
      "સાધ": 2622,
      "ધરાવે": 2623,
      "વ્યવસાય": 2624,
      "##an": 2625,
      "##હાસ": 2626,
      "ઊંચ": 2627,
      "વર્ષના": 2628,
      "##ાઈલ": 2629,
      "મુશ્કેલી": 2630,
      "##કારક": 2631,
      "શહેરના": 2632,
      "જમ": 2633,
      "નું": 2634,
      "##કામ": 2635,
      "બાળક": 2636,
      "ખબર": 2637,
      "##િક્સ": 2638,
      "ખેતી": 2639,
      "પેટ્રોલ": 2640,
      "કિસ્સા": 2641,
      "ચંદ": 2642,
      "તાજે": 2643,
      "દક્ષિ": 2644,
      "##ાટ": 2645,
      "દિવસમાં": 2646,
      "વધુમાં": 2647,
      "ઉંમ": 2648,
      "ઓછા": 2649,
      "શબ્": 2650,
      "##વ્ય": 2651,
      "વળ": 2652,
      "મોદીએ": 2653,
      "અફ": 2654,
      "કાં": 2655,
      "ગુજરાતના": 2656,
      "કર્મચારી": 2657,
      "ગામે": 2658,
      "ઓગ": 2659,
      "##નગ": 2660,
      "##ોએ": 2661,
      "જણાવ્યા": 2662,
      "##લેન્ડ": 2663,
      "કહેવામાં": 2664,
      "વિવાદ": 2665,
      "##ંદર": 2666,
      "##ઉન્ડ": 2667,
      "##સ્ટમ": 2668,
      "એના": 2669,
      "મજબૂત": 2670,
      "જૂના": 2671,
      "રવ": 2672,
      "થયેલ": 2673,
      "અના": 2674,
      "નાણ": 2675,
      "બદલ": 2676,
      "મંગળ": 2677,
      "પશ્ચ": 2678,
      "સૂચ": 2679,
      "##લ્લી": 2680,
      "યુનિવ": 2681,
      "મોટાભાગ": 2682,
      "રણ": 2683,
      "કરા": 2684,
      "લડ": 2685,
      "કરનાર": 2686,
      "સ્વાસ્થ": 2687,
      "કાર્ડ": 2688,
      "શૈ": 2689,
      "17": 2690,
      "આપ્યું": 2691,
      "શુક્ર": 2692,
      "વધાર": 2693,
      "મળ્યું": 2694,
      "સંખ્યામાં": 2695,
      "હુમલા": 2696,
      "લેખ": 2697,
      "##સના": 2698,
      "##સ્તી": 2699,
      "નાર": 2700,
      "૩૦": 2701,
      "બહુ": 2702,
      "##દિક": 2703,
      "જાણકારી": 2704,
      "લાઇ": 2705,
      "##કટર": 2706,
      "##ફિક": 2707,
      "##તિહાસ": 2708,
      "નાની": 2709,
      "સેના": 2710,
      "મહામારી": 2711,
      "ડોલ": 2712,
      "તેલ": 2713,
      "તી": 2714,
      "આરોપ": 2715,
      "થતી": 2716,
      "વેચાણ": 2717,
      "##ચ્છા": 2718,
      "મોટ": 2719,
      "નજર": 2720,
      "##્યાન": 2721,
      "આત્મ": 2722,
      "હિં": 2723,
      "##સની": 2724,
      "ઉપલબ્ધ": 2725,
      "ગુરુ": 2726,
      "નીતિ": 2727,
      "ધ્યાનમાં": 2728,
      "મેને": 2729,
      "પીએમ": 2730,
      "હળ": 2731,
      "ડિઝ": 2732,
      "ભારતના": 2733,
      "અંતિમ": 2734,
      "પૈકી": 2735,
      "શખ્સ": 2736,
      "વિપ": 2737,
      "હંમેશા": 2738,
      "દક્ષિણ": 2739,
      "પાં": 2740,
      "##િકાર": 2741,
      "##રીને": 2742,
      "સ્થિત": 2743,
      "ક્વ": 2744,
      "થવાની": 2745,
      "સવાર": 2746,
      "આપતા": 2747,
      "ઉત્પાદન": 2748,
      "લક્ષણ": 2749,
      "##ાતી": 2750,
      "##રાષ્ટ્ર": 2751,
      "ગુણ": 2752,
      "બાબતે": 2753,
      "સંચાલ": 2754,
      "અમારી": 2755,
      "દીધો": 2756,
      "બ્રા": 2757,
      "##કરો": 2758,
      "##લોજી": 2759,
      "ઓફિસ": 2760,
      "એપ્ર": 2761,
      "##હન": 2762,
      "જંગ": 2763,
      "##ટમાં": 2764,
      "વાં": 2765,
      "વિશ": 2766,
      "જગ્યાએ": 2767,
      "મગ": 2768,
      "##નિંગ": 2769,
      "તેનાથી": 2770,
      "સ્ટાફ": 2771,
      "યુનિવર્સ": 2772,
      "ડા": 2773,
      "બનાવે": 2774,
      "અઠવા": 2775,
      "રાષ્ટ્રીય": 2776,
      "સ્વાસ્થ્ય": 2777,
      "આશા": 2778,
      "##દ્ર": 2779,
      "કોલ": 2780,
      "બિલ": 2781,
      "##હા": 2782,
      "બદલે": 2783,
      "બંગ": 2784,
      "રેડ": 2785,
      "##તની": 2786,
      "વાહન": 2787,
      "લીધે": 2788,
      "થોડ": 2789,
      "##ંડા": 2790,
      "##ૃત્તિ": 2791,
      "પ્રદર્શન": 2792,
      "સામનો": 2793,
      "પૂરી": 2794,
      "આખ": 2795,
      "##સુ": 2796,
      "રવિવ": 2797,
      "##ટિંગ": 2798,
      "ગાંધીનગર": 2799,
      "##પાલિકા": 2800,
      "##મન": 2801,
      "પ્રકારના": 2802,
      "ગૃહ": 2803,
      "##વલ": 2804,
      "##ેશનમાં": 2805,
      "શકશે": 2806,
      "સંત": 2807,
      "##es": 2808,
      "સચ": 2809,
      "માનવામાં": 2810,
      "નિયમો": 2811,
      "હુમલો": 2812,
      "યાત": 2813,
      "નોંધાયા": 2814,
      "##જ્ઞાન": 2815,
      "જાળ": 2816,
      "અગ્ર": 2817,
      "આંદ": 2818,
      "##ભરમાં": 2819,
      "કરાવ": 2820,
      "પાકિસ્તાન": 2821,
      "##યર": 2822,
      "##શિયા": 2823,
      "પ્રતિબંધ": 2824,
      "દિશ": 2825,
      "૧૮": 2826,
      "પાલન": 2827,
      "વ્": 2828,
      "વર્ષથી": 2829,
      "ફેરફ": 2830,
      "##જના": 2831,
      "સફળ": 2832,
      "##ધ્ધ": 2833,
      "પ્રશ": 2834,
      "શક્તિ": 2835,
      "##પીએ": 2836,
      "##લાવી": 2837,
      "યુનિવર્સિટી": 2838,
      "સંઘ": 2839,
      "યુવા": 2840,
      "##સ્વી": 2841,
      "વલ": 2842,
      "##વર્": 2843,
      "##બંધી": 2844,
      "ગુનો": 2845,
      "જુઓ": 2846,
      "મિત્રો": 2847,
      "સુપ": 2848,
      "ધરાવતા": 2849,
      "દાવો": 2850,
      "##રાજ": 2851,
      "સાય": 2852,
      "હી": 2853,
      "રેલવે": 2854,
      "##વડ": 2855,
      "ગરમ": 2856,
      "નાણા": 2857,
      "##કરા": 2858,
      "##તના": 2859,
      "##લાલ": 2860,
      "##પ્ટે": 2861,
      "સારું": 2862,
      "વાયરલ": 2863,
      "સૂર": 2864,
      "તબક્": 2865,
      "##યું": 2866,
      "કરવાના": 2867,
      "રાજકીય": 2868,
      "જાણો": 2869,
      "મથ": 2870,
      "##કાં": 2871,
      "વાતચી": 2872,
      "હાર્": 2873,
      "##ંડી": 2874,
      "નીકળ": 2875,
      "આંદોલ": 2876,
      "##વવામાં": 2877,
      "##રેલી": 2878,
      "##કાલે": 2879,
      "નાં": 2880,
      "મુસા": 2881,
      "કબ": 2882,
      "સપ્ટે": 2883,
      "##ઝન": 2884,
      "અમારા": 2885,
      "સલાહ": 2886,
      "ઝડપથી": 2887,
      "આઠ": 2888,
      "બાર": 2889,
      "છોકરી": 2890,
      "તારીખ": 2891,
      "પશ્ચિમ": 2892,
      "##કાળ": 2893,
      "વર્ષમાં": 2894,
      "##ઝને": 2895,
      "આપણા": 2896,
      "ફરીથી": 2897,
      "બિન": 2898,
      "##ક્ષી": 2899,
      "રાજય": 2900,
      "નવે": 2901,
      "સ્પર્": 2902,
      "દર્દીઓ": 2903,
      "##દર્શ": 2904,
      "વિદ્યાર્થીઓ": 2905,
      "##પ્રિય": 2906,
      "પસંદગી": 2907,
      "ફળ": 2908,
      "બધી": 2909,
      "##્યાય": 2910,
      "##્વર": 2911,
      "દરમ્યાન": 2912,
      "હકી": 2913,
      "##રીના": 2914,
      "ડિસે": 2915,
      "21": 2916,
      "મંડ": 2917,
      "##ઉટ": 2918,
      "પોતે": 2919,
      "##પૂર": 2920,
      "મુદ્દે": 2921,
      "ચમ": 2922,
      "બન્ને": 2923,
      "૧૪": 2924,
      "માટેની": 2925,
      "સૌરાષ્ટ્ર": 2926,
      "ધારાસભ્ય": 2927,
      "ચિ": 2928,
      "જામનગર": 2929,
      "આંતર": 2930,
      "શર્": 2931,
      "કોર્ટે": 2932,
      "કચ્છ": 2933,
      "રચના": 2934,
      "##કનો": 2935,
      "પ્રય": 2936,
      "પ્રારંભ": 2937,
      "જતાં": 2938,
      "સેન્ટ": 2939,
      "મેળવવા": 2940,
      "જાન્યુ": 2941,
      "મોકલ": 2942,
      "પ્રોજેક્ટ": 2943,
      "સપ્તા": 2944,
      "અનુભવ": 2945,
      "##ફ્ર": 2946,
      "##િગ": 2947,
      "રાખવા": 2948,
      "##ેશનલ": 2949,
      "સંક્રમણ": 2950,
      "પ્રયત્": 2951,
      "##િજ": 2952,
      "ધાર": 2953,
      "ફ્ર": 2954,
      "માર્ચ": 2955,
      "બુધ": 2956,
      "સમાન": 2957,
      "##ત્ત": 2958,
      "વાગ્યા": 2959,
      "ભુ": 2960,
      "ક્યારેય": 2961,
      "વર્લ્ડ": 2962,
      "એવો": 2963,
      "##લ્ટ": 2964,
      "##ાવીને": 2965,
      "##સ્થિત": 2966,
      "મહિનામાં": 2967,
      "પ્રસંગ": 2968,
      ".’": 2969,
      "##મની": 2970,
      "ભાવનગર": 2971,
      "##તાર": 2972,
      "શક્યતા": 2973,
      "##લિક": 2974,
      "લાગુ": 2975,
      "આટ": 2976,
      "સમર્થ": 2977,
      "સોના": 2978,
      "કહેવાય": 2979,
      "##ુટ": 2980,
      "##બિત": 2981,
      "દીકરી": 2982,
      "ટેક્સ": 2983,
      "ફેબ્ર": 2984,
      "જ્": 2985,
      "સપા": 2986,
      "##સ્ટ્રે": 2987,
      "બાંધ": 2988,
      "સબ": 2989,
      "વિગ": 2990,
      "##ક્ટો": 2991,
      "જાગ": 2992,
      "ઓપ": 2993,
      "મિશ": 2994,
      "કરવાથી": 2995,
      "લખ્યું": 2996,
      "કચે": 2997,
      "તૈયારી": 2998,
      "000": 2999,
      "મુસાફ": 3000,
      "##ભાર": 3001,
      "તાપ": 3002,
      "થયેલી": 3003,
      "કરેલ": 3004,
      "આપ્યા": 3005,
      "મળતી": 3006,
      "જનતા": 3007,
      "જાન્યુઆરી": 3008,
      "તળ": 3009,
      "વિશ્વાસ": 3010,
      "ચૌ": 3011,
      "ખોરા": 3012,
      "અચ": 3013,
      "##વાઇ": 3014,
      "##ઝા": 3015,
      "##ાયલ": 3016,
      "માનવ": 3017,
      "##ભાવના": 3018,
      "મંત્રાલય": 3019,
      "વાર્": 3020,
      "રહેલી": 3021,
      "કેન્દ": 3022,
      "કું": 3023,
      "વોર્ડ": 3024,
      "##ષ્ટિ": 3025,
      "તેવું": 3026,
      "નિષ્": 3027,
      "ઇન્ટ": 3028,
      "પુસ્ત": 3029,
      "આંખ": 3030,
      "ચુ": 3031,
      "નિર્માણ": 3032,
      "કૉ": 3033,
      "પાવ": 3034,
      "છોડી": 3035,
      "ઘટ": 3036,
      "હૈ": 3037,
      "##મ્સ": 3038,
      "ભૂમ": 3039,
      "શનિવ": 3040,
      "મતદાન": 3041,
      "કોરોનાની": 3042,
      "તાજેતરમાં": 3043,
      "##on": 3044,
      "##સાયટી": 3045,
      "ઉજવણી": 3046,
      "ઉદા": 3047,
      "ડેટ": 3048,
      "અમેરિક": 3049,
      "##ુકાન": 3050,
      "સહાય": 3051,
      "##રીયા": 3052,
      "દેખા": 3053,
      "શાક": 3054,
      "સન્": 3055,
      "જુદા": 3056,
      "અમદાવાદમાં": 3057,
      "મહત્": 3058,
      "સોસાયટી": 3059,
      "વાતાવ": 3060,
      "વજન": 3061,
      "##મના": 3062,
      "##ઝર": 3063,
      "##ડની": 3064,
      "સ્થળે": 3065,
      "40": 3066,
      "લોકસભા": 3067,
      "સંગઠ": 3068,
      "ઉદાહરણ": 3069,
      "##પક": 3070,
      "ફાયર": 3071,
      "રાજસ્થાન": 3072,
      "વેક્સ": 3073,
      "વાતાવરણ": 3074,
      "##ાને": 3075,
      "પહેર": 3076,
      "ઝો": 3077,
      "##િયાત": 3078,
      "સમિતિ": 3079,
      "##સ્ત્ર": 3080,
      "અનુભ": 3081,
      "ફિલ્મો": 3082,
      "##મતી": 3083,
      "##લાઇન": 3084,
      "##ડાના": 3085,
      "અમિત": 3086,
      "પોતાનો": 3087,
      "વેબ": 3088,
      "વીજ": 3089,
      "##ધુ": 3090,
      "##ોથી": 3091,
      "##યે": 3092,
      "##સ્તવ": 3093,
      "##િટર": 3094,
      "ચક": 3095,
      "કર્યુ": 3096,
      "##ન્ડર": 3097,
      "પુરુ": 3098,
      "માલિક": 3099,
      "જિ": 3100,
      "પશુ": 3101,
      "પ્રભાવ": 3102,
      "હાર્દિક": 3103,
      "શર્મા": 3104,
      "22": 3105,
      "અંક": 3106,
      "ઉર્": 3107,
      "આપશે": 3108,
      "આકર્ષ": 3109,
      "ઓગસ્ટ": 3110,
      "એપ્રિલ": 3111,
      "સરકારની": 3112,
      "નાણાં": 3113,
      "ફૂ": 3114,
      "એજન્સી": 3115,
      "સાઇ": 3116,
      "રાખો": 3117,
      "ઇન્ડિયા": 3118,
      "સ્માર્ટ": 3119,
      "જળ": 3120,
      "થોડી": 3121,
      "એને": 3122,
      "રાષ્ટ્રપતિ": 3123,
      "સુપ્રીમ": 3124,
      "ધન": 3125,
      "સિવ": 3126,
      "સમુ": 3127,
      "કોર્ટમાં": 3128,
      "સાબિત": 3129,
      "તક": 3130,
      "##ઢી": 3131,
      "##ટેડ": 3132,
      "તબી": 3133,
      "વાહનો": 3134,
      "આગે": 3135,
      "સિસ્ટમ": 3136,
      "દર્શન": 3137,
      "સૂત્રો": 3138,
      "કેન્દ્રીય": 3139,
      "પાડી": 3140,
      "પોલીસને": 3141,
      "સરકારના": 3142,
      "કમિશન": 3143,
      "ભૂમિકા": 3144,
      "કાન": 3145,
      "વર્ત": 3146,
      "અખ": 3147,
      "ભાગી": 3148,
      "દબાણ": 3149,
      "કરાઈ": 3150,
      "જવાબદારી": 3151,
      "કુમાર": 3152,
      "ચાં": 3153,
      "##નારી": 3154,
      "##દય": 3155,
      "ભોગ": 3156,
      ".\"": 3157,
      "ચોરી": 3158,
      "આતંક": 3159,
      "વિગતો": 3160,
      "આપવાની": 3161,
      "##ડાં": 3162,
      "ભય": 3163,
      "ઉત્સ": 3164,
      "વિકેટ": 3165,
      "ચીન": 3166,
      "અમુક": 3167,
      "ઉકે": 3168,
      "મંદિ": 3169,
      "મકાન": 3170,
      "પંજા": 3171,
      "ચહે": 3172,
      "પકડ": 3173,
      "##લ્લ": 3174,
      "ટીવી": 3175,
      "##નગરમાં": 3176,
      "##કિત": 3177,
      "##વાડી": 3178,
      "##ાનક": 3179,
      "જેટલી": 3180,
      "શંકા": 3181,
      "સિક": 3182,
      "સિં": 3183,
      "##ફળ": 3184,
      "યાત્રા": 3185,
      "ગરી": 3186,
      "કરાવી": 3187,
      "અંતર્": 3188,
      "દંડ": 3189,
      "હજી": 3190,
      "વધારા": 3191,
      "સામગ્રી": 3192,
      "બન્યા": 3193,
      "શાંતિ": 3194,
      "અમને": 3195,
      "લોકપ્રિય": 3196,
      "ખેંચ": 3197,
      "##માસ": 3198,
      "##ભાજી": 3199,
      "##નામાં": 3200,
      "ધોરણ": 3201,
      "ખસે": 3202,
      "ચૂંટણીમાં": 3203,
      "સોમવારે": 3204,
      "શરુ": 3205,
      "##વારી": 3206,
      "સુપર": 3207,
      "સારો": 3208,
      "સ્તર": 3209,
      "રૂપાણી": 3210,
      "એફ": 3211,
      "બતા": 3212,
      "##રમ": 3213,
      "કેન્સ": 3214,
      "##પૂર્વક": 3215,
      "નિવેદન": 3216,
      "અંતર્ગત": 3217,
      "##તરા": 3218,
      "માધ્ય": 3219,
      "તેમનો": 3220,
      "વર્ગ": 3221,
      "બોલી": 3222,
      "##ઓનું": 3223,
      "પાઠ": 3224,
      "કહેવું": 3225,
      "પહોંચ્યા": 3226,
      "##ગ્રામ": 3227,
      "યાદી": 3228,
      "સિવિલ": 3229,
      "માસ્ક": 3230,
      "રેકો": 3231,
      "ચેર": 3232,
      "૨૫": 3233,
      "પ્રમાણમાં": 3234,
      "વિદેશી": 3235,
      "##ોષ": 3236,
      "દેવા": 3237,
      "પ્રવાસ": 3238,
      "##રોને": 3239,
      "સમયથી": 3240,
      "મૂકી": 3241,
      "##જની": 3242,
      "નિયંત્ર": 3243,
      "શરીર": 3244,
      "પુરુષ": 3245,
      "એચ": 3246,
      "દઈ": 3247,
      "સેલ": 3248,
      "પ્રિય": 3249,
      "##ાગ્ર": 3250,
      "મુશ્કેલ": 3251,
      "##ભો": 3252,
      "##િના": 3253,
      "ટ્રાન્સ": 3254,
      "ખરે": 3255,
      "અક્ષ": 3256,
      "પરેશ": 3257,
      "ફેબ્રુ": 3258,
      "નીક": 3259,
      "##સ્ટ્રી": 3260,
      "ફટ": 3261,
      "લૂ": 3262,
      "યુવાન": 3263,
      "બાળકોને": 3264,
      "૧૩": 3265,
      "##ટરી": 3266,
      "##ાયણ": 3267,
      "કલાકમાં": 3268,
      "આવું": 3269,
      "તેમનું": 3270,
      "##ડર": 3271,
      "##ડમાં": 3272,
      "##કારાત્મક": 3273,
      "ભગવાન": 3274,
      "દુકાન": 3275,
      "હેલ્": 3276,
      "બેઠકો": 3277,
      "ટિક": 3278,
      "##ાસ્ટ": 3279,
      "અભિનેત્રી": 3280,
      "૫૦": 3281,
      "પોતાનું": 3282,
      "રાખે": 3283,
      "##ારું": 3284,
      "##ક્રિય": 3285,
      "જાણે": 3286,
      "ફેબ્રુઆરી": 3287,
      "ઝા": 3288,
      "##તાની": 3289,
      "બાબત": 3290,
      "બધું": 3291,
      "રૃ": 3292,
      "##ડાની": 3293,
      "કંપનીઓ": 3294,
      "##ંવાર": 3295,
      "જીલ્લા": 3296,
      "ટ્રમ્પ": 3297,
      "એવ": 3298,
      "મિત્ર": 3299,
      "૧૬": 3300,
      "##લાઈન": 3301,
      "સપ્તાહ": 3302,
      "ગાય": 3303,
      "##ક્ષિત": 3304,
      "વારંવાર": 3305,
      "ધીમે": 3306,
      "પટે": 3307,
      "ક્ષમતા": 3308,
      "જીવનમાં": 3309,
      "રેકોર્ડ": 3310,
      "જઇ": 3311,
      "##લેશ": 3312,
      "પાટી": 3313,
      "દીધું": 3314,
      "કરતો": 3315,
      "##સાઈ": 3316,
      "##ડતા": 3317,
      "##્રમ": 3318,
      "##યુક્ત": 3319,
      "##ક્સી": 3320,
      "દા": 3321,
      "માથા": 3322,
      "પૂજા": 3323,
      "નામે": 3324,
      "દુર્": 3325,
      "નેશનલ": 3326,
      "મૂલ": 3327,
      "તાલ": 3328,
      "##યોગી": 3329,
      "##ક્રો": 3330,
      "બજેટ": 3331,
      "##બાર": 3332,
      "બીજ": 3333,
      "સન્માન": 3334,
      "##લીમ": 3335,
      "##પ્રદેશ": 3336,
      "સવાલ": 3337,
      "##કિંગ": 3338,
      "લાગણી": 3339,
      "વાસ્તવ": 3340,
      "સંબંધિત": 3341,
      "લોકડાઉન": 3342,
      "એક્": 3343,
      "ભવિ": 3344,
      "##તાના": 3345,
      "કેર": 3346,
      "યુવાનો": 3347,
      "કહ્યુ": 3348,
      "##ન્ટે": 3349,
      "પ્રભ": 3350,
      "દીધા": 3351,
      "પ્રત્યે": 3352,
      "ભવિષ્ય": 3353,
      "##ાવવાની": 3354,
      "સ્વાદ": 3355,
      "રહેવા": 3356,
      "##પુરા": 3357,
      "કોલેજ": 3358,
      "##દના": 3359,
      "કરાયો": 3360,
      "##કોર": 3361,
      "દેશની": 3362,
      "સપાટી": 3363,
      "ઓક્ટો": 3364,
      "કદા": 3365,
      "બિલ્": 3366,
      "પ્રોડ": 3367,
      "ખાલી": 3368,
      "આંગ": 3369,
      "બ્લ": 3370,
      "##or": 3371,
      "રાખીને": 3372,
      "ચંદ્ર": 3373,
      "પટેલે": 3374,
      "કઈ": 3375,
      "દોડ": 3376,
      "##ચો": 3377,
      "##ાજા": 3378,
      "સંપર્ક": 3379,
      "એટલું": 3380,
      "##શીલ": 3381,
      "મુંબઇ": 3382,
      "માણસ": 3383,
      "ઓસ્ટ્રે": 3384,
      "સર્વ": 3385,
      "##વિંદ": 3386,
      "તહે": 3387,
      "સુખ": 3388,
      "##ાઇટ": 3389,
      "##બજ": 3390,
      "##્યાલ": 3391,
      "ફેરફાર": 3392,
      "##તામાં": 3393,
      "ગુજરાતી": 3394,
      "કોર્પોર": 3395,
      "આશરે": 3396,
      "ભાષ": 3397,
      "કદાચ": 3398,
      "ઘટી": 3399,
      "##િબ": 3400,
      "બનશે": 3401,
      "ઉમેદવારો": 3402,
      "##ૈયા": 3403,
      "તેઓએ": 3404,
      "જથ્": 3405,
      "સલ": 3406,
      "##ાજિક": 3407,
      "બાદમાં": 3408,
      "હાઉ": 3409,
      "જવાનો": 3410,
      "##રામ": 3411,
      "##હોલ": 3412,
      "સ્ત": 3413,
      "##કાનો": 3414,
      "ફેસ": 3415,
      "રજૂઆત": 3416,
      "##ઝો": 3417,
      "##્વે": 3418,
      "પાટ": 3419,
      "ડિગ્રી": 3420,
      "સોલ": 3421,
      "##િફ": 3422,
      "કોન્": 3423,
      "સંજય": 3424,
      "##ન્દુ": 3425,
      "નામના": 3426,
      "સર્વે": 3427,
      "આંકડા": 3428,
      "સંભાવના": 3429,
      "ઉમ": 3430,
      "વેર": 3431,
      "ખરેખર": 3432,
      "તુ": 3433,
      "કેપ્ટ": 3434,
      "સિદ્ધ": 3435,
      "ગાડી": 3436,
      "૧૭": 3437,
      "##લામાં": 3438,
      "પુન": 3439,
      "સપ્ટેમ્બર": 3440,
      "ધંધ": 3441,
      "##પજ": 3442,
      "##દાય": 3443,
      "કારણો": 3444,
      "સજા": 3445,
      "##ાવત": 3446,
      "ઉમેદવાર": 3447,
      "શાકભાજી": 3448,
      "પાર્ક": 3449,
      "એકવાર": 3450,
      "સાંસદ": 3451,
      "##ષિ": 3452,
      "##સ્તો": 3453,
      "ટ્રસ્ટ": 3454,
      "પ્રતિક": 3455,
      "હોમ": 3456,
      "મુસ્": 3457,
      "લગ્": 3458,
      "વસ્તુઓ": 3459,
      "ડોલર": 3460,
      "મિશ્ર": 3461,
      "એની": 3462,
      "શાસ": 3463,
      "##્રહ": 3464,
      "##ડીએ": 3465,
      "કડક": 3466,
      "##દ્ધતિ": 3467,
      "તેજ": 3468,
      "એકાઉ": 3469,
      "ટ્વી": 3470,
      "રજા": 3471,
      "##કુમાર": 3472,
      "ભાગમાં": 3473,
      "ભોજન": 3474,
      "આક્ષે": 3475,
      "તાત્": 3476,
      "અત્યારે": 3477,
      "ઉપસ્થિત": 3478,
      "##પાત્ર": 3479,
      "##ણને": 3480,
      "##વાલો": 3481,
      "જોર": 3482,
      "મહત્વપૂર્ણ": 3483,
      "બિઝને": 3484,
      "વેપારી": 3485,
      "છૂટ": 3486,
      "જમ્": 3487,
      "ન્યુ": 3488,
      "##અલ": 3489,
      "##તાને": 3490,
      "માંડ": 3491,
      "પાન": 3492,
      "##હર": 3493,
      "લેતા": 3494,
      "દિવસોમાં": 3495,
      "મહિલાઓ": 3496,
      "નર્મ": 3497,
      "રમત": 3498,
      "મેડિકલ": 3499,
      "વાતચીત": 3500,
      "સ્થિતિમાં": 3501,
      "એકાઉન્ટ": 3502,
      "ટુ": 3503,
      "કોમ": 3504,
      "##દીપ": 3505,
      "આઉટ": 3506,
      "##કામાં": 3507,
      "પ્રશ્નો": 3508,
      "મેનેજ": 3509,
      "સમી": 3510,
      "યુન": 3511,
      "વહી": 3512,
      "શ્": 3513,
      "શકી": 3514,
      "##ટની": 3515,
      "પગલાં": 3516,
      "રવિવારે": 3517,
      "##રાના": 3518,
      "નેટ": 3519,
      "23": 3520,
      "##ધામ": 3521,
      "વર્ષીય": 3522,
      "જાડે": 3523,
      "સ્કૂ": 3524,
      "ધમકી": 3525,
      "અપી": 3526,
      "પદ્ધતિ": 3527,
      "કાઉ": 3528,
      "સૂર્ય": 3529,
      "નબ": 3530,
      "બ્રે": 3531,
      "##તિક": 3532,
      "##વાજ": 3533,
      "##ર્તિ": 3534,
      "ધરાવ": 3535,
      "અચાનક": 3536,
      "##ડવામાં": 3537,
      "##કોની": 3538,
      "માનસિક": 3539,
      "##એલ": 3540,
      "ખુશ": 3541,
      ".”": 3542,
      "રજુ": 3543,
      "##સમ": 3544,
      "##ખંડ": 3545,
      "સંશો": 3546,
      "મહા": 3547,
      "વૃક્ષ": 3548,
      "શુક્રવારે": 3549,
      "જ્ઞ": 3550,
      "##રેજ": 3551,
      "##રબ": 3552,
      "વેપાર": 3553,
      "ઝી": 3554,
      "પ્રશ્ન": 3555,
      "સ્વીકાર": 3556,
      "ફ્રે": 3557,
      "કાપ": 3558,
      "બોલિવ": 3559,
      "ટ્રાફિક": 3560,
      "સંભાળ": 3561,
      "જાડેજા": 3562,
      "##ાદી": 3563,
      "ઈન્ડિયા": 3564,
      "##મદ": 3565,
      "મોટાભાગના": 3566,
      "વાઘ": 3567,
      "કુદર": 3568,
      "દેખાય": 3569,
      "પૃ": 3570,
      "##ઠ્": 3571,
      "ખેડૂત": 3572,
      "કાલ": 3573,
      "હેર": 3574,
      "ભારતની": 3575,
      "વિષય": 3576,
      "૨૪": 3577,
      "##ૂળ": 3578,
      "તાપમાન": 3579,
      "૨૦૨": 3580,
      "ક્લા": 3581,
      "નમ": 3582,
      "##ળામાં": 3583,
      "મળતા": 3584,
      "સ્વામી": 3585,
      "સક્રિય": 3586,
      "મર્યા": 3587,
      "##ર્વે": 3588,
      "પ્રવાસી": 3589,
      "##રીઝ": 3590,
      "##સેના": 3591,
      "પંજાબ": 3592,
      "સામાજિક": 3593,
      "જોખમ": 3594,
      "##ેલો": 3595,
      "##વાહ": 3596,
      "માળ": 3597,
      "હોવાનો": 3598,
      "નાય": 3599,
      "ફંડ": 3600,
      "સગ": 3601,
      "##મારી": 3602,
      "લક્ષણો": 3603,
      "ત્વ": 3604,
      "દાન": 3605,
      "હોવાના": 3606,
      "##ફા": 3607,
      "નિષ્ણ": 3608,
      "બેઠકમાં": 3609,
      "##ન્ના": 3610,
      "મોહ": 3611,
      "સંપૂર્ણપણે": 3612,
      "##લિત": 3613,
      "##ંસ": 3614,
      "પાલિકા": 3615,
      "2020": 3616,
      "કરાશે": 3617,
      "બદલી": 3618,
      "રદ": 3619,
      "##પત્ર": 3620,
      "##en": 3621,
      "કેમ્પ": 3622,
      "લગાવી": 3623,
      "ત્રણે": 3624,
      "પ્રધાનમંત્રી": 3625,
      "અઠવાડિયા": 3626,
      "ડિસેમ્બર": 3627,
      "સેક": 3628,
      "ડીઝ": 3629,
      "ફાયદો": 3630,
      "ફાળ": 3631,
      "કેમે": 3632,
      "પ્રજા": 3633,
      "##લેક્ટ": 3634,
      "2021": 3635,
      "વર્તમાન": 3636,
      "આથી": 3637,
      "ટેલ": 3638,
      "##ભૂત": 3639,
      "##al": 3640,
      "અંદાજ": 3641,
      "સેટ": 3642,
      "૨૦૦": 3643,
      "##રિયા": 3644,
      "ગરમી": 3645,
      "અપીલ": 3646,
      "ચાર્જ": 3647,
      "કરનારા": 3648,
      "##સ્ટર": 3649,
      "હવામાન": 3650,
      "વેક્સિન": 3651,
      "2019": 3652,
      "શબ્દ": 3653,
      "##ાંગ": 3654,
      "પ્રગ": 3655,
      "કોણ": 3656,
      "કોહ": 3657,
      "એરપોર્ટ": 3658,
      "આતંકી": 3659,
      "##મું": 3660,
      "તરત": 3661,
      "ડોઝ": 3662,
      "##બૂ": 3663,
      "##ફોન": 3664,
      "વાન": 3665,
      "હિત": 3666,
      "માન્ય": 3667,
      "પાછા": 3668,
      "સભ્ય": 3669,
      "કેપ્ટન": 3670,
      "હાર": 3671,
      "યુદ્ધ": 3672,
      "શનિવારે": 3673,
      "26": 3674,
      "મના": 3675,
      "##રવ": 3676,
      "##as": 3677,
      "શકતા": 3678,
      "ફિલ્મમાં": 3679,
      "##ચન": 3680,
      "##મેટ": 3681,
      "વિશાળ": 3682,
      "ચલાવ": 3683,
      "##પના": 3684,
      "##ઘાત": 3685,
      "મળીને": 3686,
      "એન્": 3687,
      "##કોએ": 3688,
      "જોડા": 3689,
      "માંથી": 3690,
      "પડ્યો": 3691,
      "બાળકી": 3692,
      "કલમ": 3693,
      "છૂ": 3694,
      "##પાન": 3695,
      "##લુ": 3696,
      "અતિ": 3697,
      "સદી": 3698,
      "##મીટર": 3699,
      "બુધવારે": 3700,
      "કચેરી": 3701,
      "ખોરાક": 3702,
      "28": 3703,
      "જૈ": 3704,
      "##ભૂ": 3705,
      "માસ": 3706,
      "ખાતરી": 3707,
      "નર્મદા": 3708,
      "કંટ": 3709,
      "પર્વ": 3710,
      "ફોર્મ": 3711,
      "મદદથી": 3712,
      "વાઇ": 3713,
      "##રત": 3714,
      "##કાય": 3715,
      "##ડુ": 3716,
      "દરરોજ": 3717,
      "ટીમે": 3718,
      "મીટર": 3719,
      "કિસ્સામાં": 3720,
      "##ફોર્મ": 3721,
      "ખી": 3722,
      "સ્ના": 3723,
      "મોંઘ": 3724,
      "લોકોમાં": 3725,
      "ફૂટ": 3726,
      "પ્રવૃત્તિ": 3727,
      "સરકારને": 3728,
      "જુલાઈ": 3729,
      "ભૂલ": 3730,
      "દિવાળી": 3731,
      "ઓક્સ": 3732,
      "##ીક": 3733,
      "પ્લાન્ટ": 3734,
      "દઈએ": 3735,
      "##ન્ય": 3736,
      "સાફ": 3737,
      "ટ્રેન": 3738,
      "##શ્યક": 3739,
      "નીકળી": 3740,
      "વય": 3741,
      "સ્વરૂપ": 3742,
      "શીખ": 3743,
      "નવેમ્બર": 3744,
      "સંદર્": 3745,
      "##રાષ્ટ્રીય": 3746,
      "પાણીની": 3747,
      "મુદ્દા": 3748,
      "વાગ્યે": 3749,
      "કોહલી": 3750,
      "બ્લે": 3751,
      "##સલ": 3752,
      "##િત્વ": 3753,
      "બેડ": 3754,
      "##જનક": 3755,
      "મહેસ": 3756,
      "હિન્દુ": 3757,
      "મેચમાં": 3758,
      "##ારણ": 3759,
      "##લીઝ": 3760,
      "અભિ": 3761,
      "જમ્મુ": 3762,
      "થતો": 3763,
      "નવો": 3764,
      "##ગુ": 3765,
      "પ્લેટ": 3766,
      "જૂનાગઢ": 3767,
      "બંગાળ": 3768,
      "રિસ": 3769,
      "એટલા": 3770,
      "મંગળવારે": 3771,
      "અંબ": 3772,
      "પકડી": 3773,
      "રાજીના": 3774,
      "##દેસર": 3775,
      "આધારિત": 3776,
      "યૂ": 3777,
      "માહોલ": 3778,
      "સરખ": 3779,
      "##દ્દ": 3780,
      "##સ્પે": 3781,
      "વાઈ": 3782,
      "તાલુકામાં": 3783,
      "ઇન": 3784,
      "##ાસી": 3785,
      "લોન": 3786,
      "##કાર્": 3787,
      "ઓસ્ટ્રેલિયા": 3788,
      "31": 3789,
      "ડિસ્": 3790,
      "૨૧": 3791,
      "##ગામ": 3792,
      "##દેવ": 3793,
      "નાણાકીય": 3794,
      "દસ": 3795,
      "##ગ્રા": 3796,
      "##ર્જી": 3797,
      "##લીમાં": 3798,
      "##વિસ": 3799,
      "બજારમાં": 3800,
      "પરંપ": 3801,
      "એકબી": 3802,
      "હેતુ": 3803,
      "ક્યારેક": 3804,
      "##ઇન્ટ": 3805,
      "પ્રેર": 3806,
      "સ્કૂલ": 3807,
      "##થ્થ": 3808,
      "ઇચ્છ": 3809,
      "ભલા": 3810,
      "##િદ": 3811,
      "##ડિંગ": 3812,
      "##ખ્": 3813,
      "જેઓ": 3814,
      "મોકલી": 3815,
      "ગણતરી": 3816,
      "##એન": 3817,
      "પુત્રી": 3818,
      "મીઠ": 3819,
      "ગોઠ": 3820,
      "વિભાગના": 3821,
      "સંતા": 3822,
      "સ્ટેટ": 3823,
      "વાતો": 3824,
      "મોટું": 3825,
      "ગા": 3826,
      "ગ્રે": 3827,
      "વપ": 3828,
      "પહોંચાડ": 3829,
      "મોબાઈલ": 3830,
      "સંદર્ભ": 3831,
      "આર્": 3832,
      "મધ": 3833,
      "પ્રાણી": 3834,
      "##ડીયો": 3835,
      "##માનો": 3836,
      "અમરેલી": 3837,
      "બર": 3838,
      "રજ": 3839,
      "વકી": 3840,
      "માટેના": 3841,
      "પીડ": 3842,
      "ક્લિક": 3843,
      "કપૂર": 3844,
      "ઘણાં": 3845,
      "દૃ": 3846,
      "વાળા": 3847,
      "દરિયા": 3848,
      "ચેક": 3849,
      "એસો": 3850,
      "રવિ": 3851,
      "##રાની": 3852,
      "દેખાવ": 3853,
      "ઇન્સ્ટ": 3854,
      "કચ": 3855,
      "##ળના": 3856,
      "પોતાને": 3857,
      "##તરણ": 3858,
      "##બુક": 3859,
      "આવશ્યક": 3860,
      "આરામ": 3861,
      "ત્રીજા": 3862,
      "ઉકેલ": 3863,
      "મશી": 3864,
      "##ઇન": 3865,
      "સુના": 3866,
      "માંગણી": 3867,
      "એકબીજા": 3868,
      "ફાઈ": 3869,
      "##લિમ": 3870,
      "##વ્ર": 3871,
      "##્યંત": 3872,
      "શોધી": 3873,
      "સૂચના": 3874,
      "બચાવ": 3875,
      "ફાયદા": 3876,
      "ચેરમેન": 3877,
      "##ળું": 3878,
      "લોન્ચ": 3879,
      "##પરછ": 3880,
      "દિલ્હીમાં": 3881,
      "ડું": 3882,
      "પંડ": 3883,
      "##રોની": 3884,
      "##્યુલ": 3885,
      "કેસો": 3886,
      "હાઈકો": 3887,
      "૪૦": 3888,
      "##અપ": 3889,
      "હોત": 3890,
      "##્રીન": 3891,
      "##રાટ": 3892,
      "##ંદુ": 3893,
      "જીતી": 3894,
      "ધરવામાં": 3895,
      "બપોરે": 3896,
      "##પંચ": 3897,
      "બેસી": 3898,
      "##રૂપે": 3899,
      "અભિયાન": 3900,
      "આંદોલન": 3901,
      "ત્વચા": 3902,
      "જણા": 3903,
      "નોંધાયો": 3904,
      "ધારાસભ્યો": 3905,
      "27": 3906,
      "##ેક": 3907,
      "કરાયું": 3908,
      "મેદાન": 3909,
      "ઉભી": 3910,
      "વિન": 3911,
      "નેતાઓ": 3912,
      "ડ્રગ": 3913,
      "35": 3914,
      "ઓવર": 3915,
      "##ઘાન": 3916,
      "સંકે": 3917,
      "દરવા": 3918,
      "અભિન": 3919,
      "અહેવાલ": 3920,
      "ગરીબ": 3921,
      "કરેલા": 3922,
      "વ્યક્તિને": 3923,
      "અંતર": 3924,
      "નગરપાલિકા": 3925,
      "ગુણવ": 3926,
      "##સન": 3927,
      "##કિ": 3928,
      "##ંગના": 3929,
      "##ંતી": 3930,
      "બાબતો": 3931,
      "મોબાઇલ": 3932,
      "દુર": 3933,
      "હેડ": 3934,
      "સંકળ": 3935,
      "કાઢી": 3936,
      "સાંભળ": 3937,
      "નજ": 3938,
      "રાવ": 3939,
      "પરમ": 3940,
      "ચેપ": 3941,
      "હાથમાં": 3942,
      "અગ્રણી": 3943,
      "ભલામણ": 3944,
      "તકલી": 3945,
      "ઉના": 3946,
      "જતી": 3947,
      "બગ": 3948,
      "સાથેની": 3949,
      "પુરા": 3950,
      "પરિવારના": 3951,
      "ન્યાય": 3952,
      "બાઇ": 3953,
      "##એફ": 3954,
      "##ન્સે": 3955,
      "##ાદે": 3956,
      "સફેદ": 3957,
      "કોર્પોરેશન": 3958,
      "ઉછ": 3959,
      "સિલ": 3960,
      "દીપ": 3961,
      "આંતરરાષ્ટ્રીય": 3962,
      "શિયા": 3963,
      "સહી": 3964,
      "##ૂહ": 3965,
      "પર્ય": 3966,
      "##ંગ્લે": 3967,
      "સંબો": 3968,
      "ભૂત": 3969,
      "ડિઝાઇન": 3970,
      "એન્જ": 3971,
      "##િની": 3972,
      "##યાત": 3973,
      "ફ્રી": 3974,
      "##િજન": 3975,
      "દિવસથી": 3976,
      "ઉમેર": 3977,
      "ધોની": 3978,
      "કરાયા": 3979,
      "##ર્ત": 3980,
      "##ણીમાં": 3981,
      "અસરકારક": 3982,
      "૧૦૦": 3983,
      "મોડી": 3984,
      "વહીવ": 3985,
      "60": 3986,
      "બૉ": 3987,
      "##ઘર": 3988,
      "બિઝનેસ": 3989,
      "##ેરી": 3990,
      "##ed": 3991,
      "ચોમાસ": 3992,
      "પ્રયત્ન": 3993,
      "જમા": 3994,
      "હટ": 3995,
      "આવો": 3996,
      "મહેન": 3997,
      "સંગી": 3998,
      "સભા": 3999,
      "બોટ": 4000,
      "##ઉં": 4001,
      "વધારી": 4002,
      "ઓછું": 4003,
      "ગ્રામ્ય": 4004,
      "પાત્ર": 4005,
      "હૃ": 4006,
      "જેનો": 4007,
      "સંયુક્ત": 4008,
      "##ાઇમ": 4009,
      "નામની": 4010,
      "ખુશી": 4011,
      "ખેડૂતોને": 4012,
      "હાજરી": 4013,
      "મચી": 4014,
      "સમક્ષ": 4015,
      "કાર્યો": 4016,
      "સમયગ": 4017,
      "રૂપિયાની": 4018,
      "બેન્ક": 4019,
      "##ક્રમો": 4020,
      "##વાનગી": 4021,
      "કૂ": 4022,
      "ગમે": 4023,
      "##વાને": 4024,
      "##રાઇ": 4025,
      "તમારું": 4026,
      "અજાણ": 4027,
      "હેલ્થ": 4028,
      "કુદરતી": 4029,
      "દાદ": 4030,
      "રહેતી": 4031,
      "##ધાની": 4032,
      "ચોક": 4033,
      "જોઈને": 4034,
      "દુઃ": 4035,
      "ગ્રુપ": 4036,
      "અફઘાન": 4037,
      "આખા": 4038,
      "##ાવ્યું": 4039,
      "દ્વાર": 4040,
      "આધુ": 4041,
      "ડર": 4042,
      "##ૂમ": 4043,
      "સંભવ": 4044,
      "કૃષિ": 4045,
      "દસ્તા": 4046,
      "ભજ": 4047,
      "માઇ": 4048,
      "લેવાની": 4049,
      "વેપારીઓ": 4050,
      "ભલે": 4051,
      "શામ": 4052,
      "પરવાનગી": 4053,
      "આપણી": 4054,
      "ભારતે": 4055,
      "સેન્ટર": 4056,
      "વધીને": 4057,
      "##કાલિક": 4058,
      "સરે": 4059,
      "સ્ટાર": 4060,
      "સ્થાને": 4061,
      "દસ્તાવે": 4062,
      "વિગત": 4063,
      "કરેલી": 4064,
      "##..": 4065,
      "પ્રી": 4066,
      "સંક": 4067,
      "##િયે": 4068,
      "રૂમ": 4069,
      "પદાર્થ": 4070,
      "કલેકટર": 4071,
      "આના": 4072,
      "આશ્": 4073,
      "ફ્લા": 4074,
      "શૂટ": 4075,
      "##ણીએ": 4076,
      "મેસે": 4077,
      "ગુરૂ": 4078,
      "કહેવા": 4079,
      "બિહાર": 4080,
      "ગેરકાય": 4081,
      "ઘરની": 4082,
      "##દમ": 4083,
      "વધે": 4084,
      "જૂન": 4085,
      "વિચારો": 4086,
      "કાળજી": 4087,
      "કેન્સર": 4088,
      "હૃદય": 4089,
      "ઉભા": 4090,
      "##આતમાં": 4091,
      "સાઉ": 4092,
      "સરળતા": 4093,
      "અધિકાર": 4094,
      "આધુનિક": 4095,
      "500": 4096,
      "એમાં": 4097,
      "##્મી": 4098,
      "##ચ્યુ": 4099,
      "##ર્તન": 4100,
      "તીવ્ર": 4101,
      "તાત્કાલિક": 4102,
      "અગ": 4103,
      "ભ્ર": 4104,
      "##જાત": 4105,
      "બીજો": 4106,
      "લાગ્યા": 4107,
      "##ત્સવ": 4108,
      "હકીકત": 4109,
      "ઓક્ટોબર": 4110,
      "##કોના": 4111,
      "##કાશે": 4112,
      "વિકલ્પ": 4113,
      "પગાર": 4114,
      "ભરત": 4115,
      "શરીરમાં": 4116,
      "##ણાવ": 4117,
      "##રેટ": 4118,
      "બેસ": 4119,
      "તાલીમ": 4120,
      "કંઈક": 4121,
      "બાઈ": 4122,
      "હોટ": 4123,
      "ટૂંક": 4124,
      "રુ": 4125,
      "જોગ": 4126,
      "સુનાવણી": 4127,
      "##ંગ્લેન્ડ": 4128,
      "ગતિ": 4129,
      "ગ્રા": 4130,
      "##ચિત": 4131,
      "##ર્ગ": 4132,
      "##સ્કાર": 4133,
      "વિરૂ": 4134,
      "##ંકર": 4135,
      "##ંડો": 4136,
      "ગોળી": 4137,
      "રાજકોટમાં": 4138,
      "સલમાન": 4139,
      "પ્રિ": 4140,
      "વિતરણ": 4141,
      "દિવસની": 4142,
      "વ્યવહાર": 4143,
      "##ક્ષણિક": 4144,
      "કપડાં": 4145,
      "ઓલ": 4146,
      "##ળમાં": 4147,
      "##મિત": 4148,
      "##વાં": 4149,
      "પોરબ": 4150,
      "##જીત": 4151,
      "અંગેની": 4152,
      "વ્યાજ": 4153,
      "ગીત": 4154,
      "45": 4155,
      "કાળા": 4156,
      "જામી": 4157,
      "##ફત": 4158,
      "લોહી": 4159,
      "##સ્ટિક": 4160,
      "નોંધી": 4161,
      "આતંકવાદી": 4162,
      "ધાર્": 4163,
      "##ઓથી": 4164,
      "##ાનાં": 4165,
      "સાઈ": 4166,
      "##માન્ડ": 4167,
      "##સ્પદ": 4168,
      "રમી": 4169,
      "ગ્રહ": 4170,
      "##કર્તા": 4171,
      "ખોલ": 4172,
      "ધોર": 4173,
      "##ધરી": 4174,
      "સરદાર": 4175,
      "##ષ્ક": 4176,
      "ભાગે": 4177,
      "પાણીમાં": 4178,
      "ડોક્ટ": 4179,
      "##શ્વર": 4180,
      "અત્યંત": 4181,
      "આક્ષેપ": 4182,
      "##હત": 4183,
      "##્વી": 4184,
      "##ડીમાં": 4185,
      "કાપી": 4186,
      "સ્પે": 4187,
      "કૌભ": 4188,
      "29": 4189,
      "ફુ": 4190,
      "પ્રતિનિ": 4191,
      "પાડવામાં": 4192,
      "નિયમિત": 4193,
      "##કાંઠા": 4194,
      "##રોએ": 4195,
      "સુરતમાં": 4196,
      "સહિતની": 4197,
      "વાયરસના": 4198,
      "##શ્ચિત": 4199,
      "વાસ્તવિક": 4200,
      "શ્વાસ": 4201,
      "અલી": 4202,
      "અવાજ": 4203,
      "કાગ": 4204,
      "જણાવ્યુ": 4205,
      "ડેટા": 4206,
      "##મુખ": 4207,
      "ગુલા": 4208,
      "##ત્રા": 4209,
      "લાગ્યો": 4210,
      "ઓછામાં": 4211,
      "માર્ગદર્શન": 4212,
      "જથ્થો": 4213,
      "##કન": 4214,
      "##હાણ": 4215,
      "આભાર": 4216,
      "મારો": 4217,
      "##ગેટ": 4218,
      "##્રિયા": 4219,
      "નોંધાવી": 4220,
      "તુલ": 4221,
      "તત્વ": 4222,
      "લવ": 4223,
      "લંબ": 4224,
      "##ic": 4225,
      "##it": 4226,
      "##ક્ષમ": 4227,
      "રોકડ": 4228,
      "કયા": 4229,
      "##કાવ": 4230,
      "પગલા": 4231,
      "બન્યો": 4232,
      "ગુણવત્તા": 4233,
      "કરશો": 4234,
      "જુના": 4235,
      "ઓફર": 4236,
      "૨૨": 4237,
      "સાચ": 4238,
      "વ્યક્તિગત": 4239,
      "વહેલી": 4240,
      "આયુ": 4241,
      "ચાહ": 4242,
      "##સ્ટે": 4243,
      "દિવસો": 4244,
      "અંતે": 4245,
      "બરા": 4246,
      "બંદ": 4247,
      "##ામા": 4248,
      "આપીને": 4249,
      "ધાર્મિક": 4250,
      "ઘણો": 4251,
      "ઠા": 4252,
      "##િયાર": 4253,
      "આવેલું": 4254,
      "##શનલ": 4255,
      "કોર્પોરે": 4256,
      "આખરે": 4257,
      "ટિકિટ": 4258,
      "##ઉન્ટ": 4259,
      "સંસ્ક": 4260,
      "મહાર": 4261,
      "સોંપ": 4262,
      "મૃતદે": 4263,
      "વાંચો": 4264,
      "અમેરિકન": 4265,
      "મુસ્લિમ": 4266,
      "વાદ": 4267,
      "##is": 4268,
      "આવતાં": 4269,
      "##ાતો": 4270,
      "કરોડની": 4271,
      "મામલો": 4272,
      "નુકશાન": 4273,
      "પ્રસંગે": 4274,
      "ઇન્ટરને": 4275,
      "આકાર": 4276,
      "લિ": 4277,
      "##સ્તે": 4278,
      "ઓક્સિજન": 4279,
      "##ઇલ": 4280,
      "કેટલાં": 4281,
      "કમિટી": 4282,
      "જવાબદાર": 4283,
      "જ્યો": 4284,
      "ટા": 4285,
      "મારે": 4286,
      "##એશન": 4287,
      "રસો": 4288,
      "સિંગ": 4289,
      "##ણંદ": 4290,
      "##ડના": 4291,
      "સત્ય": 4292,
      "વિદ્યાર્થીઓને": 4293,
      "ક્રો": 4294,
      "ફ્લો": 4295,
      "##મસ": 4296,
      "##ન્યા": 4297,
      "##રામાં": 4298,
      "##િટલ": 4299,
      "##વાયું": 4300,
      "ખુલા": 4301,
      "સંસદ": 4302,
      "સરહ": 4303,
      "સ્વચ્છ": 4304,
      "##ાર્ટમેન્ટ": 4305,
      "કોંગ્રે": 4306,
      "યુવક": 4307,
      "##ત્સાહ": 4308,
      "તેમાંથી": 4309,
      "ઉપયોગી": 4310,
      "સુરક્ષિત": 4311,
      "ભાવમાં": 4312,
      "ચેત": 4313,
      "રિલીઝ": 4314,
      "અમેરિકાના": 4315,
      "સાથ": 4316,
      "રહેવું": 4317,
      "સંપત્તિ": 4318,
      "બોલિવૂડ": 4319,
      "ભંગ": 4320,
      "##ણના": 4321,
      "##ક્કર": 4322,
      "સુરેન્દ્ર": 4323,
      "સર્વિસ": 4324,
      "##ચર્ય": 4325,
      "ઠંડી": 4326,
      "શારી": 4327,
      "૦૦૦": 4328,
      "ગેસ": 4329,
      "નહોતી": 4330,
      "##લને": 4331,
      "##કડા": 4332,
      "સેક્સ": 4333,
      "આગા": 4334,
      "બનાવ્યા": 4335,
      "સોમનાથ": 4336,
      "તસવીરો": 4337,
      "તેવો": 4338,
      "ગણેશ": 4339,
      "ગાળા": 4340,
      "ભવ્ય": 4341,
      "આપો": 4342,
      "##રેક્ટર": 4343,
      "##કાને": 4344,
      "મેટ": 4345,
      "આઝ": 4346,
      "ક્રેડ": 4347,
      "દિલ": 4348,
      "વિરાટ": 4349,
      "વિડીયો": 4350,
      "સ્ટેશનમાં": 4351,
      "##પ્પ": 4352,
      "##જ્જ": 4353,
      "એવોર્ડ": 4354,
      "સરેરાશ": 4355,
      "રેટ": 4356,
      "રક્ષણ": 4357,
      "મુક્ત": 4358,
      "##ેલું": 4359,
      "પોલીસની": 4360,
      "જૂથ": 4361,
      "આગાહી": 4362,
      "##ન્શન": 4363,
      "##સેસ": 4364,
      "લીધું": 4365,
      "કંપનીના": 4366,
      "જેનાથી": 4367,
      "બતાવ": 4368,
      "હિસ્": 4369,
      "##શાંત": 4370,
      "ભટ્ટ": 4371,
      "##ાઇડ": 4372,
      "જુદી": 4373,
      "વિકસ": 4374,
      "પ્રેમી": 4375,
      "માધ્યમ": 4376,
      "##દમાં": 4377,
      "પ્રચાર": 4378,
      "ક્ષેત્રમાં": 4379,
      "નોટિસ": 4380,
      "ઉંમર": 4381,
      "ઓપર": 4382,
      "##સીબી": 4383,
      "##પ્રદ": 4384,
      "##ાઉન": 4385,
      "ક્રેડિટ": 4386,
      "વળી": 4387,
      "##પમાં": 4388,
      "##ઈન": 4389,
      "##વીને": 4390,
      "##જીની": 4391,
      "ગોલ્ડ": 4392,
      "કુટ": 4393,
      "ઘૂ": 4394,
      "##દુ": 4395,
      "વધતા": 4396,
      "અમલ": 4397,
      "બીમારી": 4398,
      "પ્રોત્સાહ": 4399,
      "શહેરી": 4400,
      "અભિનેતા": 4401,
      "સૈનિક": 4402,
      "વપરાશ": 4403,
      "ઘો": 4404,
      "સગી": 4405,
      "##ૂક": 4406,
      "તમારો": 4407,
      "##ૃત્વ": 4408,
      "બ્રિટ": 4409,
      "કલાકે": 4410,
      "સમીક્ષા": 4411,
      "ફર્": 4412,
      "સહે": 4413,
      "વિમાન": 4414,
      "##ેશભાઈ": 4415,
      "સંજો": 4416,
      "##સીપી": 4417,
      "ટોચ": 4418,
      "સુધારો": 4419,
      "##સીટી": 4420,
      "લેશે": 4421,
      "##ખ્યાત": 4422,
      "મજા": 4423,
      "##યન": 4424,
      "##હેબ": 4425,
      "ઇજા": 4426,
      "##લન": 4427,
      "##ખે": 4428,
      "##ાંક": 4429,
      "આવ્યુ": 4430,
      "પરમાર": 4431,
      "તોડી": 4432,
      "હજારો": 4433,
      "ભરતી": 4434,
      "જનરલ": 4435,
      "સંક્રમિત": 4436,
      "ઓનલાઇન": 4437,
      "તકલીફ": 4438,
      "આશ્ચર્ય": 4439,
      "બાત": 4440,
      "##કોમાં": 4441,
      "સમજી": 4442,
      "કાર્યક્રમો": 4443,
      "જવાની": 4444,
      "રહેલ": 4445,
      "તેઓને": 4446,
      "જુગાર": 4447,
      "અપના": 4448,
      "ઓછો": 4449,
      "વૃદ્ધિ": 4450,
      "ત્રણેય": 4451,
      "શારીરિક": 4452,
      "ટુક": 4453,
      "હાઉસ": 4454,
      "આફ્ર": 4455,
      "દરો": 4456,
      "પલ": 4457,
      "ફાઇ": 4458,
      "ફાર્": 4459,
      "##મિન": 4460,
      "##તૃત્વ": 4461,
      "કોન્ટ": 4462,
      "પોલ": 4463,
      "કાર્યકરો": 4464,
      "##તરના": 4465,
      "ઉત્તમ": 4466,
      "કંપનીએ": 4467,
      "લાંબી": 4468,
      "કાર્યક્રમમાં": 4469,
      "અટ": 4470,
      "ફોર": 4471,
      "##ીઓ": 4472,
      "##િલે": 4473,
      "એકદમ": 4474,
      "##રોધ": 4475,
      "##ત્મક": 4476,
      "મહાનગર": 4477,
      "ફોર્": 4478,
      "વેસ્ટ": 4479,
      "અપે": 4480,
      "મહેનત": 4481,
      "##નક": 4482,
      "દેશો": 4483,
      "વાવા": 4484,
      "મૌ": 4485,
      "વાસ": 4486,
      "##ષિક": 4487,
      "સ્વતંત્ર": 4488,
      "પાવર": 4489,
      "સરખામ": 4490,
      "અશો": 4491,
      "સદ": 4492,
      "મળવા": 4493,
      "બાળકને": 4494,
      "લાખની": 4495,
      "બહેન": 4496,
      "લક્ષ્મી": 4497,
      "કન્": 4498,
      "ભણ": 4499,
      "મેઘ": 4500,
      "દેવી": 4501,
      "યોજા": 4502,
      "તસવીર": 4503,
      "લાવ": 4504,
      "##ટન": 4505,
      "##િત્ય": 4506,
      "##માની": 4507,
      "મહેતા": 4508,
      "##પુરમાં": 4509,
      "દોડી": 4510,
      "કમિશનર": 4511,
      "અં": 4512,
      "ગૂ": 4513,
      "ઠેર": 4514,
      "##જને": 4515,
      "##કાના": 4516,
      "રાજા": 4517,
      "કોઈને": 4518,
      "સમસ્યાઓ": 4519,
      "નવું": 4520,
      "##શાળી": 4521,
      "વાલી": 4522,
      "ચીફ": 4523,
      "સાધનો": 4524,
      "પથ્થ": 4525,
      "મચ": 4526,
      "રક્ત": 4527,
      "લોકોનો": 4528,
      "તું": 4529,
      "રશિયા": 4530,
      "શાન": 4531,
      "૩૧": 4532,
      "##કુ": 4533,
      "હોઇ": 4534,
      "##લોમાં": 4535,
      "જાણીતા": 4536,
      "પ્રિયંકા": 4537,
      "70": 4538,
      "ભાઇ": 4539,
      "##નિસ": 4540,
      "જેલ": 4541,
      "ચૂક્યા": 4542,
      "કૌભાંડ": 4543,
      "##ધ્યા": 4544,
      "નોંધપાત્ર": 4545,
      "રસીકરણ": 4546,
      "પૃથ": 4547,
      "એન્જિન": 4548,
      "32": 4549,
      "ઓવ": 4550,
      "છા": 4551,
      "હુ": 4552,
      "હાં": 4553,
      "##ીન": 4554,
      "##ઇડ": 4555,
      "જોતા": 4556,
      "બેં": 4557,
      "પરિવારજનો": 4558,
      "મહત્ત્વ": 4559,
      "જર": 4560,
      "તૂ": 4561,
      "માની": 4562,
      "વિટ": 4563,
      "કોશ": 4564,
      "##વેર": 4565,
      "રાજકાર": 4566,
      "કિલોમીટર": 4567,
      "સમર્થન": 4568,
      "##હત્યા": 4569,
      "આચાર": 4570,
      "જારી": 4571,
      "##દની": 4572,
      "કાયદો": 4573,
      "ઉત્પાદનો": 4574,
      "મંજ": 4575,
      "80": 4576,
      "કેપ": 4577,
      "##ાઈડ": 4578,
      "ઉપકરણ": 4579,
      "પહોંચ્યો": 4580,
      "પ્લાન": 4581,
      "##ત્રે": 4582,
      "##ઠો": 4583,
      "શરૂઆતમાં": 4584,
      "ખોટ": 4585,
      "ઇતિહાસ": 4586,
      "##દાસ": 4587,
      "પડકાર": 4588,
      "કેસની": 4589,
      "ઉર્ફે": 4590,
      "આગેવાનો": 4591,
      "ડુંગ": 4592,
      "ચામ": 4593,
      "ચિત્ર": 4594,
      "પામી": 4595,
      "##ેશભાઇ": 4596,
      "ઘણીવાર": 4597,
      "મહત્વનું": 4598,
      "ભરી": 4599,
      "તેટ": 4600,
      "##સ્ટ્ર": 4601,
      "ગુના": 4602,
      "ગામની": 4603,
      "અનામત": 4604,
      "જલ": 4605,
      "સ્પી": 4606,
      "સુધાર": 4607,
      "મેન": 4608,
      "##ર્સને": 4609,
      "##એસટી": 4610,
      "199": 4611,
      "પરિણામે": 4612,
      "વૈજ્ઞાન": 4613,
      "ફેસબુક": 4614,
      "ઘણું": 4615,
      "એકમ": 4616,
      "પરીક્ષણ": 4617,
      "આખી": 4618,
      "ઉતર": 4619,
      "##વર્ક": 4620,
      "જેલમાં": 4621,
      "સાથેના": 4622,
      "જાતે": 4623,
      "કંઇ": 4624,
      "બ્રાન્ડ": 4625,
      "ટાઈ": 4626,
      "પાત": 4627,
      "ફા": 4628,
      "##ઝે": 4629,
      "##ર્દી": 4630,
      "દોઢ": 4631,
      "પાર્ટીના": 4632,
      "ટ્વીટ": 4633,
      "##લીપ": 4634,
      "##િયાણા": 4635,
      "ભાવના": 4636,
      "સ્પેશ": 4637,
      "સ્થાપના": 4638,
      "દિશામાં": 4639,
      "સ્પર્ધા": 4640,
      "ચહેરા": 4641,
      "ચલા": 4642,
      "ફિ": 4643,
      "જેવું": 4644,
      "અંગ્રે": 4645,
      "બાંધકામ": 4646,
      "મેસેજ": 4647,
      "##સ્ત્રી": 4648,
      "વ્યકિત": 4649,
      "ફોટા": 4650,
      "ખોટી": 4651,
      "2018": 4652,
      "આજના": 4653,
      "આંતરિક": 4654,
      "ચાંદી": 4655,
      "ઈજા": 4656,
      "બ્લો": 4657,
      "##માને": 4658,
      "ટેક્": 4659,
      "લાખો": 4660,
      "2017": 4661,
      "સિટી": 4662,
      "કેટલા": 4663,
      "નારાજ": 4664,
      "ક્": 4665,
      "##ંજન": 4666,
      "જોડાયેલા": 4667,
      "##મ્બરે": 4668,
      "અફઘાનિસ્તા": 4669,
      "ઈન્ટ": 4670,
      "##લત": 4671,
      "##કાત": 4672,
      "##ુત": 4673,
      "##સ્વ": 4674,
      "કમાણી": 4675,
      "ગુરુવારે": 4676,
      "સમયગાળા": 4677,
      "ઉંચ": 4678,
      "એપ્": 4679,
      "તસ્વી": 4680,
      "##િટે": 4681,
      "જેમાંથી": 4682,
      "સ્ટી": 4683,
      "પડ્યા": 4684,
      "##ળીને": 4685,
      "રાઠ": 4686,
      "##શ્વિક": 4687,
      "પ્રતિક્રિયા": 4688,
      "સરળતાથી": 4689,
      "ફિટ": 4690,
      "##જીના": 4691,
      "ટ્વિટ": 4692,
      "આત્મહત્યા": 4693,
      "વાનગી": 4694,
      "તણાવ": 4695,
      "##ડીંગ": 4696,
      "નેતૃત્વ": 4697,
      "હાલત": 4698,
      "##ગ્રસ્ત": 4699,
      "ચાલે": 4700,
      "વિભાગે": 4701,
      "પૂછપરછ": 4702,
      "અશોક": 4703,
      "બુક": 4704,
      "૨૩": 4705,
      "યુરો": 4706,
      "##લિંગ": 4707,
      "##વ્યા": 4708,
      "આવ્યાં": 4709,
      "સંદેશ": 4710,
      "રીત": 4711,
      "##પ્શન": 4712,
      "સંગ્રહ": 4713,
      "સમાજના": 4714,
      "ઓનલાઈન": 4715,
      "મની": 4716,
      "##શિયન": 4717,
      "અનુક": 4718,
      "વેક": 4719,
      "ભેટ": 4720,
      "##બારી": 4721,
      "##્ટી": 4722,
      "માને": 4723,
      "પોર્ટ": 4724,
      "રોહિત": 4725,
      "બન્યું": 4726,
      "રિઝ": 4727,
      "તળાવ": 4728,
      "નિયંત્રણ": 4729,
      "ઉડ": 4730,
      "શકાશે": 4731,
      "##જિત": 4732,
      "આવવા": 4733,
      "સાથી": 4734,
      "##ટીંગ": 4735,
      "ફરાર": 4736,
      "અલબ": 4737,
      "થોડો": 4738,
      "જામીન": 4739,
      "##ટીવ": 4740,
      "સુધીની": 4741,
      "મૃતદેહ": 4742,
      "કેબ": 4743,
      "##ંગા": 4744,
      "ચૂકી": 4745,
      "ભરવા": 4746,
      "દર્દીઓને": 4747,
      "વૈશ્વિક": 4748,
      "પંથ": 4749,
      "વ્હ": 4750,
      "ઉત્સાહ": 4751,
      "દુઃખ": 4752,
      "બરાબર": 4753,
      "કવિ": 4754,
      "ખાંડ": 4755,
      "##લાની": 4756,
      "સંબંધી": 4757,
      "અમેરિકામાં": 4758,
      "ડ્રાઇ": 4759,
      "દવાઓ": 4760,
      "ઠાક": 4761,
      "હથ": 4762,
      "##્સમાં": 4763,
      "વિરોધી": 4764,
      "##ing": 4765,
      "મેનેજમેન્ટ": 4766,
      "સક્ષમ": 4767,
      "##સ્ય": 4768,
      "##ંખ": 4769,
      "વિલ": 4770,
      "રેસ્ટ": 4771,
      "નાખી": 4772,
      "શ્રેણી": 4773,
      "દુનિયામાં": 4774,
      "બ્લેક": 4775,
      "બચ્ચ": 4776,
      "##મંડ": 4777,
      "##કાની": 4778,
      "નિમણ": 4779,
      "વર્ષો": 4780,
      "જઈને": 4781,
      "આંખો": 4782,
      "નિર્દેશ": 4783,
      "અણ": 4784,
      "ચિક": 4785,
      "ચારે": 4786,
      "##િઓ": 4787,
      "##હાજ": 4788,
      "રાજુ": 4789,
      "વર્ણ": 4790,
      "બીજે": 4791,
      "પીડા": 4792,
      "દેશોમાં": 4793,
      "##લાયન્સ": 4794,
      "આંકડો": 4795,
      "ઓર": 4796,
      "થવું": 4797,
      "##ઘુ": 4798,
      "##સીસી": 4799,
      "લીંબ": 4800,
      "શૂટિંગ": 4801,
      "કપાસ": 4802,
      "હર્ષ": 4803,
      "##સણ": 4804,
      "ઉપાય": 4805,
      "દીકરા": 4806,
      "ટેકનો": 4807,
      "એક્ટિવ": 4808,
      "રાઠોડ": 4809,
      "36": 4810,
      "ઉત": 4811,
      "વડે": 4812,
      "##ષી": 4813,
      "વિસ": 4814,
      "##ેશ્વર": 4815,
      "પુલ": 4816,
      "સીએમ": 4817,
      "કાર્યરત": 4818,
      "સ્વાગત": 4819,
      "દિગ્": 4820,
      "વૃદ્ધ": 4821,
      "આર્ટ": 4822,
      "ગઢ": 4823,
      "ચાવ": 4824,
      "##િષ્ઠ": 4825,
      "વર્ક": 4826,
      "કર્ણા": 4827,
      "નિષ્ફળ": 4828,
      "મંદિરમાં": 4829,
      "લૂંટ": 4830,
      "સ્તરે": 4831,
      "37": 4832,
      "રાય": 4833,
      "##લમ": 4834,
      "##ગારી": 4835,
      "વિધ": 4836,
      "##તોને": 4837,
      "મહિને": 4838,
      "કય": 4839,
      "કક્ષા": 4840,
      "પવન": 4841,
      "##યલ": 4842,
      "##ંદા": 4843,
      "##ંદગી": 4844,
      "##વેલ": 4845,
      "##સ્ત્રો": 4846,
      "ગઈકાલે": 4847,
      "ટ્રક": 4848,
      "ત્રીજી": 4849,
      "ઉદ્": 4850,
      "ટાઇ": 4851,
      "પાર્": 4852,
      "રસ્તો": 4853,
      "##ગ્ન": 4854,
      "##શય": 4855,
      "##ુંટ": 4856,
      "સ્કી": 4857,
      "કારકિ": 4858,
      "તોડ": 4859,
      "##જીવન": 4860,
      "##ાહો": 4861,
      "કોરોનાથી": 4862,
      "##ળીયા": 4863,
      "પેદા": 4864,
      "આદિ": 4865,
      "દિશા": 4866,
      "નાયબ": 4867,
      "ઇલેક્ટ": 4868,
      "ઓટો": 4869,
      "તિ": 4870,
      "##વાડા": 4871,
      "##ાઇઝ": 4872,
      "લગાવ": 4873,
      "વિશ્વમાં": 4874,
      "##ધિક": 4875,
      "##ચાર્જ": 4876,
      "એકત્ર": 4877,
      "##ેશને": 4878,
      "##િવે": 4879,
      "રાઉન્ડ": 4880,
      "ભાગના": 4881,
      "અમદાવાદના": 4882,
      "ડેરી": 4883,
      "ગયેલા": 4884,
      "સંગીત": 4885,
      "કારકિર્દી": 4886,
      "ઊભી": 4887,
      "ભરે": 4888,
      "##પરા": 4889,
      "ઓફિ": 4890,
      "##ુબ": 4891,
      "##ચંદ": 4892,
      "બનાવો": 4893,
      "સહયોગ": 4894,
      "##ર્ડર": 4895,
      "પત્રકાર": 4896,
      "હિંસા": 4897,
      "વિપક્ષ": 4898,
      "મર્યાદા": 4899,
      "આણંદ": 4900,
      "ખંડ": 4901,
      "૨૬": 4902,
      "##િષ્ટ": 4903,
      "હોવું": 4904,
      "થઈને": 4905,
      "##વારના": 4906,
      "સંબંધો": 4907,
      "સ્થાપિત": 4908,
      "ભ્રષ્ટ": 4909,
      "અલબત્ત": 4910,
      "ઈચ્છ": 4911,
      "##નોને": 4912,
      "વધશે": 4913,
      "એટલી": 4914,
      "વિસ્તારના": 4915,
      "ગાંધીએ": 4916,
      "નજરે": 4917,
      "બાતમી": 4918,
      "પવ": 4919,
      "મરી": 4920,
      "##ગલ": 4921,
      "##ર્મો": 4922,
      "સંવે": 4923,
      "નીચ": 4924,
      "##ત્વે": 4925,
      "અર્થે": 4926,
      "ન્યૂઝ": 4927,
      "અપેક્ષા": 4928,
      "કર્ણાટક": 4929,
      "રચ": 4930,
      "##પિત": 4931,
      "##ઈન્ટ": 4932,
      "માછ": 4933,
      "કોમ્પ": 4934,
      "હોવી": 4935,
      "સીટ": 4936,
      "માંગે": 4937,
      "દર્દીઓની": 4938,
      "મૂલ્ય": 4939,
      "ઊભા": 4940,
      "કન્ટે": 4941,
      "ઝઘ": 4942,
      "##om": 4943,
      "મોઢ": 4944,
      "સુશાંત": 4945,
      "કોરોનાને": 4946,
      "રસપ્રદ": 4947,
      "હિંમત": 4948,
      "સોલંકી": 4949,
      "અસ્થ": 4950,
      "કને": 4951,
      "ઘાયલ": 4952,
      "દાય": 4953,
      "નર": 4954,
      "યહો": 4955,
      "કરું": 4956,
      "ટીમો": 4957,
      "ગુજરાતની": 4958,
      "##ોરન્ટ": 4959,
      "કિશ": 4960,
      "ચલાવી": 4961,
      "##દ્રા": 4962,
      "છેતર": 4963,
      "##લીન": 4964,
      "નિશાન": 4965,
      "ગોંડ": 4966,
      "કરોડના": 4967,
      "ત્યાંથી": 4968,
      "જૂની": 4969,
      "મીડિયામાં": 4970,
      "પ્રોડક્ટ": 4971,
      "ગીર": 4972,
      "વસ્તી": 4973,
      "શાંત": 4974,
      "સ્વસ્થ": 4975,
      "ટીમના": 4976,
      "દરવાજા": 4977,
      "અંધ": 4978,
      "રિક": 4979,
      "ડ્રાઈ": 4980,
      "રાજ્યોમાં": 4981,
      "અહ": 4982,
      "લુ": 4983,
      "વોલ": 4984,
      "##20": 4985,
      "##પ્લે": 4986,
      "દેશભરમાં": 4987,
      "અંદાજે": 4988,
      "હાઇકો": 4989,
      "કોંગ્રેસે": 4990,
      "પડતા": 4991,
      "દુકાનો": 4992,
      "ચર્ચામાં": 4993,
      "સત્તાવાર": 4994,
      "ચમચી": 4995,
      "મિશ્રણ": 4996,
      "ઓપરેશન": 4997,
      "ટેકનોલોજી": 4998,
      "બાય": 4999,
      "##લીના": 5000,
      "##્યોર": 5001,
      "##િયત": 5002,
      "પ્રયાસો": 5003,
      "યાદીમાં": 5004,
      "છુ": 5005,
      "૨૮": 5006,
      "કરાવવા": 5007,
      "આપવાનું": 5008,
      "##બીઆઈ": 5009,
      "નજીકના": 5010,
      "અજય": 5011,
      "દિને": 5012,
      "##ાયી": 5013,
      "સરપંચ": 5014,
      "ગુસ્": 5015,
      "લેવી": 5016,
      "પૂરા": 5017,
      "ચેતવણી": 5018,
      "શાનદાર": 5019,
      "ઘરના": 5020,
      "લહેર": 5021,
      "૬૦": 5022,
      "##ંસા": 5023,
      "માટી": 5024,
      "પ્રયોગ": 5025,
      "મોક": 5026,
      "વાયુ": 5027,
      "પર્યાવ": 5028,
      "ખુલાસો": 5029,
      "કટ": 5030,
      "તકે": 5031,
      "પક": 5032,
      "પેશ": 5033,
      "લૉ": 5034,
      "##સૂ": 5035,
      "##વાયા": 5036,
      "##ંગી": 5037,
      "કારો": 5038,
      "અધિકારીએ": 5039,
      "શિવસેના": 5040,
      "##ફરન્સ": 5041,
      "શબ્દો": 5042,
      "##રાગ": 5043,
      "##શિપ": 5044,
      "##્યલ": 5045,
      "પરના": 5046,
      "બનાવવાની": 5047,
      "ભાજપે": 5048,
      "સંશોધન": 5049,
      "આમાં": 5050,
      "જવું": 5051,
      "બાયો": 5052,
      "##બળ": 5053,
      "##ર્ટે": 5054,
      "માઈ": 5055,
      "વરસાદની": 5056,
      "સેવાઓ": 5057,
      "અક્ષય": 5058,
      "કેટલાંક": 5059,
      "ચર": 5060,
      "##દામ": 5061,
      "##શક": 5062,
      "કરાઇ": 5063,
      "##લીને": 5064,
      "લીલા": 5065,
      "ઉપયોગમાં": 5066,
      "મહત્વની": 5067,
      "કાશ્મીર": 5068,
      "વલસા": 5069,
      "મહેસાણા": 5070,
      "મશીન": 5071,
      "શામેલ": 5072,
      "નહ": 5073,
      "##le": 5074,
      "કોચ": 5075,
      "##સીના": 5076,
      "વલણ": 5077,
      "અમી": 5078,
      "સત્ર": 5079,
      "##છે": 5080,
      "તેણી": 5081,
      "##્યાણ": 5082,
      "##વીર": 5083,
      "મુકી": 5084,
      "પેટા": 5085,
      "એક્સપ": 5086,
      "તબીબી": 5087,
      "ડ્રેસ": 5088,
      "સખ": 5089,
      "##ંટી": 5090,
      "##્રિ": 5091,
      "બેન": 5092,
      "કામો": 5093,
      "વીમા": 5094,
      "ફરીયા": 5095,
      "બ્રહ": 5096,
      "વાર્ષિક": 5097,
      "સંકેત": 5098,
      ".'": 5099,
      "ઇન્ટર": 5100,
      "કૈ": 5101,
      "શિકાર": 5102,
      "કરાર": 5103,
      "##ાનુ": 5104,
      "જીએસટી": 5105,
      "દિલ્હીઃ": 5106,
      "કાલે": 5107,
      "વેલ": 5108,
      "##રાદ": 5109,
      "##ાણે": 5110,
      "##સીએ": 5111,
      "દિવસના": 5112,
      "તહેવાર": 5113,
      "ફ્લ": 5114,
      "યથ": 5115,
      "હનુ": 5116,
      "##્રિક": 5117,
      "##રીની": 5118,
      "##ડાને": 5119,
      "રાખવી": 5120,
      "જણાવે": 5121,
      "મૂર્તિ": 5122,
      "ચઢ": 5123,
      "ફૂલ": 5124,
      "##વેટ": 5125,
      "##િંગમાં": 5126,
      "વાપ": 5127,
      "પ્લાસ્ટિક": 5128,
      "૩૫": 5129,
      "##જરી": 5130,
      "છેલ્": 5131,
      "કરાય": 5132,
      "સાબર": 5133,
      "##લેથી": 5134,
      "##પ્તિ": 5135,
      "ભારતને": 5136,
      "##મરાન": 5137,
      "ગ્રાહકો": 5138,
      "જ્ઞાન": 5139,
      "સુરેન્દ્રનગર": 5140,
      "ચક્ર": 5141,
      "આજથી": 5142,
      "પરિણામો": 5143,
      "મધ્યમ": 5144,
      "પરેશાન": 5145,
      "કુટુંબ": 5146,
      "કલ્પ": 5147,
      "થા": 5148,
      "##ફતે": 5149,
      "છેલ્લી": 5150,
      "##નીતિ": 5151,
      "##્યુટી": 5152,
      "પરિષ": 5153,
      "સમાપ્ત": 5154,
      "પુરવ": 5155,
      "વરિષ્ઠ": 5156,
      "જાળવી": 5157,
      "પુનઃ": 5158,
      "ડુંગળી": 5159,
      "ચડ": 5160,
      "છબી": 5161,
      "ફ્": 5162,
      "સળ": 5163,
      "##કશન": 5164,
      "##કતમાં": 5165,
      "મુખ્યત્વે": 5166,
      "રિલાયન્સ": 5167,
      "થોડું": 5168,
      "જસ્ટ": 5169,
      "##ધર": 5170,
      "##લીયા": 5171,
      "##ડીના": 5172,
      "યુઝ": 5173,
      "પુરી": 5174,
      "જરૂરિયાત": 5175,
      "ડાન્સ": 5176,
      "કોન્ટ્રા": 5177,
      "ઘેર": 5178,
      "દૈ": 5179,
      "દાહો": 5180,
      "પ્લો": 5181,
      "##ંદન": 5182,
      "રાખવું": 5183,
      "રોકવા": 5184,
      "જોડાયા": 5185,
      "પોરબંદર": 5186,
      "ઊંઘ": 5187,
      "મનમાં": 5188,
      "##us": 5189,
      "##નેટ": 5190,
      "##ાયર": 5191,
      "આપણને": 5192,
      "ડિજ": 5193,
      "##િપલ": 5194,
      "##ફ્ટી": 5195,
      "એન્ટ્રી": 5196,
      ").": 5197,
      "##કતા": 5198,
      "જેવો": 5199,
      "સંકટ": 5200,
      "##રાને": 5201,
      "બનાસ": 5202,
      "સ્થિર": 5203,
      "##000": 5204,
      "બીજું": 5205,
      "ડિવ": 5206,
      "##િયાના": 5207,
      "બેંગ": 5208,
      "##લોડ": 5209,
      "બનવા": 5210,
      "આફ્રિકા": 5211,
      "ર૦": 5212,
      "##સિસ": 5213,
      "##જીભાઈ": 5214,
      "##મીએ": 5215,
      "ડેમ": 5216,
      "##ાગ્રામ": 5217,
      "ઇંચ": 5218,
      "ટિ": 5219,
      "તત્": 5220,
      "##ાચાર": 5221,
      "##કંપ": 5222,
      "##વ્યો": 5223,
      "આપવાનો": 5224,
      "નિપજ": 5225,
      "તપાસમાં": 5226,
      "અરવિંદ": 5227,
      "મહત્વના": 5228,
      "નેટવર્ક": 5229,
      "સંભવિત": 5230,
      "ઇચ્છા": 5231,
      "કમ્પ": 5232,
      "જાે": 5233,
      "વ્યાપક": 5234,
      "વળતર": 5235,
      "સંતોષ": 5236,
      "સચિવ": 5237,
      "ચકાસ": 5238,
      "##્યાલય": 5239,
      "અજાણ્યા": 5240,
      "સંજોગ": 5241,
      "75": 5242,
      "અશ્વ": 5243,
      "આવતો": 5244,
      "હોલ": 5245,
      "##દ્ધા": 5246,
      "પડતી": 5247,
      "સિરીઝ": 5248,
      "પરિવારો": 5249,
      "મારફતે": 5250,
      "બચાવવા": 5251,
      "સંપર્": 5252,
      "બાકીના": 5253,
      "મૂકવામાં": 5254,
      "કર્મચારીઓને": 5255,
      "ભાષા": 5256,
      "થતું": 5257,
      "##સને": 5258,
      "રોષ": 5259,
      "##ાઉન્ડ": 5260,
      "સાવચે": 5261,
      "વીજળી": 5262,
      "રક્ષા": 5263,
      "##લક": 5264,
      "વિજે": 5265,
      "હોવ": 5266,
      "બેગ": 5267,
      "રૂમમાં": 5268,
      "##િંક": 5269,
      "હેન્ડ": 5270,
      "બનેલી": 5271,
      "##શિષ્ટ": 5272,
      "વ્યાપ": 5273,
      "ગુમાવી": 5274,
      "પ્રભાવિત": 5275,
      "વહીવટી": 5276,
      "પૃથ્વી": 5277,
      "પર્યાવરણ": 5278,
      "90": 5279,
      "ઉતાર": 5280,
      "છુપ": 5281,
      "ફ્લે": 5282,
      "વાવે": 5283,
      "##ગ્લા": 5284,
      "##ફ્": 5285,
      "પ્રમો": 5286,
      "સરસ": 5287,
      "પાડે": 5288,
      "રૂપે": 5289,
      "રેખા": 5290,
      "ચાલો": 5291,
      "ટ્વિટર": 5292,
      "એન્ટી": 5293,
      "ચૌહાણ": 5294,
      "પાટીદાર": 5295,
      "ઈંચ": 5296,
      "રુપ": 5297,
      "##સારી": 5298,
      "##ડું": 5299,
      "##ફળી": 5300,
      "પાણીના": 5301,
      "પગલું": 5302,
      "ટીમને": 5303,
      "નવરાત": 5304,
      "માગણી": 5305,
      "પુસ્તક": 5306,
      "તાર": 5307,
      "##ાએ": 5308,
      "##તાથી": 5309,
      "પ્રદ": 5310,
      "મોટે": 5311,
      "ઉમેરો": 5312,
      "બનેલા": 5313,
      "માણસો": 5314,
      "પ્લેટફોર્મ": 5315,
      "આદિવાસી": 5316,
      "બપોર": 5317,
      "##ol": 5318,
      "મહો": 5319,
      "સીર": 5320,
      "વધારવા": 5321,
      "હનુમાન": 5322,
      "અબજ": 5323,
      "ભરૂ": 5324,
      "##જમાં": 5325,
      "##ov": 5326,
      "##ક્તા": 5327,
      "વર્ષોથી": 5328,
      "સેવન": 5329,
      "પીએસ": 5330,
      "પ્રસિ": 5331,
      "મીઠું": 5332,
      "દલી": 5333,
      "વાવ": 5334,
      "સન": 5335,
      "##લનો": 5336,
      "આવરી": 5337,
      "આવનાર": 5338,
      "##સીબ": 5339,
      "ગણવામાં": 5340,
      "શાહે": 5341,
      "પાકિસ્તાનના": 5342,
      "ચુકાદ": 5343,
      "વ્હી": 5344,
      "રજિસ્ટ": 5345,
      "પવિત્ર": 5346,
      "હુક": 5347,
      "##ોનો": 5348,
      "##am": 5349,
      "##ર્ચે": 5350,
      "##્યુટર": 5351,
      "પોલીસના": 5352,
      "ત્રાસ": 5353,
      "ખાતા": 5354,
      "યાદવ": 5355,
      "જોરદાર": 5356,
      "પુરાવા": 5357,
      "ડાયા": 5358,
      "પિ": 5359,
      "ફૂડ": 5360,
      "રાં": 5361,
      "લાવવા": 5362,
      "પ્રસ્તા": 5363,
      "##ાઈટ": 5364,
      "##્રેટ": 5365,
      "શક્યા": 5366,
      "કોઇપણ": 5367,
      "આસપાસના": 5368,
      "તેજસ્વી": 5369,
      "ઝાડ": 5370,
      "શહી": 5371,
      "શાખ": 5372,
      "નોંધનીય": 5373,
      "મુદ્દો": 5374,
      "ક્ષેત્રે": 5375,
      "નહોતો": 5376,
      "પશુપાલ": 5377,
      "કેમેરા": 5378,
      "કન્યા": 5379,
      "ગું": 5380,
      "૨૭": 5381,
      "##દાયક": 5382,
      "##ad": 5383,
      "સાહ": 5384,
      "સાહેબ": 5385,
      "યુપી": 5386,
      "પુરૂ": 5387,
      "દુષ્ક": 5388,
      "ખુલ્લા": 5389,
      "અધિકારીઓએ": 5390,
      "રાશિના": 5391,
      "મનુ": 5392,
      "##કૃત": 5393,
      "##દિવ": 5394,
      "સાચી": 5395,
      "શહેરની": 5396,
      "કલ્યાણ": 5397,
      "બ્લડ": 5398,
      "ઓફિસર": 5399,
      "##દામાલ": 5400,
      "કથ": 5401,
      "##ફોર્": 5402,
      "આવીને": 5403,
      "રિસર્ચ": 5404,
      "ઘા": 5405,
      "ફાઇન": 5406,
      "##રાન": 5407,
      "માફ": 5408,
      "અદાલ": 5409,
      "સમુદ્ર": 5410,
      "કિશોર": 5411,
      "##કૃ": 5412,
      "##લાના": 5413,
      "રાજધાની": 5414,
      "સુધીના": 5415,
      "પડ્યું": 5416,
      "પુછ": 5417,
      "બોલાવી": 5418,
      "ચેનલ": 5419,
      "તૈયારીઓ": 5420,
      "પરિવારને": 5421,
      "મારું": 5422,
      "જ્યોતિ": 5423,
      "માછલી": 5424,
      "ગાર્ડ": 5425,
      "દંપ": 5426,
      "##ન્દ્રસિંહ": 5427,
      "પ્રદેશમાં": 5428,
      "બાંગ્લા": 5429,
      "મગફળી": 5430,
      "સંગઠન": 5431,
      "કિસ": 5432,
      "સાજા": 5433,
      "##વાયો": 5434,
      "જોડી": 5435,
      "શકશો": 5436,
      "સ્વપ્": 5437,
      "બોલાવ": 5438,
      "રેલી": 5439,
      "અવાર": 5440,
      "ઓડ": 5441,
      "##ળની": 5442,
      "કારમાં": 5443,
      "##કાઉન્ટ": 5444,
      "યોગી": 5445,
      "સફાઈ": 5446,
      "2016": 5447,
      "વિટામ": 5448,
      "એસ્ટ": 5449,
      "લાવી": 5450,
      "ચીનના": 5451,
      "ટોપ": 5452,
      "દર્શાવે": 5453,
      "અંબાણી": 5454,
      "પ્રસ્તાવ": 5455,
      "વિશિષ્ટ": 5456,
      "##લોની": 5457,
      "##ર્સની": 5458,
      "પરિવર્તન": 5459,
      "સુરતના": 5460,
      "પૂરું": 5461,
      "##કર્મી": 5462,
      "મુસાફરી": 5463,
      "સંસ્કૃતિ": 5464,
      "આકાશ": 5465,
      "તારા": 5466,
      "લિસ્ટ": 5467,
      "##ch": 5468,
      "##ર્ના": 5469,
      "મહાદે": 5470,
      "રોલ": 5471,
      "##િંગ્સ": 5472,
      "દુષ્કર્મ": 5473,
      "ઑફ": 5474,
      "##િએ": 5475,
      "સમૃ": 5476,
      "ઉપચાર": 5477,
      "##સીની": 5478,
      "મોદીના": 5479,
      "જેટલો": 5480,
      "માન્યતા": 5481,
      "ડૂ": 5482,
      "દિન": 5483,
      "##ંશ": 5484,
      "##લીક": 5485,
      "યુએસ": 5486,
      "##સામાં": 5487,
      "##રસિંહ": 5488,
      "રાજ્યસભા": 5489,
      "લાખથી": 5490,
      "ખેડુ": 5491,
      "2014": 5492,
      "ટૂંકા": 5493,
      "હાઇવે": 5494,
      "નાંખ": 5495,
      "કંટ્રોલ": 5496,
      "વિરૂદ્ધ": 5497,
      "રહ્યુ": 5498,
      "##િલના": 5499,
      "##૦૦૦": 5500,
      "આમંત્ર": 5501,
      "કોન્ફરન્સ": 5502,
      "હિસ્સો": 5503,
      "દોર": 5504,
      "##નનું": 5505,
      "##ંથ": 5506,
      "##ોનું": 5507,
      "##ઘટના": 5508,
      "ભાવે": 5509,
      "ત્યારથી": 5510,
      "ગૌરવ": 5511,
      "મોકલવામાં": 5512,
      "કથા": 5513,
      "સપોર્ટ": 5514,
      "##કાજ": 5515,
      "##એચ": 5516,
      "##સ્ફો": 5517,
      "સંર": 5518,
      "મેક": 5519,
      "પહેલેથી": 5520,
      "સીધી": 5521,
      "એમના": 5522,
      "ખોટા": 5523,
      "શ્રીલ": 5524,
      "બ્રેક": 5525,
      "ડ્રગ્સ": 5526,
      "33": 5527,
      "##સન્સ": 5528,
      "કરીશું": 5529,
      "##ાઈન": 5530,
      "##ારોહ": 5531,
      "##ટોક": 5532,
      "અત્રે": 5533,
      "##ટ્સએ": 5534,
      ".)": 5535,
      "અસ્ત": 5536,
      "##હુ": 5537,
      "##ત્તી": 5538,
      "એમને": 5539,
      "જરૂરિયા": 5540,
      "ધ્યાને": 5541,
      "મનોર": 5542,
      "નીતિન": 5543,
      "બાઇક": 5544,
      "સાઉથ": 5545,
      "ટાળ": 5546,
      "ડ્રો": 5547,
      "##પેટ": 5548,
      "પોપ": 5549,
      "કોરોનાનો": 5550,
      "કાયદેસર": 5551,
      "આરોપીઓ": 5552,
      "રેલ્વે": 5553,
      "એપ્લિક": 5554,
      "પાય": 5555,
      "બિમ": 5556,
      "##ૂન": 5557,
      "##ir": 5558,
      "##ાસા": 5559,
      "##તોમાં": 5560,
      "નાશ": 5561,
      "પૂરો": 5562,
      "વ્યસ્ત": 5563,
      "દુખ": 5564,
      "મહારાષ્ટ્રમાં": 5565,
      "સંઘર્ષ": 5566,
      "વાર્તા": 5567,
      "મહારાજ": 5568,
      "હલ": 5569,
      "૨૯": 5570,
      "##જાગ્ર": 5571,
      "##ટને": 5572,
      "##વાલા": 5573,
      "કેના": 5574,
      "પોઇન્ટ": 5575,
      "આપઘાત": 5576,
      "રહેવાની": 5577,
      "વર્ષનો": 5578,
      "નવસારી": 5579,
      "બાંધી": 5580,
      "કૃષ્ણ": 5581,
      "ગ્રાહકોને": 5582,
      "સ્માર્ટફોન": 5583,
      "આહાર": 5584,
      "ગ્રીન": 5585,
      "આવનારા": 5586,
      "રહેતો": 5587,
      "અનિલ": 5588,
      "હાલતમાં": 5589,
      "પ્રોગ્રામ": 5590,
      "રોજગાર": 5591,
      "હોસ્પિટલના": 5592,
      "અર્જુ": 5593,
      "ભીડ": 5594,
      "ચૌધરી": 5595,
      "કારણોસર": 5596,
      "ડિજિટલ": 5597,
      "દિપ": 5598,
      "રિટ": 5599,
      "##ણની": 5600,
      "બોલા": 5601,
      "ચેમ્પ": 5602,
      "##ચીન": 5603,
      "માંગો": 5604,
      "૨૦૧૯": 5605,
      "સુવિધાઓ": 5606,
      "ગ્લો": 5607,
      "ત્યા": 5608,
      "##ષા": 5609,
      "##વાણી": 5610,
      "જેનું": 5611,
      "##્યુટ": 5612,
      "એમની": 5613,
      "શહેરોમાં": 5614,
      "પ્રગતિ": 5615,
      "માધ્યમથી": 5616,
      "દૈનિક": 5617,
      "અંજ": 5618,
      "કિન": 5619,
      "કબ્": 5620,
      "##ારમાં": 5621,
      "માપ": 5622,
      "##ડીઓ": 5623,
      "##ાર્થના": 5624,
      "સ્ત્રીઓ": 5625,
      "##ati": 5626,
      "ફટકાર": 5627,
      "પ્રભુ": 5628,
      "કેબિને": 5629,
      "ઉભ": 5630,
      "રખ": 5631,
      "વૉ": 5632,
      "સજ્જ": 5633,
      "પ્રવાહ": 5634,
      "રૂા": 5635,
      "નીપજ": 5636,
      "લાગશે": 5637,
      "મહેશ": 5638,
      "બહેનો": 5639,
      "મહત્તમ": 5640,
      "આચાર્ય": 5641,
      "મહાદેવ": 5642,
      "ઈન": 5643,
      "કપૂ": 5644,
      "##ટિલ": 5645,
      "##ઝનમાં": 5646,
      "##તરો": 5647,
      "##ાંતર": 5648,
      "જાપાન": 5649,
      "વિષે": 5650,
      "પ્રશંસા": 5651,
      "બતાવી": 5652,
      "જલ્": 5653,
      "##કુલ": 5654,
      "##ગન": 5655,
      "રહો": 5656,
      "અમિતા": 5657,
      "સીધા": 5658,
      "સ્વય": 5659,
      "ઘટનાસ્થ": 5660,
      "વીડિયોમાં": 5661,
      "ઝોન": 5662,
      "વિજેતા": 5663,
      "એનો": 5664,
      "ઠીક": 5665,
      "##ાગર": 5666,
      "મળેલી": 5667,
      "નિરા": 5668,
      "રાજ્યની": 5669,
      "અપહરણ": 5670,
      "મંદિરના": 5671,
      "મધ્યપ્રદેશ": 5672,
      "મિલિયન": 5673,
      "પ્રારંભિક": 5674,
      "રજુઆત": 5675,
      "દિનેશ": 5676,
      "સંજોગોમાં": 5677,
      "વાવેતર": 5678,
      "ખર્ચે": 5679,
      "થવાના": 5680,
      "##લબ": 5681,
      "##ગણ": 5682,
      "##વેન્ટ": 5683,
      "રહેવાસી": 5684,
      "નિદાન": 5685,
      "છોકરા": 5686,
      "લગાવ્યો": 5687,
      "સફર": 5688,
      "અરજ": 5689,
      "પાકિસ્તાની": 5690,
      "બનાવીને": 5691,
      "ઇન્ડસ્ટ્રી": 5692,
      "બહુમ": 5693,
      "એક્ટ્રેસ": 5694,
      "આદિત્ય": 5695,
      "વહેંચ": 5696,
      "હળવા": 5697,
      "આને": 5698,
      "ઉલ્લ": 5699,
      "બાહ": 5700,
      "બિર": 5701,
      "૭૦": 5702,
      "##િશ્": 5703,
      "##ur": 5704,
      "##દ્દી": 5705,
      "માંગી": 5706,
      "વેક્સી": 5707,
      "##િમિ": 5708,
      "ભાજપની": 5709,
      "ક્રિયા": 5710,
      "દોષ": 5711,
      "શિક્ષક": 5712,
      "પ્રદેશના": 5713,
      "##ઝીલેન્ડ": 5714,
      "શૈલી": 5715,
      "ધરાવતી": 5716,
      "તૂટી": 5717,
      "##જાગ્રસ્ત": 5718,
      "ખાઈ": 5719,
      "##ુડ": 5720,
      "નિધન": 5721,
      "મહિલાને": 5722,
      "મિશન": 5723,
      "વિચારી": 5724,
      "મોહમ્": 5725,
      "મહાનગરપાલિકા": 5726,
      "સખત": 5727,
      "##os": 5728,
      "##ાદુ": 5729,
      "સામાન": 5730,
      "##િંગની": 5731,
      "બાળકોના": 5732,
      "હરિયાણા": 5733,
      "અડધા": 5734,
      "પ્રોત્સાહન": 5735,
      "ખુલ": 5736,
      "જપ્ત": 5737,
      "સંતુ": 5738,
      "##ર્વાદ": 5739,
      "કેશ": 5740,
      "##કોનો": 5741,
      "ભૂલી": 5742,
      "હાઈવે": 5743,
      "શ્રમ": 5744,
      "રાજીનામું": 5745,
      "વાવાઝો": 5746,
      "ઉક": 5747,
      "ફ્રા": 5748,
      "બ્લા": 5749,
      "##કતો": 5750,
      "##et": 5751,
      "##ર્જ": 5752,
      "થયુ": 5753,
      "ડોક્ટર": 5754,
      "અવસાન": 5755,
      "શખ્સો": 5756,
      "સિંહે": 5757,
      "યોજાશે": 5758,
      "##રાગત": 5759,
      "આત્": 5760,
      "ઐતિહાસ": 5761,
      "તલ": 5762,
      "##પ્સ": 5763,
      "કેજરી": 5764,
      "પ્રવાહી": 5765,
      "##ાવર": 5766,
      "આપને": 5767,
      "બેઠા": 5768,
      "દિલ્હીના": 5769,
      "લખી": 5770,
      "કલાકાર": 5771,
      "શોધવા": 5772,
      "ભેગા": 5773,
      "##િકારક": 5774,
      "પ્રતિનિધિ": 5775,
      "ચલ": 5776,
      "પ્રાર્થના": 5777,
      "##જીને": 5778,
      "નિમિત": 5779,
      "થયાં": 5780,
      "પરિવારમાં": 5781,
      "ચૂકવણી": 5782,
      "ખેલાડીઓ": 5783,
      "ધોરણે": 5784,
      "નક": 5785,
      "રિવ": 5786,
      "સસ્પે": 5787,
      "જેટલું": 5788,
      "શુભે": 5789,
      "ડૉક્ટર": 5790,
      "પ્રયત્નો": 5791,
      "સંપર્કમાં": 5792,
      "અગત": 5793,
      "આશી": 5794,
      "ધુ": 5795,
      "પથ": 5796,
      "મિસ": 5797,
      "હડતા": 5798,
      "##નાલ્ડ": 5799,
      "##વાડ": 5800,
      "##તાનો": 5801,
      "##િવાર": 5802,
      "માંસ": 5803,
      "રાખવાની": 5804,
      "સીસીટી": 5805,
      "##વાનુ": 5806,
      "મામલત": 5807,
      "માર્કેટમાં": 5808,
      "બાંગ્લાદેશ": 5809,
      "##પની": 5810,
      "##ઠે": 5811,
      "પ્રસાર": 5812,
      "##કેલા": 5813,
      "મોદીની": 5814,
      "ઘટનાની": 5815,
      "જેમણે": 5816,
      "ટ્રેડ": 5817,
      "પાડવા": 5818,
      "મોડેલ": 5819,
      "આંગણ": 5820,
      "##ઠ્ઠી": 5821,
      "અગત્ય": 5822,
      "અછ": 5823,
      "નકારાત્મક": 5824,
      "સપ્": 5825,
      "##નમ": 5826,
      "કરાયેલા": 5827,
      "બેટ્સ": 5828,
      "ઉપરથી": 5829,
      "ટેક": 5830,
      "કરોડો": 5831,
      "કપડા": 5832,
      "ધીરે": 5833,
      "વિધાનસભાની": 5834,
      "તબક્કામાં": 5835,
      "કોર્પોરેટ": 5836,
      "અમિતાભ": 5837,
      "અલ્પ": 5838,
      "નુ": 5839,
      "ફેશન": 5840,
      "##પથ": 5841,
      "##પિતા": 5842,
      "##સુખ": 5843,
      "##ઘા": 5844,
      "સાધન": 5845,
      "ભૂકંપ": 5846,
      "રાજકોટના": 5847,
      "રાત્રી": 5848,
      "ગર્ભ": 5849,
      "##હાન": 5850,
      "પોઈન્ટ": 5851,
      "##ન્સના": 5852,
      "પેપર": 5853,
      "ટકાનો": 5854,
      "ઘટનાઓ": 5855,
      "૨૦૧૮": 5856,
      "શરૃ": 5857,
      "અનુભવી": 5858,
      "ખસેડવામાં": 5859,
      "રૂપાણીએ": 5860,
      "સંબોધ": 5861,
      "એશિયા": 5862,
      "કસર": 5863,
      "##તને": 5864,
      "##el": 5865,
      "હોદ્": 5866,
      "વધતી": 5867,
      "બાપુ": 5868,
      "ખુદ": 5869,
      "કુશ": 5870,
      "હિંદુ": 5871,
      "##જ્ઞા": 5872,
      "મેડલ": 5873,
      "નદીમાં": 5874,
      "ક્યાંક": 5875,
      "સંચાલન": 5876,
      "જિંદગી": 5877,
      "પરંપરાગત": 5878,
      "વકીલ": 5879,
      "બાઈક": 5880,
      "ભરૂચ": 5881,
      "સીસીટીવી": 5882,
      "કંગના": 5883,
      "ટન": 5884,
      "૪૫": 5885,
      "##સ્કો": 5886,
      "##િયાએ": 5887,
      "લોકોનું": 5888,
      "જણાવવામાં": 5889,
      "અથડ": 5890,
      "ચીની": 5891,
      "એસિડ": 5892,
      "રાતે": 5893,
      "હજારથી": 5894,
      "મુકેશ": 5895,
      "સંસ્થાઓ": 5896,
      "##ભૂમિ": 5897,
      "ભ્રષ્ટાચાર": 5898,
      "એવામાં": 5899,
      "કુમ": 5900,
      "દિક": 5901,
      "મસ": 5902,
      "લશ્": 5903,
      "##સાદ": 5904,
      "##ફ્રે": 5905,
      "પ્રખ્યાત": 5906,
      "સ્કે": 5907,
      "ટેબલ": 5908,
      "ચાલતી": 5909,
      "સચિન": 5910,
      "આંગણવાડી": 5911,
      "અબ": 5912,
      "દલિત": 5913,
      "ધ્ર": 5914,
      "##ઘાટ": 5915,
      "માટેનો": 5916,
      "હોટેલ": 5917,
      "##ન્સમાં": 5918,
      "બોટલ": 5919,
      "બિગ": 5920,
      "ગ્રામજનો": 5921,
      "ગ્રાહક": 5922,
      "શૈક્ષણિક": 5923,
      "હકીકતમાં": 5924,
      "દુર્ઘટના": 5925,
      "ભવિષ્યમાં": 5926,
      "દીપિકા": 5927,
      "ઠાકોર": 5928,
      "ડાઉન": 5929,
      "ફાં": 5930,
      "મહી": 5931,
      "##ીની": 5932,
      "જેણે": 5933,
      "રાજી": 5934,
      "પુષ્": 5935,
      "ચોંક": 5936,
      "મહિનાથી": 5937,
      "અધિકારીઓને": 5938,
      "રોગચ": 5939,
      "હેરાન": 5940,
      "જલ્દી": 5941,
      "34": 5942,
      "અનો": 5943,
      "આક્રમ": 5944,
      "આખો": 5945,
      "કદ": 5946,
      "જતો": 5947,
      "નિત": 5948,
      "બધ": 5949,
      "રથ": 5950,
      "વણ": 5951,
      "હસ્ત": 5952,
      "સાહિત": 5953,
      "શુદ્ધ": 5954,
      "રોગો": 5955,
      "##દનશીલ": 5956,
      "સ્ટોક": 5957,
      "ઊંચી": 5958,
      "સવારથી": 5959,
      "વેબસ": 5960,
      "ઐતિહાસિક": 5961,
      "ગણા": 5962,
      "શનિ": 5963,
      "માફી": 5964,
      "આવેદન": 5965,
      "સુધીનો": 5966,
      "સેવ": 5967,
      "સ્ટેડ": 5968,
      "શાળામાં": 5969,
      "મુંબઈમાં": 5970,
      "જાણીએ": 5971,
      "આશ્ર": 5972,
      "પ્રેરણા": 5973,
      "ઉગ્ર": 5974,
      "ગમ": 5975,
      "ઘાટ": 5976,
      "ચુંટ": 5977,
      "જટિલ": 5978,
      "મમતા": 5979,
      "##ઝિક": 5980,
      "કોર": 5981,
      "જોયું": 5982,
      "વેચી": 5983,
      "સમાધાન": 5984,
      "મનોજ": 5985,
      "##વ્યવ": 5986,
      "વાઘેલા": 5987,
      "શ્રીલંકા": 5988,
      "રમા": 5989,
      "##ti": 5990,
      "પ્રક": 5991,
      "##ાઈમ": 5992,
      "##ાળુ": 5993,
      "રહીને": 5994,
      "##ન્દ્રા": 5995,
      "વિક્રમ": 5996,
      "ભાજપને": 5997,
      "પહેલાથી": 5998,
      "સહન": 5999,
      "##દરાબાદ": 6000,
      "કાશ્મીરમાં": 6001,
      "અંગ્રેજી": 6002,
      "48": 6003,
      "એમ્": 6004,
      "ડબલ": 6005,
      "નર્સ": 6006,
      "પૌ": 6007,
      "બેટિંગ": 6008,
      "##સ્પતિ": 6009,
      "લાશ": 6010,
      "ખાને": 6011,
      "પૂરતી": 6012,
      "જુનાગઢ": 6013,
      "છુટ": 6014,
      "પ્રદાન": 6015,
      "##િયામાં": 6016,
      "સમારોહ": 6017,
      "##સાથે": 6018,
      "લગાવવામાં": 6019,
      "બાથ": 6020,
      "લડાઈ": 6021,
      "હૈદરાબાદ": 6022,
      "દસ્તાવેજો": 6023,
      "અનુકૂળ": 6024,
      "38": 6025,
      "##ૂના": 6026,
      "##ાતું": 6027,
      "સીટી": 6028,
      "ચોથા": 6029,
      "મેળવો": 6030,
      "ડોનાલ્ડ": 6031,
      "ઘટનામાં": 6032,
      "દિલીપ": 6033,
      "સલામતી": 6034,
      "ફરજિયાત": 6035,
      "ગ્લા": 6036,
      "##ેય": 6037,
      "માથ": 6038,
      "##ન્ક": 6039,
      "બેક": 6040,
      "##પ્પા": 6041,
      "લાગ્યું": 6042,
      "ગયાં": 6043,
      "વિભાગની": 6044,
      "જન્મદિવ": 6045,
      "યુનિટ": 6046,
      "ઓક": 6047,
      "##ન્ગ": 6048,
      "##ક્તો": 6049,
      "##ંદી": 6050,
      "દેવું": 6051,
      "##ન્સની": 6052,
      "હાલના": 6053,
      "મહિલાઓને": 6054,
      "પટેલની": 6055,
      "સૈન્ય": 6056,
      "બળાત્": 6057,
      "વાંકાને": 6058,
      "ફટકારી": 6059,
      "દ્વારકા": 6060,
      "સાહિત્ય": 6061,
      "અબ્": 6062,
      "ટર્મ": 6063,
      "તફ": 6064,
      "લાવવામાં": 6065,
      "તેનાં": 6066,
      "##ટેક": 6067,
      "આપવી": 6068,
      "છોટા": 6069,
      "બોક્સ": 6070,
      "બદલા": 6071,
      "સહકાર": 6072,
      "સ્થળોએ": 6073,
      "ખરીદવા": 6074,
      "સુધારા": 6075,
      "રવિવાર": 6076,
      "અવિ": 6077,
      "એટી": 6078,
      "##વરી": 6079,
      "##યાત્રા": 6080,
      "બેસ્ટ": 6081,
      "##ણીય": 6082,
      "##વેસ્ટ": 6083,
      "એમણે": 6084,
      "વરસાદી": 6085,
      "અટકાયત": 6086,
      "મૂળભૂત": 6087,
      "લીંબુ": 6088,
      "યાર્ડ": 6089,
      "રવાના": 6090,
      "##મને": 6091,
      "વિજ્ઞાન": 6092,
      "##ક્ચર": 6093,
      "##જીએ": 6094,
      "##જીવ": 6095,
      "પૂર્વે": 6096,
      "પેકે": 6097,
      "ચાલક": 6098,
      "બ્રિજ": 6099,
      "નાગરિકો": 6100,
      "મેદાનમાં": 6101,
      "જોગવાઈ": 6102,
      "અરે": 6103,
      "એમ્બ": 6104,
      "ઘઉં": 6105,
      "સપ": 6106,
      "##il": 6107,
      "##્રલ": 6108,
      "##સ્લા": 6109,
      "##લ્ફ": 6110,
      "##ડીની": 6111,
      "મુકા": 6112,
      "##ર્સના": 6113,
      "પહોંચે": 6114,
      "198": 6115,
      "ગેંગ": 6116,
      "સ્ટેન્ડ": 6117,
      "ઘટનાસ્થળે": 6118,
      "આની": 6119,
      "ઘોષ": 6120,
      "પર્": 6121,
      "##કોટ": 6122,
      "સમૂહ": 6123,
      "##ંદુર": 6124,
      "રાજપૂ": 6125,
      "કારણકે": 6126,
      "મિલકત": 6127,
      "મેનેજર": 6128,
      "55": 6129,
      "બટા": 6130,
      "હરી": 6131,
      "કોટ": 6132,
      "આપતાં": 6133,
      "ઉપરો": 6134,
      "##ન્સિલ": 6135,
      "વ્યક્તિઓ": 6136,
      "એસટી": 6137,
      "આગળની": 6138,
      "પ્રકાશિત": 6139,
      "સમુદાય": 6140,
      "સંદર્ભે": 6141,
      "મંજૂર": 6142,
      "ઈન્ટરને": 6143,
      "ઉલ્લંઘ": 6144,
      "આંચ": 6145,
      "ઈચ્છા": 6146,
      "ખેલ": 6147,
      "છતા": 6148,
      "તદ્": 6149,
      "પેર": 6150,
      "ફેડ": 6151,
      "##નોની": 6152,
      "યુનિ": 6153,
      "સ્ટ્ર": 6154,
      "સિંધ": 6155,
      "ટીમમાં": 6156,
      "વોટર": 6157,
      "શેખ": 6158,
      "કૃપા": 6159,
      "##દારોને": 6160,
      "શ્રદ્ધ": 6161,
      "આટલી": 6162,
      "ચકચાર": 6163,
      "પાટણ": 6164,
      "65": 6165,
      "ઇંગ્લેન્ડ": 6166,
      "ધ્વ": 6167,
      "##ધારા": 6168,
      "વિસ્ફો": 6169,
      "વિશ્વના": 6170,
      "ખેડૂતોના": 6171,
      "૨૦૨૦": 6172,
      "સંકળાયેલા": 6173,
      "જવાનું": 6174,
      "પત": 6175,
      "##પિં": 6176,
      "મોટર": 6177,
      "યુગ": 6178,
      "માંગતા": 6179,
      "શિક્ષકો": 6180,
      "મ્યુનિ": 6181,
      "સંશોધ": 6182,
      "પ્રવાસીઓ": 6183,
      "વિનંતી": 6184,
      "શુભેચ્છા": 6185,
      "##પત": 6186,
      "વિધિ": 6187,
      "જોયા": 6188,
      "##મેલ": 6189,
      "##ડાઓ": 6190,
      "ડિસ્ટ": 6191,
      "મહિલાએ": 6192,
      "##ર્ટમાં": 6193,
      "પ્રોફ": 6194,
      "દેખાઈ": 6195,
      "##ધારણ": 6196,
      "અટકાવવા": 6197,
      "લાઈફ": 6198,
      "જૈન": 6199,
      "પુરૂષ": 6200,
      "ખ્યાલ": 6201,
      "ઘુ": 6202,
      "બાલ": 6203,
      "સવાલો": 6204,
      "##નારો": 6205,
      "##રીંગ": 6206,
      "કામકાજ": 6207,
      "લીગ": 6208,
      "અનુસ": 6209,
      "યોજાન": 6210,
      "પરિવારની": 6211,
      "##િનેશન": 6212,
      "દોરી": 6213,
      "એપાર્ટમેન્ટ": 6214,
      "ક્વાર્ટ": 6215,
      "વલસાડ": 6216,
      "ગિ": 6217,
      "ગેટ": 6218,
      "મસ્": 6219,
      "##મહ": 6220,
      "##વત": 6221,
      "##દ્યોગ": 6222,
      "કેને": 6223,
      "##લ્પો": 6224,
      "લેન્ડ": 6225,
      "અમર": 6226,
      "પૂજ": 6227,
      "સોની": 6228,
      "##્સની": 6229,
      "અભાવ": 6230,
      "##ખાના": 6231,
      "મ્યુનિસ": 6232,
      "આકર્ષક": 6233,
      "બીજેપી": 6234,
      "છેલ્લાં": 6235,
      "દાહોદ": 6236,
      "''": 6237,
      "હસ્તે": 6238,
      "૩૭": 6239,
      "##ચક": 6240,
      "##શલ": 6241,
      "પોલિ": 6242,
      "##ડાએ": 6243,
      "##માતા": 6244,
      "##બીર": 6245,
      "ધરતી": 6246,
      "ક્રાઇમ": 6247,
      "નિષ્ણાત": 6248,
      "પંથકમાં": 6249,
      "in": 6250,
      "થકી": 6251,
      "##ેક્સ": 6252,
      "##ામણ": 6253,
      "વિભ": 6254,
      "અનિ": 6255,
      "##પ્રમુખ": 6256,
      "પ્રતિષ્ઠ": 6257,
      "જાતિ": 6258,
      "પક્ષના": 6259,
      "ઉઠી": 6260,
      "##લ્ટી": 6261,
      "શંકાસ્પદ": 6262,
      "મામલતદાર": 6263,
      ".,": 6264,
      "જર્મ": 6265,
      "લિટર": 6266,
      "સિન": 6267,
      "##ોટ": 6268,
      "માગે": 6269,
      "આવતું": 6270,
      "પ્રાઇ": 6271,
      "હોટલ": 6272,
      "##ાઈઝ": 6273,
      "કિમી": 6274,
      "વડોદરામાં": 6275,
      "ઈન્સ્ટ": 6276,
      "૨૦૨૧": 6277,
      "કોશિશ": 6278,
      "બનાસકાંઠા": 6279,
      "સંરક્ષણ": 6280,
      "39": 6281,
      "થવાનો": 6282,
      "##ેરા": 6283,
      "##ેન્દ્ર": 6284,
      "કરતું": 6285,
      "##ામે": 6286,
      "##ાળે": 6287,
      "રોકી": 6288,
      "છોડીને": 6289,
      "ટીકા": 6290,
      "પેઢી": 6291,
      "કંપનીની": 6292,
      "##બાની": 6293,
      "નીચેના": 6294,
      "સલામત": 6295,
      "અસામ": 6296,
      "##ર્નામેન્ટ": 6297,
      "ઠર": 6298,
      "વપર": 6299,
      "##ૂં": 6300,
      "##તક": 6301,
      "##વ્યૂ": 6302,
      "##દિત": 6303,
      "##બોલ": 6304,
      "##લાત": 6305,
      "સામેની": 6306,
      "##ળાની": 6307,
      "માનવું": 6308,
      "સ્પોર્ટ": 6309,
      "##ગાડ": 6310,
      "ફિલ્મના": 6311,
      "....": 6312,
      "વેચવા": 6313,
      "ઠાકરે": 6314,
      "યહોવા": 6315,
      "આશીર્વાદ": 6316,
      "ઓર્ડર": 6317,
      "##ળુ": 6318,
      "##ધારી": 6319,
      "##ગાવી": 6320,
      "##ન્દી": 6321,
      "##ટેગ": 6322,
      "##િત્": 6323,
      "આપેલ": 6324,
      "મેયર": 6325,
      "સોફ્ટ": 6326,
      "સીમા": 6327,
      "અંગત": 6328,
      "રૂપિયાનો": 6329,
      "એજન્ટ": 6330,
      "વનસ્પતિ": 6331,
      "કલેક્ટર": 6332,
      "સંવેદનશીલ": 6333,
      "##માર્": 6334,
      "##જવ": 6335,
      "##વલ્લી": 6336,
      "##id": 6337,
      "##ર્સે": 6338,
      "માસિક": 6339,
      "વિર": 6340,
      "જોશી": 6341,
      "##વાયેલા": 6342,
      "રંગો": 6343,
      "ફોટોગ્રા": 6344,
      "યોગદાન": 6345,
      "પાંદ": 6346,
      "ગેરકાયદેસર": 6347,
      "##પ્પણી": 6348,
      "ટેક્નો": 6349,
      "યથાવત": 6350,
      "અયો": 6351,
      "દઇ": 6352,
      "##નથી": 6353,
      "##ચલ": 6354,
      "##રીત": 6355,
      "બીએસ": 6356,
      "જાઓ": 6357,
      "પાછલા": 6358,
      "અરવલ્લી": 6359,
      "જાતને": 6360,
      "સોશ્યલ": 6361,
      "ઉઠાવી": 6362,
      "વાંચવા": 6363,
      "સેકન્ડ": 6364,
      "##ખ્ત": 6365,
      "થવાનું": 6366,
      "મિક્સ": 6367,
      "લાઇન": 6368,
      "સિને": 6369,
      "ત્રિવે": 6370,
      "પાણીનો": 6371,
      "તાકાત": 6372,
      "અર્પણ": 6373,
      "લક્ષ્ય": 6374,
      "કચ્છમાં": 6375,
      "બોલીવુ": 6376,
      "સરહદ": 6377,
      "બળાત્કાર": 6378,
      "આય": 6379,
      "તંદુર": 6380,
      "નકલી": 6381,
      "મફત": 6382,
      "હમ": 6383,
      "૩૨": 6384,
      "##ર્જા": 6385,
      "રહેતાં": 6386,
      "ગુપ્ત": 6387,
      "જણાય": 6388,
      "સમયસર": 6389,
      "કાચ": 6390,
      "ફિલ્મોમાં": 6391,
      "સ્વાદિષ્ટ": 6392,
      "અલ્": 6393,
      "આદર્શ": 6394,
      "બાજ": 6395,
      "રિયા": 6396,
      "૮૦": 6397,
      "સાડા": 6398,
      "##ન્સને": 6399,
      "નોંધણી": 6400,
      "નિકાલ": 6401,
      "##કાળમાં": 6402,
      "ડ્રાઇવ": 6403,
      "##ટ્સએપ": 6404,
      "સપ્લાય": 6405,
      "44": 6406,
      "ઠંડ": 6407,
      "તને": 6408,
      "##પિંગ": 6409,
      "##ડાસ": 6410,
      "##બાગ": 6411,
      "##રૂમ": 6412,
      "સ્ટોર": 6413,
      "દરખા": 6414,
      "ઘટનાને": 6415,
      "પ્રસાદ": 6416,
      "મંત્રાલયે": 6417,
      "એસોસિ": 6418,
      "ઓવરમાં": 6419,
      "કમી": 6420,
      "દહે": 6421,
      "મણ": 6422,
      "##સંગ": 6423,
      "##ચય": 6424,
      "##ન્વ": 6425,
      "નિર": 6426,
      "##નમાંથી": 6427,
      "વીર": 6428,
      "ક્રમે": 6429,
      "વાતાવરણમાં": 6430,
      "હાંસલ": 6431,
      "રાંધ": 6432,
      "મોહમ્મદ": 6433,
      "મ્યુનિસિપલ": 6434,
      "ગઠ": 6435,
      "ઠંડા": 6436,
      "ભરો": 6437,
      "રશિયન": 6438,
      "##્સે": 6439,
      "##ાતાં": 6440,
      "સુચના": 6441,
      "પાસપોર્ટ": 6442,
      "વાપર": 6443,
      "તાપી": 6444,
      "વ્યક્તિએ": 6445,
      "##મ્પલ": 6446,
      "જેમને": 6447,
      "નિર્ણયો": 6448,
      "##પુરના": 6449,
      "કિંમ": 6450,
      "નહોતા": 6451,
      "રસ્તાઓ": 6452,
      "દૂધની": 6453,
      "ઝાલા": 6454,
      "ફ્લાઇ": 6455,
      "ગેરકાયદે": 6456,
      "કાગળ": 6457,
      "ગોંડલ": 6458,
      "ચકાસણી": 6459,
      "શહીદ": 6460,
      "અયોધ્યા": 6461,
      "PM": 6462,
      "ગોલ": 6463,
      "ભરા": 6464,
      "ભંડો": 6465,
      "##ાંજ": 6466,
      "સુન": 6467,
      "બેદર": 6468,
      "ઓપન": 6469,
      "ચેમ્પિયન": 6470,
      "તદ્દન": 6471,
      "\",": 6472,
      "હિમ": 6473,
      "##ya": 6474,
      "##વાશે": 6475,
      "##ાવેલ": 6476,
      "સ્ક્ર": 6477,
      "##જેક્શન": 6478,
      "બાળકોની": 6479,
      "રમતા": 6480,
      "આઈપીએ": 6481,
      "અર્થતંત્ર": 6482,
      "ફેલાય": 6483,
      "વધારાની": 6484,
      "ગ્રાઉન્ડ": 6485,
      "મહોત્સવ": 6486,
      "ચોંકાવ": 6487,
      "ગાજ": 6488,
      "મચ્છ": 6489,
      "વડ": 6490,
      "શિલ્": 6491,
      "હૉ": 6492,
      "##ાતા": 6493,
      "પ્રતી": 6494,
      "સુપ્ર": 6495,
      "બચવા": 6496,
      "પ્રગટ": 6497,
      "વાઇરસ": 6498,
      "અસ્તિત્વ": 6499,
      "ઉતરી": 6500,
      "બચી": 6501,
      "##iv": 6502,
      "##uj": 6503,
      "##ારીયા": 6504,
      "મુક્તિ": 6505,
      "##માના": 6506,
      "અમૃત": 6507,
      "સાર્વ": 6508,
      "વ્યક્તિની": 6509,
      "કોર્ટના": 6510,
      "રિપોર્ટમાં": 6511,
      "મોરબીના": 6512,
      "રોકાણકારો": 6513,
      "ફ્લોર": 6514,
      "એકમાત્ર": 6515,
      "રિઝર્વ": 6516,
      "પશુપાલન": 6517,
      "અર્જુન": 6518,
      "ઉભો": 6519,
      "ખતરના": 6520,
      "દાંત": 6521,
      "લાય": 6522,
      "##ૂની": 6523,
      "##વતા": 6524,
      "##વવાની": 6525,
      "પ્રાંત": 6526,
      "##સ્વા": 6527,
      "##કીંગ": 6528,
      "લેવાનું": 6529,
      "સીલ": 6530,
      "કેટલાય": 6531,
      "ડોકટ": 6532,
      "લખન": 6533,
      "##િઝન": 6534,
      "કિસ્સાઓમાં": 6535,
      "અનાજ": 6536,
      "સેન્ટ્રલ": 6537,
      "જણાવાયું": 6538,
      "અહી": 6539,
      "ખાદ": 6540,
      "ઘી": 6541,
      "ટ્રી": 6542,
      "##કરે": 6543,
      "##ડતી": 6544,
      "##ખું": 6545,
      "આપવું": 6546,
      "##રેક્ટ": 6547,
      "મળેલ": 6548,
      "##સાથી": 6549,
      "જણાવેલ": 6550,
      "##ળાના": 6551,
      "માર્યા": 6552,
      "##શાહી": 6553,
      "જગ્યાઓ": 6554,
      "જાહેરમાં": 6555,
      "હળવ": 6556,
      "ભાગીદારી": 6557,
      "ઘટીને": 6558,
      "રેસ્ટોરન્ટ": 6559,
      "ઉલ્લંઘન": 6560,
      "ખામી": 6561,
      "બૂ": 6562,
      "સાન": 6563,
      "##સં": 6564,
      "મહાસ": 6565,
      "હાથે": 6566,
      "ફરવા": 6567,
      "ભૂમિ": 6568,
      "પ્રેસ": 6569,
      "જોડાયેલ": 6570,
      "##ખોળ": 6571,
      "##મ્બરમાં": 6572,
      "આદમી": 6573,
      "આવતીકાલે": 6574,
      "પુરુષો": 6575,
      "મેટ્રો": 6576,
      "સ્પેશિયલ": 6577,
      "ઈતિહાસ": 6578,
      "ઊર્જા": 6579,
      "ટાં": 6580,
      "દાં": 6581,
      "લડી": 6582,
      "##નાઇ": 6583,
      "##ટીના": 6584,
      "ઉપવાસ": 6585,
      "વર્તન": 6586,
      "##ન્ટી": 6587,
      "##સીને": 6588,
      "નોંધાઈ": 6589,
      "અંતમાં": 6590,
      "માર્યો": 6591,
      "##ભાવસ્થા": 6592,
      "ઘટાડવા": 6593,
      "શરીરના": 6594,
      "પોઝી": 6595,
      "##ગ્ને": 6596,
      "લાઇફ": 6597,
      "બિલ્ડિંગ": 6598,
      "પંડ્યા": 6599,
      "ભૂતપૂર્વ": 6600,
      "આલ્": 6601,
      "ડાં": 6602,
      "ડિલ": 6603,
      "સર્ચ": 6604,
      "##કેશ": 6605,
      "##ુન": 6606,
      "##ભરના": 6607,
      "##નામ": 6608,
      "માછી": 6609,
      "વિજ": 6610,
      "##રાધ": 6611,
      "બેસા": 6612,
      "ઉપા": 6613,
      "વિકલ્પો": 6614,
      "વિદ્યા": 6615,
      "2015": 6616,
      "ગયેલ": 6617,
      "કાયમી": 6618,
      "નહોતું": 6619,
      "ગઇકાલે": 6620,
      "ચુકવણી": 6621,
      "હંમેશાં": 6622,
      "સોસાયટીમાં": 6623,
      "વેબસાઈ": 6624,
      "પ્લોટ": 6625,
      "હુકમ": 6626,
      "મનોરંજન": 6627,
      "ખતરનાક": 6628,
      "300": 6629,
      "ખર": 6630,
      "જાવ": 6631,
      "બોર": 6632,
      "##ચિ": 6633,
      "##્રેશન": 6634,
      "##વાણા": 6635,
      "સુત્રો": 6636,
      "##લોક": 6637,
      "સેક્ટ": 6638,
      "ડિરેક્ટર": 6639,
      "હિન્દી": 6640,
      "વિચારણા": 6641,
      "શોધખોળ": 6642,
      "ધારણ": 6643,
      "##કાર્ડ": 6644,
      "ટક્કર": 6645,
      "##મૂ": 6646,
      "##nd": 6647,
      "મોહન": 6648,
      "##ત્તમ": 6649,
      "પીપ": 6650,
      "હેમ": 6651,
      "ભાગરૂપે": 6652,
      "પેન": 6653,
      "##ૃત્ય": 6654,
      "ગોવિંદ": 6655,
      "પ્રોફે": 6656,
      "પટેલના": 6657,
      "મંજુ": 6658,
      "એક્ટર": 6659,
      "દ્રષ્ટિ": 6660,
      "પ્રીમ": 6661,
      "##ચ્યુઅલ": 6662,
      "આવાસ": 6663,
      "ઝેરી": 6664,
      "તાવ": 6665,
      "##્ઝ": 6666,
      "##he": 6667,
      "સ્ટ્રે": 6668,
      "સ્ટ્રો": 6669,
      "વિભાગમાં": 6670,
      "કેન્દ્રિત": 6671,
      "માતાપિતા": 6672,
      "વાગે": 6673,
      "પ્રસિદ્ધ": 6674,
      "એપ્લિકેશન": 6675,
      "ઘન": 6676,
      "પ્લ": 6677,
      "બાવ": 6678,
      "##ડેટ": 6679,
      "##ia": 6680,
      "આપતી": 6681,
      "##લેસ": 6682,
      "વેગ": 6683,
      "પહેલો": 6684,
      "મહેન્દ્ર": 6685,
      "પાછળથી": 6686,
      "ઉમેદવારી": 6687,
      "મંડળ": 6688,
      "ચરબી": 6689,
      "ટિપ્પણી": 6690,
      "##ફ્રેન્ડ": 6691,
      "43": 6692,
      "ઓર્": 6693,
      "ફાઉન્ડ": 6694,
      "હકારાત્મક": 6695,
      "##શ્ર": 6696,
      "##વાલે": 6697,
      "જેમા": 6698,
      "કરીના": 6699,
      "##િયાં": 6700,
      "##્યુલર": 6701,
      "પાછી": 6702,
      "સેન્સે": 6703,
      "મૂકે": 6704,
      "કંપનીમાં": 6705,
      "##દોષ": 6706,
      "જયંત": 6707,
      "આરોપીને": 6708,
      "શરીરને": 6709,
      "એલર્ટ": 6710,
      "કલાકારો": 6711,
      "વિલંબ": 6712,
      "બ્રહ્મ": 6713,
      "ડાયાબ": 6714,
      "ઈંગ્લેન્ડ": 6715,
      "ઉમર": 6716,
      "કહેર": 6717,
      "નાસ": 6718,
      "નસીબ": 6719,
      "લાયક": 6720,
      "૩૩": 6721,
      "##કું": 6722,
      "##વણ": 6723,
      "##દ્વ": 6724,
      "પ્રજ": 6725,
      "##િત્સ": 6726,
      "##ટીસ": 6727,
      "##દાતા": 6728,
      "દેશે": 6729,
      "##્સને": 6730,
      "દીઠ": 6731,
      "##ુરુ": 6732,
      "ચોપ": 6733,
      "ચીનની": 6734,
      "ભારતીયો": 6735,
      "શેરી": 6736,
      "ઊંચા": 6737,
      "સાચું": 6738,
      "વેબસાઇટ": 6739,
      "નગ": 6740,
      "મજ": 6741,
      "ર્": 6742,
      "વટ": 6743,
      "શપથ": 6744,
      "##્ડ": 6745,
      "##શમાં": 6746,
      "કેદી": 6747,
      "##સ્પી": 6748,
      "એકાદ": 6749,
      "નિવાસ": 6750,
      "##બ્લિક": 6751,
      "ટ્રાયલ": 6752,
      "આરતી": 6753,
      "પંચાય": 6754,
      "બાજુમાં": 6755,
      "##ાત્મા": 6756,
      "મોડલ": 6757,
      "લેખિત": 6758,
      "મથકે": 6759,
      "ચહેરો": 6760,
      "માઇક્રો": 6761,
      "સ્વપ્ન": 6762,
      "42": 6763,
      "બાગ": 6764,
      "મું": 6765,
      "રિયલ": 6766,
      "રાણા": 6767,
      "##ાશે": 6768,
      "છેલ્લે": 6769,
      "##િયાની": 6770,
      "##ટીન": 6771,
      "સોનું": 6772,
      "ચોર": 6773,
      "બાળકના": 6774,
      "જિલ્લાની": 6775,
      "દુબ": 6776,
      "કરોડનું": 6777,
      "##પોઝ": 6778,
      "ચાલતા": 6779,
      "મહિનાની": 6780,
      "આજુબ": 6781,
      "ક્લિન": 6782,
      "##કર્તાઓ": 6783,
      "સ્નાયુ": 6784,
      "કલ્પના": 6785,
      "##પમેન્ટ": 6786,
      "##શિયમ": 6787,
      "પ્રકરણ": 6788,
      "##ંતર": 6789,
      "રહસ્ય": 6790,
      "ટેકો": 6791,
      "બનાવ્યો": 6792,
      "ડેવલ": 6793,
      "પ્રાચીન": 6794,
      "મૃતક": 6795,
      "મુદ્દામાલ": 6796,
      "કલર": 6797,
      "અભિનંદન": 6798,
      "વિટામિન": 6799,
      "આજુબાજુ": 6800,
      "ઇસ": 6801,
      "ગણી": 6802,
      "ભૌ": 6803,
      "ભેદ": 6804,
      "મજૂ": 6805,
      "##ગંધ": 6806,
      "##્યુઅલ": 6807,
      "નેપ": 6808,
      "##ગ્રહ": 6809,
      "રૂપિયાના": 6810,
      "##મ્પિક": 6811,
      "ઇન્ડિયન": 6812,
      "ઈન્ડિયન": 6813,
      "મહારાષ્ટ્રના": 6814,
      "રૃપ": 6815,
      "આચર": 6816,
      "પર્સ": 6817,
      "મતે": 6818,
      "##ાબ": 6819,
      "##મય": 6820,
      "##જીભાઇ": 6821,
      "સ્વભાવ": 6822,
      "પ્રતિબ": 6823,
      "##ટ્ટી": 6824,
      "કિસ્સો": 6825,
      "##િગેડ": 6826,
      "લોકસભાની": 6827,
      "શાસન": 6828,
      "ડીઝલ": 6829,
      "##ujar": 6830,
      "સજ": 6831,
      "હાર્ટ": 6832,
      "##ST": 6833,
      "##ર્જન": 6834,
      "સ્ને": 6835,
      "##્સના": 6836,
      "##સાની": 6837,
      "કેસોમાં": 6838,
      "બનીને": 6839,
      "શાળાના": 6840,
      "આશંકા": 6841,
      "જાગૃત": 6842,
      "અમેરિકી": 6843,
      "સૂત્રોના": 6844,
      "દિગ્ગ": 6845,
      "એક્સપ્રેસ": 6846,
      "પ્રકૃતિ": 6847,
      "ઔષ": 6848,
      "ખતમ": 6849,
      "દયા": 6850,
      "ફિલ": 6851,
      "ફુટ": 6852,
      "બ્રો": 6853,
      "૭૫": 6854,
      "##શ્યો": 6855,
      "કરણ": 6856,
      "##નોમાં": 6857,
      "એકસાથે": 6858,
      "##મીના": 6859,
      "નામનો": 6860,
      "રેમ": 6861,
      "રોજગારી": 6862,
      "વરસાદના": 6863,
      "બચાવી": 6864,
      "અકસ્માતમાં": 6865,
      "ઉર્જા": 6866,
      "સિક્": 6867,
      "ફાસ્ટ": 6868,
      "વસા": 6869,
      "૫૦૦": 6870,
      "સ્કોર": 6871,
      "પોલીસમાં": 6872,
      "##ંડર": 6873,
      "અનુમાન": 6874,
      "શોમાં": 6875,
      "જવાબમાં": 6876,
      "આજકાલ": 6877,
      "પ્રવક્તા": 6878,
      "રમતો": 6879,
      "ઉત્પન્ન": 6880,
      "ઉત્તરપ્રદેશ": 6881,
      "તબિયત": 6882,
      "ગૃહમંત્રી": 6883,
      "ફેરફારો": 6884,
      "દાવા": 6885,
      "તહેવારો": 6886,
      "શકીએ": 6887,
      "ઇન્ટરનેશનલ": 6888,
      "ઇન્સ": 6889,
      "એણે": 6890,
      "કઠ": 6891,
      "કસ્ટ": 6892,
      "મૈ": 6893,
      "##સિં": 6894,
      "##વ્યું": 6895,
      "##લેષ": 6896,
      "##કીને": 6897,
      "ગુન્": 6898,
      "નાનો": 6899,
      "સરકારમાં": 6900,
      "સાંજ": 6901,
      "બજારો": 6902,
      "વોટ": 6903,
      "પાર્ટીમાં": 6904,
      "નિકાસ": 6905,
      "ઉત્સવ": 6906,
      "પરંપરા": 6907,
      "સ્વયં": 6908,
      "આંધ": 6909,
      "દવે": 6910,
      "મસા": 6911,
      "રજી": 6912,
      "##હૂ": 6913,
      "કેદ": 6914,
      "##લીની": 6915,
      "સંવાદ": 6916,
      "મેર": 6917,
      "અમલી": 6918,
      "કામમાં": 6919,
      "દેશી": 6920,
      "કાબુ": 6921,
      "રાજ્યપાલ": 6922,
      "અભિગ": 6923,
      "કહેતા": 6924,
      "પેનલ": 6925,
      "બચત": 6926,
      "સર્જાયો": 6927,
      "સાઇટ": 6928,
      "પીડિત": 6929,
      "સસ્પેન્ડ": 6930,
      "બસો": 6931,
      "શૂ": 6932,
      "૦૦": 6933,
      "##યમ": 6934,
      "##બિ": 6935,
      "##ાલે": 6936,
      "##રાએ": 6937,
      "##લોને": 6938,
      "શકય": 6939,
      "ઉત્તરા": 6940,
      "પહોંચાડી": 6941,
      "કિડની": 6942,
      "કહીને": 6943,
      "ગીતો": 6944,
      "વિચિત્ર": 6945,
      "સંભળ": 6946,
      "સાંભળી": 6947,
      "સ્નાન": 6948,
      "જસ્ટિસ": 6949,
      "પોઝીટીવ": 6950,
      "આયાત": 6951,
      "વોર": 6952,
      "##સક": 6953,
      "કર્યાં": 6954,
      "##ાયેલો": 6955,
      "##લીંગ": 6956,
      "એકલા": 6957,
      "સાગ": 6958,
      "પહેરે": 6959,
      "ખેડૂતોની": 6960,
      "જાણીતી": 6961,
      "વસંત": 6962,
      "ગ્રહણ": 6963,
      "વૈજ્ઞાનિક": 6964,
      "દુખાવો": 6965,
      "દરખાસ્ત": 6966,
      "બેદરકારી": 6967,
      "51": 6968,
      "સવલ": 6969,
      "હસ": 6970,
      "હેલ": 6971,
      "૩૬": 6972,
      "##ot": 6973,
      "##્ટર": 6974,
      "##ાવશે": 6975,
      "##કાતા": 6976,
      "કાબૂ": 6977,
      "સાંસ": 6978,
      "ગણાય": 6979,
      "મહત્વનો": 6980,
      "લાભાર્થી": 6981,
      "માર્ગદર્શ": 6982,
      "હોવાને": 6983,
      "ટ્રાન્સફર": 6984,
      "સિનિયર": 6985,
      "ઉધ": 6986,
      "કવ": 6987,
      "ગ્રો": 6988,
      "જિયો": 6989,
      "ટંક": 6990,
      "તલા": 6991,
      "##ૂપ": 6992,
      "##શક્તિ": 6993,
      "##BI": 6994,
      "##ારામ": 6995,
      "##વાટ": 6996,
      "##નીઝ": 6997,
      "કેટેગ": 6998,
      "તોફ": 6999,
      "પાડો": 7000,
      "રાખવો": 7001,
      "લીડ": 7002,
      "મૂડી": 7003,
      "કરોડથી": 7004,
      "ખુલ્લી": 7005,
      "વ્યક્તિના": 7006,
      "##્મણ": 7007,
      "ગર્લ": 7008,
      "દારૂની": 7009,
      "લગ્નની": 7010,
      "ખાદ્ય": 7011,
      "શણ": 7012,
      "##બહે": 7013,
      "વિનો": 7014,
      "માટેનું": 7015,
      "મેહ": 7016,
      "##સીન": 7017,
      "લોકોનાં": 7018,
      "નિશ્ચિત": 7019,
      "##ચ્ચાર": 7020,
      "ફોરે": 7021,
      "પાછો": 7022,
      "સ્થળો": 7023,
      "યોજનાઓ": 7024,
      "મનપા": 7025,
      "લાઈન": 7026,
      "સહીત": 7027,
      "ચાહકો": 7028,
      "ડાયાબિટી": 7029,
      "41": 7030,
      "ગાઈડ": 7031,
      "ચાઇ": 7032,
      "દાગ": 7033,
      "પાઇ": 7034,
      "ભક્તો": 7035,
      "લઘુ": 7036,
      "શૌ": 7037,
      "##નસ": 7038,
      "##ર્ટી": 7039,
      "##ાતિ": 7040,
      "જોવામાં": 7041,
      "##ધાને": 7042,
      "સીટો": 7043,
      "ફિલ્મની": 7044,
      "કોંગ્રેસની": 7045,
      "આર્ય": 7046,
      "વિશ્વની": 7047,
      "સમાજમાં": 7048,
      "##મિશન": 7049,
      "કૉંગ": 7050,
      "આંગળી": 7051,
      "વાઈરસ": 7052,
      "સંકલ્પ": 7053,
      "ખોટું": 7054,
      "બ્લોક": 7055,
      "ટેક્નોલોજી": 7056,
      "49": 7057,
      "પટ": 7058,
      "હક": 7059,
      "##ઈલ": 7060,
      "##છો": 7061,
      "##વામા": 7062,
      "##ાવવાનો": 7063,
      "કરીશ": 7064,
      "મોડે": 7065,
      "##ાઈને": 7066,
      "કાફ": 7067,
      "સર્કલ": 7068,
      "બદલાઈ": 7069,
      "કપિલ": 7070,
      "બોલમાં": 7071,
      "શરતો": 7072,
      "પરિસ્થિતિમાં": 7073,
      "ન્યૂઝીલેન્ડ": 7074,
      "મુશ્કેલીઓ": 7075,
      "મુસાફરો": 7076,
      "અભિષ": 7077,
      "ફરીયાદ": 7078,
      "કિસાન": 7079,
      "ક્રે": 7080,
      "ખતરો": 7081,
      "ફટા": 7082,
      "બગી": 7083,
      "##રાહ": 7084,
      "##પીએસ": 7085,
      "ભાગ્ય": 7086,
      "ગોળ": 7087,
      "ભૂખ": 7088,
      "ફિલ્મનું": 7089,
      "યોજવામાં": 7090,
      "કોંગ્રેસને": 7091,
      "##ડાઉન": 7092,
      "પાંડે": 7093,
      "ધંધો": 7094,
      "ક્રીમ": 7095,
      "તજ": 7096,
      "હિટ": 7097,
      "##પન": 7098,
      "##વને": 7099,
      "##re": 7100,
      "વિવે": 7101,
      "જોતાં": 7102,
      "##ત્રિક": 7103,
      "પડતો": 7104,
      "જવાના": 7105,
      "મદદરૂપ": 7106,
      "હિસા": 7107,
      "##િબાન": 7108,
      "છૂટા": 7109,
      "ઉતારી": 7110,
      "##િલનાડુ": 7111,
      "ગ્રી": 7112,
      "દશ": 7113,
      "##ણુ": 7114,
      "કરાવવામાં": 7115,
      "તેજી": 7116,
      "સંયો": 7117,
      "પડયો": 7118,
      "સ્વરાજ": 7119,
      "ચેન્ન": 7120,
      "કિશો": 7121,
      "મામલામાં": 7122,
      "પિતાએ": 7123,
      "૨૦૧૭": 7124,
      "અઠવાડ": 7125,
      "ફૂલો": 7126,
      "તાલિબાન": 7127,
      "આનાથી": 7128,
      "અવર": 7129,
      "કઇ": 7130,
      "કશું": 7131,
      "વ્ર": 7132,
      "….": 7133,
      "##લાન": 7134,
      "પ્રકારે": 7135,
      "##ાવતી": 7136,
      "રાજનીતિ": 7137,
      "લેવાય": 7138,
      "નોટો": 7139,
      "જીવનની": 7140,
      "ગેમ": 7141,
      "નિર્ધાર": 7142,
      "##ષ્ણુ": 7143,
      "##ગ્ગા": 7144,
      "સર્જરી": 7145,
      "સ્પષ્ટતા": 7146,
      "હીરો": 7147,
      "આટલા": 7148,
      "કાઉન્સિલ": 7149,
      "મર્યાદિત": 7150,
      "ચુંટણી": 7151,
      "ત્રિવેદી": 7152,
      "ઉશ્કે": 7153,
      "ખંભ": 7154,
      "દળ": 7155,
      "લાંચ": 7156,
      "શેટ": 7157,
      "##શાળા": 7158,
      "##નાત": 7159,
      "દેતા": 7160,
      "##પ્લો": 7161,
      "આગ્રહ": 7162,
      "એટલો": 7163,
      "ડેપ": 7164,
      "પરિણી": 7165,
      "ખેતમ": 7166,
      "ગયુ": 7167,
      "ડૉક્ટ": 7168,
      "ઝોનમાં": 7169,
      "ખેંચી": 7170,
      "કોન્સ્ટે": 7171,
      "ટેલિ": 7172,
      "હાઈકોર્ટે": 7173,
      "99": 7174,
      "ગોર": 7175,
      "જબર": 7176,
      "ટોલ": 7177,
      "દમ": 7178,
      "નાન": 7179,
      "ફસ": 7180,
      "યશ": 7181,
      "લસણ": 7182,
      "૩૮": 7183,
      "કેરી": 7184,
      "પોષણ": 7185,
      "##ાદર": 7186,
      "નિરાશ": 7187,
      "દેશને": 7188,
      "દુશ્": 7189,
      "પાણીથી": 7190,
      "વરસાદને": 7191,
      "જોડાયેલી": 7192,
      "આયુર્વે": 7193,
      "ગ્લાસ": 7194,
      "એમ્બ્યુલ": 7195,
      "આનો": 7196,
      "કૅ": 7197,
      "જ્વ": 7198,
      "વતન": 7199,
      "પ્રવા": 7200,
      "લોટ": 7201,
      "નિફ્ટી": 7202,
      "રીક્ષા": 7203,
      "ખાતર": 7204,
      "લાક્ષણિક": 7205,
      "જયાં": 7206,
      "કિરણ": 7207,
      "પ્રકારનું": 7208,
      "પાકિસ્તાનની": 7209,
      "શાળાઓ": 7210,
      "પુસ્તકો": 7211,
      "સિલિ": 7212,
      "દંપતી": 7213,
      "આમંત્રણ": 7214,
      "ગ્લોબલ": 7215,
      "00": 7216,
      "58": 7217,
      "64": 7218,
      "કટોક": 7219,
      "જશો": 7220,
      "ડુ": 7221,
      "લુક": 7222,
      "##મનો": 7223,
      "કેવ": 7224,
      "એકતા": 7225,
      "મહુ": 7226,
      "##રમાંથી": 7227,
      "બોલે": 7228,
      "ડિપ": 7229,
      "અપાઈ": 7230,
      "ખાવા": 7231,
      "##િક્ષા": 7232,
      "પાકની": 7233,
      "મકવાણા": 7234,
      "સાયકલ": 7235,
      "હથિયાર": 7236,
      "ખેડુતો": 7237,
      "અલ્પેશ": 7238,
      "##પ્ય": 7239,
      "##હારી": 7240,
      "##વાળ": 7241,
      "છેવ": 7242,
      "રાખ્યો": 7243,
      "સિર": 7244,
      "ઉત્તે": 7245,
      "ભરપૂર": 7246,
      "દર્દીને": 7247,
      "ખેડૂતોએ": 7248,
      "શેરબજ": 7249,
      "બોર્ડર": 7250,
      "પહેલીવાર": 7251,
      "શનિવાર": 7252,
      "તત્વો": 7253,
      "સાવચેતી": 7254,
      "ઝૂ": 7255,
      "રત્": 7256,
      "લંડ": 7257,
      "વાળી": 7258,
      "૯૦": 7259,
      "##નીંગ": 7260,
      "પરિપ": 7261,
      "એકમો": 7262,
      "હોબ": 7263,
      "નિરી": 7264,
      "પીઠ": 7265,
      "બોય": 7266,
      "##ળાટ": 7267,
      "કંપનીઓને": 7268,
      "##દેવી": 7269,
      "મોદીને": 7270,
      "સહકારી": 7271,
      "જાહેરના": 7272,
      "જોઇને": 7273,
      "દુનિયાના": 7274,
      "કર્મી": 7275,
      "દરોડા": 7276,
      "ચારેય": 7277,
      "##ઘાટન": 7278,
      "##દ્યોગિક": 7279,
      "એસોસિએશન": 7280,
      "સવલતો": 7281,
      "95": 7282,
      "IP": 7283,
      "ઇમરાન": 7284,
      "ઓલિ": 7285,
      "લિમિ": 7286,
      "##યાં": 7287,
      "##ાંગી": 7288,
      "આપવાના": 7289,
      "આપનાર": 7290,
      "વધવા": 7291,
      "##જીવી": 7292,
      "મેગા": 7293,
      "વર્ષોમાં": 7294,
      "લેવાનો": 7295,
      "લેવલ": 7296,
      "વેન્ટ": 7297,
      "રાખ્યું": 7298,
      "સિદ્ધિ": 7299,
      "અપડેટ": 7300,
      "યોજાઈ": 7301,
      "જોડાણ": 7302,
      "વાયરસની": 7303,
      "કુંડ": 7304,
      "મૂલ્યાં": 7305,
      "બેસીને": 7306,
      "આઝાદી": 7307,
      "છેતરપિં": 7308,
      "બિમારી": 7309,
      "લિમિટેડ": 7310,
      "તાજ": 7311,
      "પદ્": 7312,
      "##ટકો": 7313,
      "##ag": 7314,
      "##નાન્સ": 7315,
      "પ્રસ્તુ": 7316,
      "##યાની": 7317,
      "##સીમાં": 7318,
      "નેગેટ": 7319,
      "ચોકડી": 7320,
      "ભાજપમાં": 7321,
      "ક્રાઈમ": 7322,
      "ફેંકી": 7323,
      "ખેત": 7324,
      "##શાની": 7325,
      "સમાજની": 7326,
      "ક્રિકેટર": 7327,
      "શરમ": 7328,
      "વાતચીતમાં": 7329,
      "સોનાની": 7330,
      "ધંધા": 7331,
      "##મિનાર": 7332,
      "પ્રદૂ": 7333,
      "કસરત": 7334,
      "ઉપરોક્ત": 7335,
      "47": 7336,
      "72": 7337,
      "ખુર": 7338,
      "થનાર": 7339,
      "નખ": 7340,
      "નરમ": 7341,
      "##લભ": 7342,
      "##ંુ": 7343,
      "##શિયલ": 7344,
      "##િયેટ": 7345,
      "લીટર": 7346,
      "વિસ્તૃત": 7347,
      "પેમેન્ટ": 7348,
      "મતદારો": 7349,
      "લાંબો": 7350,
      "નાગરિકોને": 7351,
      "ગૌતમ": 7352,
      "છોકરીઓ": 7353,
      "વાસ્તવમાં": 7354,
      "બ્લાસ્ટ": 7355,
      "તફાવત": 7356,
      "85": 7357,
      "આડ": 7358,
      "આહ": 7359,
      "ટ્રો": 7360,
      "સપના": 7361,
      "##ંઝ": 7362,
      "##ંગો": 7363,
      "સંસ્કાર": 7364,
      "રાજેશ": 7365,
      "નિગ": 7366,
      "##િપ્સ": 7367,
      "વચ્ચેના": 7368,
      "ફેંક": 7369,
      "સર્જન": 7370,
      "બાબુ": 7371,
      "ફરિયાદી": 7372,
      "વોટ્સએપ": 7373,
      "ખુબજ": 7374,
      "નિવેદનમાં": 7375,
      "ઓફિસમાં": 7376,
      "કબજો": 7377,
      "પાઠવી": 7378,
      "અઠવાડિયામાં": 7379,
      "સેક્રે": 7380,
      "ઇન્સ્ટાગ્રામ": 7381,
      "ફાયદાકારક": 7382,
      "લંબાઈ": 7383,
      "બંદો": 7384,
      "ઇન્ટરનેટ": 7385,
      "ટાટા": 7386,
      "વાંકાનેર": 7387,
      "400": 7388,
      "ઘાસ": 7389,
      "નફો": 7390,
      "ભવન": 7391,
      "શોર્ટ": 7392,
      "હાસ": 7393,
      "સંડો": 7394,
      "##સીસ": 7395,
      "સ્ટાઇલ": 7396,
      "##શ્વાસ": 7397,
      "ચોકી": 7398,
      "ફેફ": 7399,
      "સર્જા": 7400,
      "પટેલને": 7401,
      "આજનો": 7402,
      "જીવનસાથી": 7403,
      "પક્ષી": 7404,
      "પક્ષો": 7405,
      "બળતરા": 7406,
      "નારાયણ": 7407,
      "##ess": 7408,
      "સપ્તાહમાં": 7409,
      "એસ્ટેટ": 7410,
      "બાહ્ય": 7411,
      "નિમિત્": 7412,
      "વપરાય": 7413,
      "##સ્વામી": 7414,
      "નેગેટિવ": 7415,
      "ઇંડા": 7416,
      "કાવ": 7417,
      "##મતિ": 7418,
      "##ay": 7419,
      "##od": 7420,
      "##છા": 7421,
      "##નેસ": 7422,
      "મળતાં": 7423,
      "##્યુશન": 7424,
      "સોનિયા": 7425,
      "ટેમ્પ": 7426,
      "રૂપમાં": 7427,
      "દુધ": 7428,
      "##ડેન્ટ": 7429,
      "શાહી": 7430,
      "બધાને": 7431,
      "ધોધ": 7432,
      "વિરોધમાં": 7433,
      "ચુક્યા": 7434,
      "પૈકીના": 7435,
      "ચુસ્ત": 7436,
      "સંદર્ભમાં": 7437,
      "અછત": 7438,
      "દિગ્ગજ": 7439,
      "અઢી": 7440,
      "જવામાં": 7441,
      "મશ": 7442,
      "૩૪": 7443,
      "##યૂ": 7444,
      "આપેલા": 7445,
      "લોકાર્": 7446,
      "રહયા": 7447,
      "##્યુન": 7448,
      "કોઈએ": 7449,
      "પુષ્ટિ": 7450,
      "બનાવની": 7451,
      "##્રોનિક": 7452,
      "માર્ક": 7453,
      "મહેમાનો": 7454,
      "પામ્યા": 7455,
      "ચુકી": 7456,
      "તબીબો": 7457,
      "મોંઘવારી": 7458,
      "છાપ": 7459,
      "વૈજ્ઞાનિકો": 7460,
      "લૉક": 7461,
      "ડિસ": 7462,
      "સકારાત્મક": 7463,
      "##વડી": 7464,
      "##શિક": 7465,
      "##ap": 7466,
      "કોન્સ": 7467,
      "જોબ": 7468,
      "તેમા": 7469,
      "##ડીઝ": 7470,
      "લોખંડ": 7471,
      "##સેવ": 7472,
      "સમયની": 7473,
      "સોન": 7474,
      "કરોડનો": 7475,
      "##બંધન": 7476,
      "વિદ્યાર્થીઓએ": 7477,
      "ભાડે": 7478,
      "ભાષણ": 7479,
      "અડધી": 7480,
      "પંચાયતના": 7481,
      "જાગૃતિ": 7482,
      "તસ્વીર": 7483,
      "મસ્જ": 7484,
      "તંદુરસ્ત": 7485,
      "સેન્સેક્સ": 7486,
      "સેક્રેટરી": 7487,
      "/-": 7488,
      "ઈસ": 7489,
      "ફુલ": 7490,
      "##જન્સી": 7491,
      "##વતી": 7492,
      "##ારુ": 7493,
      "સમર્": 7494,
      "રાખેલ": 7495,
      "કેટલું": 7496,
      "ગામોમાં": 7497,
      "ટકાથી": 7498,
      "અમદાવાદની": 7499,
      "સર્વો": 7500,
      "અત્યા": 7501,
      "દિલ્હીની": 7502,
      "ટીમની": 7503,
      "આરંભ": 7504,
      "ખાનની": 7505,
      "સ્મૃતિ": 7506,
      "કાશ્મીરના": 7507,
      "જંગલ": 7508,
      "નબળા": 7509,
      "ભંડોળ": 7510,
      "ફાઉન્ડેશન": 7511,
      "લોકાર્પણ": 7512,
      "અરુ": 7513,
      "આર્ક": 7514,
      "કડ": 7515,
      "કુર": 7516,
      "ખાં": 7517,
      "જહાજ": 7518,
      "બધુ": 7519,
      "રનની": 7520,
      "##િલા": 7521,
      "##ાણુ": 7522,
      "કાર્યાલય": 7523,
      "ઉપપ્રમુખ": 7524,
      "##ન્ડો": 7525,
      "શકું": 7526,
      "બોમ્બ": 7527,
      "##ૃતિક": 7528,
      "તાકી": 7529,
      "ખાતામાં": 7530,
      "પ્રેક્ટ": 7531,
      "##વરાજ": 7532,
      "ટ્રેક": 7533,
      "મનસુખ": 7534,
      "મુકવામાં": 7535,
      "ડાયરેક્ટર": 7536,
      "હુમલામાં": 7537,
      "વધારાના": 7538,
      "આર્મી": 7539,
      "બરફ": 7540,
      "સોંપવામાં": 7541,
      "પુરવઠા": 7542,
      "પ્રોફેસર": 7543,
      "ચેટ": 7544,
      "વાણી": 7545,
      "શ્ય": 7546,
      "##િનો": 7547,
      "##બના": 7548,
      "પ્રેશ": 7549,
      "આપના": 7550,
      "##વેરા": 7551,
      "##ભાઈએ": 7552,
      "પેઇન્ટ": 7553,
      "##બાના": 7554,
      "મોતને": 7555,
      "ધોવા": 7556,
      "સિંહો": 7557,
      "શાકભાજીના": 7558,
      "સગર્": 7559,
      "ડ્રાઈવ": 7560,
      "ડાંગર": 7561,
      "46": 7562,
      "ઔદ્યોગિક": 7563,
      "સસ્તા": 7564,
      "##ફળતા": 7565,
      "##યાના": 7566,
      "પરાજ": 7567,
      "કોડ": 7568,
      "કામદારો": 7569,
      "સીબીઆઈ": 7570,
      "કેટલો": 7571,
      "જુલાઇ": 7572,
      "સ્થિતિને": 7573,
      "વિપરીત": 7574,
      "વયના": 7575,
      "ચાવડા": 7576,
      "ફ્લ્": 7577,
      "શાખા": 7578,
      "મુકાબ": 7579,
      "છેવટે": 7580,
      "ઉલ": 7581,
      "એનું": 7582,
      "ગટર": 7583,
      "પચ": 7584,
      "મય": 7585,
      "શસ્ત્ર": 7586,
      "સસ": 7587,
      "##ટિક": 7588,
      "##ાતુ": 7589,
      "##લ્લો": 7590,
      "##રેખ": 7591,
      "##ક્ષક": 7592,
      "મહાત્મા": 7593,
      "નોન": 7594,
      "નીચા": 7595,
      "##શીપ": 7596,
      "ચેન": 7597,
      "દર્દીના": 7598,
      "આરટી": 7599,
      "મહામંત્રી": 7600,
      "સ્વરૂપમાં": 7601,
      "દૃષ્ટિ": 7602,
      "સ્વચ્છતા": 7603,
      "દલીલ": 7604,
      "##દ્દીન": 7605,
      "વેબસાઈટ": 7606,
      "કવર": 7607,
      "છાં": 7608,
      "##જલ": 7609,
      "##બસ્ત": 7610,
      "##શિંગ": 7611,
      "##અર": 7612,
      "તેવામાં": 7613,
      "##લાને": 7614,
      "પ્રાણ": 7615,
      "##રીનો": 7616,
      "સાક્ષી": 7617,
      "સ્ત્રો": 7618,
      "##િવિ": 7619,
      "બેટરી": 7620,
      "ભાગ્યે": 7621,
      "ચીનમાં": 7622,
      "કલાકની": 7623,
      "ઉંમરે": 7624,
      "સાયન્સ": 7625,
      "આટલું": 7626,
      "ફાયરિંગ": 7627,
      "મકાનમાં": 7628,
      "અભિનય": 7629,
      "ગુરૂવારે": 7630,
      "રુપિયા": 7631,
      "કથિત": 7632,
      "જર્": 7633,
      "બૅ": 7634,
      "મકાનો": 7635,
      "હારી": 7636,
      "૪૮": 7637,
      "##કિટ": 7638,
      "##હિલ": 7639,
      "કોરિયા": 7640,
      "જેત": 7641,
      "##ેશન્સ": 7642,
      "##માએ": 7643,
      "##મ્મી": 7644,
      "વાતને": 7645,
      "##દેપુર": 7646,
      "કોંગ્રેસમાં": 7647,
      "પ્રાપ્ય": 7648,
      "મતલબ": 7649,
      "બ્રાહ": 7650,
      "##ક્ષેત્ર": 7651,
      "ખસેડ": 7652,
      "ઉમેર્યું": 7653,
      "ફાર્મ": 7654,
      "કેજરીવાલ": 7655,
      "##વ્યવસ્થા": 7656,
      "અસામાન્ય": 7657,
      "કૉંગ્રેસ": 7658,
      "બંદોબસ્ત": 7659,
      "ઇનિંગ": 7660,
      "છી": 7661,
      "સઘ": 7662,
      "સરો": 7663,
      "’,": 7664,
      "##ાંતો": 7665,
      "વિઝા": 7666,
      "સંકલ": 7667,
      "બીમાર": 7668,
      "સ્ટ્રી": 7669,
      "અનુષ્": 7670,
      "ડેબ": 7671,
      "દર્દીઓના": 7672,
      "ફરિયાદો": 7673,
      "ટોચના": 7674,
      "ઘરેથી": 7675,
      "ઓળખવામાં": 7676,
      "કાંઈ": 7677,
      "સમિતિના": 7678,
      "પ્રત્યેક": 7679,
      "લગ્નમાં": 7680,
      "વૃક્ષો": 7681,
      "સરખામણીમાં": 7682,
      "બધાં": 7683,
      "ઉત્તરાખંડ": 7684,
      "ખેતમજૂરી": 7685,
      "કૂત": 7686,
      "ધામ": 7687,
      "##પક્ષ": 7688,
      "##ક્યુ": 7689,
      "##ંપી": 7690,
      "##ac": 7691,
      "માસ્ટર": 7692,
      "હોસ્ટ": 7693,
      "સ્કો": 7694,
      "મોં": 7695,
      "સુશો": 7696,
      "##ટીમાં": 7697,
      "ઉપાડ": 7698,
      "પોલીસકર્મી": 7699,
      "પેસ્ટ": 7700,
      "માનવી": 7701,
      "પરિવહન": 7702,
      "ભરૃ": 7703,
      "197": 7704,
      "આરોપીની": 7705,
      "150": 7706,
      "જાણીને": 7707,
      "ચિંત": 7708,
      "ટ્રમ્પે": 7709,
      "નબળી": 7710,
      "##ચંદ્ર": 7711,
      "ચુકાદો": 7712,
      "એટીએમ": 7713,
      "દઇએ": 7714,
      "વિનોદ": 7715,
      "અંડર": 7716,
      "ઉદ્ધ": 7717,
      "તડ": 7718,
      "પાઈ": 7719,
      "વચ": 7720,
      "##કાંત": 7721,
      "##ak": 7722,
      "કોઠ": 7723,
      "સાગર": 7724,
      "સાચા": 7725,
      "હોસ્પી": 7726,
      "તેમનાં": 7727,
      "અમલમાં": 7728,
      "પડો": 7729,
      "##સાના": 7730,
      "##ક્ટેર": 7731,
      "બાલા": 7732,
      "રાકેશ": 7733,
      "હાલની": 7734,
      "લાખનો": 7735,
      "વિદાય": 7736,
      "નવીન": 7737,
      "ગાંધીનગરમાં": 7738,
      "બોલર": 7739,
      "હજારની": 7740,
      "સ્ક્રીન": 7741,
      "જામનગરમાં": 7742,
      "ઓળખાય": 7743,
      "માર્કેટિંગ": 7744,
      "1000": 7745,
      "ધારણા": 7746,
      "વાગ્યાથી": 7747,
      "શર્માએ": 7748,
      "પીડિતા": 7749,
      "નવરાત્રી": 7750,
      "પીએસઆઇ": 7751,
      "રાજીવ": 7752,
      "દાગીના": 7753,
      "ખુરશી": 7754,
      "59": 7755,
      "ઋતુ": 7756,
      "એન્ટર": 7757,
      "પઠ": 7758,
      "##વમાં": 7759,
      "##ro": 7760,
      "##આઉટ": 7761,
      "સાથો": 7762,
      "મહંત": 7763,
      "ગુપ્તા": 7764,
      "શક્યો": 7765,
      "પેન્શન": 7766,
      "ખેતરમાં": 7767,
      "આજરોજ": 7768,
      "પાર્ટનર": 7769,
      "યુવકે": 7770,
      "લાભો": 7771,
      "ઘટાડ": 7772,
      "મુખ્યમંત્રીએ": 7773,
      "સોમવાર": 7774,
      "ભેળ": 7775,
      "ઉંમરના": 7776,
      "આગેવાની": 7777,
      "સુશોભ": 7778,
      "):": 7779,
      "54": 7780,
      "એક્શન": 7781,
      "તકની": 7782,
      "શેડ": 7783,
      "##ભુત": 7784,
      "##ut": 7785,
      "##લ્ફી": 7786,
      "પડેલા": 7787,
      "રાખતા": 7788,
      "##ર્સમાં": 7789,
      "ફેક્ટ": 7790,
      "બંધારણ": 7791,
      "અમદાવાદઃ": 7792,
      "પરિચિત": 7793,
      "##મરજન્સી": 7794,
      "ભેજ": 7795,
      "ગેરહાજ": 7796,
      "યુનિવર્સિટીના": 7797,
      "વેકેશન": 7798,
      "તકો": 7799,
      "ફળો": 7800,
      "##નિય": 7801,
      "##ુતિ": 7802,
      "##ગાં": 7803,
      "##વર્ડ": 7804,
      "માત": 7805,
      "##ાન્ટ": 7806,
      "સાસુ": 7807,
      "##િયું": 7808,
      "##સેટ": 7809,
      "##ચ્છી": 7810,
      "પુખ્ત": 7811,
      "સીઝન": 7812,
      "સિસ્ટ": 7813,
      "##ભાષ": 7814,
      "વાયર": 7815,
      "##્યૂટ": 7816,
      "જમીનમાં": 7817,
      "આશ્રમ": 7818,
      "ગીતા": 7819,
      "ચોક્કસપણે": 7820,
      "સવારના": 7821,
      "સ્પર્ધ": 7822,
      "ડિસ્ટન્સ": 7823,
      "અભિષેક": 7824,
      "હોબાળો": 7825,
      "ફ્લ્મિ": 7826,
      "અન્ન": 7827,
      "આંબ": 7828,
      "કણ": 7829,
      "કમા": 7830,
      "ખોડ": 7831,
      "ગ્રેડ": 7832,
      "ઘડ": 7833,
      "ઢી": 7834,
      "##વંત": 7835,
      "##નાની": 7836,
      "##નાબેન": 7837,
      "કેળ": 7838,
      "##રીએ": 7839,
      "##ડીપી": 7840,
      "##ક્ષર": 7841,
      "રોય": 7842,
      "સેમ્પલ": 7843,
      "વ્યાવ": 7844,
      "કાર્યકર્તા": 7845,
      "વાતની": 7846,
      "રેન્જ": 7847,
      "અલ્ટ": 7848,
      "ફોલો": 7849,
      "સૂત્ર": 7850,
      "બંન્ને": 7851,
      "રિમાન્ડ": 7852,
      "પ્રકારનો": 7853,
      "સ્કુલ": 7854,
      "પિતાને": 7855,
      "નિર્દોષ": 7856,
      "મૂક્યો": 7857,
      "કચ્છના": 7858,
      "ભુજ": 7859,
      "વોર્ડમાં": 7860,
      "બોટાદ": 7861,
      "કયારે": 7862,
      "અભિગમ": 7863,
      "નિમિત્તે": 7864,
      "ઊભો": 7865,
      "ધીર": 7866,
      "##ડલ": 7867,
      "##દિન": 7868,
      "માયા": 7869,
      "##નોના": 7870,
      "આવવાની": 7871,
      "કોફી": 7872,
      "##રેન્ટ": 7873,
      "લેવો": 7874,
      "મૂકો": 7875,
      "નામથી": 7876,
      "ગ્રહો": 7877,
      "ઓફી": 7878,
      "કમલેશ": 7879,
      "દરેકને": 7880,
      "2013": 7881,
      "##શિષ": 7882,
      "વિજયભાઈ": 7883,
      "કાઢવામાં": 7884,
      "નિર્માતા": 7885,
      "દર્શાવી": 7886,
      "વનડે": 7887,
      "પૂછ્યું": 7888,
      "જોખમી": 7889,
      "વાંધો": 7890,
      "રાજસ્થાનના": 7891,
      "આરામદાયક": 7892,
      "સ્પીડ": 7893,
      "યુરોપ": 7894,
      "બચ્ચન": 7895,
      "પ્રમોશન": 7896,
      "બેટ્સમેન": 7897,
      "સાંસદો": 7898,
      "56": 7899,
      "ગડ": 7900,
      "ઢો": 7901,
      "પંક": 7902,
      "વલ્લ": 7903,
      "શ્વે": 7904,
      "હ્યુ": 7905,
      "##ુએ": 7906,
      "##ચૂ": 7907,
      "માધ": 7908,
      "પોષ": 7909,
      "મોન": 7910,
      "મેડી": 7911,
      "##રૂમમાં": 7912,
      "કોઈની": 7913,
      "બાળકની": 7914,
      "રૂપિયાનું": 7915,
      "શાસ્ત્રી": 7916,
      "##ભવતી": 7917,
      "સ્વીકારી": 7918,
      "અહેવાલો": 7919,
      "પંચાયતઘર": 7920,
      "માંડવી": 7921,
      "ફ્રેન્ચ": 7922,
      "ફર્નિ": 7923,
      "જલદી": 7924,
      "સમૃદ્ધ": 7925,
      "રોગચાળા": 7926,
      "મૂલ્યાંકન": 7927,
      "62": 7928,
      "ઈન્ટર": 7929,
      "ઊભ": 7930,
      "તિવ": 7931,
      "થવાથી": 7932,
      "વડી": 7933,
      "શંક": 7934,
      "શર્ટ": 7935,
      "##રેશન": 7936,
      "##ક્યો": 7937,
      "##ુશ": 7938,
      "##ટકી": 7939,
      "વધ્યો": 7940,
      "લેવું": 7941,
      "પૂજન": 7942,
      "સીધો": 7943,
      "તેઓની": 7944,
      "સ્વરૂપે": 7945,
      "સુરેશ": 7946,
      "વખાણ": 7947,
      "સાંસ્ક": 7948,
      "ખાવાથી": 7949,
      "આજની": 7950,
      "પેટમાં": 7951,
      "##મણાં": 7952,
      "બોર્ડની": 7953,
      "સંચાલિત": 7954,
      "આખું": 7955,
      "દેખાશે": 7956,
      "અંકલેશ": 7957,
      "નિયંત્રિત": 7958,
      "ધોરાજી": 7959,
      "##્યોરિટી": 7960,
      "કારોબારી": 7961,
      "કોન્ટ્રાક્ટ": 7962,
      "કાયદેસરની": 7963,
      "52": 7964,
      "ઓમ": 7965,
      "ગર્વ": 7966,
      "તુર": 7967,
      "રાસ": 7968,
      "##જિસ્ટ": 7969,
      "##ધરા": 7970,
      "##વર્ષ": 7971,
      "##ચારો": 7972,
      "##દિ": 7973,
      "પ્રવિ": 7974,
      "પરની": 7975,
      "વિડિયો": 7976,
      "હોવો": 7977,
      "##ાલો": 7978,
      "##િયારો": 7979,
      "બીસીસી": 7980,
      "સિંચ": 7981,
      "બોન્ડ": 7982,
      "ગોહિલ": 7983,
      "શોષણ": 7984,
      "##દેદારો": 7985,
      "બજાવતા": 7986,
      "જીવલે": 7987,
      "સંપાદ": 7988,
      "૧૯૯": 7989,
      "૨૦૧૬": 7990,
      "##ગ્નિ": 7991,
      "સેનાના": 7992,
      "આત્મવિ": 7993,
      "કબજે": 7994,
      "માધ્યમિક": 7995,
      "પેકેજ": 7996,
      "હળવદ": 7997,
      "આલિયા": 7998,
      "તપ": 7999,
      "નૈ": 8000,
      "બારી": 8001,
      "૪૨": 8002,
      "##નવાર": 8003,
      "##સ્ક્ર": 8004,
      "બેઝ": 8005,
      "##બેક": 8006,
      "મેળવે": 8007,
      "કમિશ્": 8008,
      "##નિર્": 8009,
      "જાતકો": 8010,
      "અવરોધ": 8011,
      "અમેરિકાની": 8012,
      "નિષ્ણાતો": 8013,
      "સ્વતંત્રતા": 8014,
      "પ્રતીક": 8015,
      "ડિલિવ": 8016,
      "66": 8017,
      "છત": 8018,
      "તૃ": 8019,
      "પેડ": 8020,
      "##પ્રે": 8021,
      "##સોલ": 8022,
      "##ટલી": 8023,
      "##બ્રે": 8024,
      "##ew": 8025,
      "લાગતું": 8026,
      "ટેલી": 8027,
      "વાડી": 8028,
      "ગ્રાન્ટ": 8029,
      "માત્રામાં": 8030,
      "ખોલી": 8031,
      "રિટેલ": 8032,
      "આરોપીઓને": 8033,
      "પાકિસ્તાને": 8034,
      "નદીના": 8035,
      "##ers": 8036,
      "કૌશલ": 8037,
      "રણવીર": 8038,
      "કાપડ": 8039,
      "વધારીને": 8040,
      "અટકી": 8041,
      "વ્યાવસાય": 8042,
      "જીવલેણ": 8043,
      "Gujar": 8044,
      "ખડ": 8045,
      "ખાય": 8046,
      "ગંદ": 8047,
      "ડબ્": 8048,
      "દાળ": 8049,
      "ભયા": 8050,
      "વચન": 8051,
      "સતા": 8052,
      "##દુલ": 8053,
      "##વાળું": 8054,
      "પ્રાઈ": 8055,
      "##લેષણ": 8056,
      "કરવામા": 8057,
      "સેલ્સ": 8058,
      "##બીઆઇ": 8059,
      "રાખશે": 8060,
      "##પ્રથમ": 8061,
      "બનાવવાનો": 8062,
      "જુન": 8063,
      "##સ્થિતિ": 8064,
      "મહિલાના": 8065,
      "રૂપિયામાં": 8066,
      "યોજાયો": 8067,
      "બુટ": 8068,
      "હાજરીમાં": 8069,
      "આસામ": 8070,
      "અટકાવી": 8071,
      "યુવતીએ": 8072,
      "વિપુલ": 8073,
      "શક્તિશાળી": 8074,
      "તબક્કે": 8075,
      "હટાવી": 8076,
      "ઉદ્દેશ": 8077,
      "અશ્વિન": 8078,
      "કિનારે": 8079,
      "વસાવા": 8080,
      "છેતરપિંડી": 8081,
      "ઊંડ": 8082,
      "જજ": 8083,
      "ઢોર": 8084,
      "નૌ": 8085,
      "ફગાવી": 8086,
      "##પદ": 8087,
      "##મંદ": 8088,
      "##ભાવી": 8089,
      "પ્રચ": 8090,
      "પરા": 8091,
      "##ટીની": 8092,
      "સોનુ": 8093,
      "રેતી": 8094,
      "##ગાડી": 8095,
      "ચૂંટણીના": 8096,
      "પ્રાપ્તિ": 8097,
      "શ્રદ્ધા": 8098,
      "સ્ટેશનના": 8099,
      "##દર્શક": 8100,
      "કોલેજમાં": 8101,
      "પ્રવૃત્તિઓ": 8102,
      "કચરો": 8103,
      "##મહાલ": 8104,
      "ધર્": 8105,
      "ફાળો": 8106,
      "૫૫": 8107,
      "##િન્સ": 8108,
      "##av": 8109,
      "##MC": 8110,
      "બેરોજ": 8111,
      "લેતી": 8112,
      "પહેલ": 8113,
      "સીડી": 8114,
      "લગતી": 8115,
      "ભાવિ": 8116,
      "ક્રમ": 8117,
      "બદલાવ": 8118,
      "પ્રોપ": 8119,
      "કેન્દ્રમાં": 8120,
      "લેવાશે": 8121,
      "કલાકો": 8122,
      "લાલચ": 8123,
      "ગર્ભવતી": 8124,
      "એક્સચે": 8125,
      "પાલનપુર": 8126,
      "ચમક": 8127,
      "પાવડર": 8128,
      "ઘટકો": 8129,
      "ભાષામાં": 8130,
      "જથ્થા": 8131,
      "સંતાન": 8132,
      "કોર્પોરેટર": 8133,
      "કબ્જે": 8134,
      "ઓઇલ": 8135,
      "ચરણ": 8136,
      "જળા": 8137,
      "મંચ": 8138,
      "હાન": 8139,
      "##ત્ય": 8140,
      "##નીલ": 8141,
      "##વીએ": 8142,
      "સુનિ": 8143,
      "સેન": 8144,
      "##ોડું": 8145,
      "સ્ટાર્": 8146,
      "ચોખ્": 8147,
      "આરોપો": 8148,
      "ચેન્ના": 8149,
      "##બાપુ": 8150,
      "##પાયા": 8151,
      "ગણાવી": 8152,
      "વિદ્યાર્થીની": 8153,
      "જન્મે": 8154,
      "પ્રક્રિયામાં": 8155,
      "નિષ્ફળતા": 8156,
      "સંબોધન": 8157,
      "પથ્થર": 8158,
      "ધ્રુ": 8159,
      "આક્રમક": 8160,
      "શ્યામ": 8161,
      "63": 8162,
      "અશક": 8163,
      "ઇમાર": 8164,
      "દળો": 8165,
      "ભંડ": 8166,
      "યે": 8167,
      "વંચ": 8168,
      "##ુક્ત": 8169,
      "##લાસ": 8170,
      "કોમે": 8171,
      "ગુનામાં": 8172,
      "##િંગના": 8173,
      "બીચ": 8174,
      "લગા": 8175,
      "બાબતમાં": 8176,
      "દિવાલો": 8177,
      "ચૂકવ": 8178,
      "કાર્તિક": 8179,
      "ક્લબ": 8180,
      "ઉદ્યોગપતિ": 8181,
      "##and": 8182,
      "ચિહ": 8183,
      "સૂત્રોએ": 8184,
      "ક્લાસ": 8185,
      "ઇન્ટરવ્યૂ": 8186,
      "ટંકારા": 8187,
      ":-": 8188,
      "કાળી": 8189,
      "ટાર્": 8190,
      "ડ્રે": 8191,
      "ફાઇલ": 8192,
      "વહ": 8193,
      "##કુમ": 8194,
      "##તલ": 8195,
      "કરાયેલી": 8196,
      "##િક્": 8197,
      "##ક્વિ": 8198,
      "હોળી": 8199,
      "##પીપ": 8200,
      "##ન્સર": 8201,
      "પહેરી": 8202,
      "##ુકત": 8203,
      "ભારતનો": 8204,
      "બોડી": 8205,
      "પેટે": 8206,
      "##વનાર": 8207,
      "બેઠેલા": 8208,
      "ગયેલી": 8209,
      "પાકિસ્તાનમાં": 8210,
      "જાતીય": 8211,
      "ચૂક્યો": 8212,
      "મુલાકાતે": 8213,
      "અર્થવ્યવસ્થા": 8214,
      "ધીમી": 8215,
      "વસૂલ": 8216,
      "અભ્યાસમાં": 8217,
      "##ાયેલું": 8218,
      "નોટબંધી": 8219,
      "##ફિકેશન": 8220,
      "ફાળવણી": 8221,
      "યૂઝ": 8222,
      "પ્રાણીઓ": 8223,
      "તુલસી": 8224,
      "હથિયારો": 8225,
      "અવારનવાર": 8226,
      "આવેદનપત્ર": 8227,
      "જન્મદિવસ": 8228,
      "61": 8229,
      "ઇવેન્ટ": 8230,
      "એમે": 8231,
      "પૉ": 8232,
      "ભિ": 8233,
      "વાલ": 8234,
      "##ડ્સ": 8235,
      "##બન": 8236,
      "##િયાને": 8237,
      "મળવાની": 8238,
      "દેવાની": 8239,
      "પડયા": 8240,
      "પડતાં": 8241,
      "કામના": 8242,
      "ભારતનું": 8243,
      "પરિવારે": 8244,
      "લોકશાહી": 8245,
      "પ્રતિમા": 8246,
      "##નિકલ": 8247,
      "પત્નીને": 8248,
      "ઓપરે": 8249,
      "મંત્રાલયના": 8250,
      "આતંકવાદ": 8251,
      "તાલિ": 8252,
      "સ્કૂલમાં": 8253,
      "ગાળામાં": 8254,
      "સૈનિકો": 8255,
      "ગુસ્સો": 8256,
      "નહિં": 8257,
      "સાંસ્કૃતિક": 8258,
      "થાક": 8259,
      "વારો": 8260,
      "##ંબા": 8261,
      "##હારો": 8262,
      "##ુંક": 8263,
      "વિષ્ણુ": 8264,
      "કોને": 8265,
      "##રોગ": 8266,
      "આપવો": 8267,
      "##ત્તર": 8268,
      "##સીંગ": 8269,
      "લેતાં": 8270,
      "##ક્રમે": 8271,
      "શકતી": 8272,
      "રાખ્યા": 8273,
      "2000": 8274,
      "ભાગોમાં": 8275,
      "અપાશે": 8276,
      "તરફે": 8277,
      "##ખાને": 8278,
      "શરીરની": 8279,
      "માર્ગો": 8280,
      "પતિને": 8281,
      "વડોદરાના": 8282,
      "સર્જાઈ": 8283,
      "સાધુ": 8284,
      "સૂચવે": 8285,
      "લેખક": 8286,
      "મંડળી": 8287,
      "સોનાના": 8288,
      "સિક્યોરિટી": 8289,
      "લગ્નના": 8290,
      "##ent": 8291,
      "રજિસ્ટ્રેશન": 8292,
      "રિટર્ન": 8293,
      "આત્મા": 8294,
      "છોટાઉ": 8295,
      "ડેપ્યુટી": 8296,
      "ભરૃચ": 8297,
      "ઈશ": 8298,
      "ઉઘર": 8299,
      "ગાળો": 8300,
      "ચશ્": 8301,
      "નાસી": 8302,
      "રેશ": 8303,
      "##ૃત્ત": 8304,
      "##ખાન": 8305,
      "##ફોડ": 8306,
      "##લીવુ": 8307,
      "જોષી": 8308,
      "મેના": 8309,
      "સ્થાયી": 8310,
      "##ણામાં": 8311,
      "પીવાના": 8312,
      "બનાવવાનું": 8313,
      "રેસ": 8314,
      "રાહુ": 8315,
      "પંચમહાલ": 8316,
      "નાખો": 8317,
      "આઇપીએ": 8318,
      "સ્પર્શ": 8319,
      "કાનૂની": 8320,
      "બજેટમાં": 8321,
      "યુવાનોને": 8322,
      "ડિસ્કાઉન્ટ": 8323,
      "પ્રતિનિધ": 8324,
      "##કૃષ્ણ": 8325,
      "જર્મની": 8326,
      "નેપાળ": 8327,
      "કોન્સ્ટેબલ": 8328,
      "ટાર્ગેટ": 8329,
      "થવી": 8330,
      "નંબ": 8331,
      "મકર": 8332,
      "લડવા": 8333,
      "૩૯": 8334,
      "##સમી": 8335,
      "##ીટ": 8336,
      "##જક": 8337,
      "##ષભ": 8338,
      "માસમાં": 8339,
      "##રીય": 8340,
      "હોર્મો": 8341,
      "##રોનો": 8342,
      "મુદ": 8343,
      "સોંપી": 8344,
      "રાખવાનો": 8345,
      "યોજી": 8346,
      "##પ્રત": 8347,
      "સિઝન": 8348,
      "ગોપાલ": 8349,
      "આમિર": 8350,
      "##પુરી": 8351,
      "રોકાણકાર": 8352,
      "ઈન્ડસ્ટ્રી": 8353,
      "મૂકવા": 8354,
      "સંભાળી": 8355,
      "અદાણી": 8356,
      "બારડો": 8357,
      "આકર્ષણ": 8358,
      "બતાવે": 8359,
      "બંગાળમાં": 8360,
      "સાઉદી": 8361,
      "વર્ણન": 8362,
      "વિસર્જન": 8363,
      "રાજપૂત": 8364,
      "આંધ્ર": 8365,
      "જ્વેલ": 8366,
      "અનુષ્કા": 8367,
      "53": 8368,
      "અગ્નિ": 8369,
      "ડાંગ": 8370,
      "મિલ્": 8371,
      "વાજ": 8372,
      "##ટમ": 8373,
      "##ગસ": 8374,
      "##ઝના": 8375,
      "##ાવું": 8376,
      "સેમી": 8377,
      "જવાન": 8378,
      "મહિલાની": 8379,
      "વિસ્તારની": 8380,
      "ચીને": 8381,
      "યોજાયેલી": 8382,
      "##એસપી": 8383,
      "##એમસી": 8384,
      "ગરબા": 8385,
      "મુંબઈના": 8386,
      "પુરસ્કાર": 8387,
      "યુવતીને": 8388,
      "કોમર્સ": 8389,
      "મુદ્દાઓ": 8390,
      "નારાજગી": 8391,
      "ચિકિત્સ": 8392,
      "ડ્રાઈવર": 8393,
      "ડેવલપમેન્ટ": 8394,
      "શણગાર": 8395,
      "આયોગ": 8396,
      "આડે": 8397,
      "આદર": 8398,
      "ઔર": 8399,
      "કન્ટ": 8400,
      "દત્ત": 8401,
      "હમણાં": 8402,
      "##જનમાં": 8403,
      "##ઝેશન": 8404,
      "##વાળો": 8405,
      "પ્રણ": 8406,
      "##લ્ક": 8407,
      "##ાણો": 8408,
      "મોજ": 8409,
      "મુળ": 8410,
      "##કાયા": 8411,
      "##ડાટ": 8412,
      "##સ્ટો": 8413,
      "યુકે": 8414,
      "રહીશો": 8415,
      "લાગતા": 8416,
      "બાબા": 8417,
      "ફરતા": 8418,
      "વચ્ચેની": 8419,
      "પ્રમાણપત્ર": 8420,
      "રિફ": 8421,
      "મંદિરની": 8422,
      "અર્ધ": 8423,
      "સંસ્થાના": 8424,
      "કુંભ": 8425,
      "ફ્રેન્ડ": 8426,
      "સંસદમાં": 8427,
      "રાજકારણ": 8428,
      "પાતળા": 8429,
      "સાબરકાંઠા": 8430,
      "ડાઉનલોડ": 8431,
      "પ્રાઇવેટ": 8432,
      "શિલ્પા": 8433,
      "પ્રસ્તુત": 8434,
      "તિવારી": 8435,
      "પ્રવિણ": 8436,
      "ક્યા": 8437,
      "ગળે": 8438,
      "ચળ": 8439,
      "તૂટ": 8440,
      "પછ": 8441,
      "ફસાય": 8442,
      "રાણી": 8443,
      "૬૫": 8444,
      "##લક્ષી": 8445,
      "##સગઢ": 8446,
      "##મકી": 8447,
      "##બળો": 8448,
      "##્યની": 8449,
      "##ાઈના": 8450,
      "##સેલ": 8451,
      "સેક્ટર": 8452,
      "લગાડ": 8453,
      "કેસોની": 8454,
      "ડિફે": 8455,
      "શોક": 8456,
      "લાક": 8457,
      "2012": 8458,
      "રાજકોટઃ": 8459,
      "જીવંત": 8460,
      "દેખરેખ": 8461,
      "દિવાલ": 8462,
      "અગાઉથી": 8463,
      "વિદેશમાં": 8464,
      "અધિકારીઓની": 8465,
      "ફેલાઈ": 8466,
      "કર્ફ": 8467,
      "સાંભળીને": 8468,
      "સૌરાષ્ટ્રમાં": 8469,
      "કેબિનેટ": 8470,
      "વેક્સીન": 8471,
      "ફોટોગ્રાફ": 8472,
      "મસાલા": 8473,
      "ચેન્નઈ": 8474,
      "પ્રદૂષણ": 8475,
      "સુનિશ્ચિત": 8476,
      "57": 8477,
      "જડ": 8478,
      "ફિઝ": 8479,
      "બુમ": 8480,
      "યજ્ઞ": 8481,
      "##ઝમાં": 8482,
      "##ચર્સ": 8483,
      "કરનારી": 8484,
      "##ામંત્રી": 8485,
      "પરો": 8486,
      "વિડ": 8487,
      "##લીએ": 8488,
      "##રેન": 8489,
      "##ણીની": 8490,
      "મળતો": 8491,
      "લેબ": 8492,
      "હાથી": 8493,
      "ફેન્સ": 8494,
      "બંનેએ": 8495,
      "ટેસ્ટિંગ": 8496,
      "કરાતા": 8497,
      "વેક્સિનેશન": 8498,
      "જીલ્લાના": 8499,
      "ઓક્ટોબ": 8500,
      "##ઠ્ઠ": 8501,
      "ટેલિકો": 8502,
      "રસોઈ": 8503,
      "વાપરી": 8504,
      "પરિષદ": 8505,
      "મસ્જિદ": 8506,
      "ઈમ": 8507,
      "જસ": 8508,
      "જંતુ": 8509,
      "તાજા": 8510,
      "##સનો": 8511,
      "##ૃહ": 8512,
      "##શની": 8513,
      "##ડાયા": 8514,
      "જીતુ": 8515,
      "સૌપ્રથમ": 8516,
      "સિઝનમાં": 8517,
      "મીઠી": 8518,
      "રાફ": 8519,
      "પ્રતિભા": 8520,
      "સ્વામિનાર": 8521,
      "બિંદુ": 8522,
      "ટોળ": 8523,
      "વ્યાખ્યા": 8524,
      "ટેસ્ટમાં": 8525,
      "પતિએ": 8526,
      "શરત": 8527,
      "મેળવ્યો": 8528,
      "##વર્તી": 8529,
      "મથક": 8530,
      "પ્રભારી": 8531,
      "આક્ષેપો": 8532,
      "નમૂના": 8533,
      "એન્જિનિયર": 8534,
      "વાનગીઓ": 8535,
      "લશ્કરી": 8536,
      "ડિપાર્ટમેન્ટ": 8537,
      "પદ્મ": 8538,
      "અશક્ય": 8539,
      "આભ": 8540,
      "ગાઇડ": 8541,
      "ચણા": 8542,
      "##ભેર": 8543,
      "##બત": 8544,
      "##ul": 8545,
      "##!!": 8546,
      "પ્રહાર": 8547,
      "##યાએ": 8548,
      "દેશોની": 8549,
      "લગાવ્યા": 8550,
      "કાચા": 8551,
      "જાણતા": 8552,
      "પેજ": 8553,
      "અપમાન": 8554,
      "જગદી": 8555,
      "નેતાઓએ": 8556,
      "કાયમ": 8557,
      "અગાઉના": 8558,
      "વસવાટ": 8559,
      "શરદ": 8560,
      "ક્યાંય": 8561,
      "વ્યક્તિત્વ": 8562,
      "વિધાનસભામાં": 8563,
      "નિયમોનું": 8564,
      "અગ્રવાલ": 8565,
      "જાન્યુઆરીએ": 8566,
      "સ્માર્ટફો": 8567,
      "ગોઠવી": 8568,
      "ફ્લાઈ": 8569,
      "વિકસિત": 8570,
      "એકત્રિત": 8571,
      "મનુષ્ય": 8572,
      "પતંગ": 8573,
      "માર્ગદર્શિકા": 8574,
      "રદ્દ": 8575,
      "૪૧": 8576,
      "##ટુ": 8577,
      "##યત": 8578,
      "##િકે": 8579,
      "##રીઓ": 8580,
      "##કેલી": 8581,
      "બેક્ટેર": 8582,
      "##રૂખ": 8583,
      "##મીર": 8584,
      "##ત્રુ": 8585,
      "રૂટ": 8586,
      "પેસે": 8587,
      "પહોંચતા": 8588,
      "લાખના": 8589,
      "બનતા": 8590,
      "સફાઇ": 8591,
      "મંદી": 8592,
      "એસપી": 8593,
      "196": 8594,
      "વિદ્યાર્થીઓની": 8595,
      "શ્રાવ": 8596,
      "નિકળ": 8597,
      "ગર્ભાવસ્થા": 8598,
      "અખિલ": 8599,
      "##દાયી": 8600,
      "એન્જી": 8601,
      "ઝઘડો": 8602,
      "ઓલિમ્પિક": 8603,
      "ટેલિકોમ": 8604,
      "71": 8605,
      "73": 8606,
      "કાજ": 8607,
      "ખેર": 8608,
      "ટાઉન": 8609,
      "શાર": 8610,
      "હવામાં": 8611,
      "##પલ": 8612,
      "પ્રતા": 8613,
      "##્યાત્મ": 8614,
      "##મામાં": 8615,
      "દેસાઈ": 8616,
      "##બીસી": 8617,
      "ઉપરના": 8618,
      "ગ્રામી": 8619,
      "ખાવાનું": 8620,
      "નાખવાની": 8621,
      "પત્નીએ": 8622,
      "કરાવ્યું": 8623,
      "પ્રશાસ": 8624,
      "રાજયના": 8625,
      "સૌરાષ્ટ્રના": 8626,
      "દસ્તાવેજ": 8627,
      "સંકુલ": 8628,
      "વાદળી": 8629,
      "આઝાદ": 8630,
      "તેટલી": 8631,
      "મનીષ": 8632,
      "કોમ્પ્યુટર": 8633,
      "દાયકા": 8634,
      "જ્યોતિષ": 8635,
      "કહો": 8636,
      "ગાયક": 8637,
      "વતી": 8638,
      "વેટ": 8639,
      "સવા": 8640,
      "૪૪": 8641,
      "##બડ": 8642,
      "##બાલ": 8643,
      "##નાના": 8644,
      "છેઃ": 8645,
      "માગી": 8646,
      "##્યુબ": 8647,
      "નિહ": 8648,
      "પહેરીને": 8649,
      "સરકારનો": 8650,
      "નોંધવામાં": 8651,
      "રેસીપી": 8652,
      "ગ્રંથ": 8653,
      "##િપ્ટ": 8654,
      "ભરવામાં": 8655,
      "અહીંના": 8656,
      "ટ્રેનિંગ": 8657,
      "આયોજિત": 8658,
      "સુંદરતા": 8659,
      "પરીક્ષામાં": 8660,
      "૧૫૦": 8661,
      "પામ્યો": 8662,
      "કલેક્ટ": 8663,
      "ધમધ": 8664,
      "ઊંચાઈ": 8665,
      "રાજયમાં": 8666,
      "જીલ્લામાં": 8667,
      "વેરાવ": 8668,
      "ભજવી": 8669,
      "પદાર્થો": 8670,
      "##ંખ્ય": 8671,
      "નિમણૂક": 8672,
      "સ્કીમ": 8673,
      "ઠરાવ": 8674,
      "ઓર્ગે": 8675,
      "પાઇપ": 8676,
      "નિર્ધારિત": 8677,
      "સ્વામિનારાયણ": 8678,
      "?’": 8679,
      "દહીં": 8680,
      "બરો": 8681,
      "##મ્ય": 8682,
      "##કપ": 8683,
      "##કથા": 8684,
      "##કેશન": 8685,
      "##ૂતિ": 8686,
      "##લેન્ટ": 8687,
      "##રૂણ": 8688,
      "દિવ્યાં": 8689,
      "પૂર્": 8690,
      "ગામડા": 8691,
      "વિસ્તરણ": 8692,
      "બોલ્ડ": 8693,
      "રેપ": 8694,
      "પ્રોટીન": 8695,
      "ખેડા": 8696,
      "શાસ્ત્ર": 8697,
      "##લાઇટ": 8698,
      "ઇન્ડેક્સ": 8699,
      "કાઢવા": 8700,
      "પત્રમાં": 8701,
      "સ્ટેજ": 8702,
      "સૈફ": 8703,
      "મેળવવામાં": 8704,
      "ડાયમંડ": 8705,
      "એડવો": 8706,
      "જાળવણી": 8707,
      "સંગઠનો": 8708,
      "ટ્રાન્સપોર્ટ": 8709,
      "સ્ટેડિયમ": 8710,
      "##ાંજલિ": 8711,
      "ઉશ્કેર": 8712,
      "નાઈટ": 8713,
      "ભરીને": 8714,
      "સગા": 8715,
      "##ળાઈ": 8716,
      "##સાઇ": 8717,
      "##ભે": 8718,
      "##ર્ટના": 8719,
      "##ક્ક": 8720,
      "##સીબે": 8721,
      "દિવસોથી": 8722,
      "આગમન": 8723,
      "અધિન": 8724,
      "મીઠા": 8725,
      "બનાવશે": 8726,
      "જિલ્લાઓમાં": 8727,
      "માર્ચે": 8728,
      "હોસ્પિટલોમાં": 8729,
      "પ્રેસિ": 8730,
      "##શાસ્ત્ર": 8731,
      "લેવાયો": 8732,
      "પાકિસ્તાનને": 8733,
      "૧૯૮": 8734,
      "દુનિયાની": 8735,
      "2008": 8736,
      "દ્રશ્યો": 8737,
      "યુનિટી": 8738,
      "પંડિત": 8739,
      "ઉછાળો": 8740,
      "ક્રોસ": 8741,
      "બ્રિટિશ": 8742,
      "ક્લો": 8743,
      "કસ્ટમ": 8744,
      "ઘાત": 8745,
      "છંટ": 8746,
      "ઝાં": 8747,
      "ઝાર": 8748,
      "ધૂમ": 8749,
      "વસ્ત્રો": 8750,
      "##સાગર": 8751,
      "##ઝની": 8752,
      "માવ": 8753,
      "આવકાર": 8754,
      "##ન્ડા": 8755,
      "હોતી": 8756,
      "સુગંધ": 8757,
      "પાચન": 8758,
      "નાટક": 8759,
      "સીન": 8760,
      "બોગસ": 8761,
      "નિયામ": 8762,
      "ટ્રેન્ડ": 8763,
      "મહિનાના": 8764,
      "સ્મશાન": 8765,
      "##ટ્ટા": 8766,
      "પૈસાની": 8767,
      "અફવા": 8768,
      "પ્રતિબંધિત": 8769,
      "પ્રિન્ટ": 8770,
      "સિંગલ": 8771,
      "સહેજ": 8772,
      "રાત્રીના": 8773,
      "કુમારે": 8774,
      "##ચૂંટ": 8775,
      "ઇસ્લા": 8776,
      "કડી": 8777,
      "કિંગ": 8778,
      "જસદ": 8779,
      "નવાર": 8780,
      "પારો": 8781,
      "લિંક": 8782,
      "શંકર": 8783,
      "હાર્ડ": 8784,
      "##ૂંક": 8785,
      "##ફોલ": 8786,
      "##નાએ": 8787,
      "કેલ": 8788,
      "માથે": 8789,
      "ગુણો": 8790,
      "પાપ": 8791,
      "દેવે": 8792,
      "દરજ્": 8793,
      "કામે": 8794,
      "તેઓના": 8795,
      "##મોહન": 8796,
      "ચોરસ": 8797,
      "ચોખા": 8798,
      "મીની": 8799,
      "ફરક": 8800,
      "સહયોગી": 8801,
      "હરિ": 8802,
      "કર્મચારીઓની": 8803,
      "પંચાયતની": 8804,
      "સ્ટોપ": 8805,
      "નીકળ્યા": 8806,
      "##ધિકારી": 8807,
      "કુશળતા": 8808,
      "વિભાજ": 8809,
      "બાજરી": 8810,
      "વિવેક": 8811,
      "ગંદકી": 8812,
      "જગદીશ": 8813,
      "ગિર": 8814,
      "જાં": 8815,
      "તસ્ક": 8816,
      "થનારા": 8817,
      "મધુ": 8818,
      "મમ્મી": 8819,
      "##ામારી": 8820,
      "##સ્ડ": 8821,
      "સુક": 8822,
      "##િયમમાં": 8823,
      "મેટલ": 8824,
      "ગુને": 8825,
      "નાક": 8826,
      "ફર્યા": 8827,
      "ભાગો": 8828,
      "##ટોપ": 8829,
      "ક્રિ": 8830,
      "ક્રિસ": 8831,
      "જગત": 8832,
      "બિલા": 8833,
      "વિકાસના": 8834,
      "કોલેજના": 8835,
      "એન્ટિ": 8836,
      "મહામારીને": 8837,
      "ક્વોલ": 8838,
      "બિલ્ડીંગ": 8839,
      "ટ્રસ્ટી": 8840,
      "શિયાળામાં": 8841,
      "કાળજીપૂર્વક": 8842,
      "મચાવી": 8843,
      "કારોબાર": 8844,
      "પેટાચૂંટ": 8845,
      "નિરીક્ષણ": 8846,
      "પરાજય": 8847,
      "આઘાત": 8848,
      "ઈલેક્ટ": 8849,
      "ખભા": 8850,
      "છત્તી": 8851,
      "ઝેર": 8852,
      "નંગ": 8853,
      "રિલ": 8854,
      "##ૅર": 8855,
      "સ્તન": 8856,
      "##્રીક": 8857,
      "વ્યકત": 8858,
      "શકતો": 8859,
      "બનાવ્યું": 8860,
      "રેગ": 8861,
      "બંનેને": 8862,
      "રાત્રિ": 8863,
      "અવસર": 8864,
      "પિતાની": 8865,
      "પ્રસન્ન": 8866,
      "વાયરસને": 8867,
      "મનપ": 8868,
      "તંત્રએ": 8869,
      "જીત્યા": 8870,
      "દ્રારા": 8871,
      "વિશ્લેષણ": 8872,
      "મોટાભાગની": 8873,
      "તારીખે": 8874,
      "ક્લાસિક": 8875,
      "સગવડ": 8876,
      "વહીવટ": 8877,
      "કનેક્ટ": 8878,
      "વાયુસેના": 8879,
      "વ્યાપાર": 8880,
      "બપોરના": 8881,
      "મંજુરી": 8882,
      "ભૌતિક": 8883,
      "હેલિકો": 8884,
      "છંટકાવ": 8885,
      "ઈજાગ્રસ્ત": 8886,
      "કઢ": 8887,
      "ખોર": 8888,
      "છાલ": 8889,
      "પબ્લિક": 8890,
      "##લગ્ન": 8891,
      "##ચારી": 8892,
      "##બુલ": 8893,
      "પ્રજાત": 8894,
      "##ાવટ": 8895,
      "##રીક": 8896,
      "ઉપસ્થિતિ": 8897,
      "નિવાસી": 8898,
      "લેપ": 8899,
      "જીવા": 8900,
      "સેલ્ફી": 8901,
      "દિવ્ય": 8902,
      "નીર": 8903,
      "સોદા": 8904,
      "સીઝ": 8905,
      "વાયદા": 8906,
      "પ્રેમમાં": 8907,
      "ચાલશે": 8908,
      "રમેશ": 8909,
      "બ્રિગેડ": 8910,
      "માલિકો": 8911,
      "૧૯૬": 8912,
      "કિંમતમાં": 8913,
      "બેંકના": 8914,
      "મહામારીના": 8915,
      "##પીએફ": 8916,
      "ચુડાસ": 8917,
      "મંદિરે": 8918,
      "કેરળ": 8919,
      "##ઝોન": 8920,
      "ઉમટી": 8921,
      "વિરૂધ્ધ": 8922,
      "સરખામણીએ": 8923,
      "જરૃ": 8924,
      "ચિકન": 8925,
      "ર૦૧": 8926,
      "ઇમે": 8927,
      "ઇજાગ્રસ્ત": 8928,
      "ગંગ": 8929,
      "ત્રા": 8930,
      "ન્યા": 8931,
      "મજૂરી": 8932,
      "૪૩": 8933,
      "૫૪": 8934,
      "##ંછ": 8935,
      "##છોડ": 8936,
      "વિવા": 8937,
      "##વીજ": 8938,
      "##સ્ટાર": 8939,
      "રાજપીપ": 8940,
      "સેલે": 8941,
      "પુનર": 8942,
      "શકિત": 8943,
      "પીવા": 8944,
      "##પ્લા": 8945,
      "સૌર": 8946,
      "ત્રિપ": 8947,
      "કમર": 8948,
      "ભરાઈ": 8949,
      "જેમની": 8950,
      "ઉમેરી": 8951,
      "હિમા": 8952,
      "ઘટાડે": 8953,
      "ચૂકવવા": 8954,
      "બુલેટ": 8955,
      "નાખવામાં": 8956,
      "મિથ": 8957,
      "##કામના": 8958,
      "તેલંગ": 8959,
      "હિંસક": 8960,
      "શખ્સોએ": 8961,
      "હીરા": 8962,
      "સિદ્ધાંત": 8963,
      "ડીઝલના": 8964,
      "ઘૂંટ": 8965,
      "સગીર": 8966,
      "ફર્સ્ટ": 8967,
      "માથું": 8968,
      "પાંદડા": 8969,
      "રૃપિયા": 8970,
      "જબરદ": 8971,
      "પ્રેશર": 8972,
      "હેલિકોપ્ટ": 8973,
      "ઈમરાન": 8974,
      "બિસ્": 8975,
      "સર્ટ": 8976,
      "૧ર": 8977,
      "##સ્યો": 8978,
      "##સરે": 8979,
      "##હિક": 8980,
      "##ન્જર": 8981,
      "##તીય": 8982,
      "બેલે": 8983,
      "રાજનાથ": 8984,
      "રોમાં": 8985,
      "##ાણીએ": 8986,
      "##યોગ્ય": 8987,
      "નોંધવું": 8988,
      "ફોનમાં": 8989,
      "લાકડી": 8990,
      "##મેન્ટમાં": 8991,
      "સ્વાભાવ": 8992,
      "રંગના": 8993,
      "વ્યાસ": 8994,
      "વિજયભાઇ": 8995,
      "ગર્ભા": 8996,
      "2019માં": 8997,
      "અભિપ્ર": 8998,
      "અંબાજી": 8999,
      "##્યુલેશન": 9000,
      "ઉનાળામાં": 9001,
      "સ્પેસ": 9002,
      "સળગ": 9003,
      "હડતાળ": 9004,
      "##જવસ્તુ": 9005,
      "ગ્રામીણ": 9006,
      "અધિનિયમ": 9007,
      "લદ્દ": 9008,
      "##િબ્ર": 9009,
      "##CB": 9010,
      "##લાજ": 9011,
      "પ્રદીપ": 9012,
      "##ટેશન": 9013,
      "##રીટ": 9014,
      "##ાનંદ": 9015,
      "સુભાષ": 9016,
      "વર્તુ": 9017,
      "પીવાથી": 9018,
      "મહિનો": 9019,
      "ચોથી": 9020,
      "કંપનીઓના": 9021,
      "અંગેના": 9022,
      "ચેમ્બર": 9023,
      "##સ્થાને": 9024,
      "કોઇને": 9025,
      "ટોળા": 9026,
      "હરાજી": 9027,
      "મંત્રીએ": 9028,
      "એલર્જી": 9029,
      "દુનિયાભરમાં": 9030,
      "લોકડાઉનના": 9031,
      "શૈલેષ": 9032,
      "બિલ્ડ": 9033,
      "ચલાવતા": 9034,
      "ગુલાબી": 9035,
      "કંઇક": 9036,
      "તકેદારી": 9037,
      "દુબઈ": 9038,
      "પાડોશી": 9039,
      "પ્રેક્ટિસ": 9040,
      "ઉદ્ધવ": 9041,
      "એડવોકેટ": 9042,
      "છત્તીસગઢ": 9043,
      "લદ્દાખ": 9044,
      "છરી": 9045,
      "તાં": 9046,
      "થિયેટ": 9047,
      "પાયલ": 9048,
      "હૂં": 9049,
      "૧પ": 9050,
      "##મારો": 9051,
      "##યક": 9052,
      "##બેર": 9053,
      "##આંક": 9054,
      "##યાન": 9055,
      "##ન્ડી": 9056,
      "##િતી": 9057,
      "બેન્ડ": 9058,
      "##િલ્ડ": 9059,
      "જીવી": 9060,
      "ચોંકી": 9061,
      "પૂરતા": 9062,
      "મોડાસા": 9063,
      "મેળવ્યા": 9064,
      "અજમ": 9065,
      "સૂચિ": 9066,
      "લેખમાં": 9067,
      "ડોલરની": 9068,
      "##ાસ્ટ્ર": 9069,
      "સુધારવા": 9070,
      "કક્ષાએ": 9071,
      "દિપક": 9072,
      "##સિંહે": 9073,
      "શકયતા": 9074,
      "ભયાનક": 9075,
      "વંચિત": 9076,
      "ઇશ": 9077,
      "ઊંડા": 9078,
      "મૅ": 9079,
      "રડ": 9080,
      "શૉ": 9081,
      "ષડ": 9082,
      "##un": 9083,
      "કરાવ્યો": 9084,
      "##ર્ભ": 9085,
      "##લાકી": 9086,
      "રાજેન્દ્ર": 9087,
      "આવેલો": 9088,
      "બાળપણ": 9089,
      "##ોરિટી": 9090,
      "ત્રિમ": 9091,
      "કંપનીને": 9092,
      "કંપનીઓએ": 9093,
      "2010": 9094,
      "શહેરો": 9095,
      "યુવકને": 9096,
      "વોશિંગ": 9097,
      "દર્શાવવામાં": 9098,
      "ગુમાવ": 9099,
      "મંગળવાર": 9100,
      "ઇચ્છે": 9101,
      "એકબીજાને": 9102,
      "પોરબંદ": 9103,
      "પેશાબ": 9104,
      "બહુમતી": 9105,
      "ગિફ્ટ": 9106,
      "કાફલો": 9107,
      "##નિર્ભર": 9108,
      "સ્વાભાવિક": 9109,
      "CM": 9110,
      "અઘ": 9111,
      "ઓથ": 9112,
      "કંડ": 9113,
      "જરા": 9114,
      "રજની": 9115,
      "શત્રુ": 9116,
      "##ષિત": 9117,
      "વિગેરે": 9118,
      "વધ્યા": 9119,
      "મળતું": 9120,
      "ગુડ": 9121,
      "##્યુમ": 9122,
      "જીતે": 9123,
      "માંડીને": 9124,
      "બીમ": 9125,
      "લીમ": 9126,
      "લોકલ": 9127,
      "તૈનાત": 9128,
      "બોલિંગ": 9129,
      "આરોપીઓની": 9130,
      "રમવા": 9131,
      "શાળાઓમાં": 9132,
      "નિવૃત્તિ": 9133,
      "વિચાર્યું": 9134,
      "તંત્રને": 9135,
      "કીટ": 9136,
      "અડધો": 9137,
      "સાવધાની": 9138,
      "મગજ": 9139,
      "કબૂ": 9140,
      "ફ્રન્ટ": 9141,
      "સેલિબ્ર": 9142,
      "પર્વત": 9143,
      "સ્ટીલ": 9144,
      "પુરવઠો": 9145,
      "ફર્નિચર": 9146,
      "પ્રોપર્ટી": 9147,
      "76": 9148,
      "77": 9149,
      "ઇલે": 9150,
      "ખળ": 9151,
      "ગળા": 9152,
      "ગંગા": 9153,
      "ટર્ન": 9154,
      "થરાદ": 9155,
      "નંદ": 9156,
      "##વિક": 9157,
      "##kar": 9158,
      "##em": 9159,
      "પરસે": 9160,
      "##રોન": 9161,
      "##ાદાર": 9162,
      "##ટીને": 9163,
      "##િયસ": 9164,
      "##્યુર": 9165,
      "##ોર્સ": 9166,
      "##િનર": 9167,
      "જવાથી": 9168,
      "ફિલ્મને": 9169,
      "ચીજવસ્તુ": 9170,
      "પરિબળો": 9171,
      "2011": 9172,
      "નિર્ણયને": 9173,
      "બોલ્યા": 9174,
      "સંબંધમાં": 9175,
      "પક્ષમાં": 9176,
      "એનર્જી": 9177,
      "મિની": 9178,
      "શાહરૂખ": 9179,
      "માગતા": 9180,
      "##ાકુ": 9181,
      "લક્ષ્યાં": 9182,
      "કોશિકા": 9183,
      "ચાંદીના": 9184,
      "અઠવાડિયે": 9185,
      "સઘન": 9186,
      "78": 9187,
      "74": 9188,
      "અદ્": 9189,
      "એલે": 9190,
      "એવુ": 9191,
      "ઓપ્શન": 9192,
      "દાવ": 9193,
      "નક્ષ": 9194,
      "પંપ": 9195,
      "ભક્તિ": 9196,
      "મરા": 9197,
      "##ૂઝ": 9198,
      "##ઝરી": 9199,
      "##વના": 9200,
      "##ખમ": 9201,
      "##શંકર": 9202,
      "##ec": 9203,
      "##લાએ": 9204,
      "##ંગલ": 9205,
      "##ાસિક": 9206,
      "લેબો": 9207,
      "સોજો": 9208,
      "##િનલ": 9209,
      "શોખ": 9210,
      "બહારના": 9211,
      "હોસ્પિટલો": 9212,
      "જયેશ": 9213,
      "અસરગ્રસ્ત": 9214,
      "આઈટી": 9215,
      "નાખ્યો": 9216,
      "શિખર": 9217,
      "લાઇટ": 9218,
      "સેનાએ": 9219,
      "##ફ્રાસ્ટ્ર": 9220,
      "જઇને": 9221,
      "સિદ્ધાર્થ": 9222,
      "સમીક્ષાઓ": 9223,
      "કયાં": 9224,
      "બેનર્જી": 9225,
      "હેન્ડલ": 9226,
      "ફાઇનલમાં": 9227,
      "લખનઉ": 9228,
      "રજીસ્ટ્ર": 9229,
      "વેન્ટિલે": 9230,
      "ધોધમાર": 9231,
      "ડિલિવરી": 9232,
      "ઝારખંડ": 9233,
      "67": 9234,
      "ઉતાવ": 9235,
      "એસી": 9236,
      "કવાય": 9237,
      "જાદુ": 9238,
      "પિત": 9239,
      "હંગ": 9240,
      "૩૦૦": 9241,
      "૯૯": 9242,
      "##માલ": 9243,
      "##ID": 9244,
      "##લીઓ": 9245,
      "જેવાં": 9246,
      "સમારંભ": 9247,
      "##્રીત": 9248,
      "લેનાર": 9249,
      "સૌંદર": 9250,
      "દીધુ": 9251,
      "બાપ": 9252,
      "સૂક": 9253,
      "રાજકોટની": 9254,
      "અમેરિકાએ": 9255,
      "વસૂ": 9256,
      "બોર્ડના": 9257,
      "મથકમાં": 9258,
      "ચમત્": 9259,
      "ઓગસ્ટે": 9260,
      "સભામાં": 9261,
      "રાજકારણમાં": 9262,
      "ચલાવે": 9263,
      "ડૂબી": 9264,
      "ઘોષણા": 9265,
      "ડાયાબિટીસ": 9266,
      "સમર્પિત": 9267,
      "છોટાઉદેપુર": 9268,
      "68": 9269,
      "69": 9270,
      "81": 9271,
      "ગ્લ": 9272,
      "ફફ": 9273,
      "##વ્યુ": 9274,
      "##આતો": 9275,
      "વિરામ": 9276,
      "##જીયાત": 9277,
      "પાથ": 9278,
      "##ત્રિમ": 9279,
      "અનિવાર": 9280,
      "##ેડે": 9281,
      "નોંધાયેલા": 9282,
      "જુએ": 9283,
      "મહિલાઓની": 9284,
      "ડીજી": 9285,
      "અહીંયા": 9286,
      "કેન્દ્રો": 9287,
      "પાર્ટીએ": 9288,
      "સ્માર": 9289,
      "ઉદય": 9290,
      "૨૦૧૪": 9291,
      "મોરબીમાં": 9292,
      "પ્રોજેકટ": 9293,
      "સ્ટોરી": 9294,
      "ડિસેમ્બરે": 9295,
      "વિગતવાર": 9296,
      "જોગવાઇ": 9297,
      "મજાક": 9298,
      "વ્હાઇટ": 9299,
      "ફ્રાન્સ": 9300,
      "અબ્દુલ": 9301,
      "મેડીકલ": 9302,
      "અનિવાર્ય": 9303,
      "ચાર્ટ": 9304,
      "છાતી": 9305,
      "પાળ": 9306,
      "બ્રેડ": 9307,
      "લાવે": 9308,
      "સશ": 9309,
      "૪૬": 9310,
      "##મણી": 9311,
      "##્મા": 9312,
      "##વવાનો": 9313,
      "##ra": 9314,
      "##ઈડ": 9315,
      "##hat": 9316,
      "##્ટન": 9317,
      "##લાદ": 9318,
      "પરિસ": 9319,
      "કોર્સ": 9320,
      "એકઠા": 9321,
      "આપેલી": 9322,
      "##કાલીક": 9323,
      "અમારો": 9324,
      "ટીપ": 9325,
      "સાંજના": 9326,
      "ડોકટર": 9327,
      "કમન": 9328,
      "194": 9329,
      "##તમંદ": 9330,
      "##ફેક્ટ": 9331,
      "મોરચા": 9332,
      "જોડાઈ": 9333,
      "ઉત્પાદક": 9334,
      "કાયદાકીય": 9335,
      "સંતો": 9336,
      "ગાયબ": 9337,
      "પૃષ્ઠ": 9338,
      "##ist": 9339,
      "ટાપુ": 9340,
      "ફ્લેટ": 9341,
      "ફાઇનલ": 9342,
      "સ્ત્રોત": 9343,
      "વલ્લભ": 9344,
      "અર્ચ": 9345,
      "એડવા": 9346,
      "કદી": 9347,
      "જયા": 9348,
      "ધડા": 9349,
      "બર્": 9350,
      "##ખોર": 9351,
      "##શને": 9352,
      "##ટેજ": 9353,
      "સાડી": 9354,
      "##કાલીન": 9355,
      "પીછો": 9356,
      "થઇને": 9357,
      "##નગરના": 9358,
      "ચીજો": 9359,
      "ચીમકી": 9360,
      "##સ્થાપિત": 9361,
      "મારફત": 9362,
      "##કડું": 9363,
      "ક્ષણ": 9364,
      "પ્રકારનાં": 9365,
      "મારીને": 9366,
      "ઘટાડી": 9367,
      "ટ્રાન્": 9368,
      "મૃત્યુઆંક": 9369,
      "પૂછવામાં": 9370,
      "બિલકુલ": 9371,
      "નાંખી": 9372,
      "તબીબ": 9373,
      "ભયંકર": 9374,
      "અક્ષર": 9375,
      "એક્ઝ": 9376,
      "દૃશ્ય": 9377,
      "સંકેતો": 9378,
      "નગરપાલિકાના": 9379,
      "સાંભળવા": 9380,
      "ગઢવી": 9381,
      "સાબરમતી": 9382,
      "સફરજન": 9383,
      "જયંતિ": 9384,
      "આર્કિટે": 9385,
      "વ્યાવસાયિક": 9386,
      "ચિર": 9387,
      "ટક": 9388,
      "ધરા": 9389,
      "નાજ": 9390,
      "બટ": 9391,
      "યાત્ર": 9392,
      "રાઇ": 9393,
      "##સમેન્ટ": 9394,
      "##િફિકેશન": 9395,
      "##ગના": 9396,
      "##યંત્ર": 9397,
      "##શર": 9398,
      "કરાયેલ": 9399,
      "કેલ્": 9400,
      "##ાયુ": 9401,
      "જોવી": 9402,
      "બેટ": 9403,
      "##કીટ": 9404,
      "પછીના": 9405,
      "પેન્ટ": 9406,
      "વાસ્તુ": 9407,
      "વીમો": 9408,
      "##ર્મલ": 9409,
      "પરિવર્ત": 9410,
      "ઝડપે": 9411,
      "બાળકોમાં": 9412,
      "વિભાગને": 9413,
      "ગેહ": 9414,
      "નવજાત": 9415,
      "##લ્સને": 9416,
      "એનસીપી": 9417,
      "શેઠ": 9418,
      "પાછળના": 9419,
      "થોડાક": 9420,
      "ગતિવિ": 9421,
      "##શ્યામ": 9422,
      "મહાનુ": 9423,
      "##શ્રીએ": 9424,
      "સિંઘ": 9425,
      "મુસ્લિ": 9426,
      "ઇન્સ્ટિટ": 9427,
      "ઉછેર": 9428,
      "માઈક્રો": 9429,
      "##છેડા": 9430,
      "ડિવિઝન": 9431,
      "કમ્પ્યુટર": 9432,
      "સીરિઝ": 9433,
      "##ગણતરી": 9434,
      "રમાશે": 9435,
      "યોજાનાર": 9436,
      "પોલિસી": 9437,
      "##્યાત્મિક": 9438,
      "અભિપ્રાય": 9439,
      "અવા": 9440,
      "ઈનિંગ": 9441,
      "ગંધ": 9442,
      "થાઇ": 9443,
      "રસ્તે": 9444,
      "વઘ": 9445,
      "શરણ": 9446,
      "હદ": 9447,
      "હાય": 9448,
      "હિલ": 9449,
      "હવાઈ": 9450,
      "##મરી": 9451,
      "##િઅ": 9452,
      "##ik": 9453,
      "##શૈ": 9454,
      "##તાએ": 9455,
      "##યાત્ર": 9456,
      "##લેજ": 9457,
      "બેનર": 9458,
      "રોપ": 9459,
      "રહેલું": 9460,
      "અનન્ય": 9461,
      "માંડી": 9462,
      "નોંધાયું": 9463,
      "ટકાના": 9464,
      "બંધાર": 9465,
      "ડેમો": 9466,
      "સહાયક": 9467,
      "એનએસ": 9468,
      "બેન્કો": 9469,
      "પામે": 9470,
      "સભ્યોની": 9471,
      "દેખાયા": 9472,
      "દાદા": 9473,
      "બેંકો": 9474,
      "મંજુર": 9475,
      "ચામડી": 9476,
      "સાવચેત": 9477,
      "કેનાલ": 9478,
      "નીપજ્યું": 9479,
      "ઈન્ટરનેટ": 9480,
      "સ્પોર્ટ્સ": 9481,
      "ખળભ": 9482,
      "ખવડ": 9483,
      "ચટ": 9484,
      "દમણ": 9485,
      "પદે": 9486,
      "ભડ": 9487,
      "૪૦૦": 9488,
      "##ેજ": 9489,
      "##ૂફ": 9490,
      "##ગને": 9491,
      "##વળ": 9492,
      "##બાજુ": 9493,
      "કેવું": 9494,
      "કેશો": 9495,
      "##્યાપ્ત": 9496,
      "વિઝ": 9497,
      "સુમ": 9498,
      "##ાળું": 9499,
      "રાજદ": 9500,
      "પાઉ": 9501,
      "દેશોના": 9502,
      "દીકરો": 9503,
      "બોસ": 9504,
      "પરિચય": 9505,
      "મદદની": 9506,
      "મારામારી": 9507,
      "નેતાઓને": 9508,
      "માતાના": 9509,
      "##ાજીક": 9510,
      "પાડ્યા": 9511,
      "સમજવા": 9512,
      "નજીકથી": 9513,
      "જીતવા": 9514,
      "કોલેજો": 9515,
      "નવેમ્બરે": 9516,
      "સેન્ટરમાં": 9517,
      "પરેશાની": 9518,
      "ફેબ્રુઆરીએ": 9519,
      "ગાઢ": 9520,
      "2017માં": 9521,
      "સમયગાળામાં": 9522,
      "ટાળવા": 9523,
      "વિડિઓ": 9524,
      "વેન્ટિલેટર": 9525,
      "84": 9526,
      "અદા": 9527,
      "ચાર્": 9528,
      "ઝુંબ": 9529,
      "દાસ": 9530,
      "બર્થ": 9531,
      "મલ્ટી": 9532,
      "વતની": 9533,
      "૪૭": 9534,
      "૪૯": 9535,
      "##વૂડ": 9536,
      "##નાઈ": 9537,
      "માણી": 9538,
      "##ાવવાનું": 9539,
      "એકસ": 9540,
      "બેસે": 9541,
      "##િયન્સ": 9542,
      "પડતું": 9543,
      "દીવાલ": 9544,
      "##ાંતરે": 9545,
      "ક્રૂડ": 9546,
      "પ્રોસેસ": 9547,
      "ચૂંટણીની": 9548,
      "ગણિત": 9549,
      "લેવાયા": 9550,
      "##પેન્દ્ર": 9551,
      "ઇન્વેસ્ટ": 9552,
      "અસંખ્ય": 9553,
      "કૃત્રિમ": 9554,
      "વસતી": 9555,
      "સ્ટેચ્યુ": 9556,
      "ચિંતાજનક": 9557,
      "મ્યુઝ": 9558,
      "મોટાભાગે": 9559,
      "વધારવામાં": 9560,
      "ક્વો": 9561,
      "બ્રાન્ચ": 9562,
      "મૂકીને": 9563,
      "તાત્કાલીક": 9564,
      "સ્કૂલો": 9565,
      "##મેટિક": 9566,
      "ખીલ": 9567,
      "મોંઘી": 9568,
      "સંકળાયેલ": 9569,
      "પ્રિન્સ": 9570,
      "પુછપરછ": 9571,
      "ધર્મે": 9572,
      "મનપસંદ": 9573,
      "of": 9574,
      "એલાન": 9575,
      "છાત": 9576,
      "જાસ": 9577,
      "લિવ": 9578,
      "૫૧": 9579,
      "##વૈયા": 9580,
      "##ખલ": 9581,
      "##નીએ": 9582,
      "કરાવે": 9583,
      "કેક": 9584,
      "જોવાનું": 9585,
      "કારની": 9586,
      "વર્ગી": 9587,
      "નાથ": 9588,
      "વેળા": 9589,
      "સમયના": 9590,
      "કોરોનાનું": 9591,
      "લીલી": 9592,
      "##પ્રધાને": 9593,
      "અપક્ષ": 9594,
      "અધિકારો": 9595,
      "ભાજપનો": 9596,
      "બદલાય": 9597,
      "ઝડપાયા": 9598,
      "108": 9599,
      "મતગણતરી": 9600,
      "પાડ્યો": 9601,
      "એજ્યુ": 9602,
      "સાવર": 9603,
      "રાશિફળ": 9604,
      "વિપક્ષી": 9605,
      "રાજસ્થાનમાં": 9606,
      "ટુર્નામેન્ટ": 9607,
      "##ઠ્ઠા": 9608,
      "સિલ્વર": 9609,
      "વાવાઝ": 9610,
      "ઇલેક્ટ્રિક": 9611,
      "ભરાયા": 9612,
      "પ્રીમિયમ": 9613,
      "##બહેન": 9614,
      "પંકજ": 9615,
      "ખળભળાટ": 9616,
      "ગાળ": 9617,
      "દંત": 9618,
      "ધૂળ": 9619,
      "નાઇટ": 9620,
      "રિક્ષા": 9621,
      "હડ": 9622,
      "##પાત": 9623,
      "##ાઓ": 9624,
      "##ણ્ય": 9625,
      "##જરૂ": 9626,
      "##ડને": 9627,
      "જોડે": 9628,
      "તમિલનાડુ": 9629,
      "##કાઉ": 9630,
      "##િલ્લો": 9631,
      "લીક": 9632,
      "##સાથ": 9633,
      "ટેન્ડર": 9634,
      "અભય": 9635,
      "##વાયરસ": 9636,
      "અધિક્ષ": 9637,
      "ચેલે": 9638,
      "બનવાની": 9639,
      "ખોટો": 9640,
      "જયંતી": 9641,
      "##શાસ્ત્રી": 9642,
      "બીજાને": 9643,
      "કપાત": 9644,
      "##નીયર": 9645,
      "નાખ્યા": 9646,
      "ખર્ચાળ": 9647,
      "૧૯૭": 9648,
      "2009": 9649,
      "આકરા": 9650,
      "વરસી": 9651,
      "સભ્યોએ": 9652,
      "સ્ટોરેજ": 9653,
      "મુશ્કેલીમાં": 9654,
      "વિશાલ": 9655,
      "યાત્રી": 9656,
      "સપ્તાહે": 9657,
      "સન્માનિત": 9658,
      "કોહલીએ": 9659,
      "હાઈકોર્ટમાં": 9660,
      "ટુકડા": 9661,
      "ઉપકરણો": 9662,
      "અફઘાનિસ્તાન": 9663,
      "શૌચાલ": 9664,
      "શેટ્ટી": 9665,
      "કટોકટી": 9666,
      "સર્વોચ્ચ": 9667,
      "પડોશી": 9668,
      "ન્યાયા": 9669,
      "પુનરાવ": 9670,
      "મુસ્લિમો": 9671,
      "',": 9672,
      "88": 9673,
      "ઠેક": 9674,
      "ડામ": 9675,
      "નળ": 9676,
[...]
