{
  "version": "1.0",
  "truncation": null,
  "padding": null,
  "added_tokens": [
    {
      "id": 0,
      "content": "[UNK]",
      "single_word": false,
      "lstrip": false,
      "rstrip": false,
      "normalized": false,
      "special": true
    },
    {
      "id": 1,
      "content": "[PAD]",
      "single_word": false,
      "lstrip": false,
      "rstrip": false,
      "normalized": false,
      "special": true
    },
    {
      "id": 2,
      "content": "[BOS]",
      "single_word": false,
      "lstrip": false,
      "rstrip": false,
      "normalized": false,
      "special": true
    },
    {
      "id": 3,
      "content": "[EOS]",
      "single_word": false,
      "lstrip": false,
      "rstrip": false,
      "normalized": false,
      "special": true
    }
  ],
  "normalizer": {
    "type": "NFC"
  },
  "pre_tokenizer": {
    "type": "Whitespace"
  },
  "post_processor": null,
  "decoder": null,
  "model": {
    "type": "WordPiece",
    "unk_token": "[UNK]",
    "continuing_subword_prefix": "##",
    "max_input_chars_per_word": 200,
    "vocab": {
      "[UNK]": 0,
      "[PAD]": 1,
      "[BOS]": 2,
      "[EOS]": 3,
      "!": 4,
      "\"": 5,
      "#": 6,
      "$": 7,
      "%": 8,
      "&": 9,
      "'": 10,
      "(": 11,
      ")": 12,
      "*": 13,
      "+": 14,
      ",": 15,
      "-": 16,
      ".": 17,
      "/": 18,
      "0": 19,
      "1": 20,
      "2": 21,
      "3": 22,
      "4": 23,
      "5": 24,
      "6": 25,
      "7": 26,
      "8": 27,
      "9": 28,
      ":": 29,
      ";": 30,
      "<": 31,
      "=": 32,
      ">": 33,
      "?": 34,
      "@": 35,
      "A": 36,
      "B": 37,
      "C": 38,
      "D": 39,
      "E": 40,
      "F": 41,
      "G": 42,
      "H": 43,
      "I": 44,
      "J": 45,
      "K": 46,
      "L": 47,
      "M": 48,
      "N": 49,
      "O": 50,
      "P": 51,
      "Q": 52,
      "R": 53,
      "S": 54,
      "T": 55,
      "U": 56,
      "V": 57,
      "W": 58,
      "X": 59,
      "Y": 60,
      "Z": 61,
      "[": 62,
      "\\": 63,
      "]": 64,
      "^": 65,
      "_": 66,
      "`": 67,
      "a": 68,
      "b": 69,
      "c": 70,
      "d": 71,
      "e": 72,
      "f": 73,
      "g": 74,
      "h": 75,
      "i": 76,
      "j": 77,
      "k": 78,
      "l": 79,
      "m": 80,
      "n": 81,
      "o": 82,
      "p": 83,
      "q": 84,
      "r": 85,
      "s": 86,
      "t": 87,
      "u": 88,
      "v": 89,
      "w": 90,
      "x": 91,
      "y": 92,
      "z": 93,
      "{": 94,
      "|": 95,
      "}": 96,
      "~": 97,
      "": 98,
      "": 99,
      "": 100,
      "": 101,
      "": 102,
      "": 103,
      "£": 104,
      "¤": 105,
      "¥": 106,
      "§": 107,
      "¨": 108,
      "©": 109,
      "«": 110,
      "­": 111,
      "®": 112,
      "°": 113,
      "±": 114,
      "²": 115,
      "³": 116,
      "·": 117,
      "º": 118,
      "»": 119,
      "¼": 120,
      "½": 121,
      "¾": 122,
      "¿": 123,
      "À": 124,
      "Â": 125,
      "Ä": 126,
      "Å": 127,
      "Æ": 128,
      "Ç": 129,
      "È": 130,
      "Ê": 131,
      "Ì": 132,
      "Î": 133,
      "Ñ": 134,
      "×": 135,
      "Ù": 136,
      "Ú": 137,
      "Ý": 138,
      "à": 139,
      "á": 140,
      "â": 141,
      "æ": 142,
      "ç": 143,
      "é": 144,
      "ê": 145,
      "ë": 146,
      "í": 147,
      "î": 148,
      "ï": 149,
      "ð": 150,
      "ò": 151,
      "ó": 152,
      "ö": 153,
      "÷": 154,
      "ü": 155,
      "þ": 156,
      "ā": 157,
      "č": 158,
      "ě": 159,
      "ī": 160,
      "ı": 161,
      "ń": 162,
      "ō": 163,
      "ő": 164,
      "ş": 165,
      "š": 166,
      "ū": 167,
      "Ź": 168,
      "˗": 169,
      "˚": 170,
      "˜": 171,
      "̊": 172,
      "Δ": 173,
      "Μ": 174,
      "ί": 175,
      "α": 176,
      "ε": 177,
      "ζ": 178,
      "η": 179,
      "ι": 180,
      "λ": 181,
      "μ": 182,
      "ν": 183,
      "ξ": 184,
      "ο": 185,
      "π": 186,
      "ρ": 187,
      "σ": 188,
      "υ": 189,
      "φ": 190,
      "ω": 191,
      "а": 192,
      "б": 193,
      "в": 194,
      "г": 195,
      "д": 196,
      "е": 197,
      "и": 198,
      "й": 199,
      "к": 200,
      "л": 201,
      "м": 202,
      "н": 203,
      "о": 204,
      "п": 205,
      "р": 206,
      "с": 207,
      "т": 208,
      "у": 209,
      "ч": 210,
      "ъ": 211,
      "ы": 212,
      "ю": 213,
      "я": 214,
      "і": 215,
      "إ": 216,
      "ئ": 217,
      "ا": 218,
      "ة": 219,
      "د": 220,
      "ر": 221,
      "س": 222,
      "ل": 223,
      "م": 224,
      "و": 225,
      "ي": 226,
      "َ": 227,
      "ِ": 228,
      "ْ": 229,
      "پ": 230,
      "گ": 231,
      "ہ": 232,
      "ँ": 233,
      "ं": 234,
      "ः": 235,
      "अ": 236,
      "आ": 237,
      "ई": 238,
      "उ": 239,
      "ऊ": 240,
      "ऋ": 241,
      "ए": 242,
      "ओ": 243,
      "क": 244,
      "ख": 245,
      "ग": 246,
      "घ": 247,
      "च": 248,
      "छ": 249,
      "ज": 250,
      "झ": 251,
      "ञ": 252,
      "ट": 253,
      "ड": 254,
      "ण": 255,
      "त": 256,
      "थ": 257,
      "द": 258,
      "ध": 259,
      "न": 260,
      "प": 261,
      "फ": 262,
      "ब": 263,
      "भ": 264,
      "म": 265,
      "य": 266,
      "र": 267,
      "ल": 268,
      "ळ": 269,
      "व": 270,
      "श": 271,
      "ष": 272,
      "स": 273,
      "ह": 274,
      "़": 275,
      "ऽ": 276,
      "ा": 277,
      "ि": 278,
      "ी": 279,
      "ु": 280,
      "ू": 281,
      "ृ": 282,
      "ॅ": 283,
      "े": 284,
      "ै": 285,
      "ॉ": 286,
      "ो": 287,
      "ौ": 288,
      "्": 289,
      "ॐ": 290,
      "।": 291,
      "॥": 292,
      "०": 293,
      "२": 294,
      "३": 295,
      "४": 296,
      "੨": 297,
      "ઁ": 298,
      "ં": 299,
      "ઃ": 300,
      "અ": 301,
      "આ": 302,
      "ઇ": 303,
      "ઈ": 304,
      "ઉ": 305,
      "ઊ": 306,
      "ઋ": 307,
      "ઍ": 308,
      "એ": 309,
      "ઐ": 310,
      "ઑ": 311,
      "ઓ": 312,
      "ઔ": 313,
      "ક": 314,
      "ખ": 315,
      "ગ": 316,
      "ઘ": 317,
      "ઙ": 318,
      "ચ": 319,
      "છ": 320,
      "જ": 321,
      "ઝ": 322,
      "ઞ": 323,
      "ટ": 324,
      "ઠ": 325,
      "ડ": 326,
      "ઢ": 327,
      "ણ": 328,
      "ત": 329,
      "થ": 330,
      "દ": 331,
      "ધ": 332,
      "ન": 333,
      "પ": 334,
      "ફ": 335,
      "બ": 336,
      "ભ": 337,
      "મ": 338,
      "ય": 339,
      "ર": 340,
      "઱": 341,
      "લ": 342,
      "ળ": 343,
      "વ": 344,
      "શ": 345,
      "ષ": 346,
      "સ": 347,
      "હ": 348,
      "઼": 349,
      "ા": 350,
      "િ": 351,
      "ી": 352,
      "ુ": 353,
      "ૂ": 354,
      "ૃ": 355,
      "ૄ": 356,
      "ૅ": 357,
      "ે": 358,
      "ૈ": 359,
      "ૉ": 360,
      "ો": 361,
      "ૌ": 362,
      "્": 363,
      "ૐ": 364,
      "ૠ": 365,
      "ૢ": 366,
      "૤": 367,
      "૦": 368,
      "૧": 369,
      "૨": 370,
      "૩": 371,
      "૪": 372,
      "૫": 373,
      "૬": 374,
      "૭": 375,
      "૮": 376,
      "૯": 377,
      "૱": 378,
      "ச": 379,
      "ர": 380,
      "ழ": 381,
      "ோ": 382,
      "்": 383,
      "‎": 384,
      "–": 385,
      "—": 386,
      "‘": 387,
      "’": 388,
      "‚": 389,
      "‛": 390,
      "“": 391,
      "”": 392,
      "†": 393,
      "•": 394,
      "…": 395,
      "‪": 396,
      "‬": 397,
      "′": 398,
      "″": 399,
      "‹": 400,
      "€": 401,
      "₹": 402,
      "№": 403,
      "™": 404,
      "↑": 405,
      "→": 406,
      "−": 407,
      "√": 408,
      "≈": 409,
      "≤": 410,
      "⓿": 411,
      "▪": 412,
      "▲": 413,
      "►": 414,
      "◆": 415,
      "○": 416,
      "●": 417,
      "★": 418,
      "☞": 419,
      "♡": 420,
      "♦": 421,
      "♲": 422,
      "⚫": 423,
      "✓": 424,
      "✔": 425,
      "❣": 426,
      "⦁": 427,
      "⬛": 428,
      "⭕": 429,
      "、": 430,
      "㎡": 431,
      "三": 432,
      "京": 433,
      "仏": 434,
      "北": 435,
      "合": 436,
      "国": 437,
      "大": 438,
      "学": 439,
      "宝": 440,
      "東": 441,
      "略": 442,
      "語": 443,
      "連": 444,
      "際": 445,
      "": 446,
      "": 447,
      "": 448,
      "": 449,
      "": 450,
      "": 451,
      "️": 452,
      "｜": 453,
      "ﾍ": 454,
      "ﾗ": 455,
      "ﾠ": 456,
      "�": 457,
      "🍉": 458,
      "🍋": 459,
      "🍚": 460,
      "🎹": 461,
      "🎼": 462,
      "👈": 463,
      "👉": 464,
      "👍": 465,
      "💁": 466,
      "💐": 467,
      "💫": 468,
      "📱": 469,
      "😁": 470,
      "😋": 471,
      "😲": 472,
      "🙂": 473,
      "🥑": 474,
      "##ા": 475,
      "##ફ": 476,
      "##ો": 477,
      "##્": 478,
      "##ય": 479,
      "##સ": 480,
      "##ત": 481,
      "##વ": 482,
      "##ળ": 483,
      "##ઓ": 484,
      "##એ": 485,
      "##શ": 486,
      "##ગ": 487,
      "##હ": 488,
      "##બ": 489,
      "##ર": 490,
      "##ડ": 491,
      "##ન": 492,
      "##ી": 493,
      "##ધ": 494,
      "##જ": 495,
      "##ભ": 496,
      "##ઇ": 497,
      "##ે": 498,
      "##િ": 499,
      "##ઝ": 500,
      "##મ": 501,
      "##ુ": 502,
      "##ં": 503,
      "##ક": 504,
      "##છ": 505,
      "##ટ": 506,
      "##ૂ": 507,
      "##લ": 508,
      "##અ": 509,
      "##પ": 510,
      "##દ": 511,
      "##ણ": 512,
      "##ૅ": 513,
      "##ચ": 514,
      "##3": 515,
      "##8": 516,
      "##7": 517,
      "##5": 518,
      "##૯": 519,
      "##૧": 520,
      "##૫": 521,
      "##૦": 522,
      "##૨": 523,
      "##ખ": 524,
      "##થ": 525,
      "##ઈ": 526,
      "##ષ": 527,
      "##y": 528,
      "##s": 529,
      "##e": 530,
      "##n": 531,
      "##k": 532,
      "##o": 533,
      "##ૃ": 534,
      "##ઘ": 535,
      "##0": 536,
      "##ઉ": 537,
      "##A": 538,
      "##C": 539,
      "##2": 540,
      "##ઙ": 541,
      "##૩": 542,
      "##ૉ": 543,
      "##r": 544,
      "##a": 545,
      "##i": 546,
      "##v": 547,
      "##u": 548,
      "##ઃ": 549,
      "##g": 550,
      "##t": 551,
      "##6": 552,
      "##ઠ": 553,
      "##૮": 554,
      "##૬": 555,
      "##આ": 556,
      "##ઢ": 557,
      "##ૈ": 558,
      "##ૌ": 559,
      "##1": 560,
      "##4": 561,
      "##૪": 562,
      "##૭": 563,
      "##M": 564,
      "##D": 565,
      "##E": 566,
      "##c": 567,
      "##ﾍ": 568,
      "##9": 569,
      "##d": 570,
      "##x": 571,
      "##O": 572,
      "##l": 573,
      "##R": 574,
      "##h": 575,
      "##w": 576,
      "##m": 577,
      "##ा": 578,
      "##र": 579,
      "##ी": 580,
      "##H": 581,
      "##K": 582,
      "##।": 583,
      "##“": 584,
      "##p": 585,
      "##S": 586,
      "##T": 587,
      "##b": 588,
      "##.": 589,
      "##ઞ": 590,
      "##?": 591,
      "##I": 592,
      "##G": 593,
      "##B": 594,
      "##f": 595,
      "##P": 596,
      "##V": 597,
      "##:": 598,
      "##Â": 599,
      "##X": 600,
      "##L": 601,
      "##W": 602,
      "##F": 603,
      "##z": 604,
      "##q": 605,
      "##\"": 606,
      "##ઁ": 607,
      "##N": 608,
      "##्": 609,
      "##*": 610,
      "##'": 611,
      "##ઊ": 612,
      "##઼": 613,
      "##म": 614,
      "##न": 615,
      "##_": 616,
      "##ઑ": 617,
      "##Q": 618,
      "##U": 619,
      "##j": 620,
      "##ु": 621,
      "##क": 622,
      "##त": 623,
      "##ि": 624,
      "##,": 625,
      "##’": 626,
      "##ॉ": 627,
      "##ड": 628,
      "##ल": 629,
      "##े": 630,
      "##J": 631,
      "##!": 632,
      "##Y": 633,
      "##‘": 634,
      "##ō": 635,
      "##)": 636,
      "##-": 637,
      "##ज": 638,
      "##व": 639,
      "##[": 640,
      "##語": 641,
      "##(": 642,
      "##ઋ": 643,
      "##{": 644,
      "##Z": 645,
      "##ो": 646,
      "##]": 647,
      "##ઍ": 648,
      "##ृ": 649,
      "##ष": 650,
      "##ण": 651,
      "##ह": 652,
      "##ं": 653,
      "##स": 654,
      "##प": 655,
      "##य": 656,
      "##‎": 657,
      "##ઔ": 658,
      "##ε": 659,
      "##ρ": 660,
      "##ι": 661,
      "##φ": 662,
      "##ο": 663,
      "##α": 664,
      "##श": 665,
      "##ए": 666,
      "##и": 667,
      "##н": 668,
      "##º": 669,
      "##Ù": 670,
      "##ग": 671,
      "##छ": 672,
      "##«": 673,
      "##…": 674,
      "##ω": 675,
      "##–": 676,
      "##ट": 677,
      "##भ": 678,
      "###": 679,
      "##é": 680,
      "##”": 681,
      "##宝": 682,
      "##á": 683,
      "##Ý": 684,
      "##æ": 685,
      "##ૢ": 686,
      "##ै": 687,
      "##Ì": 688,
      "##š": 689,
      "##ы": 690,
      "##г": 691,
      "##о": 692,
      "##д": 693,
      "##+": 694,
      "##<": 695,
      "##/": 696,
      "##ç": 697,
      "##ı": 698,
      "##大": 699,
      "##ā": 700,
      "##द": 701,
      "##•": 702,
      "##>": 703,
      "##$": 704,
      "##а": 705,
      "##ઐ": 706,
      "##ૠ": 707,
      "##際": 708,
      "##連": 709,
      "##合": 710,
      "##ख": 711,
      "##ः": 712,
      "##·": 713,
      "##`": 714,
      "##ू": 715,
      "##‚": 716,
      "##í": 717,
      "##â": 718,
      "##": 719,
      "##�": 720,
      "##ौ": 721,
      "##👈": 722,
      "##😲": 723,
      "##ई": 724,
      "##Î": 725,
      "##😁": 726,
      "##૤": 727,
      "##ü": 728,
      "##|": 729,
      "##ૄ": 730,
      "##;": 731,
      "##е": 732,
      "##р": 733,
      "##в": 734,
      "##й": 735,
      "##ِ": 736,
      "##س": 737,
      "##ْ": 738,
      "##ر": 739,
      "##َ": 740,
      "##ا": 741,
      "##ئ": 742,
      "##ي": 743,
      "##ل": 744,
      "##०": 745,
      "##@": 746,
      "##و": 747,
      "##ة": 748,
      "##ζ": 749,
      "##ध": 750,
      "##\\": 751,
      "##●": 752,
      "##घ": 753,
      "##ळ": 754,
      "##ò": 755,
      "##~": 756,
      "##ब": 757,
      "##Ú": 758,
      "##ë": 759,
      "##î": 760,
      "##т": 761,
      "##к": 762,
      "##л": 763,
      "##п": 764,
      "##ъ": 765,
      "##м": 766,
      "##ń": 767,
      "##‛": 768,
      "##™": 769,
      "##♦": 770,
      "##च": 771,
      "##ó": 772,
      "##ﾠ": 773,
      "##✓": 774,
      "##ş": 775,
      "##υ": 776,
      "##σ": 777,
      "##ί": 778,
      "##ν": 779,
      "##č": 780,
      "##ö": 781,
      "##": 782,
      "##=": 783,
      "##ū": 784,
      "##ऊ": 785,
      "##—": 786,
      "##京": 787,
      "##学": 788,
      "##Ê": 789,
      "##ő": 790,
      "##у": 791,
      "##%": 792,
      "##ě": 793,
      "##ī": 794,
      "##थ": 795,
      "##ॅ": 796,
      "##η": 797,
      "##à": 798,
      "##ю": 799,
      "##ч": 800,
      "##с": 801,
      "##ہ": 802,
      "##گ": 803,
      "##م": 804,
      "##Å": 805,
      "##झ": 806,
      "##ோ": 807,
      "##ழ": 808,
      "##ர": 809,
      "##்": 810,
      "##ओ": 811,
      "##♲": 812,
      "##˜": 813,
      "##Ñ": 814,
      "##È": 815,
      "##ૐ": 816,
      "##ï": 817,
      "##ँ": 818,
      "##⓿": 819,
      "##√": 820,
      "##💐": 821,
      "##❣": 822,
      "##}": 823,
      "##ξ": 824,
      "##ञ": 825,
      "##¤": 826,
      "##़": 827,
      "##б": 828,
      "##þ": 829,
      "##仏": 830,
      "##Ź": 831,
      "##ê": 832,
      "##я": 833,
      "##👉": 834,
      "##ऽ": 835,
      "##‪": 836,
      "##ﾗ": 837,
      "##✔": 838,
      "##ાં": 839,
      "##ાર": 840,
      "##્ય": 841,
      "##ને": 842,
      "##માં": 843,
      "##્ર": 844,
      "##ના": 845,
      "##વા": 846,
      "છે": 847,
      "##ની": 848,
      "##ું": 849,
      "કર": 850,
      "##ર્": 851,
      "તે": 852,
      "##તા": 853,
      "અને": 854,
      "##થી": 855,
      "કે": 856,
      "##્ટ": 857,
      "મા": 858,
      "##લા": 859,
      "##ામ": 860,
      "##નો": 861,
      "આવ": 862,
      "હત": 863,
      "પ્ર": 864,
      "##િક": 865,
      "##યા": 866,
      "પર": 867,
      "##ાવ": 868,
      "##્યા": 869,
      "##ાય": 870,
      "##હે": 871,
      "##ટે": 872,
      "##રી": 873,
      "##ન્": 874,
      "##સ્": 875,
      "વિ": 876,
      "##ક્": 877,
      "##લી": 878,
      "##ાન": 879,
      "કો": 880,
      "જે": 881,
      "##ાત": 882,
      "##કો": 883,
      "##ંગ": 884,
      "માટે": 885,
      "##ાજ": 886,
      "પણ": 887,
      "##વામાં": 888,
      "##શે": 889,
      "એક": 890,
      "##ારે": 891,
      "સા": 892,
      "##િત": 893,
      "##્વ": 894,
      "કરી": 895,
      "##લ્": 896,
      "##નું": 897,
      "##ેશ": 898,
      "##ારી": 899,
      "##્યો": 900,
      "હો": 901,
      "##્યું": 902,
      "જો": 903,
      "##રો": 904,
      "##િયા": 905,
      "##ાણ": 906,
      "##હી": 907,
      "##વી": 908,
      "##ંત": 909,
      "##ારા": 910,
      "##મે": 911,
      "પો": 912,
      "##કે": 913,
      "સમ": 914,
      "સ્": 915,
      "##ાલ": 916,
      "આપ": 917,
      "##િવ": 918,
      "##થે": 919,
      "મો": 920,
      "તેમ": 921,
      "સુ": 922,
      "સં": 923,
      "##ાસ": 924,
      "##ડી": 925,
      "સાથે": 926,
      "##તી": 927,
      "##લે": 928,
      "##ાગ": 929,
      "##ાદ": 930,
      "કાર": 931,
      "##ધી": 932,
      "##રે": 933,
      "##તિ": 934,
      "##્રી": 935,
      "હતી": 936,
      "લો": 937,
      "##યો": 938,
      "##ાળ": 939,
      "##ાઈ": 940,
      "##રા": 941,
      "બે": 942,
      "વધ": 943,
      "મુ": 944,
      "##ટી": 945,
      "##ક્ષ": 946,
      "##ણે": 947,
      "તો": 948,
      "##કા": 949,
      "##ાઇ": 950,
      "##કાર": 951,
      "તમ": 952,
      "##ત્": 953,
      "##્રે": 954,
      "##જી": 955,
      "##ણી": 956,
      "##િય": 957,
      "##ડા": 958,
      "##ંદ": 959,
      "કરવા": 960,
      "મળ": 961,
      "##સ્ટ": 962,
      "મે": 963,
      "##વે": 964,
      "રાજ": 965,
      "રહ": 966,
      "ઉપ": 967,
      "મહ": 968,
      "વર્": 969,
      "##ાખ": 970,
      "##કી": 971,
      "##રૂ": 972,
      "હતો": 973,
      "##ન્ટ": 974,
      "આવે": 975,
      "##ાર્": 976,
      "##સી": 977,
      "##્યારે": 978,
      "##તે": 979,
      "##દી": 980,
      "##લો": 981,
      "હતા": 982,
      "##િલ્": 983,
      "##ંધ": 984,
      "આવી": 985,
      "નથી": 986,
      "સર": 987,
      "રો": 988,
      "લોકો": 989,
      "##સ્ત": 990,
      "રહે": 991,
      "કરવામાં": 992,
      "ગુ": 993,
      "##્યુ": 994,
      "##મી": 995,
      "સામ": 996,
      "હતું": 997,
      "##સે": 998,
      "પા": 999,
      "##ત્ર": 1000,
      "નિ": 1001,
      "##તો": 1002,
      "દ્વ": 1003,
      "અન": 1004,
      "##ારો": 1005,
      "હોય": 1006,
      "વર્ષ": 1007,
      "##ન્ડ": 1008,
      "##પી": 1009,
      "##થા": 1010,
      "##િટ": 1011,
      "લે": 1012,
      "##દા": 1013,
      "##ેલ": 1014,
      "દ્વારા": 1015,
      "##ંચ": 1016,
      "##ેટ": 1017,
      "##િંગ": 1018,
      "##મા": 1019,
      "##જા": 1020,
      "##વું": 1021,
      "ના": 1022,
      "##રમાં": 1023,
      "રી": 1024,
      "ભાર": 1025,
      "જી": 1026,
      "નો": 1027,
      "##મ્": 1028,
      "##દ્": 1029,
      "##વાની": 1030,
      "##તાં": 1031,
      "વધુ": 1032,
      "અમ": 1033,
      "##્યાં": 1034,
      "પોલી": 1035,
      "સે": 1036,
      "સુધી": 1037,
      "માં": 1038,
      "રૂ": 1039,
      "##ાહ": 1040,
      "યુ": 1041,
      "##જે": 1042,
      "##ાણી": 1043,
      "બી": 1044,
      "##વિ": 1045,
      "##ોલ": 1046,
      "થઈ": 1047,
      "દિવ": 1048,
      "##ચ્": 1049,
      "જણ": 1050,
      "પોતા": 1051,
      "ની": 1052,
      "##ોડ": 1053,
      "સમય": 1054,
      "વે": 1055,
      "શકે": 1056,
      "પૂ": 1057,
      "##િં": 1058,
      "##ંતુ": 1059,
      "##છી": 1060,
      "##વાર": 1061,
      "કોઈ": 1062,
      "બના": 1063,
      "સ્ટ": 1064,
      "##ટા": 1065,
      "દે": 1066,
      "દર": 1067,
      "##રાત": 1068,
      "##શન": 1069,
      "વ્ય": 1070,
      "પહે": 1071,
      "સો": 1072,
      "પડ": 1073,
      "પરંતુ": 1074,
      "##ેર": 1075,
      "##ેલા": 1076,
      "##હીં": 1077,
      "##ોર્": 1078,
      "##્સ": 1079,
      "##િન": 1080,
      "##ક્ર": 1081,
      "##ન્સ": 1082,
      "કામ": 1083,
      "##ષ્ટ": 1084,
      "##શ્": 1085,
      "##ાવી": 1086,
      "પુ": 1087,
      "તમે": 1088,
      "##ગી": 1089,
      "##રોના": 1090,
      "રીતે": 1091,
      "##બી": 1092,
      "રહી": 1093,
      "##ચે": 1094,
      "સ્થ": 1095,
      "બાદ": 1096,
      "કહ": 1097,
      "##ણા": 1098,
      "##ગર": 1099,
      "શક": 1100,
      "કોરોના": 1101,
      "રાખ": 1102,
      "##હો": 1103,
      "##િલ": 1104,
      "લી": 1105,
      "કરે": 1106,
      "##સા": 1107,
      "તેના": 1108,
      "##ન્દ": 1109,
      "##ધા": 1110,
      "ને": 1111,
      "##વો": 1112,
      "##ુક": 1113,
      "સી": 1114,
      "યો": 1115,
      "છો": 1116,
      "જણાવ": 1117,
      "##પ્": 1118,
      "પછી": 1119,
      "પી": 1120,
      "##નમાં": 1121,
      "20": 1122,
      "##ર્ણ": 1123,
      "##ુલ": 1124,
      "પોલીસ": 1125,
      "દેશ": 1126,
      "ટી": 1127,
      "##હિત": 1128,
      "##રસ": 1129,
      "જા": 1130,
      "##ંક": 1131,
      "##પ્ર": 1132,
      "મહિ": 1133,
      "##ક્ટ": 1134,
      "ત્યારે": 1135,
      "##ળી": 1136,
      "કહ્યું": 1137,
      "##બર": 1138,
      "##ંડ": 1139,
      "થાય": 1140,
      "દિવસ": 1141,
      "લગ": 1142,
      "##લાક": 1143,
      "ઉપર": 1144,
      "##માંથી": 1145,
      "તેઓ": 1146,
      "##રણ": 1147,
      "કા": 1148,
      "ગુજ": 1149,
      "##ેડ": 1150,
      "કાર્ય": 1151,
      "સામે": 1152,
      "પાસ": 1153,
      "સૌ": 1154,
      "##્રા": 1155,
      "લાગ": 1156,
      "આગ": 1157,
      "રહ્યા": 1158,
      "##નાં": 1159,
      "ભારત": 1160,
      "##વાદ": 1161,
      "##ંપ": 1162,
      "જ્યારે": 1163,
      "##િસ્": 1164,
      "સિ": 1165,
      "દી": 1166,
      "કારણે": 1167,
      "ગુજરાત": 1168,
      "##દેશ": 1169,
      "વાત": 1170,
      "##ેશન": 1171,
      "##હેર": 1172,
      "હવે": 1173,
      "##મો": 1174,
      "ટે": 1175,
      "ચૂ": 1176,
      "કેટ": 1177,
      "સરકાર": 1178,
      "##ક્સ": 1179,
      "##ુર": 1180,
      "મળી": 1181,
      "બા": 1182,
      "##વાનો": 1183,
      "##સર": 1184,
      "##્ષ": 1185,
      "અથ": 1186,
      "##દ્ધ": 1187,
      "તેની": 1188,
      "##ઓને": 1189,
      "શરૂ": 1190,
      "હા": 1191,
      "તેને": 1192,
      "##વાનું": 1193,
      "##જન": 1194,
      "ચો": 1195,
      "અધ": 1196,
      "નહીં": 1197,
      "##ન્દ્ર": 1198,
      "##ંટ": 1199,
      "બાળ": 1200,
      "##ામાં": 1201,
      "અમે": 1202,
      "થય": 1203,
      "##તર": 1204,
      "કેસ": 1205,
      "સ્વ": 1206,
      "પાસે": 1207,
      "##ષ્": 1208,
      "##િસ": 1209,
      "##ોર": 1210,
      "અથવા": 1211,
      "જરૂ": 1212,
      "મી": 1213,
      "બનાવ": 1214,
      "##ર્સ": 1215,
      "કર્યો": 1216,
      "રૂપ": 1217,
      "ગામ": 1218,
      "##માન": 1219,
      "આજે": 1220,
      "##પૂ": 1221,
      "જાણ": 1222,
      "આપી": 1223,
      "##યોગ": 1224,
      "##ભાઈ": 1225,
      "##ક્તિ": 1226,
      "જોઈ": 1227,
      "ઉત્": 1228,
      "રાજ્ય": 1229,
      "##ડો": 1230,
      "હે": 1231,
      "રા": 1232,
      "વિસ્ત": 1233,
      "દરમ": 1234,
      "##િલ્લા": 1235,
      "ભાગ": 1236,
      "##હાર": 1237,
      "##્રો": 1238,
      "મૂ": 1239,
      "##ંત્રી": 1240,
      "બો": 1241,
      "ફર": 1242,
      "ત્ર": 1243,
      "##ટના": 1244,
      "પહો": 1245,
      "દર્": 1246,
      "જિલ્લા": 1247,
      "##ચાર": 1248,
      "અભ": 1249,
      "અનુ": 1250,
      "પે": 1251,
      "##િયાન": 1252,
      "ધર": 1253,
      "આવ્યા": 1254,
      "##િકા": 1255,
      "અંગ": 1256,
      "##િમ": 1257,
      "તર": 1258,
      "##ૃત": 1259,
      "કહે": 1260,
      "મુખ": 1261,
      "રે": 1262,
      "##ાંત": 1263,
      "નામ": 1264,
      "લઈ": 1265,
      "ડિ": 1266,
      "##સ્પ": 1267,
      "##પાસ": 1268,
      "નોંધ": 1269,
      "##ર્વ": 1270,
      "આવ્યો": 1271,
      "વા": 1272,
      "##્રેસ": 1273,
      "##ટર": 1274,
      "તેમના": 1275,
      "દુ": 1276,
      "##ડે": 1277,
      "જેમાં": 1278,
      "વી": 1279,
      "કરતા": 1280,
      "તમારા": 1281,
      "પાણી": 1282,
      "આરો": 1283,
      "##જબ": 1284,
      "પહોંચ": 1285,
      "##ટો": 1286,
      "જુ": 1287,
      "પ્રમ": 1288,
      "વિક": 1289,
      "થઇ": 1290,
      "હાલ": 1291,
      "જણાવ્યું": 1292,
      "તેમણે": 1293,
      "એટ": 1294,
      "તા": 1295,
      "અન્ય": 1296,
      "ગ્ર": 1297,
      "ફિલ્": 1298,
      "##00": 1299,
      "તમામ": 1300,
      "##ુમ": 1301,
      "##ંત્ર": 1302,
      "##શી": 1303,
      "મુખ્ય": 1304,
      "##વન": 1305,
      "##ગ્ર": 1306,
      "ગો": 1307,
      "##ર્ચ": 1308,
      "##િપ": 1309,
      "##ાલુ": 1310,
      "##ધાન": 1311,
      "પોતાના": 1312,
      "જવા": 1313,
      "માર્": 1314,
      "##વારે": 1315,
      "કરીને": 1316,
      "તથા": 1317,
      "ખૂ": 1318,
      "દરમિયાન": 1319,
      "##રુ": 1320,
      "તરી": 1321,
      "ગયા": 1322,
      "##િતિ": 1323,
      "કારણ": 1324,
      "##ભાઇ": 1325,
      "##સો": 1326,
      "જોવા": 1327,
      "હજ": 1328,
      "##ાજપ": 1329,
      "તરીકે": 1330,
      "##ળા": 1331,
      "સૌથી": 1332,
      "##લમાં": 1333,
      "કરો": 1334,
      "એમ": 1335,
      "##ાર્ટ": 1336,
      "##સ્થ": 1337,
      "સુર": 1338,
      "##ભા": 1339,
      "##ૂર": 1340,
      "ખાત": 1341,
      "કંપ": 1342,
      "##ક્ત": 1343,
      "##શો": 1344,
      "##િર": 1345,
      "##થમ": 1346,
      "ભાજપ": 1347,
      "##વાય": 1348,
      "કંપની": 1349,
      "લાખ": 1350,
      "વચ્": 1351,
      "અપ": 1352,
      "##દે": 1353,
      "વખ": 1354,
      "વચ્ચે": 1355,
      "શો": 1356,
      "ટકા": 1357,
      "અધિક": 1358,
      "##ર્મ": 1359,
      "તેમજ": 1360,
      "રહ્યો": 1361,
      "##ત્વ": 1362,
      "કરોડ": 1363,
      "માન": 1364,
      "ખુ": 1365,
      "ઉપયોગ": 1366,
      "માત્ર": 1367,
      "અંગે": 1368,
      "આવશે": 1369,
      "..": 1370,
      "ક્ર": 1371,
      "##ાંચ": 1372,
      "ભાવ": 1373,
      "કોંગ": 1374,
      "ચે": 1375,
      "##ભાગ": 1376,
      "##્યાર": 1377,
      "પરિવ": 1378,
      "મહિલા": 1379,
      "સાં": 1380,
      "##ક્ષા": 1381,
      "પહેલા": 1382,
      "પગ": 1383,
      "##ાળા": 1384,
      "તરફ": 1385,
      "##બે": 1386,
      "##કારી": 1387,
      "હાથ": 1388,
      "##ોમાં": 1389,
      "આવ્યું": 1390,
      "ઓફ": 1391,
      "##ર્થ": 1392,
      "મેળ": 1393,
      "ફે": 1394,
      "સાર": 1395,
      "સ્પ": 1396,
      "અલ": 1397,
      "##ર્ટ": 1398,
      "ફો": 1399,
      "ખૂબ": 1400,
      "##્મ": 1401,
      "##ારીઓ": 1402,
      "થયા": 1403,
      "તેમને": 1404,
      "##ડિયા": 1405,
      "##નગર": 1406,
      "જોઈએ": 1407,
      "##બંધ": 1408,
      "ડો": 1409,
      "બંધ": 1410,
      "##સાર": 1411,
      "##લાં": 1412,
      "##પર": 1413,
      "##લ્લા": 1414,
      "##િશ": 1415,
      "થશે": 1416,
      "ત્યાં": 1417,
      "બદ": 1418,
      "જાય": 1419,
      "##ગા": 1420,
      "##દાર": 1421,
      "થયો": 1422,
      "સર્": 1423,
      "રૂપિયા": 1424,
      "લા": 1425,
      "સહિત": 1426,
      "##બા": 1427,
      "##જૂ": 1428,
      "લોક": 1429,
      "તેમની": 1430,
      "##્લા": 1431,
      "##ચી": 1432,
      "ફિલ્મ": 1433,
      "બની": 1434,
      "##િંહ": 1435,
      "##ેલી": 1436,
      "##ખા": 1437,
      "શું": 1438,
      "##વાના": 1439,
      "##શ્વ": 1440,
      "ભૂ": 1441,
      "વિશે": 1442,
      "વ્યક્તિ": 1443,
      "વિસ્તાર": 1444,
      "તૈ": 1445,
      "અમદા": 1446,
      "##બ્": 1447,
      "રોજ": 1448,
      "બેઠ": 1449,
      "##મત": 1450,
      "##જો": 1451,
      "કર્યું": 1452,
      "ચૂંટ": 1453,
      "યોજ": 1454,
      "ચી": 1455,
      "અમદાવાદ": 1456,
      "અંત": 1457,
      "##નની": 1458,
      "##ચ્છ": 1459,
      "##ોર્ટ": 1460,
      "##૦૦": 1461,
      "બન": 1462,
      "##સ્થા": 1463,
      "થી": 1464,
      "##ગ્ય": 1465,
      "ડે": 1466,
      "કોંગ્રેસ": 1467,
      "બહાર": 1468,
      "##મ્પ": 1469,
      "આધ": 1470,
      "મોટા": 1471,
      "##િયો": 1472,
      "##નાર": 1473,
      "તપાસ": 1474,
      "હું": 1475,
      "##ાયો": 1476,
      "કર્યા": 1477,
      "પ્રો": 1478,
      "મોદી": 1479,
      "##નના": 1480,
      "##િતા": 1481,
      "ડી": 1482,
      "સૂ": 1483,
      "ત્રણ": 1484,
      "ગાં": 1485,
      "કરવાની": 1486,
      "વરસ": 1487,
      "##ામી": 1488,
      "આપવામાં": 1489,
      "##િટી": 1490,
      "##કરી": 1491,
      "##પા": 1492,
      "ઘટના": 1493,
      "ચૂંટણી": 1494,
      "નવા": 1495,
      "દિલ્": 1496,
      "##મેન્ટ": 1497,
      "વાય": 1498,
      "તૈય": 1499,
      "##ક્રમ": 1500,
      "##એસ": 1501,
      "પ્રતિ": 1502,
      "જરૂર": 1503,
      "તમને": 1504,
      "પોતાની": 1505,
      "##રેક": 1506,
      "##રની": 1507,
      "અત": 1508,
      "##સ્પિટ": 1509,
      "##ટેલ": 1510,
      "##રિક": 1511,
      "મુજબ": 1512,
      "બં": 1513,
      "ભર": 1514,
      "ખા": 1515,
      "સફ": 1516,
      "દિલ્હી": 1517,
      "ફરી": 1518,
      "##વાથી": 1519,
      "##ષ્ટ્ર": 1520,
      "##ંભ": 1521,
      "##ધો": 1522,
      "પરિ": 1523,
      "ભારતી": 1524,
      "કમ": 1525,
      "##વાસ": 1526,
      "ખાતે": 1527,
      "કેટલાક": 1528,
      "નિય": 1529,
      "હોસ્પિટ": 1530,
      "##ાન્ય": 1531,
      "##ખ્યા": 1532,
      "##પો": 1533,
      "નવી": 1534,
      "પ્રા": 1535,
      "રહેશે": 1536,
      "ખેડ": 1537,
      "##ઓની": 1538,
      "##િક્ષ": 1539,
      "##ાવે": 1540,
      "રહ્યું": 1541,
      "પ્રથમ": 1542,
      "મદ": 1543,
      "જૂ": 1544,
      "##રના": 1545,
      "ગઈ": 1546,
      "##દો": 1547,
      "ટીમ": 1548,
      "##તું": 1549,
      "પ્રે": 1550,
      "##મંત્રી": 1551,
      "વરસાદ": 1552,
      "સહ": 1553,
      "વિદ": 1554,
      "દરેક": 1555,
      "ગયો": 1556,
      "##લું": 1557,
      "પાક": 1558,
      "શકો": 1559,
      "રાજકો": 1560,
      "##ત્રી": 1561,
      "દર્દી": 1562,
      "કુલ": 1563,
      "...": 1564,
      "##વાન": 1565,
      "શકાય": 1566,
      "##ગત": 1567,
      "##્ન": 1568,
      "અલગ": 1569,
      "બંને": 1570,
      "ગાંધી": 1571,
      "##્યૂ": 1572,
      "##કર": 1573,
      "પરિવાર": 1574,
      "રાહ": 1575,
      "##દર": 1576,
      "##પણ": 1577,
      "પ્રમાણ": 1578,
      "##કડ": 1579,
      "માંગ": 1580,
      "કરશે": 1581,
      "બાળકો": 1582,
      "ગણ": 1583,
      "##ુંબ": 1584,
      "10": 1585,
      "પોલીસે": 1586,
      "જેમ": 1587,
      "મોત": 1588,
      "મદદ": 1589,
      "ખો": 1590,
      "માર": 1591,
      "વ્યવ": 1592,
      "##્લે": 1593,
      "201": 1594,
      "બાબ": 1595,
      "##દર્": 1596,
      "ઘણા": 1597,
      "૨૦": 1598,
      "શુ": 1599,
      "રિ": 1600,
      "##ુખ": 1601,
      "આર": 1602,
      "ખાસ": 1603,
      "નિર્ણ": 1604,
      "લોકોને": 1605,
      "##ઓમાં": 1606,
      "સામાન્ય": 1607,
      "ઝડ": 1608,
      "જાહેર": 1609,
      "અહીં": 1610,
      "તમારી": 1611,
      "લઇ": 1612,
      "ચાલ": 1613,
      "કિ": 1614,
      "##જય": 1615,
      "એટલે": 1616,
      "##ાર્થી": 1617,
      "ભારતીય": 1618,
      "મહે": 1619,
      "ટ્ર": 1620,
      "##્લ": 1621,
      "##પૂર્ણ": 1622,
      "પાછ": 1623,
      "કોઇ": 1624,
      "##ીએ": 1625,
      "##પુર": 1626,
      "જય": 1627,
      "મંદ": 1628,
      "ખે": 1629,
      "ટ્રે": 1630,
      "કરતાં": 1631,
      "ધ્યા": 1632,
      "##ોની": 1633,
      "##સ્તા": 1634,
      "મૃત": 1635,
      "##ક્ષણ": 1636,
      "તાલુ": 1637,
      "##કલ": 1638,
      "ક્ષ": 1639,
      "મામ": 1640,
      "રાજકોટ": 1641,
      "પ્રકાર": 1642,
      "ઉપરાંત": 1643,
      "એસ": 1644,
      "સત": 1645,
      "ખેડૂ": 1646,
      "અર": 1647,
      "##નિ": 1648,
      "વધારે": 1649,
      "અનેક": 1650,
      "##વર": 1651,
      "##ભાવ": 1652,
      "##ોને": 1653,
      "ઉમે": 1654,
      "##વિધ": 1655,
      "##નુ": 1656,
      "##યુ": 1657,
      "તાલુકા": 1658,
      "##ટક": 1659,
      "##િસ્તા": 1660,
      "##વણી": 1661,
      "##િયલ": 1662,
      "જગ": 1663,
      "શ્રી": 1664,
      "##આત": 1665,
      "##દાન": 1666,
      "##એમ": 1667,
      "શહેર": 1668,
      "##િને": 1669,
      "પટેલ": 1670,
      "##જ્": 1671,
      "વિભાગ": 1672,
      "મળે": 1673,
      "##ોર્ડ": 1674,
      "લખ": 1675,
      "બજ": 1676,
      "##સંદ": 1677,
      "##ગે": 1678,
      "સમયે": 1679,
      "શા": 1680,
      "જવાબ": 1681,
      "##શા": 1682,
      "શિક્ષ": 1683,
      "જેટ": 1684,
      "ચા": 1685,
      "નિર્ણય": 1686,
      "બીજી": 1687,
      "માહિત": 1688,
      "સારવાર": 1689,
      "##પ્ત": 1690,
      "મોટી": 1691,
      "જેના": 1692,
      "આમ": 1693,
      "દો": 1694,
      "આવેલા": 1695,
      "##કમાં": 1696,
      "19": 1697,
      "ખરી": 1698,
      "સ્વા": 1699,
      "દૂર": 1700,
      "##ીર": 1701,
      "કેન્દ્ર": 1702,
      "##પુ": 1703,
      "અસર": 1704,
      "ઘણી": 1705,
      "માહિતી": 1706,
      "કુ": 1707,
      "અંદ": 1708,
      "સ્થિતિ": 1709,
      "મહિના": 1710,
      "##રને": 1711,
      "##નિક": 1712,
      "વિદ્ય": 1713,
      "ઓછ": 1714,
      "જેથી": 1715,
      "ગય": 1716,
      "પસંદ": 1717,
      "##લ્ડ": 1718,
      "પાંચ": 1719,
      "જીવન": 1720,
      "તેમાં": 1721,
      "લઈને": 1722,
      "બીજા": 1723,
      "કોર્": 1724,
      "જોકે": 1725,
      "પાર્ટ": 1726,
      "તેણે": 1727,
      "રાત": 1728,
      "##કારે": 1729,
      "સંખ્યા": 1730,
      "રોક": 1731,
      "નેતા": 1732,
      "શહે": 1733,
      "##્રીય": 1734,
      "જરૂરી": 1735,
      "##ઓના": 1736,
      "##ાવવા": 1737,
      "વિવિધ": 1738,
      "##ંબ": 1739,
      "પડી": 1740,
      "છેલ્લા": 1741,
      "મારી": 1742,
      "##સ્ક": 1743,
      "##િયન": 1744,
      "વિદ્યાર્થી": 1745,
      "હશે": 1746,
      "પૈ": 1747,
      "થયું": 1748,
      "પ્રવ": 1749,
      "બિ": 1750,
      "##ધ્ય": 1751,
      "કાય": 1752,
      "##ચના": 1753,
      "બોલ": 1754,
      "મહત્વ": 1755,
      "તૈયાર": 1756,
      "હજાર": 1757,
      "યુવ": 1758,
      "કપ": 1759,
      "સ્થાન": 1760,
      "ત્યાર": 1761,
      "##ળતા": 1762,
      "##ૂટ": 1763,
      "ચાર": 1764,
      "માતા": 1765,
      "##ર્ડ": 1766,
      "આગળ": 1767,
      "વધી": 1768,
      "બધા": 1769,
      "ફરિયા": 1770,
      "ટો": 1771,
      "ખાન": 1772,
      "આજ": 1773,
      "રોડ": 1774,
      "##વાહી": 1775,
      "પેટ": 1776,
      "લેવા": 1777,
      "મુંબ": 1778,
      "##ડિયો": 1779,
      "હિ": 1780,
      "##ાજી": 1781,
      "થો": 1782,
      "મત": 1783,
      "છતાં": 1784,
      "દિવસે": 1785,
      "વિશ્વ": 1786,
      "##ચર": 1787,
      "##ઓએ": 1788,
      "આરોપી": 1789,
      "##વાલ": 1790,
      "વાર": 1791,
      "સ્થળ": 1792,
      "સ્ક": 1793,
      "તેથી": 1794,
      "##મ્બર": 1795,
      "વડા": 1796,
      "##બાદ": 1797,
      "સુરત": 1798,
      "જગ્યા": 1799,
      "ચર્ચ": 1800,
      "કર્મ": 1801,
      "કલાક": 1802,
      "##સાય": 1803,
      "##ાવો": 1804,
      "##ાણા": 1805,
      "પાકિસ્તા": 1806,
      "##બો": 1807,
      "મને": 1808,
      "રમ": 1809,
      "##ંમ": 1810,
      "##ચા": 1811,
      "જીવ": 1812,
      "યાદ": 1813,
      "વિસ્તારમાં": 1814,
      "##ષ્ઠ": 1815,
      "##પાલ": 1816,
      "લાભ": 1817,
      "જન": 1818,
      "સંબંધ": 1819,
      "બ્ર": 1820,
      "સમગ્ર": 1821,
      "પડે": 1822,
      "##ીને": 1823,
      "ઉત્પ": 1824,
      "##નને": 1825,
      "##સ્તુ": 1826,
      "જ્યાં": 1827,
      "આવતા": 1828,
      "વર્ષે": 1829,
      "##તુ": 1830,
      "વખત": 1831,
      "હતાં": 1832,
      "##પે": 1833,
      "##લાઈ": 1834,
      "છીએ": 1835,
      "સરકારે": 1836,
      "ઘટા": 1837,
      "##ેદ": 1838,
      "ખેડૂતો": 1839,
      "દેખ": 1840,
      "##નીય": 1841,
      "##ત્તા": 1842,
      "મળશે": 1843,
      "##મમાં": 1844,
      "સતત": 1845,
      "યોજના": 1846,
      "ફાય": 1847,
      "##ર્ષ": 1848,
      "##તમ": 1849,
      "હોવાનું": 1850,
      "મીડિયા": 1851,
      "સમા": 1852,
      "##ગીરી": 1853,
      "##ંકા": 1854,
      "##ાયા": 1855,
      "અનુસાર": 1856,
      "બચ": 1857,
      "હેઠ": 1858,
      "રંગ": 1859,
      "ભારે": 1860,
      "ધો": 1861,
      "તેનો": 1862,
      "પંચ": 1863,
      "પરી": 1864,
      "આવેલ": 1865,
      "હેઠળ": 1866,
      "મુખ્યમંત્રી": 1867,
      "ગે": 1868,
      "જાત": 1869,
      "નં": 1870,
      "કર્મચ": 1871,
      "##લના": 1872,
      "વધારો": 1873,
      "ગર": 1874,
      "નજી": 1875,
      "##પ્ટ": 1876,
      "તેવી": 1877,
      "##ફે": 1878,
      "##્લો": 1879,
      "હર": 1880,
      "##ાયેલા": 1881,
      "##કીય": 1882,
      "લગ્ન": 1883,
      "ઘરે": 1884,
      "##સિંહ": 1885,
      "##સ્યા": 1886,
      "##રલ": 1887,
      "એવી": 1888,
      "અવ": 1889,
      "બનાવી": 1890,
      "##લ્લે": 1891,
      "આપે": 1892,
      "##લ્સ": 1893,
      "વિકાસ": 1894,
      "મુદ્": 1895,
      "કેવી": 1896,
      "પૂર્વ": 1897,
      "##સભ": 1898,
      "વૃ": 1899,
      "પહેલાં": 1900,
      "પરિણ": 1901,
      "દિ": 1902,
      "વો": 1903,
      "શરી": 1904,
      "##ૂત": 1905,
      "સેવા": 1906,
      "મોર": 1907,
      "##વવા": 1908,
      "##બેન": 1909,
      "પક્ષ": 1910,
      "જાહે": 1911,
      "આઈ": 1912,
      "સભ": 1913,
      "પડશે": 1914,
      "ફરિયાદ": 1915,
      "કાર્યવાહી": 1916,
      "પ્રમુખ": 1917,
      "જન્": 1918,
      "છું": 1919,
      "યોગ્ય": 1920,
      "સંગ": 1921,
      "લાં": 1922,
      "વખતે": 1923,
      "બને": 1924,
      "રજૂ": 1925,
      "મંત્રી": 1926,
      "નવ": 1927,
      "##કાલ": 1928,
      "વિરો": 1929,
      "##બલ": 1930,
      "એવું": 1931,
      "##નારા": 1932,
      "આવા": 1933,
      "એન": 1934,
      "મં": 1935,
      "##ધું": 1936,
      "##કત": 1937,
      "અધિકારી": 1938,
      "12": 1939,
      "જોડ": 1940,
      "##તન": 1941,
      "સમસ્યા": 1942,
      "15": 1943,
      "##ીના": 1944,
      "વાહ": 1945,
      "##કરણ": 1946,
      "માલ": 1947,
      "##ર્ક": 1948,
      "##કેટ": 1949,
      "જેવા": 1950,
      "પત્": 1951,
      "##જ્ઞ": 1952,
      "##ાળી": 1953,
      "##શ્કે": 1954,
      "રોગ": 1955,
      "##રેન્દ્ર": 1956,
      "##નિયા": 1957,
      "ભા": 1958,
      "આયો": 1959,
      "વીડિયો": 1960,
      "##દરા": 1961,
      "##્યે": 1962,
      "ચૂક": 1963,
      "મેચ": 1964,
      "##ક્ટર": 1965,
      "વ્યા": 1966,
      "સારી": 1967,
      "##સભા": 1968,
      "પ્રસ": 1969,
      "પાલ": 1970,
      "શે": 1971,
      "બુ": 1972,
      "##શિ": 1973,
      "વાગ": 1974,
      "##િસ્ટ": 1975,
      "ઉત્પાદ": 1976,
      "એર": 1977,
      "પાડ": 1978,
      "પિતા": 1979,
      "##ફો": 1980,
      "નજીક": 1981,
      "૧૦": 1982,
      "પહોંચી": 1983,
      "કામગીરી": 1984,
      "ચાલી": 1985,
      "શેર": 1986,
      "આપણે": 1987,
      "સંપ": 1988,
      "##ખી": 1989,
      "નિવ": 1990,
      "સ્થા": 1991,
      "પ્રયા": 1992,
      "પરિણામ": 1993,
      "પ્લા": 1994,
      "નાખ": 1995,
      "ઇન્": 1996,
      "ભો": 1997,
      "સોશ": 1998,
      "દેશમાં": 1999,
      "પ્રત": 2000,
      "મારા": 2001,
      "સમાજ": 2002,
      "એવા": 2003,
      "##ાઉ": 2004,
      "##નિવ": 2005,
      "ટેસ્ટ": 2006,
      "માર્ગ": 2007,
      "##મિક": 2008,
      "##લ્પ": 2009,
      "##ાનું": 2010,
      "હાજ": 2011,
      "ચાલુ": 2012,
      "##લાઇ": 2013,
      "એલ": 2014,
      "બાળક": 2015,
      "રિપ": 2016,
      "જમી": 2017,
      "##િત્ર": 2018,
      "જેને": 2019,
      "મિ": 2020,
      "રામ": 2021,
      "##ભગ": 2022,
      "મંદિર": 2023,
      "વેચ": 2024,
      "બહ": 2025,
      "પ્રદેશ": 2026,
      "##જુ": 2027,
      "જેવી": 2028,
      "હુમ": 2029,
      "##કસ": 2030,
      "કિં": 2031,
      "આઇ": 2032,
      "થતા": 2033,
      "##કળ": 2034,
      "લગભગ": 2035,
      "##કમ": 2036,
      "સંપૂર્ણ": 2037,
      "વેપ": 2038,
      "##ાવતા": 2039,
      "કલ": 2040,
      "દાખ": 2041,
      "શક્ય": 2042,
      "ખર્ચ": 2043,
      "અગા": 2044,
      "પત્ની": 2045,
      "વિચાર": 2046,
      "જોઇ": 2047,
      "આગામી": 2048,
      "##જર": 2049,
      "મુશ્કે": 2050,
      "##ભવ": 2051,
      "##ોના": 2052,
      "બાં": 2053,
      "વૈ": 2054,
      "અગાઉ": 2055,
      "##ાજુ": 2056,
      "પાછળ": 2057,
      "ઇન્ડ": 2058,
      "આરોગ્ય": 2059,
      "બેઠક": 2060,
      "મુંબઈ": 2061,
      "જાહેરાત": 2062,
      "જશે": 2063,
      "##વાસી": 2064,
      "##ૂલ": 2065,
      "##ખો": 2066,
      "જિલ્લામાં": 2067,
      "##ઠા": 2068,
      "નુક": 2069,
      "##આઈ": 2070,
      "કં": 2071,
      "##ચ્ચ": 2072,
      "ગુજરાતમાં": 2073,
      "ઘર": 2074,
      "##હિ": 2075,
      "નીચે": 2076,
      "જઈ": 2077,
      "##ાવવામાં": 2078,
      "હજુ": 2079,
      "આપવા": 2080,
      "##ણો": 2081,
      "શ્રે": 2082,
      "વાયરસ": 2083,
      "સવારે": 2084,
      "નાગ": 2085,
      "ગ્રામ": 2086,
      "##ar": 2087,
      "ઉલ્લે": 2088,
      "આધાર": 2089,
      "##ન્સી": 2090,
      "જાણી": 2091,
      "ઉલ્લેખ": 2092,
      "૧૯": 2093,
      "વસ્તુ": 2094,
      "કાર્": 2095,
      "##લાકાત": 2096,
      "શરૂઆત": 2097,
      "મન": 2098,
      "કરવાનો": 2099,
      "પાસેથી": 2100,
      "કલા": 2101,
      "##ટ્સ": 2102,
      "હોવાથી": 2103,
      "અત્યાર": 2104,
      "સ્મ": 2105,
      "##કાશ": 2106,
      "આસ": 2107,
      "શાળા": 2108,
      "ધ્યાન": 2109,
      "મુલાકાત": 2110,
      "હાલમાં": 2111,
      "કૃ": 2112,
      "જન્મ": 2113,
      "કાઢ": 2114,
      "રાજ્યમાં": 2115,
      "અસ": 2116,
      "ચર્ચા": 2117,
      "ક્ષે": 2118,
      "પ્રેમ": 2119,
      "ઉમેદ": 2120,
      "##ત્તિ": 2121,
      "ઉદ": 2122,
      "##ાઇન": 2123,
      "લાગે": 2124,
      "##ાત્ર": 2125,
      "##શ્ચ": 2126,
      "ક્યારે": 2127,
      "ગંભ": 2128,
      "પ્રમાણે": 2129,
      "##તાવ": 2130,
      "વિજય": 2131,
      "##ક્રિયા": 2132,
      "કાર્યક્રમ": 2133,
      "ધારા": 2134,
      "##ળો": 2135,
      "##્યાસ": 2136,
      "##ગ્રી": 2137,
      "ટ્રા": 2138,
      "##બ્ર": 2139,
      "##િકેટ": 2140,
      "રહ્યાં": 2141,
      "નાના": 2142,
      "##જનો": 2143,
      "વિદેશ": 2144,
      "ડ્ર": 2145,
      "નક્": 2146,
      "આં": 2147,
      "##્રોલ": 2148,
      "##ડાઉ": 2149,
      "11": 2150,
      "રિપોર્ટ": 2151,
      "##પ્રધાન": 2152,
      "આશ": 2153,
      "ઉઠ": 2154,
      "##ગઢ": 2155,
      "કેમ": 2156,
      "સલા": 2157,
      "સિંહ": 2158,
      "##મણ": 2159,
      "મૃત્યુ": 2160,
      "ગંભીર": 2161,
      "રહેલા": 2162,
      "કેટલી": 2163,
      "##કની": 2164,
      "##આરી": 2165,
      "સોશિયલ": 2166,
      "##ફી": 2167,
      "##પતિ": 2168,
      "રહેતા": 2169,
      "ભારતમાં": 2170,
      "સોમ": 2171,
      "પતિ": 2172,
      "##ાયત": 2173,
      "જામ": 2174,
      "ઓળ": 2175,
      "##ુપ": 2176,
      "સમાવ": 2177,
      "##ાજે": 2178,
      "ઉત્તર": 2179,
      "સરકારી": 2180,
      "##ડવા": 2181,
      "હતુ": 2182,
      "કોર્ટ": 2183,
      "##મ્બ": 2184,
      "લીધો": 2185,
      "મામલે": 2186,
      "##લાય": 2187,
      "##ધન": 2188,
      "##લાવ": 2189,
      "##દર્શન": 2190,
      "##ોએ": 2191,
      "કરવું": 2192,
      "##નર": 2193,
      "રસી": 2194,
      "##ંધી": 2195,
      "##ંકી": 2196,
      "##સાન": 2197,
      "એક્ટ": 2198,
      "પં": 2199,
      "દવા": 2200,
      "કરવો": 2201,
      "સુધ": 2202,
      "પાર્ટી": 2203,
      "##ંઘ": 2204,
      "શહેરમાં": 2205,
      "નંબર": 2206,
      "##ન્ટર": 2207,
      "##ષ્ટ્રીય": 2208,
      "અધિકારીઓ": 2209,
      "વિરોધ": 2210,
      "આત": 2211,
      "મધ્ય": 2212,
      "##વાઈ": 2213,
      "##ડીને": 2214,
      "કહી": 2215,
      "202": 2216,
      "##મિ": 2217,
      "##લિ": 2218,
      "અર્થ": 2219,
      "##પોર્ટ": 2220,
      "##નાથ": 2221,
      "##વાળા": 2222,
      "લેવામાં": 2223,
      "ધી": 2224,
      "સ્થાનિક": 2225,
      "પોઝ": 2226,
      "નિર્": 2227,
      "તંત્ર": 2228,
      "આદ": 2229,
      "##દારો": 2230,
      "ટ્વ": 2231,
      "વર્ષની": 2232,
      "વસ": 2233,
      "દર્શ": 2234,
      "હોસ્પિટલમાં": 2235,
      "પાર": 2236,
      "મોરબી": 2237,
      "##કલી": 2238,
      "આપ્યો": 2239,
      "##in": 2240,
      "30": 2241,
      "ફેર": 2242,
      "સુધીમાં": 2243,
      "નક્કી": 2244,
      "પત્ર": 2245,
      "પ્રક્રિયા": 2246,
      "પ્રશ્": 2247,
      "##ષ્ણ": 2248,
      "##ડોદરા": 2249,
      "થોડા": 2250,
      "અર્": 2251,
      "કરવાનું": 2252,
      "આયોજન": 2253,
      "##લની": 2254,
      "##ક્શન": 2255,
      "અક": 2256,
      "શાહ": 2257,
      "##ાર્થ": 2258,
      "શિક્ષણ": 2259,
      "૨૦૧": 2260,
      "ગયું": 2261,
      "દાખલ": 2262,
      "સમજ": 2263,
      "##જૂરી": 2264,
      "પૂર": 2265,
      "દીધી": 2266,
      "અરજી": 2267,
      "પ્રયાસ": 2268,
      "##ૃતિ": 2269,
      "##ત્મ": 2270,
      "##ીત": 2271,
      "##રિકા": 2272,
      "##ુમાર": 2273,
      "લીધી": 2274,
      "અભ્યાસ": 2275,
      "આંત": 2276,
      "##ારૂ": 2277,
      "માણ": 2278,
      "સમાવેશ": 2279,
      "ઝડપ": 2280,
      "અમેરિકા": 2281,
      "થતાં": 2282,
      "##મુ": 2283,
      "##at": 2284,
      "રાષ્ટ્ર": 2285,
      "એજ": 2286,
      "સંસ્થા": 2287,
      "વિસ્તારો": 2288,
      "જતા": 2289,
      "મેળવી": 2290,
      "તમારે": 2291,
      "વડોદરા": 2292,
      "હાઈ": 2293,
      "રેલ": 2294,
      "સંક્રમ": 2295,
      "સમયમાં": 2296,
      "##ફ્ટ": 2297,
      "દૂ": 2298,
      "##ટ્ટ": 2299,
      "મુક": 2300,
      "##દારી": 2301,
      "ધારાસભ": 2302,
      "નરેન્દ્ર": 2303,
      "##પકડ": 2304,
      "##ષણ": 2305,
      "##ાયેલ": 2306,
      "હોવા": 2307,
      "તરફથી": 2308,
      "##ાવ્યો": 2309,
      "વગર": 2310,
      "પોસ્ટ": 2311,
      "રસ": 2312,
      "##ાયું": 2313,
      "મજબ": 2314,
      "##ાઇલ": 2315,
      "ધરપકડ": 2316,
      "ત્યારબાદ": 2317,
      "##ચાલ": 2318,
      "##આર": 2319,
      "##વુ": 2320,
      "કિંમત": 2321,
      "જીત": 2322,
      "##કટ": 2323,
      "શર": 2324,
      "વન": 2325,
      "આંક": 2326,
      "પૂર્ણ": 2327,
      "તેનું": 2328,
      "શોધ": 2329,
      "શ્ર": 2330,
      "પ્રધાન": 2331,
      "લોકોએ": 2332,
      "ગત": 2333,
      "બેન્": 2334,
      "ફેલા": 2335,
      "મંગ": 2336,
      "દુનિયા": 2337,
      "કરવી": 2338,
      "હત્યા": 2339,
      "બેંક": 2340,
      "જાન": 2341,
      "પૈસા": 2342,
      "ક્રિકેટ": 2343,
      "થવા": 2344,
      "##િયમ": 2345,
      "ઉજ": 2346,
      "હોઈ": 2347,
      "બનાવવા": 2348,
      "રોકાણ": 2349,
      "પુર": 2350,
      "##નંદ": 2351,
      "##િકલ": 2352,
      "##ાડ": 2353,
      "##ાની": 2354,
      "બસ": 2355,
      "##ૂડ": 2356,
      "રન": 2357,
      "શી": 2358,
      "લાગી": 2359,
      "વડાપ્રધાન": 2360,
      "ગઇ": 2361,
      "##િઝ": 2362,
      "##આઇ": 2363,
      "##નલ": 2364,
      "નોકરી": 2365,
      "અંદર": 2366,
      "શિ": 2367,
      "##er": 2368,
      "નહો": 2369,
      "ક્લ": 2370,
      "સર્જ": 2371,
      "લઇને": 2372,
      "છોડ": 2373,
      "##શુ": 2374,
      "##ારણ": 2375,
      "##્યક્ષ": 2376,
      "વહે": 2377,
      "ફી": 2378,
      "200": 2379,
      "સું": 2380,
      "ઝડપી": 2381,
      "બાજુ": 2382,
      "##ાત્": 2383,
      "અટક": 2384,
      "તબ": 2385,
      "##િયર": 2386,
      "##મર": 2387,
      "સ્ટે": 2388,
      "##ધિ": 2389,
      "પરથી": 2390,
      "વ્યવસ્થા": 2391,
      "##સદ": 2392,
      "##પણે": 2393,
      "દેશના": 2394,
      "##કોને": 2395,
      "ઈન્ડ": 2396,
      "મહામ": 2397,
      "##ત્સ": 2398,
      "##ગાર": 2399,
      "##ાડી": 2400,
      "##વિધા": 2401,
      "##્યોગ": 2402,
      "##ાળો": 2403,
      "ખુબ": 2404,
      "##ટલ": 2405,
      "##થ્": 2406,
      "મોબ": 2407,
      "સિવાય": 2408,
      "પદ": 2409,
      "કરતી": 2410,
      "ગ્રાહ": 2411,
      "##સ્મ": 2412,
      "##ન્જ": 2413,
      "ફોન": 2414,
      "##ગેરે": 2415,
      "##મતા": 2416,
      "##વિડ": 2417,
      "પ્રાપ્ત": 2418,
      "લીધ": 2419,
      "બોર્ડ": 2420,
      "પૂછ": 2421,
      "ભી": 2422,
      "##ભી": 2423,
      "આવેલી": 2424,
      "ખરા": 2425,
      "જાણવા": 2426,
      "હાઇ": 2427,
      "સ્પષ્ટ": 2428,
      "18": 2429,
      "સાત": 2430,
      "##ન્ન": 2431,
      "##ઓનો": 2432,
      "##ાંડ": 2433,
      "રસ્તા": 2434,
      "ઓળખ": 2435,
      "પગલે": 2436,
      "નિક": 2437,
      "સારા": 2438,
      "કોઈપણ": 2439,
      "નગર": 2440,
      "##કારો": 2441,
      "રાખી": 2442,
      "##માર": 2443,
      "##તરી": 2444,
      "વિધાન": 2445,
      "##િશન": 2446,
      "રકમ": 2447,
      "ખરીદી": 2448,
      "##કડી": 2449,
      "50": 2450,
      "આર્થ": 2451,
      "બાકી": 2452,
      "જમીન": 2453,
      "મેડ": 2454,
      "ત્રી": 2455,
      "દેવામાં": 2456,
      "અભિને": 2457,
      "મિન": 2458,
      "કિસ્": 2459,
      "ટૂ": 2460,
      "જણાવી": 2461,
      "આવતી": 2462,
      "##્રીમ": 2463,
      "ઘરમાં": 2464,
      "ચુક": 2465,
      "આધારે": 2466,
      "લાંબા": 2467,
      "ક્ષેત્ર": 2468,
      "##ળે": 2469,
      "સુવિધા": 2470,
      "વિરુ": 2471,
      "##વાળી": 2472,
      "સત્તા": 2473,
      "##ોર્મ": 2474,
      "ભાજપના": 2475,
      "કોરોનાના": 2476,
      "મૂક": 2477,
      "25": 2478,
      "ફરજ": 2479,
      "સુરક્ષા": 2480,
      "##શ્ય": 2481,
      "##ર્ન": 2482,
      "માગ": 2483,
      "14": 2484,
      "##રાશ": 2485,
      "દબ": 2486,
      "નિયમ": 2487,
      "ઓછી": 2488,
      "##ાયક": 2489,
      "સ્ત્રી": 2490,
      "લોકોના": 2491,
      "હોવાની": 2492,
      "પ્લે": 2493,
      "##ઠી": 2494,
      "##શું": 2495,
      "અડ": 2496,
      "વર": 2497,
      "મર": 2498,
      "##િસ્થ": 2499,
      "વિના": 2500,
      "ચિં": 2501,
      "વાંચ": 2502,
      "##પ્તા": 2503,
      "દેવ": 2504,
      "##તમાં": 2505,
      "પસાર": 2506,
      "લોકોની": 2507,
      "એન્ડ": 2508,
      "24": 2509,
      "બજાર": 2510,
      "ચિંતા": 2511,
      "પરિસ્થ": 2512,
      "શખ": 2513,
      "##ગ્": 2514,
      "લાલ": 2515,
      "અમેરિક": 2516,
      "રાહુલ": 2517,
      "##સમાં": 2518,
      "##ંમેશ": 2519,
      "કી": 2520,
      "કાયદા": 2521,
      "ભે": 2522,
      "મોટો": 2523,
      "આર્થિક": 2524,
      "સમાચાર": 2525,
      "##કર્": 2526,
      "કોલે": 2527,
      "સુંદર": 2528,
      "જિલ્લાના": 2529,
      "હંમેશ": 2530,
      "આનંદ": 2531,
      "સરળ": 2532,
      "અધ્યક્ષ": 2533,
      "##ાવ્યા": 2534,
      "##કના": 2535,
      "##રોજ": 2536,
      "મેં": 2537,
      "##ીય": 2538,
      "પુત્ર": 2539,
      "##ધ્": 2540,
      "##વાદી": 2541,
      "મોડ": 2542,
      "ચોક્": 2543,
      "આક": 2544,
      "શિવ": 2545,
      "નુકસાન": 2546,
      "ગેર": 2547,
      "નહિ": 2548,
      "યુવતી": 2549,
      "ગામમાં": 2550,
      "મહાન": 2551,
      "પ્રવેશ": 2552,
      "૧૨": 2553,
      "##રૂપ": 2554,
      "આદેશ": 2555,
      "##થો": 2556,
      "મક": 2557,
      "##es": 2558,
      "લોકડાઉ": 2559,
      "##સિ": 2560,
      "થયેલા": 2561,
      "મૂળ": 2562,
      "૧૫": 2563,
      "વિચ": 2564,
      "નિવેદ": 2565,
      "જોઇએ": 2566,
      "સાવ": 2567,
      "સ્થાપ": 2568,
      "##શ્મી": 2569,
      "##સિક": 2570,
      "13": 2571,
      "##ાયેલી": 2572,
      "##ષ્ય": 2573,
      "સાધ": 2574,
      "એપ": 2575,
      "રાશિ": 2576,
      "વિષ": 2577,
      "રાજ્યના": 2578,
      "##બુ": 2579,
      "સૈ": 2580,
      "મળ્યા": 2581,
      "##ફર": 2582,
      "##ાત્મ": 2583,
      "),": 2584,
      "##ાના": 2585,
      "##ઠવા": 2586,
      "રાખવામાં": 2587,
      "સ્ટા": 2588,
      "##ાલય": 2589,
      "હવા": 2590,
      "પરિસ્થિતિ": 2591,
      "ભાઈ": 2592,
      "દારૂ": 2593,
      "##શાન": 2594,
      "સહિતના": 2595,
      "##ન્ચ": 2596,
      "ઘટાડો": 2597,
      "વગેરે": 2598,
      "પામ": 2599,
      "સ્ટેશન": 2600,
      "નાગરિક": 2601,
      "સ્વી": 2602,
      "હાજર": 2603,
      "ખેલા": 2604,
      "##ાંતિ": 2605,
      "##મેન": 2606,
      "પંચાયત": 2607,
      "ગર્": 2608,
      "મંત્ર": 2609,
      "મંજૂરી": 2610,
      "બળ": 2611,
      "##an": 2612,
      "ખરીદ": 2613,
      "##પોર": 2614,
      "##તરમાં": 2615,
      "એક્સ": 2616,
      "કેટલીક": 2617,
      "ગૌ": 2618,
      "બહે": 2619,
      "ગુમ": 2620,
      "દૂધ": 2621,
      "ચોક્કસ": 2622,
      "##પૂર્વ": 2623,
      "લાઈ": 2624,
      "સભ્યો": 2625,
      "મેળવ": 2626,
      "વિરુદ્ધ": 2627,
      "ગૃ": 2628,
      "એન્ટ": 2629,
      "નહી": 2630,
      "##દન": 2631,
      "તારી": 2632,
      "કર્મચારીઓ": 2633,
      "મહારા": 2634,
      "સામેલ": 2635,
      "ખરાબ": 2636,
      "##શ્રી": 2637,
      "##on": 2638,
      "##ાત્મક": 2639,
      "ફક્ત": 2640,
      "કરીએ": 2641,
      "અહે": 2642,
      "##સવી": 2643,
      "નોટ": 2644,
      "સંભ": 2645,
      "##ાર્ડ": 2646,
      "કર્": 2647,
      "કિલો": 2648,
      "##સ્થાન": 2649,
      "##ાક": 2650,
      "શુભ": 2651,
      "##ાર્જ": 2652,
      "તાલુકાના": 2653,
      "ઉચ્ચ": 2654,
      "##ક્ષે": 2655,
      "તેવા": 2656,
      "જયારે": 2657,
      "##હરણ": 2658,
      "કોંગ્રેસના": 2659,
      "રાત્રે": 2660,
      "ઓન": 2661,
      "નદી": 2662,
      "ફોટો": 2663,
      "જેટલા": 2664,
      "દ્ર": 2665,
      "16": 2666,
      "ભગ": 2667,
      "ખાનગી": 2668,
      "મ્યુ": 2669,
      "૧૧": 2670,
      "##ક્ષિ": 2671,
      "મહારાષ્ટ્ર": 2672,
      "તસવી": 2673,
      "હોસ્પિટલ": 2674,
      "##ંજ": 2675,
      "##િત્રો": 2676,
      "##સ્માત": 2677,
      "##વારો": 2678,
      "પ્રકાશ": 2679,
      "પરત": 2680,
      "કોવિડ": 2681,
      "ધરી": 2682,
      "##રીમાં": 2683,
      "ડાય": 2684,
      "##ાર્ક": 2685,
      "ઈન્": 2686,
      "##રોમાં": 2687,
      "##ગો": 2688,
      "લીધા": 2689,
      "##તંત્ર": 2690,
      "##ડીયા": 2691,
      "ધર્મ": 2692,
      "##ન્ને": 2693,
      "100": 2694,
      "એડ": 2695,
      "કાળ": 2696,
      "##ખર": 2697,
      "##ારંભ": 2698,
      "કલે": 2699,
      "કેસમાં": 2700,
      "માર્કેટ": 2701,
      "##િટિવ": 2702,
      "બનાવવામાં": 2703,
      "અકસ્માત": 2704,
      "સાંજે": 2705,
      "કંઈ": 2706,
      "આવક": 2707,
      "નિર્મ": 2708,
      "અદ": 2709,
      "ઉલ્લેખનીય": 2710,
      "##ણમાં": 2711,
      "કાશ્મી": 2712,
      "મળ્યો": 2713,
      "ન્યૂ": 2714,
      "##ભર": 2715,
      "ડૉ": 2716,
      "ઘણ": 2717,
      "ધરાવે": 2718,
      "વ્યક્ત": 2719,
      "નું": 2720,
      "ગામના": 2721,
      "સાંભ": 2722,
      "વિશ્": 2723,
      "ક્યાં": 2724,
      "પરીક્ષા": 2725,
      "##નનો": 2726,
      "##િકો": 2727,
      "##ાઈલ": 2728,
      "વિસ્તારોમાં": 2729,
      "ધમ": 2730,
      "બાબત": 2731,
      "શહેરના": 2732,
      "શ્રેષ્ઠ": 2733,
      "ખેલાડી": 2734,
      "મનો": 2735,
      "##હાસ": 2736,
      "##લર": 2737,
      "સ્ટો": 2738,
      "સફળતા": 2739,
      "વિવાદ": 2740,
      "વધુમાં": 2741,
      "##થમિક": 2742,
      "વળ": 2743,
      "વાળ": 2744,
      "##ડક": 2745,
      "પ્રાથમિક": 2746,
      "##ઝી": 2747,
      "મુશ્કેલી": 2748,
      "અજ": 2749,
      "આસપાસ": 2750,
      "ઊંચ": 2751,
      "##્રેડ": 2752,
      "યોગ": 2753,
      "વર્ષના": 2754,
      "વિશેષ": 2755,
      "##દ્ધિ": 2756,
      "રાહત": 2757,
      "##િક્સ": 2758,
      "ખેતી": 2759,
      "ઉદ્યોગ": 2760,
      "##ંદર": 2761,
      "જૂના": 2762,
      "કૌ": 2763,
      "પ્રકારની": 2764,
      "લેખ": 2765,
      "##કામ": 2766,
      "રાજ્યો": 2767,
      "પહેલી": 2768,
      "##પોરે": 2769,
      "પોઝિટિવ": 2770,
      "જણાવ્યા": 2771,
      "વધાર": 2772,
      "ઓછા": 2773,
      "શૈ": 2774,
      "##લિયા": 2775,
      "##ડામાં": 2776,
      "##બ્ધ": 2777,
      "સ્વાસ્થ": 2778,
      "લક્ષ": 2779,
      "મિલ": 2780,
      "કર્મચારી": 2781,
      "##તાઓ": 2782,
      "જેની": 2783,
      "ઉપલ": 2784,
      "ચંદ": 2785,
      "##તિહાસ": 2786,
      "સંખ્યામાં": 2787,
      "જમ": 2788,
      "##િડ": 2789,
      "##ટમાં": 2790,
      "બદલ": 2791,
      "તાજે": 2792,
      "દિવસમાં": 2793,
      "નીતિ": 2794,
      "કાર્ડ": 2795,
      "દક્ષિ": 2796,
      "થયેલ": 2797,
      "સૂચ": 2798,
      "ડિઝ": 2799,
      "જોખ": 2800,
      "બહુ": 2801,
      "વ્યવસાય": 2802,
      "કિસ્સા": 2803,
      "##સ્તી": 2804,
      "અના": 2805,
      "ઓગ": 2806,
      "મોદીએ": 2807,
      "થતી": 2808,
      "રવ": 2809,
      "મિનિટ": 2810,
      "ડોલ": 2811,
      "નાણ": 2812,
      "અફ": 2813,
      "પશ્ચ": 2814,
      "કહેવામાં": 2815,
      "એપ્ર": 2816,
      "નાની": 2817,
      "સૂત્ર": 2818,
      "સેના": 2819,
      "૩૦": 2820,
      "કરા": 2821,
      "##કારક": 2822,
      "યુનિવ": 2823,
      "ખબર": 2824,
      "##કને": 2825,
      "ગુજરાતના": 2826,
      "કરનાર": 2827,
      "ગામે": 2828,
      "મોટાભાગ": 2829,
      "##વ્ય": 2830,
      "બ્રા": 2831,
      "##ાટ": 2832,
      "##ગરમાં": 2833,
      "પેટ્રોલ": 2834,
      "##સની": 2835,
      "એના": 2836,
      "સ્થિત": 2837,
      "##રાષ્ટ્ર": 2838,
      "##લ્લી": 2839,
      "પીએમ": 2840,
      "વિધાનસભા": 2841,
      "લડ": 2842,
      "મળ્યું": 2843,
      "આપ્યું": 2844,
      "મોટ": 2845,
      "શબ્": 2846,
      "##ઉન્ડ": 2847,
      "મજબૂત": 2848,
      "મહામારી": 2849,
      "રણ": 2850,
      "શુક્ર": 2851,
      "પ્રોજે": 2852,
      "##્યાન": 2853,
      "##સ્ટમ": 2854,
      "વેચાણ": 2855,
      "મંગળ": 2856,
      "જાણકારી": 2857,
      "##ટિંગ": 2858,
      "સ્વાસ્થ્ય": 2859,
      "ધ્યાનમાં": 2860,
      "પૂરી": 2861,
      "થવાની": 2862,
      "વર્ષથી": 2863,
      "17": 2864,
      "##લેન્ડ": 2865,
      "##સના": 2866,
      "##હન": 2867,
      "ઉંમ": 2868,
      "બદલે": 2869,
      "ઉપલબ્ધ": 2870,
      "લાઇ": 2871,
      "કાં": 2872,
      "બંગ": 2873,
      "##કટર": 2874,
      "ગુણ": 2875,
      "અઠવા": 2876,
      "વિશ": 2877,
      "##ાતી": 2878,
      "જગ્યાએ": 2879,
      "તી": 2880,
      "વાં": 2881,
      "મેને": 2882,
      "યાત": 2883,
      "##ંડા": 2884,
      "બાબતે": 2885,
      "ઉત્પાદન": 2886,
      "ઓફિસ": 2887,
      "આત્મ": 2888,
      "મગ": 2889,
      "##ફિક": 2890,
      "##રીને": 2891,
      "લીધે": 2892,
      "##હા": 2893,
      "ક્વ": 2894,
      "##ભરમાં": 2895,
      "##દિક": 2896,
      "તેલ": 2897,
      "રાષ્ટ્રીય": 2898,
      "પૈકી": 2899,
      "હળ": 2900,
      "##ચ્છા": 2901,
      "વલ": 2902,
      "##જ્ઞાન": 2903,
      "દક્ષિણ": 2904,
      "##દ્ર": 2905,
      "અંતિમ": 2906,
      "હુમલા": 2907,
      "##ૃત્તિ": 2908,
      "##ર્સિટી": 2909,
      "આરોપ": 2910,
      "સુપ": 2911,
      "##સુ": 2912,
      "કોર્ટે": 2913,
      "##મન": 2914,
      "##લેટ": 2915,
      "ગાંધીનગર": 2916,
      "ગુરુ": 2917,
      "ફેરફ": 2918,
      "##or": 2919,
      "ભારતના": 2920,
      "હંમેશા": 2921,
      "ગૃહ": 2922,
      "જંગ": 2923,
      "રેડ": 2924,
      "શકશે": 2925,
      "આપણા": 2926,
      "##યર": 2927,
      "##શિયા": 2928,
      "##િકાર": 2929,
      "##કરો": 2930,
      "રવિવ": 2931,
      "મિત્રો": 2932,
      "હિં": 2933,
      "શક્તિ": 2934,
      "પ્રકારના": 2935,
      "પ્રતિબંધ": 2936,
      "લક્ષણ": 2937,
      "##વલ": 2938,
      "સ્ટાફ": 2939,
      "સંચાલ": 2940,
      "કોલ": 2941,
      "આશા": 2942,
      "વિપ": 2943,
      "##ધ્ધ": 2944,
      "રાજકીય": 2945,
      "આપતા": 2946,
      "પાકિસ્તાન": 2947,
      "પાં": 2948,
      "##બંધી": 2949,
      "પાલન": 2950,
      "બિલ": 2951,
      "21": 2952,
      "##રાજ": 2953,
      "સંઘ": 2954,
      "અમારી": 2955,
      "સાય": 2956,
      "આખ": 2957,
      "દીધો": 2958,
      "સવાર": 2959,
      "પ્રશ": 2960,
      "સામનો": 2961,
      "દિશ": 2962,
      "કરાવ": 2963,
      "##પ્ટે": 2964,
      "શખ્સ": 2965,
      "##એલ": 2966,
      "અગ્ર": 2967,
      "૧૮": 2968,
      "યુનિવર્સિટી": 2969,
      "થોડ": 2970,
      "નિયમો": 2971,
      "ચોરી": 2972,
      "##જના": 2973,
      "ડા": 2974,
      "નાં": 2975,
      "ધરાવતા": 2976,
      "નીકળ": 2977,
      "##કાં": 2978,
      "##નિંગ": 2979,
      "સૌરાષ્ટ્ર": 2980,
      "તેનાથી": 2981,
      "તબક્": 2982,
      "નવે": 2983,
      "કેન્દ": 2984,
      "મુસા": 2985,
      "##સ્વી": 2986,
      "માર્ચ": 2987,
      "રેલવે": 2988,
      "પ્રદર્શન": 2989,
      "સફળ": 2990,
      "દાવો": 2991,
      "સપ્ટે": 2992,
      "સચ": 2993,
      "જાળ": 2994,
      "મોકલ": 2995,
      "##વવામાં": 2996,
      "આંદ": 2997,
      "નોંધાયા": 2998,
      "##en": 2999,
      "યુવા": 3000,
      "જાન્યુ": 3001,
      "સ્પર્": 3002,
      "વાયરલ": 3003,
      "રાજય": 3004,
      "વાહન": 3005,
      "##ંડી": 3006,
      "ધારાસભ્ય": 3007,
      "##ાવીને": 3008,
      "નજર": 3009,
      "બનાવે": 3010,
      "મથ": 3011,
      "માનવામાં": 3012,
      "##્યાય": 3013,
      "##લોજી": 3014,
      "##લાવી": 3015,
      "સમાન": 3016,
      "કરવાના": 3017,
      "ગુનો": 3018,
      "##કાલે": 3019,
      "હી": 3020,
      "આંતર": 3021,
      "ચિ": 3022,
      "ફળ": 3023,
      "ફરીથી": 3024,
      "##વડ": 3025,
      "હુમલો": 3026,
      "બન્ને": 3027,
      "સંક્રમણ": 3028,
      "પશ્ચિમ": 3029,
      "નાર": 3030,
      "ડિસે": 3031,
      "સપા": 3032,
      "ગરમ": 3033,
      "સંત": 3034,
      "શાક": 3035,
      "માટેની": 3036,
      "##ઝર": 3037,
      "અમારા": 3038,
      "સૂર": 3039,
      "##કરા": 3040,
      "પ્રય": 3041,
      "રાખવા": 3042,
      "રચના": 3043,
      "##લાલ": 3044,
      "પ્રારંભ": 3045,
      "##રેલી": 3046,
      "હકી": 3047,
      "જુઓ": 3048,
      "##સ્થિત": 3049,
      "##ક્ટો": 3050,
      "અનુભવ": 3051,
      "##ત્ત": 3052,
      "સંગઠ": 3053,
      "પ્રયત્": 3054,
      "##લ્ટ": 3055,
      "નાણા": 3056,
      "બુધ": 3057,
      "જાન્યુઆરી": 3058,
      "##ેશનલ": 3059,
      "જાણો": 3060,
      "દરમ્યાન": 3061,
      "૧૪": 3062,
      "##ઝને": 3063,
      "પસંદગી": 3064,
      "કચ્છ": 3065,
      "દર્દીઓ": 3066,
      "સલાહ": 3067,
      "આઠ": 3068,
      "વર્ષમાં": 3069,
      "જ્": 3070,
      "સમર્થ": 3071,
      "##પ્રિય": 3072,
      "તારીખ": 3073,
      "સબ": 3074,
      "##ફ્ર": 3075,
      "ચમ": 3076,
      "##દર્શ": 3077,
      "જામનગર": 3078,
      "##બિત": 3079,
      "એવો": 3080,
      "ગી": 3081,
      "##ઉટ": 3082,
      "કરેલ": 3083,
      "આંદોલ": 3084,
      "##િગ": 3085,
      "મુસાફ": 3086,
      "વ્": 3087,
      "સારું": 3088,
      "મંડ": 3089,
      "ડેટ": 3090,
      "##ુટ": 3091,
      "##કાળ": 3092,
      "લાગુ": 3093,
      "મુદ્દે": 3094,
      "વિગ": 3095,
      "પ્રસંગ": 3096,
      "બાંધ": 3097,
      "ઝડપથી": 3098,
      "કબ": 3099,
      "શર્": 3100,
      "##ડાના": 3101,
      "જતાં": 3102,
      "ફ્ર": 3103,
      "##ઝન": 3104,
      "##ેશનમાં": 3105,
      "સેન્ટ": 3106,
      "કચે": 3107,
      "પોતે": 3108,
      "વર્લ્ડ": 3109,
      "જનતા": 3110,
      "##યું": 3111,
      "વાતચી": 3112,
      "##િજ": 3113,
      "શક્યતા": 3114,
      "બિન": 3115,
      "ભાવનગર": 3116,
      "કેન્દ્રીય": 3117,
      "રાજસ્થાન": 3118,
      "મેળવવા": 3119,
      "##કનો": 3120,
      "##િયાત": 3121,
      "કૉ": 3122,
      "##લિક": 3123,
      "ટેક્સ": 3124,
      "તાપ": 3125,
      "##વાઇ": 3126,
      "લખ્યું": 3127,
      "મતદાન": 3128,
      "##્વર": 3129,
      "વિદ્યાર્થીઓ": 3130,
      "માનવ": 3131,
      "થયેલી": 3132,
      "##ટેડ": 3133,
      "છોકરી": 3134,
      "વાતાવ": 3135,
      "ફેબ્ર": 3136,
      "##ભાવના": 3137,
      "##વર્": 3138,
      "શનિવ": 3139,
      "000": 3140,
      "ઓપ": 3141,
      "મહત્": 3142,
      ".’": 3143,
      "##ાને": 3144,
      "વાતાવરણ": 3145,
      "જાગ": 3146,
      "પશુ": 3147,
      "બધી": 3148,
      "ભુ": 3149,
      "##પૂર": 3150,
      "તળ": 3151,
      "વાગ્યા": 3152,
      "તેવું": 3153,
      "મળતી": 3154,
      "સોના": 3155,
      "##સાયટી": 3156,
      "વાર્": 3157,
      "રહેલી": 3158,
      "##પાલિકા": 3159,
      "આટ": 3160,
      "મિશ": 3161,
      "##તાર": 3162,
      "સોસાયટી": 3163,
      "મહિનામાં": 3164,
      "##લાઇન": 3165,
      "ચૌ": 3166,
      "હાર્": 3167,
      "મંત્રાલય": 3168,
      "એપ્રિલ": 3169,
      "ઘટ": 3170,
      "સુપ્રીમ": 3171,
      "##ષ્ટિ": 3172,
      "##ોથી": 3173,
      "આપ્યા": 3174,
      "તૈયારી": 3175,
      "વીજ": 3176,
      "અચ": 3177,
      "સહાય": 3178,
      "ઝો": 3179,
      "##મતી": 3180,
      "કહેવાય": 3181,
      "દંડ": 3182,
      "ફિલ્મો": 3183,
      "પકડ": 3184,
      "##ધાર": 3185,
      "વધારા": 3186,
      "##મની": 3187,
      "##સ્ટ્રે": 3188,
      "##મ્સ": 3189,
      "દીકરી": 3190,
      "ઉજવણી": 3191,
      "સિવ": 3192,
      "સપ્તા": 3193,
      "##એફ": 3194,
      "ખોરા": 3195,
      "ઉદા": 3196,
      "જુદા": 3197,
      "પાવ": 3198,
      "##ક્ષી": 3199,
      "ફાયર": 3200,
      "ક્યારેય": 3201,
      "તાજેતરમાં": 3202,
      "સમિતિ": 3203,
      "નિષ્": 3204,
      "નિર્માણ": 3205,
      "ઉદાહરણ": 3206,
      "હકીકત": 3207,
      "કું": 3208,
      "##રીયા": 3209,
      "##પક": 3210,
      "પોલીસને": 3211,
      "દેખા": 3212,
      "સાબિત": 3213,
      "કરવાથી": 3214,
      "ઇન્ટ": 3215,
      "સરકારના": 3216,
      "વિગતો": 3217,
      "##ભાજી": 3218,
      "આપશે": 3219,
      "ચીન": 3220,
      "એજન્સી": 3221,
      "સન્": 3222,
      "માલિક": 3223,
      "##ુકાન": 3224,
      "અંક": 3225,
      "એને": 3226,
      "કાન": 3227,
      "##ડની": 3228,
      "સમુ": 3229,
      "નાણાં": 3230,
      "હૈ": 3231,
      "અમદાવાદમાં": 3232,
      "ખસે": 3233,
      "મકાન": 3234,
      "વેબ": 3235,
      "##ભાર": 3236,
      "##મના": 3237,
      "પ્રભાવ": 3238,
      "સાઇ": 3239,
      "અનુભ": 3240,
      "છોડી": 3241,
      "ચેર": 3242,
      "ચુ": 3243,
      "અમિત": 3244,
      "વિદેશી": 3245,
      "શર્મા": 3246,
      "##ઓનું": 3247,
      "વિશ્વાસ": 3248,
      "##િટર": 3249,
      "પહેર": 3250,
      "સરકારની": 3251,
      "##સ્ત્ર": 3252,
      "પાડી": 3253,
      "ફૂ": 3254,
      "સ્તર": 3255,
      "વેક્સ": 3256,
      "આંખ": 3257,
      "ભાગી": 3258,
      "40": 3259,
      "સ્થળે": 3260,
      "વાહનો": 3261,
      "કોર્ટમાં": 3262,
      "આકર્ષ": 3263,
      "##નારી": 3264,
      "અમુક": 3265,
      "બાર": 3266,
      "આગે": 3267,
      "અંતર્": 3268,
      "આતંક": 3269,
      "ઓગસ્ટ": 3270,
      "જેટલી": 3271,
      "જળ": 3272,
      "તબી": 3273,
      "કોરોનાની": 3274,
      "##ટરી": 3275,
      "##ાયલ": 3276,
      "##કોર": 3277,
      "પ્રિય": 3278,
      "ઉત્સ": 3279,
      "##ધુ": 3280,
      "દબાણ": 3281,
      "##ઢી": 3282,
      "સિસ્ટમ": 3283,
      "22": 3284,
      "વજન": 3285,
      "પોતાનો": 3286,
      "પ્રોજેક્ટ": 3287,
      "યાત્રા": 3288,
      "ઉર્": 3289,
      "તક": 3290,
      "પુરુ": 3291,
      "ચહે": 3292,
      "ફટ": 3293,
      "હજી": 3294,
      "##તરા": 3295,
      "વર્ત": 3296,
      "સ્માર્ટ": 3297,
      "##યે": 3298,
      "સિવિલ": 3299,
      "ચક": 3300,
      "પુસ્ત": 3301,
      "ઇન્ડિયા": 3302,
      "અંતર્ગત": 3303,
      "સમયથી": 3304,
      "##ડર": 3305,
      "##ખંડ": 3306,
      "##કોર્ડ": 3307,
      "શરીર": 3308,
      "##ક્સી": 3309,
      "થોડી": 3310,
      "જિ": 3311,
      "કર્યુ": 3312,
      "પ્રવાસ": 3313,
      "##ાનક": 3314,
      "દર્શન": 3315,
      "કમિશન": 3316,
      "પાઠ": 3317,
      "મંદિ": 3318,
      "##પ્રદેશ": 3319,
      ".\"": 3320,
      "કરાવી": 3321,
      "આપવાની": 3322,
      "##ઝા": 3323,
      "બન્યા": 3324,
      "##નામાં": 3325,
      "##વાડી": 3326,
      "##લ્લ": 3327,
      "સુપર": 3328,
      "ગરી": 3329,
      "##દય": 3330,
      "##સ્તવ": 3331,
      "યાદી": 3332,
      "વર્ગ": 3333,
      "બાળકોને": 3334,
      "ઉકે": 3335,
      "કુમાર": 3336,
      "શંકા": 3337,
      "##ષિ": 3338,
      "લૂ": 3339,
      "વોર્ડ": 3340,
      "માધ્ય": 3341,
      "ચૂંટણીમાં": 3342,
      "ભોગ": 3343,
      "સિક": 3344,
      "સિં": 3345,
      "ચાં": 3346,
      "##પૂર્વક": 3347,
      "ધન": 3348,
      "ભય": 3349,
      "##કિંગ": 3350,
      "નિયંત્ર": 3351,
      "જવાબદારી": 3352,
      "રાષ્ટ્રપતિ": 3353,
      "##કારાત્મક": 3354,
      "શાંતિ": 3355,
      "##ડાં": 3356,
      "##કિત": 3357,
      "ધોરણ": 3358,
      "કલાકમાં": 3359,
      "પંજા": 3360,
      "ટીવી": 3361,
      "લોકપ્રિય": 3362,
      "૨૫": 3363,
      "રૂપાણી": 3364,
      "સંપર્ક": 3365,
      "##રોને": 3366,
      "હેલ્": 3367,
      "કહેવું": 3368,
      "##ાસ્ટ": 3369,
      "એફ": 3370,
      "૧૩": 3371,
      "##નગરમાં": 3372,
      "રાખો": 3373,
      "બેઠકો": 3374,
      "##ાયણ": 3375,
      "##ાગ્ર": 3376,
      "પહોંચ્યા": 3377,
      "અક્ષ": 3378,
      "##ાળામાં": 3379,
      "બીજ": 3380,
      "2020": 3381,
      "હાર્દિક": 3382,
      "##સાઈ": 3383,
      "ખેંચ": 3384,
      "કરાઈ": 3385,
      "નિવેદન": 3386,
      "એવ": 3387,
      "##ન્ડર": 3388,
      "##ભો": 3389,
      "મૂકી": 3390,
      "રેકોર્ડ": 3391,
      "માસ્ક": 3392,
      "પરેશ": 3393,
      "બજેટ": 3394,
      "અમને": 3395,
      "બોલી": 3396,
      "ટિક": 3397,
      "##રીના": 3398,
      "મુશ્કેલ": 3399,
      "શરુ": 3400,
      "અભિનેત્રી": 3401,
      "ભગવાન": 3402,
      "##ટેલે": 3403,
      "એચ": 3404,
      "##ફળ": 3405,
      "##al": 3406,
      "દેવા": 3407,
      "આવું": 3408,
      "ટ્રાન્સ": 3409,
      "##વારી": 3410,
      "સામગ્રી": 3411,
      "જીલ્લા": 3412,
      "પ્રમાણમાં": 3413,
      "દઈ": 3414,
      "કરતો": 3415,
      "તેમનું": 3416,
      "બતા": 3417,
      "પૂજા": 3418,
      "સંબંધિત": 3419,
      "ઉમેદવારો": 3420,
      "કેન્સ": 3421,
      "સોમવારે": 3422,
      "સપાટી": 3423,
      "##ોષ": 3424,
      "##લાઈન": 3425,
      "શાકભાજી": 3426,
      "##તના": 3427,
      "##જની": 3428,
      "ઝા": 3429,
      "રહેવા": 3430,
      "ઓક્ટો": 3431,
      "બધું": 3432,
      "મિત્ર": 3433,
      "##ક્રિય": 3434,
      "ભવિ": 3435,
      "વિકેટ": 3436,
      "પુરુષ": 3437,
      "ખરે": 3438,
      "##ક્ષિત": 3439,
      "યુવાન": 3440,
      "૧૬": 3441,
      "2019": 3442,
      "સ્વાદ": 3443,
      "તેમનો": 3444,
      "રાખીને": 3445,
      "ફેબ્રુ": 3446,
      "જઇ": 3447,
      "નામે": 3448,
      "રાખે": 3449,
      "સારો": 3450,
      "સોલ": 3451,
      "સવાલ": 3452,
      "##સ્ટ્રી": 3453,
      "દુર્": 3454,
      "##યુક્ત": 3455,
      "નેશનલ": 3456,
      "પ્રતિક": 3457,
      "##ગ્રામ": 3458,
      "ભવિષ્ય": 3459,
      "##ંવાર": 3460,
      "##્યાલ": 3461,
      "વારંવાર": 3462,
      "##ાઇટ": 3463,
      "૫૦": 3464,
      "##બજ": 3465,
      "સેલ": 3466,
      "##તાની": 3467,
      "આંગ": 3468,
      "##દના": 3469,
      "##ડાની": 3470,
      "##યોગી": 3471,
      "નીક": 3472,
      "##ષા": 3473,
      "સંભાવના": 3474,
      "પાટ": 3475,
      "ઘટી": 3476,
      "ગુજરાતી": 3477,
      "દુકાન": 3478,
      "##્રમ": 3479,
      "ભૂમ": 3480,
      "પોતાનું": 3481,
      "ક્ષમતા": 3482,
      "પટેલે": 3483,
      "##િના": 3484,
      "ફેબ્રુઆરી": 3485,
      "ગાય": 3486,
      "દેશની": 3487,
      "ભારતની": 3488,
      "કરાયો": 3489,
      "##ાજા": 3490,
      "જથ્": 3491,
      "##ન્ટે": 3492,
      "દીધું": 3493,
      "જીવનમાં": 3494,
      "##રમ": 3495,
      "પાટી": 3496,
      "હાઉ": 3497,
      "##ારું": 3498,
      "એક્": 3499,
      "##લેશ": 3500,
      "##ડમાં": 3501,
      "જવાનો": 3502,
      "##માસ": 3503,
      "ખાલી": 3504,
      "પ્રત્યે": 3505,
      "દા": 3506,
      "##બાર": 3507,
      "##ડતા": 3508,
      "યુવાનો": 3509,
      "લાગણી": 3510,
      "કેર": 3511,
      "##તામાં": 3512,
      "##ાવત": 3513,
      "૨૦૨": 3514,
      "સપ્ટેમ્બર": 3515,
      "##લામાં": 3516,
      "##રાના": 3517,
      "ટ્રમ્પ": 3518,
      "કોમ": 3519,
      "બાદમાં": 3520,
      "લોકડાઉન": 3521,
      "સન્માન": 3522,
      "ચંદ્ર": 3523,
      "##ક્રો": 3524,
      "દીધા": 3525,
      "નામના": 3526,
      "કંપનીઓ": 3527,
      "બ્લ": 3528,
      "લોકસભા": 3529,
      "મહત્વપૂર્ણ": 3530,
      "##કાનો": 3531,
      "મૂલ": 3532,
      "ઉપસ્થિત": 3533,
      "સર્વે": 3534,
      "##ચો": 3535,
      "યુન": 3536,
      "કદા": 3537,
      "ધંધ": 3538,
      "પ્રોડ": 3539,
      "##ાવવાની": 3540,
      "તેઓએ": 3541,
      "સજા": 3542,
      "##ાજિક": 3543,
      "##િબ": 3544,
      "કહ્યુ": 3545,
      "જમ્": 3546,
      "##હોલ": 3547,
      "સર્વ": 3548,
      "પુન": 3549,
      "ઓસ્ટ્રે": 3550,
      "##રબ": 3551,
      "સ્ત": 3552,
      "સપ્તાહ": 3553,
      "વસ્તુઓ": 3554,
      "ઉમ": 3555,
      "તેજ": 3556,
      "##લીમ": 3557,
      "તાલ": 3558,
      "નેટ": 3559,
      "કેપ્ટ": 3560,
      "માથા": 3561,
      "##શીલ": 3562,
      "તહે": 3563,
      "વાસ્તવ": 3564,
      "ફેસ": 3565,
      "ફેરફાર": 3566,
      "આશરે": 3567,
      "કદાચ": 3568,
      "૧૭": 3569,
      "હોમ": 3570,
      "રૃ": 3571,
      "રજા": 3572,
      "રમત": 3573,
      "##હર": 3574,
      "બિલ્": 3575,
      "ધીમે": 3576,
      "એટલું": 3577,
      "સ્થિતિમાં": 3578,
      "કાલ": 3579,
      "પ્રભ": 3580,
      "સલ": 3581,
      "##પજ": 3582,
      "જાણે": 3583,
      "આક્ષે": 3584,
      "વહી": 3585,
      "વેર": 3586,
      "ઉમેદવાર": 3587,
      "અપી": 3588,
      "રજૂઆત": 3589,
      "દોડ": 3590,
      "સંશો": 3591,
      "##દીપ": 3592,
      "કુદર": 3593,
      "ડોલર": 3594,
      "સ્કૂ": 3595,
      "ઝી": 3596,
      "##તની": 3597,
      "##તાના": 3598,
      "##સ્તો": 3599,
      "કઈ": 3600,
      "##અલ": 3601,
      "ખરેખર": 3602,
      "ભૂમિકા": 3603,
      "એની": 3604,
      "##તિક": 3605,
      "##્વે": 3606,
      "અખ": 3607,
      "બેઠકમાં": 3608,
      "કાપ": 3609,
      "બદલી": 3610,
      "આંકડા": 3611,
      "સંજય": 3612,
      "ટ્વી": 3613,
      "રવિવારે": 3614,
      "##પત્ર": 3615,
      "જ્ઞ": 3616,
      "માળ": 3617,
      "મેડિકલ": 3618,
      "તાત્": 3619,
      "મહા": 3620,
      "ડિગ્રી": 3621,
      "મહિલાઓ": 3622,
      "મુસ્": 3623,
      "કોલેજ": 3624,
      "મિશ્ર": 3625,
      "શાસ": 3626,
      "##િફ": 3627,
      "અત્યારે": 3628,
      "##ટની": 3629,
      "##તાને": 3630,
      "ન્યુ": 3631,
      "નર્મ": 3632,
      "કોન્": 3633,
      "સાંસદ": 3634,
      "ગાડી": 3635,
      "તુ": 3636,
      "##ાદી": 3637,
      "ધમકી": 3638,
      "વર્ષીય": 3639,
      "##કોની": 3640,
      "એકાઉ": 3641,
      "##કામાં": 3642,
      "બનશે": 3643,
      "બિઝને": 3644,
      "તાપમાન": 3645,
      "કોર્પોર": 3646,
      "##વાલો": 3647,
      "માણસ": 3648,
      "ટુ": 3649,
      "વેપારી": 3650,
      "##ઝો": 3651,
      "##ic": 3652,
      "લગ્": 3653,
      "##દ્ધતિ": 3654,
      "##દાય": 3655,
      "જાડે": 3656,
      "ફ્રે": 3657,
      "પાન": 3658,
      "##વાહ": 3659,
      "##ર્વે": 3660,
      "જોર": 3661,
      "સમી": 3662,
      "૨૪": 3663,
      "##ગુ": 3664,
      "##ૈયા": 3665,
      "શકી": 3666,
      "નાય": 3667,
      "##પાત્ર": 3668,
      "સુખ": 3669,
      "મળતા": 3670,
      "છૂટ": 3671,
      "##ડવામાં": 3672,
      "દિવસોમાં": 3673,
      "ખુશ": 3674,
      "મેનેજ": 3675,
      "એકાઉન્ટ": 3676,
      "##્રહ": 3677,
      "##વિંદ": 3678,
      "ડોઝ": 3679,
      "##ઠ્": 3680,
      "બોલિવ": 3681,
      "પાર્ક": 3682,
      "અચાનક": 3683,
      "##રામ": 3684,
      "મુંબઇ": 3685,
      "##પુરા": 3686,
      "પ્રશ્નો": 3687,
      "ચાર્જ": 3688,
      "પૃ": 3689,
      "##કુમાર": 3690,
      "##ાંગ": 3691,
      "ભાગમાં": 3692,
      "જાડેજા": 3693,
      "##ગ્ન": 3694,
      "હોવાનો": 3695,
      "પરંપ": 3696,
      "એકવાર": 3697,
      "પગલાં": 3698,
      "ફોર્મ": 3699,
      "સક્રિય": 3700,
      "હિન્દ": 3701,
      "##ૂળ": 3702,
      "કારણો": 3703,
      "વૃક્ષ": 3704,
      "વિષય": 3705,
      "નબ": 3706,
      "##st": 3707,
      "##વાજ": 3708,
      "કડક": 3709,
      "અપીલ": 3710,
      "23": 3711,
      "બ્રે": 3712,
      "લેતા": 3713,
      "ભોજન": 3714,
      "##ેલો": 3715,
      "##ણને": 3716,
      "ટ્રેન": 3717,
      "પદ્ધતિ": 3718,
      "##સમ": 3719,
      "##રેજ": 3720,
      "ખેડૂત": 3721,
      "ફંડ": 3722,
      "##ફોન": 3723,
      "રજુ": 3724,
      "વાતચીત": 3725,
      "આથી": 3726,
      "વાઇ": 3727,
      "આઉટ": 3728,
      "ક્લા": 3729,
      "શ્": 3730,
      "##મદ": 3731,
      "##રીઝ": 3732,
      "##ધામ": 3733,
      "વાઘ": 3734,
      "ટ્રસ્ટ": 3735,
      "ગરમી": 3736,
      "અંદાજ": 3737,
      "બીમ": 3738,
      "વાગ્યે": 3739,
      "દેખાય": 3740,
      "##ed": 3741,
      "##મેટ": 3742,
      "ટ્રાફિક": 3743,
      "લગાવી": 3744,
      "મહેસ": 3745,
      "અઠવાડિયા": 3746,
      "##લીઝ": 3747,
      "સામાજિક": 3748,
      "##ર્જી": 3749,
      "નિષ્ણ": 3750,
      "26": 3751,
      "હેર": 3752,
      "##ચન": 3753,
      "પ્રશ્ન": 3754,
      "સૂર્ય": 3755,
      "##ર્તિ": 3756,
      "માસ": 3757,
      "ખી": 3758,
      "પ્રગ": 3759,
      "સરકારને": 3760,
      "માન્ય": 3761,
      "શુક્રવારે": 3762,
      "પ્રજા": 3763,
      "સંતા": 3764,
      "કાઉ": 3765,
      "કલમ": 3766,
      "##it": 3767,
      "માનસિક": 3768,
      "ફાળ": 3769,
      "##ભૂ": 3770,
      "જોડા": 3771,
      "સિદ્ધ": 3772,
      "એરપોર્ટ": 3773,
      "જૂનાગઢ": 3774,
      "બંગાળ": 3775,
      "સ્વીકાર": 3776,
      "ડિસેમ્બર": 3777,
      "પંજાબ": 3778,
      "##મું": 3779,
      "##કોએ": 3780,
      "મીઠ": 3781,
      "તરત": 3782,
      "શનિવારે": 3783,
      "એકબી": 3784,
      "ધરાવ": 3785,
      "સંપૂર્ણપણે": 3786,
      "હવામાન": 3787,
      "માંડ": 3788,
      "મળીને": 3789,
      "કરાશે": 3790,
      "##ફા": 3791,
      "##ન્ય": 3792,
      "સભ્ય": 3793,
      "31": 3794,
      "પડ્યો": 3795,
      "સંભાળ": 3796,
      "જૈ": 3797,
      "2021": 3798,
      "ઈન્ડિયા": 3799,
      "વર્તમાન": 3800,
      "કરનારા": 3801,
      "મોટાભાગના": 3802,
      "૨૦૦": 3803,
      "પાણીની": 3804,
      "મર્યા": 3805,
      "અતિ": 3806,
      "નમ": 3807,
      "##રવ": 3808,
      "કોહ": 3809,
      "##સ્ટર": 3810,
      "ફિલ્મમાં": 3811,
      "##લેક્ટ": 3812,
      ".”": 3813,
      "અંબ": 3814,
      "છૂ": 3815,
      "લોકોમાં": 3816,
      "ચેક": 3817,
      "ત્વ": 3818,
      "ત્રણે": 3819,
      "પ્રવાસી": 3820,
      "પીડ": 3821,
      "મશી": 3822,
      "મોકલી": 3823,
      "યુદ્ધ": 3824,
      "પ્રવૃત્તિ": 3825,
      "વિશાળ": 3826,
      "કેપ્ટન": 3827,
      "સદી": 3828,
      "ફાયદો": 3829,
      "લક્ષણો": 3830,
      "28": 3831,
      "##િની": 3832,
      "ટીમે": 3833,
      "જમ્મુ": 3834,
      "વાન": 3835,
      "##ંસ": 3836,
      "કેમ્પ": 3837,
      "ચલાવ": 3838,
      "##એન": 3839,
      "##પંચ": 3840,
      "ચેપ": 3841,
      "સ્વામી": 3842,
      "##બૂ": 3843,
      "દિવાળી": 3844,
      "મોબાઈલ": 3845,
      "##ાંક": 3846,
      "મુદ્દા": 3847,
      "કૃષિ": 3848,
      "સગ": 3849,
      "હોવાના": 3850,
      "બાળકી": 3851,
      "આરામ": 3852,
      "એકબીજા": 3853,
      "ફૂટ": 3854,
      "##ન્ના": 3855,
      "દરરોજ": 3856,
      "પાછા": 3857,
      "વેપાર": 3858,
      "##લિત": 3859,
      "ખાતરી": 3860,
      "શબ્દ": 3861,
      "નર્મદા": 3862,
      "##દેવ": 3863,
      "રદ": 3864,
      "ડીઝ": 3865,
      "આતંકી": 3866,
      "##ing": 3867,
      "કિસ્સામાં": 3868,
      "કચેરી": 3869,
      "##ઘાત": 3870,
      "ચેરમેન": 3871,
      "વકી": 3872,
      "માંથી": 3873,
      "બુધવારે": 3874,
      "સંદર્": 3875,
      "જોખમ": 3876,
      "કંટ": 3877,
      "ટેલ": 3878,
      "##રિયા": 3879,
      "##ઇન્ટ": 3880,
      "આધારિત": 3881,
      "સેક": 3882,
      "નવેમ્બર": 3883,
      "તાલુકામાં": 3884,
      "ઘણાં": 3885,
      "ઓક્સ": 3886,
      "સેટ": 3887,
      "##ડુ": 3888,
      "##ીક": 3889,
      "##કાય": 3890,
      "##ાઇમ": 3891,
      "હેતુ": 3892,
      "સૂચના": 3893,
      "એન્": 3894,
      "જમા": 3895,
      "ભલા": 3896,
      "કેમે": 3897,
      "બર": 3898,
      "મના": 3899,
      "##ભૂત": 3900,
      "પર્ય": 3901,
      "જુલાઈ": 3902,
      "કોણ": 3903,
      "##રાષ્ટ્રીય": 3904,
      "અહેવાલ": 3905,
      "##રત": 3906,
      "##ઇન": 3907,
      "##લીમાં": 3908,
      "ધાર": 3909,
      "##મીટર": 3910,
      "પાલિકા": 3911,
      "##પાન": 3912,
      "યૂ": 3913,
      "##વિસ": 3914,
      "ખોરાક": 3915,
      "મોંઘ": 3916,
      "શીખ": 3917,
      "મોહ": 3918,
      "નવો": 3919,
      "સ્ટેટ": 3920,
      "એટલા": 3921,
      "બ્લે": 3922,
      "રાવ": 3923,
      "શકતા": 3924,
      "મંગળવારે": 3925,
      "લોન": 3926,
      "પુત્રી": 3927,
      "સંદર્ભ": 3928,
      "##િત્વ": 3929,
      "##્રીન": 3930,
      "દઈએ": 3931,
      "માહોલ": 3932,
      "કોહલી": 3933,
      "આર્": 3934,
      "ઇન": 3935,
      "##ડિંગ": 3936,
      "ગોઠ": 3937,
      "વેક્સિન": 3938,
      "##લુ": 3939,
      "પ્રેર": 3940,
      "##રાની": 3941,
      "બજારમાં": 3942,
      "વાતો": 3943,
      "વિભાગના": 3944,
      "વાઈ": 3945,
      "સુના": 3946,
      "##ડીયો": 3947,
      "સરખ": 3948,
      "શોધી": 3949,
      "માટેના": 3950,
      "##સેના": 3951,
      "મેચમાં": 3952,
      "થતો": 3953,
      "હાર": 3954,
      "##જનક": 3955,
      "##તરણ": 3956,
      "મદદથી": 3957,
      "પ્લાન્ટ": 3958,
      "ગ્રે": 3959,
      "દસ": 3960,
      "પર્વ": 3961,
      "##ગામ": 3962,
      "કેસો": 3963,
      "દિલ્હીમાં": 3964,
      "ગણતરી": 3965,
      "પકડી": 3966,
      "સ્ના": 3967,
      "ડિસ્": 3968,
      "સાફ": 3969,
      "##દ્દ": 3970,
      "ફાયદા": 3971,
      "ઓસ્ટ્રેલિયા": 3972,
      "વય": 3973,
      "##ળું": 3974,
      "##શ્યક": 3975,
      "૨૧": 3976,
      "##ખ્": 3977,
      "પ્રાણી": 3978,
      "બોટ": 3979,
      "ગીત": 3980,
      "##ંદુ": 3981,
      "##દેસર": 3982,
      "ડિઝાઇન": 3983,
      "##ંગ્લે": 3984,
      "27": 3985,
      "શિયા": 3986,
      "વપ": 3987,
      "##પરછ": 3988,
      "ઓવર": 3989,
      "જતી": 3990,
      "મીટર": 3991,
      "નોંધાયો": 3992,
      "ત્રીજા": 3993,
      "##અપ": 3994,
      "બપોરે": 3995,
      "નીકળી": 3996,
      "##ેક": 3997,
      "બેસી": 3998,
      "જીતી": 3999,
      "૧૦૦": 4000,
      "##સલ": 4001,
      "##લિમ": 4002,
      "##માનો": 4003,
      "બાબતો": 4004,
      "હેલ્થ": 4005,
      "અભિયાન": 4006,
      "મોટું": 4007,
      "નાણાકીય": 4008,
      "અભિ": 4009,
      "ઇન્સ્ટ": 4010,
      "રજ": 4011,
      "વિન": 4012,
      "એસો": 4013,
      "##રોની": 4014,
      "કાઢી": 4015,
      "વાળા": 4016,
      "##ળના": 4017,
      "મધ": 4018,
      "##સન": 4019,
      "પોતાને": 4020,
      "પ્રધાનમંત્રી": 4021,
      "ઇચ્છ": 4022,
      "દાન": 4023,
      "જણા": 4024,
      "હિન્દુ": 4025,
      "હિત": 4026,
      "##િદ": 4027,
      "દ્વાર": 4028,
      "ધરવામાં": 4029,
      "##થ્થ": 4030,
      "ઉકેલ": 4031,
      "બેડ": 4032,
      "રિસ": 4033,
      "કરાયું": 4034,
      "રાજીના": 4035,
      "નેતાઓ": 4036,
      "##ળામાં": 4037,
      "##ro": 4038,
      "કરાયા": 4039,
      "વહીવ": 4040,
      "ખેડૂતોને": 4041,
      "સંકે": 4042,
      "##રૂપે": 4043,
      "સ્વરૂપ": 4044,
      "ઉમેર": 4045,
      "ઓછું": 4046,
      "##યાત": 4047,
      "##કોર્": 4048,
      "સફેદ": 4049,
      "પ્લેટ": 4050,
      "કચ": 4051,
      "ફાઈ": 4052,
      "60": 4053,
      "##ફોર્મ": 4054,
      "##વ્ર": 4055,
      "આંતરરાષ્ટ્રીય": 4056,
      "દરિયા": 4057,
      "ગ્રુપ": 4058,
      "પગાર": 4059,
      "બાઇ": 4060,
      "##કાલિક": 4061,
      "ક્લિક": 4062,
      "મોબાઇલ": 4063,
      "કુદરતી": 4064,
      "##િજન": 4065,
      "સેન્ટર": 4066,
      "એન્જ": 4067,
      "ભૂત": 4068,
      "ન્યાય": 4069,
      "ભૂલ": 4070,
      "પોરબ": 4071,
      "બિહાર": 4072,
      "આના": 4073,
      "બગ": 4074,
      "રવિ": 4075,
      "આવશ્યક": 4076,
      "મેદાન": 4077,
      "અમરેલી": 4078,
      "##ati": 4079,
      "ગુણવ": 4080,
      "હોત": 4081,
      "માંગણી": 4082,
      "35": 4083,
      "##પના": 4084,
      "##ાસી": 4085,
      "ઉના": 4086,
      "જૂન": 4087,
      "દૃ": 4088,
      "##..": 4089,
      "કરેલા": 4090,
      "જેઓ": 4091,
      "પ્રયત્ન": 4092,
      "પંડ": 4093,
      "##ગ્રા": 4094,
      "તકલી": 4095,
      "વેપારીઓ": 4096,
      "બિઝનેસ": 4097,
      "ગા": 4098,
      "##્યંત": 4099,
      "##ન્સે": 4100,
      "ઘરની": 4101,
      "પરમ": 4102,
      "દરવા": 4103,
      "ક્યારેક": 4104,
      "દેખાવ": 4105,
      "ગરીબ": 4106,
      "##ાવ્યું": 4107,
      "પરિવારના": 4108,
      "સ્કૂલ": 4109,
      "તાત્કાલિક": 4110,
      "હાથમાં": 4111,
      "##ંગ્લેન્ડ": 4112,
      "જેનો": 4113,
      "આંદોલન": 4114,
      "દીપ": 4115,
      "ઉછ": 4116,
      "##બુક": 4117,
      "##્યુલ": 4118,
      "ડેટા": 4119,
      "##ડીએ": 4120,
      "##ાદે": 4121,
      "##કાશે": 4122,
      "સમયગ": 4123,
      "કપૂર": 4124,
      "નજ": 4125,
      "##ેરી": 4126,
      "##ઘર": 4127,
      "સ્ટાર": 4128,
      "પુરા": 4129,
      "અફઘ": 4130,
      "##સ્પે": 4131,
      "વધીને": 4132,
      "અગ્રણી": 4133,
      "મોડી": 4134,
      "##રાટ": 4135,
      "લેવાની": 4136,
      "ઉભી": 4137,
      "કૂ": 4138,
      "##વાને": 4139,
      "ધારાસભ્યો": 4140,
      "ત્વચા": 4141,
      "સુનાવણી": 4142,
      "જોગ": 4143,
      "અભિન": 4144,
      "##કિ": 4145,
      "##ર્ત": 4146,
      "આવો": 4147,
      "##ંતી": 4148,
      "ભારતે": 4149,
      "ડ્રગ": 4150,
      "નામની": 4151,
      "૪૦": 4152,
      "કાર્યો": 4153,
      "લોન્ચ": 4154,
      "##કાર્": 4155,
      "આધુ": 4156,
      "હટ": 4157,
      "##સણ": 4158,
      "સંયુક્ત": 4159,
      "રૂમ": 4160,
      "બેન્ક": 4161,
      "500": 4162,
      "ગમે": 4163,
      "##સ્કાર": 4164,
      "##ણીમાં": 4165,
      "સંબો": 4166,
      "બીજો": 4167,
      "દુર": 4168,
      "##મિત": 4169,
      "##ૂહ": 4170,
      "વિગત": 4171,
      "કહેવા": 4172,
      "અંતે": 4173,
      "મૃતદે": 4174,
      "એમાં": 4175,
      "ડું": 4176,
      "ગતિ": 4177,
      "આપણી": 4178,
      "સંભવ": 4179,
      "શરીરમાં": 4180,
      "ઓક્ટોબર": 4181,
      "મચી": 4182,
      "ઉભા": 4183,
      "ભજ": 4184,
      "રાજકોટમાં": 4185,
      "વ્યાજ": 4186,
      "સાંભળ": 4187,
      "કોર્પોરેશન": 4188,
      "ગ્રા": 4189,
      "##ગેટ": 4190,
      "##ઉં": 4191,
      "પ્રિ": 4192,
      "##પ્પ": 4193,
      "ભ્ર": 4194,
      "##ur": 4195,
      "ખુશી": 4196,
      "##ક્ષણિક": 4197,
      "##ત્સવ": 4198,
      "કાળજી": 4199,
      "##કાંઠા": 4200,
      "સહી": 4201,
      "વિકલ્પ": 4202,
      "સમક્ષ": 4203,
      "રૂપિયાની": 4204,
      "##વાનગી": 4205,
      "આધુનિક": 4206,
      "શૂટ": 4207,
      "##ણીએ": 4208,
      "પાત્ર": 4209,
      "##ચ્યુ": 4210,
      "##ર્તન": 4211,
      "હેડ": 4212,
      "##કોર્ટ": 4213,
      "સંકળ": 4214,
      "સાથેની": 4215,
      "ભરત": 4216,
      "મેસે": 4217,
      "ભાગે": 4218,
      "તત્વ": 4219,
      "ફ્રી": 4220,
      "##િયે": 4221,
      "##મથી": 4222,
      "મહેન": 4223,
      "સ્થાને": 4224,
      "દાદ": 4225,
      "વિતરણ": 4226,
      "કરેલી": 4227,
      "પદાર્થ": 4228,
      "દસ્તા": 4229,
      "તમારું": 4230,
      "કમિટી": 4231,
      "વ્યવહાર": 4232,
      "સુરતમાં": 4233,
      "ડર": 4234,
      "##as": 4235,
      "ચોક": 4236,
      "##ષ્ક": 4237,
      "આપીને": 4238,
      "દિવસથી": 4239,
      "આશ્": 4240,
      "રુ": 4241,
      "માઇ": 4242,
      "##કર્તા": 4243,
      "અસરકારક": 4244,
      "હાજરી": 4245,
      "##ક્રમો": 4246,
      "##ંગના": 4247,
      "લોહી": 4248,
      "જોઈને": 4249,
      "જથ્થો": 4250,
      "પરવાનગી": 4251,
      "##સ્ટિક": 4252,
      "અફઘાન": 4253,
      "ટૂંક": 4254,
      "વિચારો": 4255,
      "દસ્તાવે": 4256,
      "વધારી": 4257,
      "સરળતા": 4258,
      "દુઃ": 4259,
      "ગ્રામ્ય": 4260,
      "સંક્રમિત": 4261,
      "હૃ": 4262,
      "સેક્સ": 4263,
      "સલમાન": 4264,
      "##ણાવ": 4265,
      "##ામા": 4266,
      "આતંકવાદી": 4267,
      "##હત": 4268,
      "બ્રિટ": 4269,
      "તીવ્ર": 4270,
      "##વર્ક": 4271,
      "ઓછામાં": 4272,
      "ઓલ": 4273,
      "ઘણો": 4274,
      "ધાર્": 4275,
      "##જીત": 4276,
      "નોંધી": 4277,
      "પાણીમાં": 4278,
      "વિરૂ": 4279,
      "સોંપ": 4280,
      "દિવસની": 4281,
      "પ્રતિનિ": 4282,
      "જામી": 4283,
      "ધોર": 4284,
      "વાયરસના": 4285,
      "રેટ": 4286,
      "સાઉ": 4287,
      "કરોડની": 4288,
      "##શ્વર": 4289,
      "ટિકિટ": 4290,
      "ઠા": 4291,
      "બાઈ": 4292,
      "સંસ્ક": 4293,
      "રિલીઝ": 4294,
      "વહેલી": 4295,
      "45": 4296,
      "શારી": 4297,
      "રહેતી": 4298,
      "ગોળી": 4299,
      "##ાતો": 4300,
      "હોટ": 4301,
      "##સ્ટે": 4302,
      "##ંકર": 4303,
      "ધોની": 4304,
      "##્રિયા": 4305,
      "સરહ": 4306,
      "દિવસો": 4307,
      "સરે": 4308,
      "લાગ્યો": 4309,
      "બચાવ": 4310,
      "ફોર્": 4311,
      "##ઓથી": 4312,
      "##ર્ગ": 4313,
      "વ્યક્તિને": 4314,
      "માર્ગદર્શન": 4315,
      "અજાણ": 4316,
      "##કોના": 4317,
      "##ડીમાં": 4318,
      "વધે": 4319,
      "આક્ષેપ": 4320,
      "##ચિત": 4321,
      "તાલીમ": 4322,
      "કાર્યક્રમમાં": 4323,
      "##ત્સાહ": 4324,
      "ગેરકાય": 4325,
      "લવ": 4326,
      "લંબ": 4327,
      "ઓફર": 4328,
      "ડોક્ટ": 4329,
      "મારફ": 4330,
      "ભલે": 4331,
      "હૃદય": 4332,
      "સંક": 4333,
      "સ્વચ્છ": 4334,
      "ગુણવત્તા": 4335,
      "કાળા": 4336,
      "સિલ": 4337,
      "##ળમાં": 4338,
      "##દમ": 4339,
      "##ઈન": 4340,
      "રોકડ": 4341,
      "##પીએ": 4342,
      "કૌભ": 4343,
      "##રાઇ": 4344,
      "ગુરૂ": 4345,
      "જણાવ્યુ": 4346,
      "##સ્પદ": 4347,
      "નોંધાવી": 4348,
      "કંઈક": 4349,
      "##જાત": 4350,
      "##ધાની": 4351,
      "ચોમાસ": 4352,
      "સંપત્તિ": 4353,
      "શામ": 4354,
      "##કન": 4355,
      "##સીબી": 4356,
      "ધાર્મિક": 4357,
      "##વાં": 4358,
      "##ાનાં": 4359,
      "##રેટ": 4360,
      "##રેક્ટર": 4361,
      "અત્યંત": 4362,
      "મામલો": 4363,
      "##માન્ડ": 4364,
      "અંગેની": 4365,
      "અલી": 4366,
      "ફ્લા": 4367,
      "બૉ": 4368,
      "##મુખ": 4369,
      "ઇજા": 4370,
      "ઘૂ": 4371,
      "આવ્યુ": 4372,
      "##ાઇડ": 4373,
      "મહાર": 4374,
      "ગેસ": 4375,
      "નિયમિત": 4376,
      "આખા": 4377,
      "વાદ": 4378,
      "##પ્રદ": 4379,
      "લાગ્યા": 4380,
      "કલેકટર": 4381,
      "##ધરી": 4382,
      "##ત્રા": 4383,
      "##ંડો": 4384,
      "ઓક્સિજન": 4385,
      "ગુલા": 4386,
      "##શનલ": 4387,
      "ભલામણ": 4388,
      "શ્વાસ": 4389,
      "આવેલું": 4390,
      "ગણેશ": 4391,
      "કપડાં": 4392,
      "29": 4393,
      "બરા": 4394,
      "##ણંદ": 4395,
      "સ્પે": 4396,
      "અવાજ": 4397,
      "પ્રસંગે": 4398,
      "આઝ": 4399,
      "સરદાર": 4400,
      "જુના": 4401,
      "ટા": 4402,
      "આખરે": 4403,
      "લિ": 4404,
      "કોંગ્રે": 4405,
      "ઇન્ટરને": 4406,
      "સોમનાથ": 4407,
      "મુસ્લિમ": 4408,
      "કાગ": 4409,
      "દિલ": 4410,
      "##રામાં": 4411,
      "##િયાર": 4412,
      "ફુ": 4413,
      "##સેસ": 4414,
      "##વાયું": 4415,
      "પ્રી": 4416,
      "##જ્જ": 4417,
      "સિંગ": 4418,
      "##શ્ચિત": 4419,
      "બોલિવૂડ": 4420,
      "ઠંડી": 4421,
      "ફાર્": 4422,
      "##le": 4423,
      "ખુલા": 4424,
      "બન્યો": 4425,
      "મારે": 4426,
      "તેવો": 4427,
      "કેટલાં": 4428,
      "આભાર": 4429,
      "ફ્લો": 4430,
      "રમી": 4431,
      "##ક્કર": 4432,
      "કાપી": 4433,
      "જવાબદાર": 4434,
      "ઓપર": 4435,
      "ચાહ": 4436,
      "પ્રોત્સાહ": 4437,
      "સર્વિસ": 4438,
      "એવોર્ડ": 4439,
      "કેન્સર": 4440,
      "શારીરિક": 4441,
      "આયુ": 4442,
      "દરો": 4443,
      "૦૦૦": 4444,
      "વિડીયો": 4445,
      "##જીની": 4446,
      "જુદી": 4447,
      "ગ્રહ": 4448,
      "જોતા": 4449,
      "કંપનીના": 4450,
      "પગલા": 4451,
      "વ્યક્તિગત": 4452,
      "હાઉસ": 4453,
      "##રોએ": 4454,
      "જૂથ": 4455,
      "વિદ્યાર્થીઓને": 4456,
      "કન": 4457,
      "પક": 4458,
      "સુરક્ષિત": 4459,
      "તુલ": 4460,
      "મૌ": 4461,
      "આવતાં": 4462,
      "##ક્ષમ": 4463,
      "##સીએ": 4464,
      "અમલ": 4465,
      "##ાઉન": 4466,
      "ખોલ": 4467,
      "##યન": 4468,
      "પાડવામાં": 4469,
      "##હાણ": 4470,
      "અધિકાર": 4471,
      "નહોતી": 4472,
      "ભંગ": 4473,
      "સત્ય": 4474,
      "ઘો": 4475,
      "મજા": 4476,
      "કરશો": 4477,
      "પ્રચાર": 4478,
      "દેશો": 4479,
      "વૃદ્ધિ": 4480,
      "અભિનેતા": 4481,
      "સૈનિક": 4482,
      "ક્રો": 4483,
      "૨૨": 4484,
      "##કાવ": 4485,
      "કંપનીએ": 4486,
      "નગરપાલિકા": 4487,
      "મુક્ત": 4488,
      "##કાને": 4489,
      "ગુના": 4490,
      "##ત્રો": 4491,
      "આગા": 4492,
      "સહિતની": 4493,
      "બતાવ": 4494,
      "હજારો": 4495,
      "પલ": 4496,
      "કયા": 4497,
      "ક્રેડ": 4498,
      "રસો": 4499,
      "રક્ષણ": 4500,
      "##ડના": 4501,
      "##ાઈમ": 4502,
      "##ેલું": 4503,
      "ઓનલાઇન": 4504,
      "પરમાર": 4505,
      "વિમાન": 4506,
      "અમેરિકન": 4507,
      "મહત્ત્વ": 4508,
      "બીમારી": 4509,
      "મારો": 4510,
      "##્મી": 4511,
      "##ીઓ": 4512,
      "ઉપયોગી": 4513,
      "યુવક": 4514,
      "સુરેન્દ્ર": 4515,
      "વેસ્ટ": 4516,
      "##ચર્ય": 4517,
      "આગાહી": 4518,
      "##ત્રે": 4519,
      "##ન્શન": 4520,
      "વધતા": 4521,
      "પ્રિયંકા": 4522,
      "##દમાં": 4523,
      "ભરતી": 4524,
      "પરિણામે": 4525,
      "વિકસ": 4526,
      "અં": 4527,
      "પ્રદ": 4528,
      "##રોધ": 4529,
      "વાસ્તવિક": 4530,
      "બંદ": 4531,
      "ભવ્ય": 4532,
      "આકાર": 4533,
      "નવું": 4534,
      "##લને": 4535,
      "##દની": 4536,
      "##કોમાં": 4537,
      "##તરના": 4538,
      "સુધારો": 4539,
      "##ટુંબ": 4540,
      "##લિંગ": 4541,
      "તસવીર": 4542,
      "મેટ": 4543,
      "મેઘ": 4544,
      "કલાકે": 4545,
      "પામી": 4546,
      "અટ": 4547,
      "છા": 4548,
      "જ્યો": 4549,
      "સહે": 4550,
      "હિસ્": 4551,
      "તેમાંથી": 4552,
      "રહેલ": 4553,
      "##માની": 4554,
      "દેવી": 4555,
      "જનરલ": 4556,
      "ક્રેડિટ": 4557,
      "ટુક": 4558,
      "##િલે": 4559,
      "સાચ": 4560,
      "અપના": 4561,
      "##ણના": 4562,
      "ટોચ": 4563,
      "વપરાશ": 4564,
      "સગી": 4565,
      "##પમાં": 4566,
      "##દાસ": 4567,
      "પોલીસની": 4568,
      "##ાર્ટમેન્ટ": 4569,
      "જેનાથી": 4570,
      "##ેશભાઈ": 4571,
      "કોર્પોરે": 4572,
      "પૃથ": 4573,
      "ઠેર": 4574,
      "ફોર": 4575,
      "વળી": 4576,
      "ચેત": 4577,
      "##ખ્યાત": 4578,
      "ચૂક્યા": 4579,
      "રસીકરણ": 4580,
      "સદ": 4581,
      "##ષિક": 4582,
      "##સ્તે": 4583,
      "સમીક્ષા": 4584,
      "આપો": 4585,
      "સ્પેશ": 4586,
      "કાયદો": 4587,
      "ક્ષેત્રમાં": 4588,
      "ભટ્ટ": 4589,
      "સાથ": 4590,
      "દોડી": 4591,
      "સંગીત": 4592,
      "તસવીરો": 4593,
      "વાસ": 4594,
      "કોન્ટ": 4595,
      "વાંચો": 4596,
      "લાવ": 4597,
      "સાઈ": 4598,
      "સમજી": 4599,
      "##સીપી": 4600,
      "યોજા": 4601,
      "ભાવમાં": 4602,
      "70": 4603,
      "##ૂમ": 4604,
      "##્વી": 4605,
      "હોઇ": 4606,
      "અનુક": 4607,
      "લેશે": 4608,
      "આફ્ર": 4609,
      "##િટલ": 4610,
      "વિભાગે": 4611,
      "મંજ": 4612,
      "ત્રણેય": 4613,
      "ફાઇ": 4614,
      "બેં": 4615,
      "##સીટી": 4616,
      "પાવર": 4617,
      "પરિવારજનો": 4618,
      "તકલીફ": 4619,
      "##મસ": 4620,
      "વાવા": 4621,
      "બાત": 4622,
      "##મિન": 4623,
      "ઉત્તમ": 4624,
      "વૈજ્ઞાન": 4625,
      "જવાની": 4626,
      "ઓછો": 4627,
      "સરેરાશ": 4628,
      "##ખે": 4629,
      "અમેરિકાના": 4630,
      "સાધનો": 4631,
      "અનામત": 4632,
      "સમર્થન": 4633,
      "બનાવ્યા": 4634,
      "સંજો": 4635,
      "જાતે": 4636,
      "દિશામાં": 4637,
      "મૃતદેહ": 4638,
      "આશ્ચર્ય": 4639,
      "જલ": 4640,
      "રશિયા": 4641,
      "૩૧": 4642,
      "કાર્યક્રમો": 4643,
      "વાલી": 4644,
      "નોટિસ": 4645,
      "સરખામ": 4646,
      "##કુ": 4647,
      "વિરાટ": 4648,
      "તમારો": 4649,
      "અપે": 4650,
      "તૂ": 4651,
      "ભણ": 4652,
      "##શાંત": 4653,
      "##ઠો": 4654,
      "સંસદ": 4655,
      "રિઝ": 4656,
      "બાળકને": 4657,
      "રક્ત": 4658,
      "પરીક્ષણ": 4659,
      "મેસેજ": 4660,
      "##ઇલ": 4661,
      "##ટન": 4662,
      "વિલ": 4663,
      "2017": 4664,
      "કોઈને": 4665,
      "2018": 4666,
      "મહાનગર": 4667,
      "આગેવાનો": 4668,
      "એન્જિન": 4669,
      "મહેનત": 4670,
      "હુ": 4671,
      "##ઉન્ટ": 4672,
      "##લાની": 4673,
      "રાજકાર": 4674,
      "##શ્વિક": 4675,
      "નુકશાન": 4676,
      "ચહેરા": 4677,
      "નાયબ": 4678,
      "ઇતિહાસ": 4679,
      "ઓવ": 4680,
      "સ્પર્ધા": 4681,
      "તેટ": 4682,
      "ગોલ્ડ": 4683,
      "##ૂક": 4684,
      "##નોને": 4685,
      "રોહિત": 4686,
      "રહેવું": 4687,
      "લીધું": 4688,
      "ઉતર": 4689,
      "નિર્દેશ": 4690,
      "##ગારી": 4691,
      "##ઇડ": 4692,
      "પોલ": 4693,
      "##પુરમાં": 4694,
      "##પ્લે": 4695,
      "##હત્યા": 4696,
      "તોડી": 4697,
      "પાર્ટીના": 4698,
      "##ત્મક": 4699,
      "ઈન્ટ": 4700,
      "હાં": 4701,
      "ચીફ": 4702,
      "##સભામાં": 4703,
      "જાણીતા": 4704,
      "કમિશનર": 4705,
      "ચલા": 4706,
      "જારી": 4707,
      "ભાઇ": 4708,
      "વિટ": 4709,
      "##વેર": 4710,
      "ઉપકરણ": 4711,
      "પ્લાન": 4712,
      "કૌભાંડ": 4713,
      "##વીને": 4714,
      "આચાર": 4715,
      "##િયાણા": 4716,
      "લોકોનો": 4717,
      "અંતર": 4718,
      "પ્રેમી": 4719,
      "વૈશ્વિક": 4720,
      "અશો": 4721,
      "લાખની": 4722,
      "તું": 4723,
      "લાખો": 4724,
      "199": 4725,
      "##મ્બરે": 4726,
      "ઓનલાઈન": 4727,
      "##ાએ": 4728,
      "પોર્ટ": 4729,
      "સ્વતંત્ર": 4730,
      "સમાજના": 4731,
      "પૂછપરછ": 4732,
      "શકાશે": 4733,
      "##ુત": 4734,
      "સંબંધી": 4735,
      "ખોટ": 4736,
      "મહત્વનું": 4737,
      "##ીન": 4738,
      "પથ્થ": 4739,
      "ફા": 4740,
      "ફર્": 4741,
      "આવ્યાં": 4742,
      "સંદેશ": 4743,
      "સ્ટેશનમાં": 4744,
      "કાર્યકરો": 4745,
      "લાંબી": 4746,
      "મચ": 4747,
      "##nd": 4748,
      "કેપ": 4749,
      "પ્રતિક્રિયા": 4750,
      "##કાત": 4751,
      "32": 4752,
      "##કાના": 4753,
      "##લોમાં": 4754,
      "##પ્શન": 4755,
      "તેઓને": 4756,
      "સુધાર": 4757,
      "ગૂ": 4758,
      "બ્લો": 4759,
      "સાથી": 4760,
      "ઘણીવાર": 4761,
      "બ્રાન્ડ": 4762,
      "##ઝર્સ": 4763,
      "યુરો": 4764,
      "વેક": 4765,
      "શરૂઆતમાં": 4766,
      "જેલ": 4767,
      "સ્પી": 4768,
      "બાંધકામ": 4769,
      "##સ્ટ્ર": 4770,
      "નોંધપાત્ર": 4771,
      "વિરોધી": 4772,
      "સ્થાપના": 4773,
      "ઘણું": 4774,
      "પવન": 4775,
      "##ૃત્વ": 4776,
      "શહેરી": 4777,
      "ઉંમર": 4778,
      "નારાજ": 4779,
      "80": 4780,
      "ઉંચ": 4781,
      "##શાળી": 4782,
      "##જિત": 4783,
      "એકદમ": 4784,
      "પહોંચ્યો": 4785,
      "##હેબ": 4786,
      "##ેશભાઇ": 4787,
      "બહેન": 4788,
      "ટ્વીટ": 4789,
      "ભેટ": 4790,
      "##લત": 4791,
      "માની": 4792,
      "##ટીંગ": 4793,
      "મળવા": 4794,
      "પત્રકાર": 4795,
      "કેસની": 4796,
      "નેટવર્ક": 4797,
      "સાથેના": 4798,
      "##સ્ત્રી": 4799,
      "દોઢ": 4800,
      "આંકડો": 4801,
      "ચિત્ર": 4802,
      "##જને": 4803,
      "##ર્દી": 4804,
      "##લીપ": 4805,
      "માને": 4806,
      "##િત્ય": 4807,
      "##ાઈડ": 4808,
      "ત્રીજી": 4809,
      "એકમ": 4810,
      "જુગાર": 4811,
      "ભરી": 4812,
      "##િઓ": 4813,
      "##ઝે": 4814,
      "##ંજન": 4815,
      "મેન": 4816,
      "ફરીયા": 4817,
      "ઉડ": 4818,
      "મહેતા": 4819,
      "કંઇ": 4820,
      "હથ": 4821,
      "કેબ": 4822,
      "દેશોમાં": 4823,
      "ભાવના": 4824,
      "પંથ": 4825,
      "કિલોમીટર": 4826,
      "ચામ": 4827,
      "બુક": 4828,
      "મની": 4829,
      "૨૩": 4830,
      "##om": 4831,
      "લૂંટ": 4832,
      "##નિસ": 4833,
      "આખી": 4834,
      "ઈજા": 4835,
      "તણાવ": 4836,
      "પાત": 4837,
      "##તૃત્વ": 4838,
      "##વેલ": 4839,
      "આત્મહત્યા": 4840,
      "રિક": 4841,
      "##am": 4842,
      "ફોટા": 4843,
      "સમસ્યાઓ": 4844,
      "અફઘાનિસ્તા": 4845,
      "શાન": 4846,
      "##ટીવ": 4847,
      "તસ્વી": 4848,
      "પડકાર": 4849,
      "દર્દીઓને": 4850,
      "આજના": 4851,
      "સ્તરે": 4852,
      "તિ": 4853,
      "##સ્ય": 4854,
      "##ch": 4855,
      "##્ટી": 4856,
      "મહિને": 4857,
      "રાજ્યોમાં": 4858,
      "જર": 4859,
      "વ્યકિત": 4860,
      "અમેરિકામાં": 4861,
      "ફેસબુક": 4862,
      "કન્": 4863,
      "##હાજ": 4864,
      "##ણું": 4865,
      "ભરવા": 4866,
      "##વ્યા": 4867,
      "##સ્વ": 4868,
      "જેવું": 4869,
      "વર્ક": 4870,
      "સ્વાગત": 4871,
      "##લાયન્સ": 4872,
      "આંતરિક": 4873,
      "તળાવ": 4874,
      "##ંખ": 4875,
      "##ગ્રસ્ત": 4876,
      "##એસટી": 4877,
      "ઉત્પાદનો": 4878,
      "ઉત્સાહ": 4879,
      "મહેસાણા": 4880,
      "અગ": 4881,
      "પર્યાવ": 4882,
      "બરાબર": 4883,
      "ખોટી": 4884,
      "##િષ્ઠ": 4885,
      "વલસા": 4886,
      "૨૮": 4887,
      "##ધિક": 4888,
      "કોશ": 4889,
      "ટાઇ": 4890,
      "જેલમાં": 4891,
      "ટેક્": 4892,
      "સ્વસ્થ": 4893,
      "વિશ્વમાં": 4894,
      "ઉર્ફે": 4895,
      "નિયંત્રણ": 4896,
      "જામીન": 4897,
      "અશોક": 4898,
      "સ્ટી": 4899,
      "પહોંચાડ": 4900,
      "હાલત": 4901,
      "થોડો": 4902,
      "કાલે": 4903,
      "મશીન": 4904,
      "હનુ": 4905,
      "વિધ": 4906,
      "ગોંડ": 4907,
      "જોડાયેલા": 4908,
      "37": 4909,
      "પડ્યા": 4910,
      "ગામની": 4911,
      "સંબંધો": 4912,
      "##ોબ": 4913,
      "##યલ": 4914,
      "##ચંદ": 4915,
      "જેમાંથી": 4916,
      "વર્ણ": 4917,
      "લહેર": 4918,
      "નાખી": 4919,
      "ટ્વિટ": 4920,
      "રસપ્રદ": 4921,
      "ચાંદી": 4922,
      "કોચ": 4923,
      "એક્ટિવ": 4924,
      "##માને": 4925,
      "રાય": 4926,
      "##મંડ": 4927,
      "##કાની": 4928,
      "વર્ષો": 4929,
      "અંગ્રે": 4930,
      "સરળતાથી": 4931,
      "ઓર": 4932,
      "##ઘુ": 4933,
      "હોવું": 4934,
      "##વારના": 4935,
      "સિટી": 4936,
      "આદિ": 4937,
      "ઉત": 4938,
      "ઓટો": 4939,
      "ફિટ": 4940,
      "##િટે": 4941,
      "##િંગમાં": 4942,
      "રીત": 4943,
      "બચ્ચ": 4944,
      "આવવા": 4945,
      "કેટલા": 4946,
      "##ુબ": 4947,
      "ડેરી": 4948,
      "વૃદ્ધ": 4949,
      "##ધ્યા": 4950,
      "પેદા": 4951,
      "બન્યું": 4952,
      "ચાલે": 4953,
      "દવાઓ": 4954,
      "##શિયન": 4955,
      "##લમ": 4956,
      "સંગ્રહ": 4957,
      "ઓપરેશન": 4958,
      "રસ્તો": 4959,
      "૨૬": 4960,
      "##સ્ત્રો": 4961,
      "કલ્પ": 4962,
      "##ad": 4963,
      "રાજુ": 4964,
      "##ળીને": 4965,
      "કાર્યરત": 4966,
      "ચૂકી": 4967,
      "દુકાનો": 4968,
      "લક્ષ્મી": 4969,
      "ચારે": 4970,
      "દાય": 4971,
      "કરાર": 4972,
      "##ેશને": 4973,
      "જઈને": 4974,
      "વાનગી": 4975,
      "કન્ટે": 4976,
      "ટીમો": 4977,
      "રેલી": 4978,
      "સંશોધન": 4979,
      "ઉદ્": 4980,
      "હોવી": 4981,
      "##િવે": 4982,
      "##જીના": 4983,
      "ફરાર": 4984,
      "ઠાક": 4985,
      "તકે": 4986,
      "##is": 4987,
      "##ંદા": 4988,
      "##સીના": 4989,
      "સુધીની": 4990,
      "દુનિયામાં": 4991,
      "આર્ટ": 4992,
      "##ાગત": 4993,
      "નિમણ": 4994,
      "મેનેજમેન્ટ": 4995,
      "##શય": 4996,
      "##el": 4997,
      "##ર્ડર": 4998,
      "મંદિરમાં": 4999,
      "ઇલેક્ટ": 5000,
      "##પરા": 5001,
      "##્સમાં": 5002,
      "એટલી": 5003,
      "વિસ્તારના": 5004,
      "ચાવ": 5005,
      "લગાવ": 5006,
      "ગઈકાલે": 5007,
      "શ્રેણી": 5008,
      "વ્હ": 5009,
      "નિષ્ફળ": 5010,
      "ભરે": 5011,
      "##ોનું": 5012,
      "##ગલ": 5013,
      "##ર્મો": 5014,
      "વિસ": 5015,
      "સ્કી": 5016,
      "ઉપાય": 5017,
      "કરોડના": 5018,
      "અણ": 5019,
      "ક્": 5020,
      "##ol": 5021,
      "##ંદગી": 5022,
      "કમાણી": 5023,
      "બાતમી": 5024,
      "##ુંટ": 5025,
      "સરપંચ": 5026,
      "અમદાવાદના": 5027,
      "વરસાદની": 5028,
      "અસ્થ": 5029,
      "વડે": 5030,
      "જરૂરિયાત": 5031,
      "ગાંધીએ": 5032,
      "પોરબંદર": 5033,
      "ડુંગ": 5034,
      "લૉ": 5035,
      "વસ્તી": 5036,
      "##લન": 5037,
      "બેસ": 5038,
      "##ડાને": 5039,
      "નીચ": 5040,
      "લીંબ": 5041,
      "નેતૃત્વ": 5042,
      "ગયેલા": 5043,
      "બ્લેક": 5044,
      "ઊભી": 5045,
      "ફિ": 5046,
      "ફ્લ": 5047,
      "સત્ર": 5048,
      "બેન": 5049,
      "બીજે": 5050,
      "દીકરા": 5051,
      "દુઃખ": 5052,
      "##બળ": 5053,
      "કરું": 5054,
      "સીએમ": 5055,
      "ઈચ્છ": 5056,
      "સભા": 5057,
      "સક્ષમ": 5058,
      "ટિ": 5059,
      "છેતર": 5060,
      "##ડીંગ": 5061,
      "કારકિ": 5062,
      "##બીઆઈ": 5063,
      "વળતર": 5064,
      "ગુરુવારે": 5065,
      "હનુમાન": 5066,
      "આણંદ": 5067,
      "##ેશ્વર": 5068,
      "તોડ": 5069,
      "ઓફિ": 5070,
      "કપાસ": 5071,
      "માછ": 5072,
      "##એશન": 5073,
      "ટેકનો": 5074,
      "રાઠ": 5075,
      "જૂની": 5076,
      "દિગ્": 5077,
      "હિંસા": 5078,
      "સોલંકી": 5079,
      "કારકિર્દી": 5080,
      "એપ્": 5081,
      "ખાંડ": 5082,
      "જાે": 5083,
      "વાર્ષિક": 5084,
      "થવું": 5085,
      "રચ": 5086,
      "કરાઇ": 5087,
      "કોરોનાને": 5088,
      "કોરોનાથી": 5089,
      "મીડિયામાં": 5090,
      "પ્રયાસો": 5091,
      "ડ્રાઇ": 5092,
      "નિશાન": 5093,
      "અર્થે": 5094,
      "##્યાલય": 5095,
      "મૂલ્ય": 5096,
      "જ્ઞાન": 5097,
      "##દામ": 5098,
      "પુલ": 5099,
      "ખુલાસો": 5100,
      "ભ્રષ્ટ": 5101,
      "કોંગ્રેસે": 5102,
      "ગઢ": 5103,
      "##ંગા": 5104,
      "સંવે": 5105,
      "પ્રોડક્ટ": 5106,
      "અપેક્ષા": 5107,
      "##લીન": 5108,
      "##જીવન": 5109,
      "##િયત": 5110,
      "દોષ": 5111,
      "કેટલાંક": 5112,
      "ઇન્ટર": 5113,
      "##િંક": 5114,
      "બનાસ": 5115,
      "દેશભરમાં": 5116,
      "સ્થાપિત": 5117,
      "કાશ્મીર": 5118,
      "36": 5119,
      "હર્ષ": 5120,
      "##વાડા": 5121,
      "પુરી": 5122,
      "અંદાજે": 5123,
      "એકત્ર": 5124,
      "##ાઇઝ": 5125,
      "##તોને": 5126,
      "પડતા": 5127,
      "ગ્રાહકો": 5128,
      "કર્ણા": 5129,
      "કટ": 5130,
      "ખંડ": 5131,
      "##ોનો": 5132,
      "સીટ": 5133,
      "ગુજરાતની": 5134,
      "સહયોગ": 5135,
      "દરવાજા": 5136,
      "શાખ": 5137,
      "બનાવો": 5138,
      "રેસ્ટ": 5139,
      "નજીકના": 5140,
      "75": 5141,
      "કય": 5142,
      "ગીર": 5143,
      "ઘાયલ": 5144,
      "ચર": 5145,
      "પવ": 5146,
      "##્યલ": 5147,
      "##્રિ": 5148,
      "##ત્વે": 5149,
      "વધારવા": 5150,
      "વલણ": 5151,
      "ચમચી": 5152,
      "આમાં": 5153,
      "કિશ": 5154,
      "##કતા": 5155,
      "##ાનુ": 5156,
      "બનાવવાની": 5157,
      "ભાગના": 5158,
      "તત્": 5159,
      "##સને": 5160,
      "##ખત": 5161,
      "##લીયા": 5162,
      "##્યોર": 5163,
      "મોક": 5164,
      "જણાવે": 5165,
      "દર્દીઓની": 5166,
      "ટ્રક": 5167,
      "જાળવી": 5168,
      "##િષ્ટ": 5169,
      "##ઈન્ટ": 5170,
      "દિલ્હીઃ": 5171,
      "મહત્વની": 5172,
      "કને": 5173,
      "વરિષ્ઠ": 5174,
      "અંધ": 5175,
      "ઇંચ": 5176,
      "ચિક": 5177,
      "##રીની": 5178,
      "##ળીયા": 5179,
      "ભારતને": 5180,
      "આંખો": 5181,
      "અજય": 5182,
      "છુ": 5183,
      "દિને": 5184,
      "સન": 5185,
      "ત્રાસ": 5186,
      "સત્તાવાર": 5187,
      "બાય": 5188,
      "ર૦": 5189,
      "વોલ": 5190,
      "##લીના": 5191,
      "સેવાઓ": 5192,
      "એક્સપ": 5193,
      "મિશ્રણ": 5194,
      "વેલ": 5195,
      "બેગ": 5196,
      "##ોરન્ટ": 5197,
      "કલ્યા": 5198,
      "હિંમત": 5199,
      "ઘેર": 5200,
      "##રાન": 5201,
      "##ાહો": 5202,
      "બનવા": 5203,
      "વાયુ": 5204,
      "બાયો": 5205,
      "મોઢ": 5206,
      "સુશાંત": 5207,
      "લીલા": 5208,
      "યાદીમાં": 5209,
      "રૂમમાં": 5210,
      "નજરે": 5211,
      "ચલાવી": 5212,
      "લાવવા": 5213,
      "##દ્રા": 5214,
      "##વાયા": 5215,
      "કરાવવા": 5216,
      "ઉપયોગમાં": 5217,
      "ત્યાંથી": 5218,
      "એન્ટી": 5219,
      "કક્ષા": 5220,
      "શાંત": 5221,
      "##લેથી": 5222,
      "પર્યાવરણ": 5223,
      "અહ": 5224,
      "ઘરના": 5225,
      "વીજળી": 5226,
      "રાઠોડ": 5227,
      "ચક્ર": 5228,
      "##છે": 5229,
      "##ાયી": 5230,
      "રિલાયન્સ": 5231,
      "વિપક્ષ": 5232,
      "મર્યાદા": 5233,
      "ઝઘ": 5234,
      "##ંગી": 5235,
      "વધશે": 5236,
      "માંગે": 5237,
      "ન્યૂઝ": 5238,
      "##સિસ": 5239,
      "સાબર": 5240,
      "##ડીના": 5241,
      "દિવસના": 5242,
      "ચર્ચામાં": 5243,
      "##ાગ્રામ": 5244,
      "કૈ": 5245,
      "##પિત": 5246,
      "##ણાં": 5247,
      "પ્રયોગ": 5248,
      "પરના": 5249,
      "##ાયર": 5250,
      "રોષ": 5251,
      "વીમા": 5252,
      "અક્ષય": 5253,
      "ઊભા": 5254,
      "ડ્રેસ": 5255,
      "પાર્": 5256,
      "##iv": 5257,
      "માઈ": 5258,
      "જીએસટી": 5259,
      "કુટુંબ": 5260,
      "બીજું": 5261,
      "ચેતવણી": 5262,
      "છેલ્": 5263,
      "##વેટ": 5264,
      "રાજા": 5265,
      "ગુસ્": 5266,
      "જેટલો": 5267,
      "અધિકારીએ": 5268,
      "પ્રભાવિત": 5269,
      "કર્ણાટક": 5270,
      "માટી": 5271,
      "પ્રમો": 5272,
      "સેવન": 5273,
      "વહીવટી": 5274,
      "યથ": 5275,
      "૨૭": 5276,
      "##ંટી": 5277,
      "તેણી": 5278,
      "તબીબી": 5279,
      "જવું": 5280,
      "પેશ": 5281,
      "##સૂ": 5282,
      "ટીમના": 5283,
      "સંકેત": 5284,
      "##ગ્લા": 5285,
      "##નક": 5286,
      "##ન્સમાં": 5287,
      "બ્રહ": 5288,
      "કોન્ટ્રા": 5289,
      "ઊંઘ": 5290,
      "નહ": 5291,
      "##શક": 5292,
      "પીડા": 5293,
      "અલબ": 5294,
      "ભાષા": 5295,
      "મૂકવામાં": 5296,
      "પશુપાલ": 5297,
      "મીઠું": 5298,
      "અશ્વ": 5299,
      "##ાણે": 5300,
      "થઈને": 5301,
      "શાનદાર": 5302,
      "ટેકનોલોજી": 5303,
      "કમ્પ": 5304,
      "નર": 5305,
      "##િયાના": 5306,
      "આપવાનું": 5307,
      "પુરવ": 5308,
      "સચિવ": 5309,
      "પરેશાન": 5310,
      "શૂટિંગ": 5311,
      "of": 5312,
      "સળ": 5313,
      "##ov": 5314,
      "##પ્તિ": 5315,
      "તપાસમાં": 5316,
      "ડ્રાઈ": 5317,
      "મારફતે": 5318,
      "છબી": 5319,
      "##તાથી": 5320,
      "મરી": 5321,
      "##et": 5322,
      "##20": 5323,
      "##ર્જ": 5324,
      "##રાને": 5325,
      "##શિષ્ટ": 5326,
      "ક્ષેત્રે": 5327,
      "સુરેન્દ્રનગર": 5328,
      "90": 5329,
      "લુ": 5330,
      "કર્મચારીઓને": 5331,
      "લાવી": 5332,
      "##ચાર્જ": 5333,
      "##ર્ચે": 5334,
      "પાડે": 5335,
      "રાખવું": 5336,
      "રાઉન્ડ": 5337,
      "૬૦": 5338,
      "##શિપ": 5339,
      "નિપજ": 5340,
      "નોંધનીય": 5341,
      "પ્લાસ્ટિક": 5342,
      "દિશા": 5343,
      "જોડાયા": 5344,
      ".'": 5345,
      "કવિ": 5346,
      "હોલ": 5347,
      "મુકી": 5348,
      "##નીતિ": 5349,
      "આપવાનો": 5350,
      "પરિવારો": 5351,
      "પરિણામો": 5352,
      "પ્લો": 5353,
      "##uj": 5354,
      "##્રિક": 5355,
      "કોમ્પ": 5356,
      "##્યુટી": 5357,
      "##સારી": 5358,
      "##દિવ": 5359,
      "સંર": 5360,
      "આજથી": 5361,
      "અબજ": 5362,
      "##સીની": 5363,
      "સંતોષ": 5364,
      "ચઢ": 5365,
      "જગત": 5366,
      "ફૂડ": 5367,
      "સાજા": 5368,
      "આવતો": 5369,
      "દુષ્ક": 5370,
      "ભાજપે": 5371,
      "પરિષ": 5372,
      "મનમાં": 5373,
      "##ંસા": 5374,
      "જેવો": 5375,
      "##લોડ": 5376,
      "ડેમ": 5377,
      "ટીમને": 5378,
      "##ફ્ટી": 5379,
      "શબ્દો": 5380,
      "જસ્ટ": 5381,
      "##દુ": 5382,
      "##વીર": 5383,
      "અરવિંદ": 5384,
      "રોકવા": 5385,
      "##ent": 5386,
      ").": 5387,
      "બપોર": 5388,
      "##દ્ધા": 5389,
      "સમાપ્ત": 5390,
      "##ાઉન્ડ": 5391,
      "##us": 5392,
      "સુધીના": 5393,
      "##000": 5394,
      "મુખ્યત્વે": 5395,
      "માગણી": 5396,
      "મુસાફરી": 5397,
      "આવનાર": 5398,
      "ગણવામાં": 5399,
      "પેટા": 5400,
      "પ્રસિ": 5401,
      "એન્ટ્રી": 5402,
      "મગફ": 5403,
      "આદિવાસી": 5404,
      "અમી": 5405,
      "ડાયા": 5406,
      "##ાચાર": 5407,
      "##જમાં": 5408,
      "કરાય": 5409,
      "વર્ષોથી": 5410,
      "રૂપે": 5411,
      "વ્યાપ": 5412,
      "અંબાણી": 5413,
      "સંભવિત": 5414,
      "શામેલ": 5415,
      "પોલીસના": 5416,
      "રેખા": 5417,
      "સફાઈ": 5418,
      "##દામાલ": 5419,
      "##ir": 5420,
      "૩૫": 5421,
      "##જીભાઈ": 5422,
      "ટોપ": 5423,
      "બચાવવા": 5424,
      "સંજોગ": 5425,
      "થતું": 5426,
      "મનુ": 5427,
      "##લીને": 5428,
      "પડતી": 5429,
      "સીધી": 5430,
      "##ચીન": 5431,
      "બાકીના": 5432,
      "પુનઃ": 5433,
      "કન્યા": 5434,
      "ઘા": 5435,
      "##લક": 5436,
      "આવરી": 5437,
      "રાખવી": 5438,
      "યાદવ": 5439,
      "રજિસ્ટ": 5440,
      "દૈ": 5441,
      "##ક્તા": 5442,
      "લાખથી": 5443,
      "વ્યાપક": 5444,
      "શિકાર": 5445,
      "##ંદન": 5446,
      "છુપ": 5447,
      "પિ": 5448,
      "વાવે": 5449,
      "##દાયક": 5450,
      "##નેટ": 5451,
      "વિજે": 5452,
      "વેક્સી": 5453,
      "સ્થિર": 5454,
      "##સામાં": 5455,
      "ઉમેરો": 5456,
      "ટ્વિટર": 5457,
      "ગૌરવ": 5458,
      "શહી": 5459,
      "હુક": 5460,
      "રોલ": 5461,
      "લેવી": 5462,
      "મધ્યમ": 5463,
      "સંસ્કૃતિ": 5464,
      "અલબત્ત": 5465,
      "દુષ્કર્મ": 5466,
      "દુખ": 5467,
      "કોઇપણ": 5468,
      "પુસ્તક": 5469,
      "ઇચ્છા": 5470,
      "ફૂલ": 5471,
      "##ડું": 5472,
      "છેલ્લી": 5473,
      "વાપ": 5474,
      "ડાન્સ": 5475,
      "##લાના": 5476,
      "હેન્ડ": 5477,
      "ચડ": 5478,
      "##વ્યો": 5479,
      "##રાદ": 5480,
      "##કડા": 5481,
      "મૂર્તિ": 5482,
      "થોડું": 5483,
      "ઓફિસર": 5484,
      "પ્રવાહ": 5485,
      "વિશિષ્ટ": 5486,
      "રહ્યુ": 5487,
      "યુપી": 5488,
      "બોલાવ": 5489,
      "પગલું": 5490,
      "મધ્યપ્રદેશ": 5491,
      "દર્શાવે": 5492,
      "સ્વપ્": 5493,
      "માન્યતા": 5494,
      "ઓડ": 5495,
      "ભરૂ": 5496,
      "##ધર": 5497,
      "શહેરની": 5498,
      "સૂત્રો": 5499,
      "નાંખ": 5500,
      "સમુદ્ર": 5501,
      "ફ્લે": 5502,
      "એમને": 5503,
      "સાવચે": 5504,
      "સંગઠન": 5505,
      "તહેવાર": 5506,
      "ગ્લો": 5507,
      "##હુ": 5508,
      "##ેન્દ્ર": 5509,
      "##ર્કમાં": 5510,
      "##સ્ફો": 5511,
      "આપણને": 5512,
      "ચકાસ": 5513,
      "તેજસ્વી": 5514,
      "કલ્યાણ": 5515,
      "ઉતાર": 5516,
      "ડ્રો": 5517,
      "હોવ": 5518,
      "સમૃ": 5519,
      "મહો": 5520,
      "##મીએ": 5521,
      "અનિલ": 5522,
      "બોલાવી": 5523,
      "ઐતિહાસ": 5524,
      "મફ": 5525,
      "સિરીઝ": 5526,
      "ચાલો": 5527,
      "મહત્વના": 5528,
      "અજાણ્યા": 5529,
      "એસ્ટ": 5530,
      "દાહો": 5531,
      "પૂરા": 5532,
      "થયાં": 5533,
      "##ૃતિક": 5534,
      "પાણીના": 5535,
      "બનેલી": 5536,
      "ભાષ": 5537,
      "સાચી": 5538,
      "મોટે": 5539,
      "સરસ": 5540,
      "વર્ષનો": 5541,
      "પુરૂ": 5542,
      "##િપલ": 5543,
      "તૈયારીઓ": 5544,
      "પ્રગતિ": 5545,
      "##ujar": 5546,
      "કથ": 5547,
      "##કાજ": 5548,
      "આવીને": 5549,
      "ચૌહાણ": 5550,
      "બ્લડ": 5551,
      "પવિત્ર": 5552,
      "ચલ": 5553,
      "એમના": 5554,
      "મુદ્દો": 5555,
      "અધિકારીઓએ": 5556,
      "ચુકાદ": 5557,
      "નીતિન": 5558,
      "ઈંચ": 5559,
      "પ્રસ્તા": 5560,
      "ગુમાવી": 5561,
      "સંઘર્ષ": 5562,
      "##કોર્ટે": 5563,
      "દંપ": 5564,
      "પહેલેથી": 5565,
      "##ર્સને": 5566,
      "ફટકાર": 5567,
      "બાઇક": 5568,
      "મગફળી": 5569,
      "##વાયો": 5570,
      "##ર્ના": 5571,
      "પોઇન્ટ": 5572,
      "પડ્યું": 5573,
      "ડિજ": 5574,
      "અરજ": 5575,
      "બનેલા": 5576,
      "બાંગ્લા": 5577,
      "વિટામ": 5578,
      "કિશોર": 5579,
      "##એચ": 5580,
      "##િંગ્સ": 5581,
      "આમંત્ર": 5582,
      "રિસર્ચ": 5583,
      "પુરાવા": 5584,
      "કિસ": 5585,
      "ગાર્ડ": 5586,
      "ડિવ": 5587,
      "##ફોર્": 5588,
      "હાલતમાં": 5589,
      "જોરદાર": 5590,
      "કિન": 5591,
      "##કંપ": 5592,
      "આપઘાત": 5593,
      "શકશો": 5594,
      "પીએસ": 5595,
      "પરિવર્તન": 5596,
      "ખાતા": 5597,
      "પાકિસ્તાનના": 5598,
      "કલાકાર": 5599,
      "નહોતો": 5600,
      "સ્માર્ટફોન": 5601,
      "કેમેરા": 5602,
      "ઑફ": 5603,
      "##કોનો": 5604,
      "##્રેટ": 5605,
      "શિવસેના": 5606,
      "##વાણી": 5607,
      "##ડીઓ": 5608,
      "##લોની": 5609,
      "રૂા": 5610,
      "ત્યારથી": 5611,
      "માણસો": 5612,
      "વિધાનસભાની": 5613,
      "ડૂ": 5614,
      "##સીસી": 5615,
      "2016": 5616,
      "રથ": 5617,
      "લિસ્ટ": 5618,
      "##ાઈન": 5619,
      "રાખવાની": 5620,
      "ખોટા": 5621,
      "નવસારી": 5622,
      "પ્રદેશમાં": 5623,
      "ડુંગળી": 5624,
      "માછલી": 5625,
      "સપોર્ટ": 5626,
      "બેંગ": 5627,
      "નિમિત": 5628,
      "સીર": 5629,
      "અત્રે": 5630,
      "૨૦૧૯": 5631,
      "##મરાન": 5632,
      "આત્": 5633,
      "ગું": 5634,
      "જપ્ત": 5635,
      "તાર": 5636,
      "રુપ": 5637,
      "મળેલી": 5638,
      "રોજગાર": 5639,
      "નવરાત": 5640,
      "હિસ્સો": 5641,
      "કેબિને": 5642,
      "દોર": 5643,
      "પુછ": 5644,
      "શક્યા": 5645,
      "દિન": 5646,
      "રક્ષા": 5647,
      "##ળની": 5648,
      "રાજ્યની": 5649,
      "મોદીના": 5650,
      "શિક્ષક": 5651,
      "હિંદુ": 5652,
      "ભીડ": 5653,
      "માધ્યમથી": 5654,
      "કંટ્રોલ": 5655,
      "અવાર": 5656,
      "ગ્રીન": 5657,
      "##તરો": 5658,
      "કામો": 5659,
      "કોરોનાનો": 5660,
      "પરિવારને": 5661,
      "ફ્": 5662,
      "રાં": 5663,
      "##લનો": 5664,
      "સાહેબ": 5665,
      "સુરતના": 5666,
      "પાકિસ્તાની": 5667,
      "આકાશ": 5668,
      "હિમ": 5669,
      "##ગણ": 5670,
      "##કશન": 5671,
      "માફ": 5672,
      "##ાઈટ": 5673,
      "##દ્દી": 5674,
      "ટેક": 5675,
      "હાઇવે": 5676,
      "##ભૂમિ": 5677,
      "ખર્ચે": 5678,
      "##રાગત": 5679,
      "સંકટ": 5680,
      "શાહે": 5681,
      "રાશિના": 5682,
      "મનોર": 5683,
      "પ્લેટફોર્મ": 5684,
      "##વેન્ટ": 5685,
      "હરિયાણા": 5686,
      "ગ્રાહક": 5687,
      "અદાલ": 5688,
      "##સીબ": 5689,
      "##્યુટર": 5690,
      "##૦૦૦": 5691,
      "સુવિધાઓ": 5692,
      "આસપાસના": 5693,
      "મોકલવામાં": 5694,
      "રિટ": 5695,
      "પોપ": 5696,
      "કારમાં": 5697,
      "પૂરું": 5698,
      "આંગણ": 5699,
      "૨૦૨૦": 5700,
      "પ્રસ્તાવ": 5701,
      "કથા": 5702,
      "મમતા": 5703,
      "મેક": 5704,
      "યોગી": 5705,
      "કાયદેસર": 5706,
      "એક્ટ્રેસ": 5707,
      "મહારાજ": 5708,
      "આને": 5709,
      "##ઘા": 5710,
      "જેનું": 5711,
      "##્યુટ": 5712,
      "યુએસ": 5713,
      "પૂરો": 5714,
      "પેપર": 5715,
      "શ્રીલ": 5716,
      "in": 5717,
      "##ગન": 5718,
      "##જરી": 5719,
      "##િશ્": 5720,
      "વોટ્સ": 5721,
      "પૃથ્વી": 5722,
      "33": 5723,
      "દલી": 5724,
      "વાવ": 5725,
      "##ારોહ": 5726,
      "એમની": 5727,
      "નુ": 5728,
      "##િયામાં": 5729,
      "##િલના": 5730,
      "બહેનો": 5731,
      "વિરૂદ્ધ": 5732,
      "ઐતિહાસિક": 5733,
      "બાહ": 5734,
      "ટ્રેડ": 5735,
      "ઠાકોર": 5736,
      ".)": 5737,
      "એનો": 5738,
      "તલ": 5739,
      "ફાઇન": 5740,
      "##ંશ": 5741,
      "પોલિ": 5742,
      "ઉપચાર": 5743,
      "મહાદે": 5744,
      "તારા": 5745,
      "લાગશે": 5746,
      "ટકાનો": 5747,
      "મામલત": 5748,
      "રેલ્વે": 5749,
      "ડ્રગ્સ": 5750,
      "વૈજ્ઞાનિક": 5751,
      "તૂટી": 5752,
      "આંગણવાડી": 5753,
      "ઝોન": 5754,
      "જલ્": 5755,
      "પર્": 5756,
      "સખત": 5757,
      "##સાદ": 5758,
      "##ઝનમાં": 5759,
      "##il": 5760,
      "##રસિંહ": 5761,
      "ખુલ્લા": 5762,
      "ચીનના": 5763,
      "ધ્યાને": 5764,
      "મોડેલ": 5765,
      "##િકારક": 5766,
      "મહત્તમ": 5767,
      "સાઉથ": 5768,
      "અસ્ત": 5769,
      "અંજ": 5770,
      "થા": 5771,
      "મુકા": 5772,
      "##ત્તી": 5773,
      "બોલા": 5774,
      "પ્રારંભિક": 5775,
      "ખુલ": 5776,
      "નક": 5777,
      "બિમ": 5778,
      "કેશ": 5779,
      "લાશ": 5780,
      "મંદિરના": 5781,
      "ટૂંકા": 5782,
      "ચૌધરી": 5783,
      "ટન": 5784,
      "##ાગર": 5785,
      "##િંગની": 5786,
      "મહારાષ્ટ્રમાં": 5787,
      "ટાળ": 5788,
      "##વાલા": 5789,
      "##ક્તો": 5790,
      "ભાજપની": 5791,
      "મહેશ": 5792,
      "મહિનાથી": 5793,
      "સ્ત્રીઓ": 5794,
      "પ્રતિનિધિ": 5795,
      "એશિયા": 5796,
      "રહેવાની": 5797,
      "2014": 5798,
      "પરંપરાગત": 5799,
      "બાઈક": 5800,
      "પાય": 5801,
      "મિસ": 5802,
      "હલ": 5803,
      "##ફ્": 5804,
      "##ૂન": 5805,
      "##id": 5806,
      "બેટ્સ": 5807,
      "##ન્સના": 5808,
      "##ટોક": 5809,
      "ગર્ભ": 5810,
      "નકારાત્મક": 5811,
      "##જાગ્ર": 5812,
      "માપ": 5813,
      "કોટ": 5814,
      "રહેતો": 5815,
      "વીડિયોમાં": 5816,
      "બિર": 5817,
      "રખ": 5818,
      "નીપજ": 5819,
      "પાડવા": 5820,
      "વ્હી": 5821,
      "જ્યોતિ": 5822,
      "૨૯": 5823,
      "##તાનો": 5824,
      "##ાસા": 5825,
      "ડોક્ટર": 5826,
      "ખેડુ": 5827,
      "માંગો": 5828,
      "ગ્રાહકોને": 5829,
      "કોન્ફર": 5830,
      "##િએ": 5831,
      "##પત": 5832,
      "થયુ": 5833,
      "આરોપીઓ": 5834,
      "બનાવીને": 5835,
      "તબક્કામાં": 5836,
      "પાટીદાર": 5837,
      "વાવેતર": 5838,
      "ત્યા": 5839,
      "૭૦": 5840,
      "રહેવાસી": 5841,
      "હાલના": 5842,
      "મહિલાને": 5843,
      "ચીની": 5844,
      "કૃષ્ણ": 5845,
      "વિષે": 5846,
      "પ્રોત્સાહન": 5847,
      "વાવાઝો": 5848,
      "અલ્પ": 5849,
      "ધ્ર": 5850,
      "##he": 5851,
      "##ારમાં": 5852,
      "##ાદુ": 5853,
      "રહો": 5854,
      "જાપાન": 5855,
      "રજુઆત": 5856,
      "અનુકૂળ": 5857,
      "થવાના": 5858,
      "##ંથ": 5859,
      "##કૃ": 5860,
      "રાજધાની": 5861,
      "નિરા": 5862,
      "નિદાન": 5863,
      "માંગી": 5864,
      "##િમિ": 5865,
      "મહેન્દ્ર": 5866,
      "હજારથી": 5867,
      "પ્રભુ": 5868,
      "બ્રેક": 5869,
      "કસર": 5870,
      "પથ": 5871,
      "કરાયેલા": 5872,
      "ચેમ્પ": 5873,
      "ઘટનાઓ": 5874,
      "પરિવારમાં": 5875,
      "##ાર્થના": 5876,
      "મિલિયન": 5877,
      "ખસેડવામાં": 5878,
      "ભવિષ્યમાં": 5879,
      "કારણોસર": 5880,
      "મોહમ્": 5881,
      "જતો": 5882,
      "ઝાડ": 5883,
      "##સુખ": 5884,
      "જોડી": 5885,
      "ધીરે": 5886,
      "સંસ્થાઓ": 5887,
      "હાઈવે": 5888,
      "આચાર્ય": 5889,
      "##ુડ": 5890,
      "વ્યસ્ત": 5891,
      "લગાવ્યો": 5892,
      "ગ્રામજનો": 5893,
      "કાશ્મીરમાં": 5894,
      "મહાદેવ": 5895,
      "ખાઈ": 5896,
      "##ઘટના": 5897,
      "કરીશું": 5898,
      "ઘટનાસ્થ": 5899,
      "બાંગ્લાદેશ": 5900,
      "ઉલ્લ": 5901,
      "સજ્જ": 5902,
      "##ટને": 5903,
      "##પની": 5904,
      "##પેટ": 5905,
      "##ણની": 5906,
      "સાહ": 5907,
      "##કાઉન્ટ": 5908,
      "વિજેતા": 5909,
      "આવનારા": 5910,
      "બાળકોના": 5911,
      "સીધા": 5912,
      "બહુમ": 5913,
      "મુંબઈમાં": 5914,
      "દિનેશ": 5915,
      "ઉભ": 5916,
      "##કુલ": 5917,
      "##લીક": 5918,
      "હોસ્પિટલના": 5919,
      "બળાત્": 5920,
      "વેબસ": 5921,
      "સપ્": 5922,
      "##વરી": 5923,
      "##ટેક": 5924,
      "આપવી": 5925,
      "લોકોનું": 5926,
      "માંસ": 5927,
      "કુશ": 5928,
      "##પ્પણી": 5929,
      "ધોરણે": 5930,
      "કબ્": 5931,
      "હસ્ત": 5932,
      "કેના": 5933,
      "સ્વય": 5934,
      "અવસાન": 5935,
      "યોજાશે": 5936,
      "ઈન": 5937,
      "મસ": 5938,
      "શહેરોમાં": 5939,
      "રોગો": 5940,
      "શૈલી": 5941,
      "પ્રેરણા": 5942,
      "વૉ": 5943,
      "##ોટ": 5944,
      "##પથ": 5945,
      "વધતી": 5946,
      "ચેનલ": 5947,
      "રાત્રી": 5948,
      "ભેગા": 5949,
      "પ્રયત્નો": 5950,
      "બતાવી": 5951,
      "આફ્રિકા": 5952,
      "##જાગ્રસ્ત": 5953,
      "અછ": 5954,
      "યાર્ડ": 5955,
      "લશ્": 5956,
      "##ૂના": 5957,
      "સાહિત": 5958,
      "##કેલા": 5959,
      "##ર્સની": 5960,
      "મતદારો": 5961,
      "કપૂ": 5962,
      "##ઘાટ": 5963,
      "નાશ": 5964,
      "સુધારા": 5965,
      "આદિત્ય": 5966,
      "દ્વારકા": 5967,
      "ઠીક": 5968,
      "ડાઉન": 5969,
      "બેઠા": 5970,
      "રાજકોટના": 5971,
      "##કર્મી": 5972,
      "શૈક્ષણિક": 5973,
      "વાર્તા": 5974,
      "ભ્રષ્ટાચાર": 5975,
      "##મને": 5976,
      "##િવાર": 5977,
      "લગાવવામાં": 5978,
      "અપહરણ": 5979,
      "ભાવે": 5980,
      "વિશ્વના": 5981,
      "બાંધી": 5982,
      "યુનિટ": 5983,
      "વલસાડ": 5984,
      "સંજોગોમાં": 5985,
      "ટેબલ": 5986,
      "રાતે": 5987,
      "મિશન": 5988,
      "પ્રશંસા": 5989,
      "અનુભવી": 5990,
      "##ઠ્ઠી": 5991,
      "ઈન્ટરને": 5992,
      "કદ": 5993,
      "##ST": 5994,
      "સફર": 5995,
      "લખી": 5996,
      "શરૃ": 5997,
      "જલ્દી": 5998,
      "બેટિંગ": 5999,
      "નિધન": 6000,
      "અમિતા": 6001,
      "અધિકારીઓને": 6002,
      "ડૉક્ટર": 6003,
      "સંબોધ": 6004,
      "અનો": 6005,
      "આહાર": 6006,
      "##નનું": 6007,
      "##ટિલ": 6008,
      "##ર્વાદ": 6009,
      "સ્ટ્ર": 6010,
      "છોકરા": 6011,
      "કરોડો": 6012,
      "રૂપિયાનો": 6013,
      "અર્જુ": 6014,
      "શુભે": 6015,
      "ખેલાડીઓ": 6016,
      "વકીલ": 6017,
      "##ation": 6018,
      "દૈનિક": 6019,
      "ઘુ": 6020,
      "૪૫": 6021,
      "##ઝિક": 6022,
      "##લબ": 6023,
      "##પ્સ": 6024,
      "##જ્ઞા": 6025,
      "માર્કેટમાં": 6026,
      "##ઠે": 6027,
      "##ણીય": 6028,
      "સહકાર": 6029,
      "પ્રદેશના": 6030,
      "જાણીએ": 6031,
      "વિચારી": 6032,
      "આક્રમ": 6033,
      "એવામાં": 6034,
      "##બોલ": 6035,
      "##ct": 6036,
      "પ્રખ્યાત": 6037,
      "ઉપા": 6038,
      "જન્મદિવ": 6039,
      "જિંદગી": 6040,
      "રાજીનામું": 6041,
      "જોગવાઈ": 6042,
      "સંરક્ષણ": 6043,
      "શાળામાં": 6044,
      "##હાન": 6045,
      "પ્રવાહી": 6046,
      "સ્કે": 6047,
      "જણાવવામાં": 6048,
      "અથડ": 6049,
      "ડિજિટલ": 6050,
      "પૌ": 6051,
      "##સન્સ": 6052,
      "યોજાન": 6053,
      "પ્રોગ્રામ": 6054,
      "આશી": 6055,
      "રિવ": 6056,
      "પ્રાર્થના": 6057,
      "##જીને": 6058,
      "સામાન": 6059,
      "##તોમાં": 6060,
      "મોદીની": 6061,
      "દિલ્હીના": 6062,
      "##વાનુ": 6063,
      "રૂપાણીએ": 6064,
      "એપ્લિક": 6065,
      "ડબલ": 6066,
      "હડતા": 6067,
      "##સ્લા": 6068,
      "##લ્ફ": 6069,
      "પૂર્વે": 6070,
      "ક્રિયા": 6071,
      "મુકેશ": 6072,
      ".,": 6073,
      "ગિ": 6074,
      "ઘઉં": 6075,
      "સંતુ": 6076,
      "પ્રક": 6077,
      "કોર": 6078,
      "##ંદી": 6079,
      "મારું": 6080,
      "સમાધાન": 6081,
      "શ્રીલંકા": 6082,
      "આખો": 6083,
      "કંગના": 6084,
      "પ્રસાર": 6085,
      "##ાળુ": 6086,
      "સીસીટી": 6087,
      "શ્રદ્ધ": 6088,
      "##ઝીલેન્ડ": 6089,
      "સાહિત્ય": 6090,
      "છુટ": 6091,
      "બ્લા": 6092,
      "##વાડ": 6093,
      "##િયાએ": 6094,
      "સહન": 6095,
      "વાંકાને": 6096,
      "ભરૂચ": 6097,
      "ઇંગ્લેન્ડ": 6098,
      "છતા": 6099,
      "##ul": 6100,
      "ખુદ": 6101,
      "ઇન્ડસ્ટ્રી": 6102,
      "વહેંચ": 6103,
      "શખ્સો": 6104,
      "જુનાગઢ": 6105,
      "##ાવર": 6106,
      "રાજી": 6107,
      "##સ્પતિ": 6108,
      "જેટલું": 6109,
      "ધરાવતી": 6110,
      "સમયગાળા": 6111,
      "ચુંટ": 6112,
      "##નમ": 6113,
      "##ષી": 6114,
      "##ાંતર": 6115,
      "આપને": 6116,
      "ખાને": 6117,
      "એસિડ": 6118,
      "સ્થળોએ": 6119,
      "સંપર્કમાં": 6120,
      "48": 6121,
      "કુમ": 6122,
      "દિપ": 6123,
      "##વત": 6124,
      "સેવ": 6125,
      "પેકે": 6126,
      "ચાલતી": 6127,
      "##દરાબાદ": 6128,
      "શોધવા": 6129,
      "બનાસકાંઠા": 6130,
      "નિત": 6131,
      "કેજરી": 6132,
      "##ડીની": 6133,
      "##ંદુર": 6134,
      "આવેદન": 6135,
      "ભાજપને": 6136,
      "##િનેશન": 6137,
      "કપડા": 6138,
      "ફટકારી": 6139,
      "સંદર્ભે": 6140,
      "34": 6141,
      "##પિતા": 6142,
      "198": 6143,
      "આગળની": 6144,
      "રોગચ": 6145,
      "બળાત્કાર": 6146,
      "સીસીટીવી": 6147,
      "એમ્": 6148,
      "ધુ": 6149,
      "મહી": 6150,
      "માથ": 6151,
      "##ન્ગ": 6152,
      "બાપુ": 6153,
      "પ્રોફ": 6154,
      "ચૂકવણી": 6155,
      "અડધા": 6156,
      "##દનશીલ": 6157,
      "હળવા": 6158,
      "હૈદરાબાદ": 6159,
      "વણ": 6160,
      "સપ": 6161,
      "યુનિ": 6162,
      "લાગ્યું": 6163,
      "બાથ": 6164,
      "મહિલાએ": 6165,
      "ભૂલી": 6166,
      "સસ્પે": 6167,
      "##યાત્રા": 6168,
      "વિજ્ઞાન": 6169,
      "બેસ્ટ": 6170,
      "વેચી": 6171,
      "બોટલ": 6172,
      "ભૂકંપ": 6173,
      "ઘટનાની": 6174,
      "દિલીપ": 6175,
      "નદીમાં": 6176,
      "Gujar": 6177,
      "ગણા": 6178,
      "તફ": 6179,
      "પોઈન્ટ": 6180,
      "બોક્સ": 6181,
      "સૈન્ય": 6182,
      "પાટણ": 6183,
      "ઘટીને": 6184,
      "લાવવામાં": 6185,
      "##કતો": 6186,
      "##નાલ્ડ": 6187,
      "માટેનો": 6188,
      "ચોથા": 6189,
      "આઈપી": 6190,
      "અમિતાભ": 6191,
      "ગાળા": 6192,
      "તેનાં": 6193,
      "હોટેલ": 6194,
      "અટકાયત": 6195,
      "૨૦૨૧": 6196,
      "મંજૂર": 6197,
      "અગત": 6198,
      "##ia": 6199,
      "માફી": 6200,
      "સાધન": 6201,
      "ઉપરથી": 6202,
      "વરસાદી": 6203,
      "ખરીદવા": 6204,
      "ગ્લા": 6205,
      "સીટી": 6206,
      "જેમણે": 6207,
      "ગેંગ": 6208,
      "મહાનગરપાલિકા": 6209,
      "આની": 6210,
      "ઓક": 6211,
      "ડિલ": 6212,
      "બાજ": 6213,
      "##re": 6214,
      "##ન્ક": 6215,
      "વિસ્ફો": 6216,
      "જેણે": 6217,
      "##જીએ": 6218,
      "##સાથી": 6219,
      "શિક્ષકો": 6220,
      "વોટર": 6221,
      "સમુદાય": 6222,
      "સિંહે": 6223,
      "હેરાન": 6224,
      "વિનંતી": 6225,
      "અગત્ય": 6226,
      "##રીત": 6227,
      "##લ્પો": 6228,
      "બદલા": 6229,
      "ગયાં": 6230,
      "મેદાનમાં": 6231,
      "સ્ટેડ": 6232,
      "ચોંક": 6233,
      "વિક્રમ": 6234,
      "##વાયેલા": 6235,
      "ક્રાઇમ": 6236,
      "માંગતા": 6237,
      "વાઘેલા": 6238,
      "રિઝર્વ": 6239,
      "##એપ": 6240,
      "મહાસ": 6241,
      "##સીને": 6242,
      "મામલતદાર": 6243,
      "ગમ": 6244,
      "જવાનું": 6245,
      "##પિં": 6246,
      "પ્રદાન": 6247,
      "રહીને": 6248,
      "વડોદરામાં": 6249,
      "ઊંચી": 6250,
      "મિલકત": 6251,
      "ઉલ્લંઘ": 6252,
      "38": 6253,
      "44": 6254,
      "##્રલ": 6255,
      "ઉઠાવી": 6256,
      "સંશોધ": 6257,
      "દીપિકા": 6258,
      "ટાઈ": 6259,
      "બધ": 6260,
      "વિર": 6261,
      "સમારોહ": 6262,
      "દેખાઈ": 6263,
      "અટકાવવા": 6264,
      "##વ્યવ": 6265,
      "##નથી": 6266,
      "##ક્ષામાં": 6267,
      "યુગ": 6268,
      "બિગ": 6269,
      "પૂરતી": 6270,
      "મેડલ": 6271,
      "ફરજિયાત": 6272,
      "##ન્દી": 6273,
      "##ડાએ": 6274,
      "છોટા": 6275,
      "##પ્પા": 6276,
      "પટેલની": 6277,
      "બ્રિજ": 6278,
      "સ્ટોક": 6279,
      "સચિન": 6280,
      "ટિપ્પણી": 6281,
      "ફેશન": 6282,
      "મલ્ટ": 6283,
      "પુષ્": 6284,
      "અભાવ": 6285,
      "એમણે": 6286,
      "શેખ": 6287,
      "અસામ": 6288,
      "મેનેજર": 6289,
      "વધારાની": 6290,
      "અંગ્રેજી": 6291,
      "આંચ": 6292,
      "ઠંડ": 6293,
      "પત": 6294,
      "શનિ": 6295,
      "##ફ્રે": 6296,
      "હોટલ": 6297,
      "બેક": 6298,
      "##ડાઓ": 6299,
      "સુધીનો": 6300,
      "આશ્ર": 6301,
      "૨૦૧૮": 6302,
      "એટી": 6303,
      "##સં": 6304,
      "##ૂં": 6305,
      "##સ્કો": 6306,
      "##મેલ": 6307,
      "શંકાસ્પદ": 6308,
      "કોર્પોરેટ": 6309,
      "જર્મ": 6310,
      "##ચક": 6311,
      "##ચલ": 6312,
      "સુચના": 6313,
      "##જીવ": 6314,
      "અનુસ": 6315,
      "જરૂરિયા": 6316,
      "ઓર્ડર": 6317,
      "જોશી": 6318,
      "##લેસ": 6319,
      "રાજપૂ": 6320,
      "##ન્દ્રા": 6321,
      "##મ્પલ": 6322,
      "જાતને": 6323,
      "પ્રકાશિત": 6324,
      "રવિવાર": 6325,
      "છેલ્લાં": 6326,
      "લાઇન": 6327,
      "##ેય": 6328,
      "##ેક્સ": 6329,
      "##માર્": 6330,
      "##ૂની": 6331,
      "##દિત": 6332,
      "આવતું": 6333,
      "સિને": 6334,
      "ઉગ્ર": 6335,
      "દલિત": 6336,
      "##ામણ": 6337,
      "પરિવારની": 6338,
      "શુદ્ધ": 6339,
      "વિભાગની": 6340,
      "દોરી": 6341,
      "પક્ષના": 6342,
      "સ્ટેન્ડ": 6343,
      "યથાવત": 6344,
      "દહે": 6345,
      "##લાત": 6346,
      "ફિલ્મના": 6347,
      "અરે": 6348,
      "સવાલો": 6349,
      "##ક્ચર": 6350,
      "##િત્": 6351,
      "##ારીયા": 6352,
      "લેન્ડ": 6353,
      "વનસ્પતિ": 6354,
      "પાંદ": 6355,
      "સરહદ": 6356,
      "##ર્નામેન્ટ": 6357,
      "થવાનું": 6358,
      "મિક્સ": 6359,
      "સિન": 6360,
      "##ળુ": 6361,
      "##ેરા": 6362,
      "##ર્સે": 6363,
      "##ામે": 6364,
      "રોકી": 6365,
      "બાળકોની": 6366,
      "65": 6367,
      "ગેટ": 6368,
      "ટર્મ": 6369,
      "તંદુર": 6370,
      "દાં": 6371,
      "દિક": 6372,
      "૩૭": 6373,
      "જોયા": 6374,
      "જોયું": 6375,
      "જણાય": 6376,
      "##સાથે": 6377,
      "સંચાલન": 6378,
      "દુર્ઘટના": 6379,
      "નિષ્ણાત": 6380,
      "ગોંડલ": 6381,
      "ઈચ્છા": 6382,
      "ઘાટ": 6383,
      "થકી": 6384,
      "##વતા": 6385,
      "##ીની": 6386,
      "##ધારા": 6387,
      "##મહ": 6388,
      "##િયાં": 6389,
      "પહેલાથી": 6390,
      "પ્રતિષ્ઠ": 6391,
      "સવારથી": 6392,
      "વાતાવરણમાં": 6393,
      "પરંપરા": 6394,
      "જૈન": 6395,
      "''": 6396,
      "જટિલ": 6397,
      "ભરા": 6398,
      "મણ": 6399,
      "##વણ": 6400,
      "##પિંગ": 6401,
      "##નોની": 6402,
      "રહેતાં": 6403,
      "##માના": 6404,
      "##્સની": 6405,
      "સામેની": 6406,
      "ચાલક": 6407,
      "બચત": 6408,
      "રસ્તાઓ": 6409,
      "પ્રવાસીઓ": 6410,
      "અવિ": 6411,
      "ટ્રી": 6412,
      "ફાં": 6413,
      "ફ્રા": 6414,
      "બટા": 6415,
      "હરી": 6416,
      "##બાગ": 6417,
      "##નાત": 6418,
      "માગે": 6419,
      "ઉપરો": 6420,
      "##પ્રમુખ": 6421,
      "સિંધ": 6422,
      "##ર્સના": 6423,
      "ડિસ્ટ": 6424,
      "ઘટનામાં": 6425,
      "જોડાયેલ": 6426,
      "આદર્શ": 6427,
      "શિલ્": 6428,
      "ગુપ્ત": 6429,
      "ફિલ્મોમાં": 6430,
      "હકીકતમાં": 6431,
      "શુભેચ્છા": 6432,
      "૮૦": 6433,
      "##ot": 6434,
      "પ્રતી": 6435,
      "આપેલ": 6436,
      "લીગ": 6437,
      "છોડીને": 6438,
      "કાચ": 6439,
      "પેઢી": 6440,
      "પ્રાચીન": 6441,
      "##કાળમાં": 6442,
      "##ખ્ત": 6443,
      "સ્પેશિયલ": 6444,
      "સપ્લાય": 6445,
      "અબ્": 6446,
      "વટ": 6447,
      "વપર": 6448,
      "##શ્ર": 6449,
      "##ટેગ": 6450,
      "કામકાજ": 6451,
      "ડિરેક્ટર": 6452,
      "ફેરફારો": 6453,
      "ચકચાર": 6454,
      "ઓવરમાં": 6455,
      "દઇ": 6456,
      "##સંગ": 6457,
      "મોટર": 6458,
      "##ટીના": 6459,
      "##ન્સની": 6460,
      "કૃપા": 6461,
      "સલામતી": 6462,
      "નિકાલ": 6463,
      "નાગરિકો": 6464,
      "આટલી": 6465,
      "ઉક": 6466,
      "ઠંડા": 6467,
      "બૂ": 6468,
      "હૉ": 6469,
      "##ડેટ": 6470,
      "##ew": 6471,
      "##રીંગ": 6472,
      "##કોટ": 6473,
      "ગ્રાઉન્ડ": 6474,
      "સંવેદનશીલ": 6475,
      "ઘટનાસ્થળે": 6476,
      "ખ્યાલ": 6477,
      "અનિ": 6478,
      "દરખા": 6479,
      "કિમી": 6480,
      "નીચેના": 6481,
      "ઉઠી": 6482,
      "વાંચવા": 6483,
      "અબ": 6484,
      "રિયા": 6485,
      "##દ્યોગ": 6486,
      "##લોક": 6487,
      "##માતા": 6488,
      "અંગત": 6489,
      "વરસાદના": 6490,
      "ફેલાય": 6491,
      "આકર્ષક": 6492,
      "દસ્તાવેજો": 6493,
      "કલ્પના": 6494,
      "પશુપાલન": 6495,
      "ખતરના": 6496,
      "નર્સ": 6497,
      "પેર": 6498,
      "રવાના": 6499,
      "##નાઇ": 6500,
      "હોદ્": 6501,
      "અમર": 6502,
      "સ્ટોર": 6503,
      "##ૃત્ય": 6504,
      "નોંધણી": 6505,
      "તાકાત": 6506,
      "મહિલાઓને": 6507,
      "ટીમમાં": 6508,
      "લાઈફ": 6509,
      "લક્ષ્ય": 6510,
      "હાંસલ": 6511,
      "55": 6512,
      "ગઠ": 6513,
      "ફેડ": 6514,
      "##નમાંથી": 6515,
      "ડોનાલ્ડ": 6516,
      "વ્યક્તિઓ": 6517,
      "મંજુ": 6518,
      "ઈન્સ્ટ": 6519,
      "મનોજ": 6520,
      "પુરૂષ": 6521,
      "ધ્વ": 6522,
      "##વાશે": 6523,
      "##ાવેલ": 6524,
      "##ન્સિલ": 6525,
      "મૃતક": 6526,
      "##મ્બરમાં": 6527,
      "લડાઈ": 6528,
      "પંથકમાં": 6529,
      "લીંબુ": 6530,
      "##કરે": 6531,
      "કરતું": 6532,
      "##વેસ્ટ": 6533,
      "સીમા": 6534,
      "એજન્ટ": 6535,
      "મંત્રાલયે": 6536,
      "વિધિ": 6537,
      "ટીકા": 6538,
      "જાતિ": 6539,
      "આય": 6540,
      "તાવ": 6541,
      "બાલ": 6542,
      "##ાંજ": 6543,
      "મેયર": 6544,
      "ત્રિવે": 6545,
      "પાણીનો": 6546,
      "##ગાડ": 6547,
      "##ખાના": 6548,
      "ખતરનાક": 6549,
      "તદ્": 6550,
      "##ાતું": 6551,
      "આપતાં": 6552,
      "કિંમ": 6553,
      "ઊંચા": 6554,
      "PM": 6555,
      "કેને": 6556,
      "સમૂહ": 6557,
      "નિર્ણયો": 6558,
      "સલામત": 6559,
      "નિકાસ": 6560,
      "આવતીકાલે": 6561,
      "મ્યુનિ": 6562,
      "બોલીવુ": 6563,
      "મોહમ્મદ": 6564,
      "અહી": 6565,
      "દળ": 6566,
      "##કું": 6567,
      "બેદર": 6568,
      "મુક્તિ": 6569,
      "સીલ": 6570,
      "બીજેપી": 6571,
      "અસ્તિત્વ": 6572,
      "ઊર્": 6573,
      "##ડાસ": 6574,
      "##કેશ": 6575,
      "માછી": 6576,
      "પ્રાઇ": 6577,
      "દીઠ": 6578,
      "પહોંચે": 6579,
      "મેળવો": 6580,
      "કોર્ટના": 6581,
      "સોશ્યલ": 6582,
      "મૂળભૂત": 6583,
      "એપાર્ટમેન્ટ": 6584,
      "સંકળાયેલા": 6585,
      "આશીર્વાદ": 6586,
      "ઉતરી": 6587,
      "ઘોષ": 6588,
      "રમા": 6589,
      "વીર": 6590,
      "##બ્લિક": 6591,
      "ચીનની": 6592,
      "##પુરના": 6593,
      "રોકાણકાર": 6594,
      "એમ્બ": 6595,
      "ડાં": 6596,
      "થવાનો": 6597,
      "૩૩": 6598,
      "મોહન": 6599,
      "##કીંગ": 6600,
      "લેવાનું": 6601,
      "કંપનીની": 6602,
      "હિન્દી": 6603,
      "ખેડૂતોના": 6604,
      "ખેડૂતોની": 6605,
      "મ્યુનિસ": 6606,
      "ક્યાંક": 6607,
      "ભાગીદારી": 6608,
      "નકલી": 6609,
      "મસ્": 6610,
      "હકારાત્મક": 6611,
      "હસ્તે": 6612,
      "##નારો": 6613,
      "વિભ": 6614,
      "સેક્ટ": 6615,
      "જાઓ": 6616,
      "વાપર": 6617,
      "##બાની": 6618,
      "....": 6619,
      "પીડિત": 6620,
      "ઈંગ્લેન્ડ": 6621,
      "છેલ્લે": 6622,
      "વિકલ્પો": 6623,
      "કાયમી": 6624,
      "એકમાત્ર": 6625,
      "ખાદ": 6626,
      "##ra": 6627,
      "પ્રાંત": 6628,
      "સુપ્ર": 6629,
      "##દાતા": 6630,
      "બીએસ": 6631,
      "##બીર": 6632,
      "અનુમાન": 6633,
      "પ્રસાદ": 6634,
      "વિચારણા": 6635,
      "બાજુમાં": 6636,
      "લાયક": 6637,
      "##ધારી": 6638,
      "##ાઈઝ": 6639,
      "સમયસર": 6640,
      "સ્ટ્રો": 6641,
      "દેવું": 6642,
      "2015": 6643,
      "##િઝન": 6644,
      "વાઇરસ": 6645,
      "જણાવાયું": 6646,
      "ફ્લોર": 6647,
      "વેબસાઇટ": 6648,
      "ખેલ": 6649,
      "ઠર": 6650,
      "##નામ": 6651,
      "પ્રેસ": 6652,
      "માર્યો": 6653,
      "કલેક્ટર": 6654,
      "યોગદાન": 6655,
      "દાહોદ": 6656,
      "લિટર": 6657,
      "##ગાવી": 6658,
      "ભારતીયો": 6659,
      "સ્થળો": 6660,
      "મુદ્દામાલ": 6661,
      "નહોતું": 6662,
      "##ાત્મા": 6663,
      "અયો": 6664,
      "##તને": 6665,
      "##વ્યૂ": 6666,
      "##ya": 6667,
      "વિજ": 6668,
      "મળેલ": 6669,
      "કિડની": 6670,
      "ક્વાર્ટ": 6671,
      "ફરીયાદ": 6672,
      "ક્રીમ": 6673,
      "ટક્કર": 6674,
      "##્સે": 6675,
      "##ડતી": 6676,
      "##વાલે": 6677,
      "##ન્ટી": 6678,
      "વેગ": 6679,
      "પૂજ": 6680,
      "##ન્સને": 6681,
      "જેમને": 6682,
      "વેચવા": 6683,
      "ચુકવણી": 6684,
      "લાઇફ": 6685,
      "વેબસાઈ": 6686,
      "એસોસિ": 6687,
      "ગેરકાયદેસર": 6688,
      "કશું": 6689,
      "##વલ્લી": 6690,
      "કેટલાય": 6691,
      "ક્રાઈમ": 6692,
      "સ્પોર્ટ": 6693,
      "ઉત્તરપ્રદેશ": 6694,
      "પંડ્યા": 6695,
      "ડાયાબ": 6696,
      "ઓર્": 6697,
      "ખામી": 6698,
      "માર્યા": 6699,
      "ઇન્ડિયન": 6700,
      "કૌશ": 6701,
      "કચ્છમાં": 6702,
      "કોશિશ": 6703,
      "શહીદ": 6704,
      "મહોત્સવ": 6705,
      "##ાતા": 6706,
      "##મય": 6707,
      "સંવાદ": 6708,
      "જણાવેલ": 6709,
      "નોંધાઈ": 6710,
      "જાહેરમાં": 6711,
      "સ્વાદિષ્ટ": 6712,
      "##ચ્યુઅલ": 6713,
      "ગેરકાયદે": 6714,
      "ચરબી": 6715,
      "હુકમ": 6716,
      "દુખાવો": 6717,
      "મનોરંજન": 6718,
      "તને": 6719,
      "મચ્છ": 6720,
      "##વાટ": 6721,
      "સ્ને": 6722,
      "આપવું": 6723,
      "##ટીસ": 6724,
      "##િયેટ": 6725,
      "##રૂમ": 6726,
      "સોની": 6727,
      "ગયેલ": 6728,
      "બાળકના": 6729,
      "દૂધની": 6730,
      "સેકન્ડ": 6731,
      "ચેમ્પિયન": 6732,
      "કમી": 6733,
      "મજૂ": 6734,
      "##ાતાં": 6735,
      "##ાળે": 6736,
      "શરીરના": 6737,
      "રિપોર્ટમાં": 6738,
      "ઠાકરે": 6739,
      "##em": 6740,
      "##રેક્ટ": 6741,
      "##્યુલર": 6742,
      "ચોપ": 6743,
      "ધરતી": 6744,
      "અરવલ્લી": 6745,
      "શરીરને": 6746,
      "આદમી": 6747,
      "ગઇકાલે": 6748,
      "દ્રષ્ટિ": 6749,
      "સેન્ટ્રલ": 6750,
      "સિક્": 6751,
      "સ્વપ્ન": 6752,
      "\",": 6753,
      "બાગ": 6754,
      "ભૌ": 6755,
      "૩૨": 6756,
      "##વાણા": 6757,
      "બનીને": 6758,
      "રોજગારી": 6759,
      "ચીજ": 6760,
      "ઘટનાને": 6761,
      "રંગો": 6762,
      "મફત": 6763,
      "39": 6764,
      "ઝેરી": 6765,
      "ભક્તો": 6766,
      "##ર્જન": 6767,
      "કરીના": 6768,
      "ઉપવાસ": 6769,
      "નોટો": 6770,
      "મહિનાની": 6771,
      "મહારાષ્ટ્રના": 6772,
      "300": 6773,
      "અલ્": 6774,
      "બગી": 6775,
      "લાય": 6776,
      "હમ": 6777,
      "##નોમાં": 6778,
      "##ત્તમ": 6779,
      "##ડાયા": 6780,
      "પહેલો": 6781,
      "સોફ્ટ": 6782,
      "આરોપીને": 6783,
      "હળવ": 6784,
      "ગૃહમંત્રી": 6785,
      "શકીએ": 6786,
      "ઉલ્લંઘન": 6787,
      "##im": 6788,
      "કર્યાં": 6789,
      "##લેષ": 6790,
      "##જીભાઇ": 6791,
      "પેમેન્ટ": 6792,
      "##ળાના": 6793,
      "પટેલના": 6794,
      "અર્પણ": 6795,
      "શોધખો": 6796,
      "##કર્તાઓ": 6797,
      "સૂત્રોના": 6798,
      "આચર": 6799,
      "ભાજપમાં": 6800,
      "અંતમાં": 6801,
      "વોટ": 6802,
      "અર્થતંત્ર": 6803,
      "અમેરિકી": 6804,
      "પટ": 6805,
      "બચી": 6806,
      "મજ": 6807,
      "વડ": 6808,
      "શપથ": 6809,
      "##સરા": 6810,
      "માસિક": 6811,
      "બનાવ્યો": 6812,
      "કિરણ": 6813,
      "રમતા": 6814,
      "નહોતા": 6815,
      "ફોટોગ્રા": 6816,
      "બિલ્ડિંગ": 6817,
      "ભૂતપૂર્વ": 6818,
      "ચોંકાવ": 6819,
      "લડી": 6820,
      "##ચિ": 6821,
      "##જેક્શન": 6822,
      "માનવું": 6823,
      "વ્યક્તિએ": 6824,
      "મોદીને": 6825,
      "પોઝી": 6826,
      "સોસાયટીમાં": 6827,
      "ટ્રાન્સફર": 6828,
      "લોકસભાની": 6829,
      "તહેવારો": 6830,
      "ટેક્નો": 6831,
      "ડ્રાઇવ": 6832,
      "પ્લોટ": 6833,
      "ઊર્જા": 6834,
      "અયોધ્યા": 6835,
      "ગ્રો": 6836,
      "રશિયન": 6837,
      "##્ડ": 6838,
      "##ન્વ": 6839,
      "વર્તન": 6840,
      "નિર": 6841,
      "હાથે": 6842,
      "લખન": 6843,
      "વાગે": 6844,
      "હાઈકોર્ટ": 6845,
      "અકસ્માતમાં": 6846,
      "ઝાલા": 6847,
      "પ્રગટ": 6848,
      "શાખા": 6849,
      "ઘન": 6850,
      "લિમિ": 6851,
      "##વતી": 6852,
      "##ખું": 6853,
      "##BI": 6854,
      "##્રેશન": 6855,
      "એલર્ટ": 6856,
      "આશંકા": 6857,
      "મુશ્કેલીઓ": 6858,
      "મથકે": 6859,
      "ફૂલો": 6860,
      "બ્રહ્મ": 6861,
      "પ્રસિદ્ધ": 6862,
      "ચકાસણી": 6863,
      "લિમિટેડ": 6864,
      "આલ્": 6865,
      "ઈતિહાસ": 6866,
      "મું": 6867,
      "હાર્ટ": 6868,
      "##ચય": 6869,
      "##av": 6870,
      "કામદારો": 6871,
      "સાંજ": 6872,
      "કિસ્સાઓમાં": 6873,
      "મેટ્રો": 6874,
      "શોધખોળ": 6875,
      "ઉભો": 6876,
      "##્ઝ": 6877,
      "##ગંધ": 6878,
      "##હૂ": 6879,
      "##મૂ": 6880,
      "##સ્વા": 6881,
      "ચોર": 6882,
      "ભાગરૂપે": 6883,
      "રૂપિયાના": 6884,
      "પાછલા": 6885,
      "ઉત્પન્ન": 6886,
      "ફ્લાઇ": 6887,
      "ગ્લોબલ": 6888,
      "વિટામિન": 6889,
      "ઘી": 6890,
      "મૈ": 6891,
      "રાણા": 6892,
      "##સ્પી": 6893,
      "##િયાની": 6894,
      "પાછી": 6895,
      "##સાની": 6896,
      "જિલ્લાની": 6897,
      "કારણકે": 6898,
      "ખુલ્લી": 6899,
      "ઓપન": 6900,
      "દશ": 6901,
      "લઘુ": 6902,
      "સજ": 6903,
      "##ઝિટ": 6904,
      "સાડા": 6905,
      "સુન": 6906,
      "##રાધ": 6907,
      "બેસા": 6908,
      "પેન": 6909,
      "બંધારણ": 6910,
      "રાંધ": 6911,
      "મ્યુનિસિપલ": 6912,
      "99": 6913,
      "આયાત": 6914,
      "ટંક": 6915,
      "ધારણ": 6916,
      "પીપ": 6917,
      "પેનલ": 6918,
      "વ્યક્તિની": 6919,
      "##િક્ષા": 6920,
      "ચાલતા": 6921,
      "મોરબીના": 6922,
      "દારૂની": 6923,
      "મંડળ": 6924,
      "કૉંગ": 6925,
      "ઉતારી": 6926,
      "રેસ્ટોરન્ટ": 6927,
      "તદ્દન": 6928,
      "કવ": 6929,
      "ગાજ": 6930,
      "ગોલ": 6931,
      "જાવ": 6932,
      "ભેદ": 6933,
      "રજી": 6934,
      "૫૦૦": 6935,
      "##ભરના": 6936,
      "##ંતર": 6937,
      "સ્ક્ર": 6938,
      "##ળાની": 6939,
      "ડોકટ": 6940,
      "જયંત": 6941,
      "અનાજ": 6942,
      "જાગૃત": 6943,
      "ભરો": 6944,
      "રહસ્ય": 6945,
      "##શાહી": 6946,
      "જીવનસાથી": 6947,
      "સમાજમાં": 6948,
      "ડીઝલ": 6949,
      "દરખાસ્ત": 6950,
      "કસ્ટ": 6951,
      "કહેર": 6952,
      "એકલા": 6953,
      "મેર": 6954,
      "સેન્સે": 6955,
      "પહોંચા": 6956,
      "બચાવી": 6957,
      "હંમેશાં": 6958,
      "ખર": 6959,
      "ગાઈડ": 6960,
      "પ્લ": 6961,
      "##ારામ": 6962,
      "##ાયેલો": 6963,
      "##મ્મી": 6964,
      "ડૉક્ટ": 6965,
      "કાગળ": 6966,
      "હસ": 6967,
      "૩૬": 6968,
      "##ટીન": 6969,
      "અમૃત": 6970,
      "ટેકો": 6971,
      "ફિલ્મનું": 6972,
      "પ્રીમ": 6973,
      "43": 6974,
      "કેદ": 6975,
      "જેમા": 6976,
      "દેશે": 6977,
      "શ્રમિક": 6978,
      "છાપ": 6979,
      "નાસ": 6980,
      "##તક": 6981,
      "##ાંકી": 6982,
      "મહુ": 6983,
      "##્યુઅલ": 6984,
      "હેમ": 6985,
      "વિભાગમાં": 6986,
      "હિસા": 6987,
      "શેરી": 6988,
      "લાઈન": 6989,
      "ફાઉન્ડ": 6990,
      "બોર": 6991,
      "….": 6992,
      "##યમ": 6993,
      "##ુશ": 6994,
      "##ારુ": 6995,
      "પાડો": 6996,
      "##ગ્રહ": 6997,
      "##દોષ": 6998,
      "એસટી": 6999,
      "હોવાને": 7000,
      "સર્જાયો": 7001,
      "ઉર્જા": 7002,
      "અર્જુન": 7003,
      "ડાયાબિટી": 7004,
      "અંડ": 7005,
      "દાંત": 7006,
      "યહો": 7007,
      "##બહે": 7008,
      "સ્ટ્રે": 7009,
      "રાજ્યપાલ": 7010,
      "પાછો": 7011,
      "માતાપિતા": 7012,
      "તબિયત": 7013,
      "જિયો": 7014,
      "વોર": 7015,
      "પ્રજ": 7016,
      "##ડીઝ": 7017,
      "નિવાસ": 7018,
      "##્સના": 7019,
      "શકય": 7020,
      "ફરવા": 7021,
      "ક્રમે": 7022,
      "##ટ્ટી": 7023,
      "સ્વયં": 7024,
      "અગ્ન": 7025,
      "ઉમર": 7026,
      "ઔષ": 7027,
      "કઠ": 7028,
      "૦૦": 7029,
      "૭૫": 7030,
      "##પમેન્ટ": 7031,
      "##pp": 7032,
      "##નાન્સ": 7033,
      "##કાતા": 7034,
      "ભૂમિ": 7035,
      "ઉમેદવારી": 7036,
      "વસંત": 7037,
      "મોડલ": 7038,
      "લેખિત": 7039,
      "શાસન": 7040,
      "ડુ": 7041,
      "ભંડો": 7042,
      "રિયલ": 7043,
      "સવલ": 7044,
      "##બદ્ધ": 7045,
      "##ાવશે": 7046,
      "રેમ": 7047,
      "કરોડથી": 7048,
      "કરોડનું": 7049,
      "જવાબમાં": 7050,
      "હાઇકોર્ટ": 7051,
      "સ્નાન": 7052,
      "બેદરકારી": 7053,
      "##લાન": 7054,
      "મૂકે": 7055,
      "વિદ્યા": 7056,
      "પ્રવક્તા": 7057,
      "ચહેરો": 7058,
      "પ્રકૃતિ": 7059,
      "42": 7060,
      "41": 7061,
      "ક્રે": 7062,
      "##ાશે": 7063,
      "મોડે": 7064,
      "સરકારમાં": 7065,
      "આરતી": 7066,
      "મામલામાં": 7067,
      "##ભાવસ્થા": 7068,
      "બચવા": 7069,
      "દિગ્ગ": 7070,
      "જસ્ટિસ": 7071,
      "ખતરો": 7072,
      "ગણી": 7073,
      "પર્સ": 7074,
      "વસા": 7075,
      "કેટેગ": 7076,
      "##િકામાં": 7077,
      "લોટ": 7078,
      "દેશને": 7079,
      "##ુરુ": 7080,
      "આજુબ": 7081,
      "શાળાના": 7082,
      "##ess": 7083,
      "આર્મી": 7084,
      "વિલંબ": 7085,
      "ખોટું": 7086,
      "નિમિત્": 7087,
      "##વમાં": 7088,
      "##છા": 7089,
      "##ાવતી": 7090,
      "##િત્સ": 7091,
      "##ાઈને": 7092,
      "અપડેટ": 7093,
      "વિચિત્ર": 7094,
      "ઝોનમાં": 7095,
      "આયુર્વે": 7096,
      "આજુબાજુ": 7097,
      "થનાર": 7098,
      "સાન": 7099,
      "##સિં": 7100,
      "આપતી": 7101,
      "ગુન્": 7102,
      "પહેરે": 7103,
      "પ્રોફે": 7104,
      "સહકારી": 7105,
      "##પેન્દ્ર": 7106,
      "પુરુષો": 7107,
      "એપ્લિકેશન": 7108,
      "સિનિયર": 7109,
      "IP": 7110,
      "ફુટ": 7111,
      "મસા": 7112,
      "માટેનું": 7113,
      "##રેન": 7114,
      "અમલી": 7115,
      "##્સને": 7116,
      "ડેવલ": 7117,
      "કોંગ્રેસની": 7118,
      "શાહી": 7119,
      "યોજનાઓ": 7120,
      "ચૂકવ": 7121,
      "પિતાએ": 7122,
      "શરતો": 7123,
      "ચુક્યા": 7124,
      "##ફ્રેન્ડ": 7125,
      "આંધ": 7126,
      "ફાસ્ટ": 7127,
      "શૂ": 7128,
      "હેલ": 7129,
      "##શ્યો": 7130,
      "##ગમ": 7131,
      "##લભ": 7132,
      "##દ્વ": 7133,
      "વિવે": 7134,
      "સ્કોર": 7135,
      "લેવાય": 7136,
      "સાર્વ": 7137,
      "સ્પષ્ટતા": 7138,
      "સાંભળી": 7139,
      "ધંધો": 7140,
      "##કાર્ડ": 7141,
      "માઇક્રો": 7142,
      "ઇન્સ": 7143,
      "શણ": 7144,
      "કરાવવામાં": 7145,
      "પાસપોર્ટ": 7146,
      "યોજવામાં": 7147,
      "##ગ્ને": 7148,
      "અઠવાડ": 7149,
      "સ્નાયુ": 7150,
      "અભિષ": 7151,
      "ઇન્ટરનેશનલ": 7152,
      "છેતરપિં": 7153,
      "ખાદ્ય": 7154,
      "ઝૂ": 7155,
      "મતે": 7156,
      "##રનો": 7157,
      "##િનો": 7158,
      "##ુન": 7159,
      "એકતા": 7160,
      "લોકોનાં": 7161,
      "આર્ય": 7162,
      "જાહેરના": 7163,
      "આજકાલ": 7164,
      "વિશ્વની": 7165,
      "શાળાઓ": 7166,
      "કિસ્સો": 7167,
      "બેસીને": 7168,
      "ખતમ": 7169,
      "##લીંગ": 7170,
      "લીડ": 7171,
      "તાપી": 7172,
      "વ્યક્તિના": 7173,
      "દર્દીને": 7174,
      "ઘટાડવા": 7175,
      "ક્લિન": 7176,
      "ચિંત": 7177,
      "શનિવાર": 7178,
      "છૂટા": 7179,
      "51": 7180,
      "નસીબ": 7181,
      "પાઇ": 7182,
      "##કૃત": 7183,
      "##વાણ": 7184,
      "વર્ષોમાં": 7185,
      "ચોકડી": 7186,
      "સ્વરાજ": 7187,
      "ખાવા": 7188,
      "પરિણી": 7189,
      "ગણાય": 7190,
      "કેન્દ્રિત": 7191,
      "વિરોધમાં": 7192,
      "સંભળ": 7193,
      "આઝાદી": 7194,
      "પોઝીટીવ": 7195,
      "##ઈલ": 7196,
      "દુશ્": 7197,
      "જયાં": 7198,
      "ખેત": 7199,
      "ખેડૂતોએ": 7200,
      "શેરબજ": 7201,
      "કહીને": 7202,
      "##ગેટિવ": 7203,
      "આમંત્રણ": 7204,
      "ફિલ": 7205,
      "સંયો": 7206,
      "##શ્વાસ": 7207,
      "શોમાં": 7208,
      "લાક્ષણિક": 7209,
      "##ડાઉન": 7210,
      "સંતાન": 7211,
      "ગ્રી": 7212,
      "જહાજ": 7213,
      "નખ": 7214,
      "સ્વભાવ": 7215,
      "અભિગ": 7216,
      "સર્વો": 7217,
      "ખેતમ": 7218,
      "પાર્ટીમાં": 7219,
      "ઓફિસમાં": 7220,
      "ખેંચી": 7221,
      "પીડિતા": 7222,
      "એક્સપ્રેસ": 7223,
      "49": 7224,
      "શેટ": 7225,
      "હારી": 7226,
      "##યૂ": 7227,
      "##યાની": 7228,
      "બેટરી": 7229,
      "તોફ": 7230,
      "##ધાને": 7231,
      "##પ્લો": 7232,
      "કાફ": 7233,
      "કાબુ": 7234,
      "રૂપમાં": 7235,
      "કંપનીમાં": 7236,
      "ટ્રેક": 7237,
      "જાણીતી": 7238,
      "૨૦૧૭": 7239,
      "##દર્શક": 7240,
      "બરફ": 7241,
      "આનાથી": 7242,
      "સહીત": 7243,
      "તત્વો": 7244,
      "ઇન્ટરનેટ": 7245,
      "બ્લોક": 7246,
      "47": 7247,
      "બ્રો": 7248,
      "વ્ર": 7249,
      "##સીસ": 7250,
      "નામનો": 7251,
      "જીવનની": 7252,
      "પક્ષો": 7253,
      "જોડાયેલી": 7254,
      "સાઇટ": 7255,
      "વાઈરસ": 7256,
      "કિસાન": 7257,
      "આડ": 7258,
      "આવાસ": 7259,
      "ઇસ": 7260,
      "તલા": 7261,
      "##ાબ": 7262,
      "પ્રસ્તુ": 7263,
      "પરિપ": 7264,
      "##ાલે": 7265,
      "સંસ્કાર": 7266,
      "લોખંડ": 7267,
      "નિશ્ચિત": 7268,
      "સમયની": 7269,
      "પીઠ": 7270,
      "દુબ": 7271,
      "માત્રામાં": 7272,
      "ખાતામાં": 7273,
      "મદદરૂપ": 7274,
      "##મિશન": 7275,
      "ક્લબ": 7276,
      "આટલા": 7277,
      "કોન્સ્ટે": 7278,
      "તફાવત": 7279,
      "00": 7280,
      "નરમ": 7281,
      "બસો": 7282,
      "##વને": 7283,
      "##િલા": 7284,
      "##મતિ": 7285,
      "##ist": 7286,
      "જેત": 7287,
      "એકસાથે": 7288,
      "##લોને": 7289,
      "નિફ્ટી": 7290,
      "નાનો": 7291,
      "સોનિયા": 7292,
      "નેપ": 7293,
      "નેગેટિવ": 7294,
      "અપાઈ": 7295,
      "સર્જા": 7296,
      "સર્કલ": 7297,
      "બોલમાં": 7298,
      "મહત્વનો": 7299,
      "જગ્યાઓ": 7300,
      "પાકિસ્તાનની": 7301,
      "રમતો": 7302,
      "પાછળથી": 7303,
      "કસરત": 7304,
      "નાન": 7305,
      "બાવ": 7306,
      "##શિયમ": 7307,
      "##સીમાં": 7308,
      "નિરી": 7309,
      "ડિપ": 7310,
      "##મ્પિક": 7311,
      "ફાયદાકારક": 7312,
      "અભિનંદન": 7313,
      "ચાહકો": 7314,
      "હથિયાર": 7315,
      "એસ્ટેટ": 7316,
      "કટોક": 7317,
      "ચાઇ": 7318,
      "લસણ": 7319,
      "કરણ": 7320,
      "જોવામાં": 7321,
      "પોલીસમાં": 7322,
      "કેસોમાં": 7323,
      "##્મણ": 7324,
      "મર્યાદિત": 7325,
      "લંબાઈ": 7326,
      "દમ": 7327,
      "કાર્યાલય": 7328,
      "કામમાં": 7329,
      "સિર": 7330,
      "મૂડી": 7331,
      "જોડાણ": 7332,
      "150": 7333,
      "મકવાણા": 7334,
      "ધંધા": 7335,
      "દરોડા": 7336,
      "ચુંટણી": 7337,
      "વાળી": 7338,
      "હક": 7339,
      "##બન": 7340,
      "##ટકો": 7341,
      "કાબૂ": 7342,
      "ઈન્ડિયન": 7343,
      "ગ્રહણ": 7344,
      "ત્રિવેદી": 7345,
      "##ંઝ": 7346,
      "##પન": 7347,
      "##ટીમાં": 7348,
      "મેહ": 7349,
      "##ચ્ચાર": 7350,
      "વિસ્તૃત": 7351,
      "બાબુ": 7352,
      "પરિસ્થિતિમાં": 7353,
      "કાશ્મીરના": 7354,
      "##િગેડ": 7355,
      "મુસાફરો": 7356,
      "સાચું": 7357,
      "સસ્પેન્ડ": 7358,
      "તજ": 7359,
      "દાગ": 7360,
      "શૌ": 7361,
      "૩૪": 7362,
      "તેજી": 7363,
      "પ્રવા": 7364,
      "##લીની": 7365,
      "સોનું": 7366,
      "દેશી": 7367,
      "ઉત્તરા": 7368,
      "પહોંચાડી": 7369,
      "જાગૃતિ": 7370,
      "રૃપ": 7371,
      "અઠવાડિયામાં": 7372,
      "ધામ": 7373,
      "લંડ": 7374,
      "હિટ": 7375,
      "સાગર": 7376,
      "નોન": 7377,
      "બનાવની": 7378,
      "નવીન": 7379,
      "પ્રકારનું": 7380,
      "એક્ટર": 7381,
      "બોર્ડર": 7382,
      "ગીતો": 7383,
      "દાવા": 7384,
      "અભિનય": 7385,
      "##ઘાટન": 7386,
      "ઘાસ": 7387,
      "રાસ": 7388,
      "સર્ચ": 7389,
      "##છો": 7390,
      "##ઠાણ": 7391,
      "અમલમાં": 7392,
      "પડયો": 7393,
      "ભાગ્ય": 7394,
      "ફેક્ટ": 7395,
      "પટેલને": 7396,
      "બજારો": 7397,
      "બધાને": 7398,
      "##િબાન": 7399,
      "તસ્વીર": 7400,
      "અછત": 7401,
      "વાંકાનેર": 7402,
      "અવર": 7403,
      "એણે": 7404,
      "##વ્યું": 7405,
      "##વાળ": 7406,
      "પ્રકરણ": 7407,
      "વિનો": 7408,
      "એકાદ": 7409,
      "આપેલા": 7410,
      "કપિલ": 7411,
      "સ્ક્રીન": 7412,
      "તાલિબાન": 7413,
      "લૉક": 7414,
      "##યાં": 7415,
      "પ્રકારે": 7416,
      "##ાવવાનો": 7417,
      "નિશા": 7418,
      "દેતા": 7419,
      "મોતને": 7420,
      "##ષ્ણુ": 7421,
      "દુનિયાના": 7422,
      "લગ્નની": 7423,
      "ઉમેર્યું": 7424,
      "ટાટા": 7425,
      "પ્રદૂ": 7426,
      "ગ્લાસ": 7427,
      "##શક્તિ": 7428,
      "##પ્ય": 7429,
      "જોતાં": 7430,
      "સ્ટાઇલ": 7431,
      "સીબીઆઈ": 7432,
      "##િપ્સ": 7433,
      "શાકભાજીના": 7434,
      "કાઉન્સિલ": 7435,
      "સાવચેતી": 7436,
      "ઉધ": 7437,
      "લુક": 7438,
      "૩૮": 7439,
      "##મનો": 7440,
      "##કિટ": 7441,
      "##નીઝ": 7442,
      "પોષણ": 7443,
      "##જીવી": 7444,
      "##ત્રિક": 7445,
      "##રમાંથી": 7446,
      "ટેમ્પ": 7447,
      "મહેમાનો": 7448,
      "ટ્રાયલ": 7449,
      "સર્જરી": 7450,
      "બળતરા": 7451,
      "##િલનાડુ": 7452,
      "400": 7453,
      "##ગાં": 7454,
      "##બિ": 7455,
      "રોય": 7456,
      "##મામાં": 7457,
      "રાખ્યું": 7458,
      "લીટર": 7459,
      "વચ્ચેના": 7460,
      "કર્મી": 7461,
      "વાસ્તવમાં": 7462,
      "સવલતો": 7463,
      "85": 7464,
      "ગોળ": 7465,
      "ટકાથી": 7466,
      "કોંગ્રેસને": 7467,
      "દિલ્હીની": 7468,
      "પહેલીવાર": 7469,
      "હીરો": 7470,
      "સંદર્ભમાં": 7471,
      "ઇન્સ્ટાગ્રામ": 7472,
      "અલ્પેશ": 7473,
      "ગોર": 7474,
      "વતન": 7475,
      "##!!": 7476,
      "##્ટર": 7477,
      "##ાતિ": 7478,
      "##સીન": 7479,
      "સીટો": 7480,
      "એટલો": 7481,
      "ગોવિંદ": 7482,
      "પૈકીના": 7483,
      "સેક્રે": 7484,
      "ટ્રો": 7485,
      "##ak": 7486,
      "##રાએ": 7487,
      "##સેવ": 7488,
      "આગ્રહ": 7489,
      "ફેંક": 7490,
      "ફેંકી": 7491,
      "બદલાઈ": 7492,
      "બદલાવ": 7493,
      "197": 7494,
      "પક્ષી": 7495,
      "સાયકલ": 7496,
      "કુંડ": 7497,
      "તંદુરસ્ત": 7498,
      "##શિયલ": 7499,
      "##બારી": 7500,
      "##લાને": 7501,
      "એકમો": 7502,
      "હોબ": 7503,
      "કહેતા": 7504,
      "જુલાઇ": 7505,
      "પરિવહન": 7506,
      "ધોધ": 7507,
      "જોઇને": 7508,
      "ગીતા": 7509,
      "ચુસ્ત": 7510,
      "દંપતી": 7511,
      "બાહ્ય": 7512,
      "ખેડુતો": 7513,
      "દયા": 7514,
      "વચ": 7515,
      "##ચારો": 7516,
      "##ag": 7517,
      "##ાદર": 7518,
      "મહાત્મા": 7519,
      "##્યુન": 7520,
      "લેવાનો": 7521,
      "રાખ્યો": 7522,
      "વરસાદને": 7523,
      "પાકની": 7524,
      "મુકવામાં": 7525,
      "ફાર્મ": 7526,
      "ડિલિવ": 7527,
      "/-": 7528,
      "કઇ": 7529,
      "જજ": 7530,
      "પદ્": 7531,
      "##ંુ": 7532,
      "##od": 7533,
      "સંકલ": 7534,
      "રહયા": 7535,
      "ડેપ": 7536,
      "દર્દીઓના": 7537,
      "સોમવાર": 7538,
      "નારાયણ": 7539,
      "સંકલ્પ": 7540,
      "વોટ્સએપ": 7541,
      "નિમિત્તે": 7542,
      "સેક્રેટરી": 7543,
      "દવે": 7544,
      "નૌ": 7545,
      "ફુલ": 7546,
      "##વડી": 7547,
      "સ્ત્રો": 7548,
      "આપનાર": 7549,
      "##રાહ": 7550,
      "મૂક્યો": 7551,
      "ગર્લ": 7552,
      "ન્યૂઝીલેન્ડ": 7553,
      "ગુરૂવારે": 7554,
      "##સ્વામી": 7555,
      "ખંભ": 7556,
      "પ્રેશ": 7557,
      "વધવા": 7558,
      "બીમાર": 7559,
      "ચેન": 7560,
      "સાંસ": 7561,
      "##બંધન": 7562,
      "ફરિયાદી": 7563,
      "ગેમ": 7564,
      "પત્નીને": 7565,
      "##ers": 7566,
      "1000": 7567,
      "પાંડે": 7568,
      "વયના": 7569,
      "##દ્દીન": 7570,
      "કોન્ફરન્સ": 7571,
      "કૉંગ્રેસ": 7572,
      "આનો": 7573,
      "ઢી": 7574,
      "નફો": 7575,
      "સપના": 7576,
      "૯૦": 7577,
      "##હારી": 7578,
      "પરાજ": 7579,
      "યુઝર્સ": 7580,
      "પ્રેક્ટ": 7581,
      "જમીનમાં": 7582,
      "આસામ": 7583,
      "##મિનાર": 7584,
      "વેબસાઈટ": 7585,
      "ભવન": 7586,
      "##નીંગ": 7587,
      "##રીનો": 7588,
      "##વીએ": 7589,
      "સમર્": 7590,
      "##રેખ": 7591,
      "વખાણ": 7592,
      "સાંસ્ક": 7593,
      "અત્યા": 7594,
      "હાઈકોર્ટે": 7595,
      "સગર્": 7596,
      "ઇંડા": 7597,
      "કૂત": 7598,
      "ર્": 7599,
      "કોડ": 7600,
      "કોન્સ": 7601,
      "રાખવો": 7602,
      "સિંચ": 7603,
      "ફિલ્મની": 7604,
      "આઇપી": 7605,
      "આંગળી": 7606,
      "મુકાબ": 7607,
      "માછીમ": 7608,
      "ઓલિ": 7609,
      "જબર": 7610,
      "##આઉટ": 7611,
      "છેવ": 7612,
      "##ર્ટી": 7613,
      "સુશો": 7614,
      "કારોબ": 7615,
      "##વેરા": 7616,
      "કોઈએ": 7617,
      "માર્ક": 7618,
      "સર્જન": 7619,
      "કિશો": 7620,
      "નાગરિકોને": 7621,
      "સંચાલિત": 7622,
      "સ્વચ્છતા": 7623,
      "સુશોભ": 7624,
      "થવાથી": 7625,
      "ફટા": 7626,
      "##દિન": 7627,
      "##યાના": 7628,
      "##ન્ડો": 7629,
      "પામ્યા": 7630,
      "ડાયરેક્ટર": 7631,
      "મકાનમાં": 7632,
      "ફ્રેન્ચ": 7633,
      "વપરાય": 7634,
      "ડાંગર": 7635,
      "જશો": 7636,
      "પૉ": 7637,
      "લાંચ": 7638,
      "##સાઇ": 7639,
      "##ay": 7640,
      "##ion": 7641,
      "##નેસ": 7642,
      "##લ્લો": 7643,
      "કરવામા": 7644,
      "##્યુશન": 7645,
      "##માએ": 7646,
      "કાર્યકર્તા": 7647,
      "##ર્સમાં": 7648,
      "લાખનો": 7649,
      "મનસુખ": 7650,
      "ચારેય": 7651,
      "ખાં": 7652,
      "##સક": 7653,
      "આપવાના": 7654,
      "ઉપપ્રમુખ": 7655,
      "ભૂખ": 7656,
      "ભરપૂર": 7657,
      "ક્રિકેટર": 7658,
      "માર્કેટિંગ": 7659,
      "52": 7660,
      "64": 7661,
      "અઢી": 7662,
      "ઇવેન્ટ": 7663,
      "ગર્વ": 7664,
      "ગટર": 7665,
      "ગાળામાં": 7666,
      "##નસ": 7667,
      "##ટલી": 7668,
      "##ંગો": 7669,
      "શકું": 7670,
      "તાકી": 7671,
      "##ભાષ": 7672,
      "આરટી": 7673,
      "સોનાની": 7674,
      "એનું": 7675,
      "તુર": 7676,
      "નૈ": 7677,
      "મશ": 7678,
      "સઘ": 7679,
      "ચોક્કસપણે": 7680,
      "ભુજ": 7681,
      "બોટાદ": 7682,
      "બિમારી": 7683,
      "58": 7684,
      "95": 7685,
      "જવામાં": 7686,
      "યશ": 7687,
      "##રીએ": 7688,
      "કેટલું": 7689,
      "##ભાઈએ": 7690,
      "##ળાટ": 7691,
      "કંપનીઓને": 7692,
      "યોજાઈ": 7693,
      "વધારાના": 7694,
      "પ્રમોશન": 7695,
      "બેટ્સમેન": 7696,
      "બ્લાસ્ટ": 7697,
      "એસોસિએશન": 7698,
      "46": 7699,
      "56": 7700,
      "ટોલ": 7701,
      "તાજ": 7702,
      "##જન્સી": 7703,
      "##ઝના": 7704,
      "##ાંગી": 7705,
      "માયા": 7706,
      "હોસ્ટ": 7707,
      "##ક્ષક": 7708,
      "રાજનીતિ": 7709,
      "##ેશનના": 7710,
      "રાકેશ": 7711,
      "પ્રમાણપત્ર": 7712,
      "ખુબજ": 7713,
      "ભેજ": 7714,
      "મૂલ્યાં": 7715,
      "અસામાન્ય": 7716,
      "##ews": 7717,
      "એમ્બ્યુલ": 7718,
      "ખેતમજૂરી": 7719,
      "કૅ": 7720,
      "કવર": 7721,
      "જ્વ": 7722,
      "##ટિક": 7723,
      "પ્રાઈ": 7724,
      "મેગા": 7725,
      "પુખ્ત": 7726,
      "બોય": 7727,
      "રેન્જ": 7728,
      "અમદાવાદઃ": 7729,
      "દર્દીના": 7730,
      "ફરિયાદો": 7731,
      "સ્મૃતિ": 7732,
      "સમિતિના": 7733,
      "ખસેડ": 7734,
      "નબળી": 7735,
      "ટેલિ": 7736,
      "સોંપવામાં": 7737,
      "##દ્યોગિક": 7738,
      "ટેક્નોલોજી": 7739,
      "અરુ": 7740,
      "ડિસ": 7741,
      "બૅ": 7742,
      "શસ્ત્ર": 7743,
      "હાસ": 7744,
      "##હારો": 7745,
      "##જિસ્ટ": 7746,
      "લેવલ": 7747,
      "પડતો": 7748,
      "જવાના": 7749,
      "પ્રાપ્ય": 7750,
      "ખેતરમાં": 7751,
      "સ્થિતિને": 7752,
      "લાભાર્થી": 7753,
      "મહામંત્રી": 7754,
      "સંગઠનો": 7755,
      "ઓપરે": 7756,
      "આરામદાયક": 7757,
      "કણ": 7758,
      "કુર": 7759,
      "દત્ત": 7760,
      "રત્": 7761,
      "કેદી": 7762,
      "સાસુ": 7763,
      "##િવિ": 7764,
      "બેરોજ": 7765,
      "મેડી": 7766,
      "સેમ્પલ": 7767,
      "સોન": 7768,
      "હાલની": 7769,
      "કોંગ્રેસમાં": 7770,
      "આજનો": 7771,
      "કલર": 7772,
      "સપ્તાહમાં": 7773,
      "મોંઘવારી": 7774,
      "સેન્સેક્સ": 7775,
      "72": 7776,
      "ઈસ": 7777,
      "##ફળતા": 7778,
      "##ut": 7779,
      "##ડીપી": 7780,
      "નાટક": 7781,
      "બોમ્બ": 7782,
      "પેઇન્ટ": 7783,
      "##બાના": 7784,
      "અમદાવાદની": 7785,
      "વાયર": 7786,
      "ટીમની": 7787,
      "અડધી": 7788,
      "કબજો": 7789,
      "પુસ્તકો": 7790,
      "##ચંદ્ર": 7791,
      "કોન્ટ્રાક્ટ": 7792,
      "પુરવઠા": 7793,
      "દિગ્ગજ": 7794,
      "ઉશ્કે": 7795,
      "કડ": 7796,
      "ગયુ": 7797,
      "સકારાત્મક": 7798,
      "##િષ્": 7799,
      "કેવ": 7800,
      "પોષ": 7801,
      "આપના": 7802,
      "સંડો": 7803,
      "રાજેશ": 7804,
      "##સેટ": 7805,
      "પુષ્ટિ": 7806,
      "રાખેલ": 7807,
      "##્રોનિક": 7808,
      "બોન્ડ": 7809,
      "કરોડનો": 7810,
      "આરંભ": 7811,
      "૧૯૯": 7812,
      "##ગ્ગા": 7813,
      "કબજે": 7814,
      "વાતચીતમાં": 7815,
      "આટલું": 7816,
      "દઇએ": 7817,
      "બધુ": 7818,
      "૫૫": 7819,
      "##શિંગ": 7820,
      "##નિય": 7821,
      "તેમા": 7822,
      "##રૂમમાં": 7823,
      "નિરાશ": 7824,
      "##સાધ": 7825,
      "ચેન્ન": 7826,
      "કમિશ્": 7827,
      "ખોલી": 7828,
      "સમાજની": 7829,
      "મનપા": 7830,
      "વિપુલ": 7831,
      "વિપરીત": 7832,
      "યુરોપ": 7833,
      "આહ": 7834,
      "છાં": 7835,
      "ડ્રે": 7836,
      "તકની": 7837,
      "##લાસ": 7838,
      "##બીઆઇ": 7839,
      "રાજ્યસભા": 7840,
      "પેસે": 7841,
      "ફેફ": 7842,
      "બજાવતા": 7843,
      "વાયરસની": 7844,
      "ભેળ": 7845,
      "કિનારે": 7846,
      "રાજીવ": 7847,
      "કાવ": 7848,
      "મકાનો": 7849,
      "મમ્મી": 7850,
      "##ાંતો": 7851,
      "##ાણુ": 7852,
      "વેન્ટ": 7853,
      "પેન્શન": 7854,
      "પાણીથી": 7855,
      "ચીનમાં": 7856,
      "વિદ્યાર્થીઓએ": 7857,
      "કલાકની": 7858,
      "કલાકારો": 7859,
      "નિવેદનમાં": 7860,
      "અહેવાલો": 7861,
      "##ક્ષેત્ર": 7862,
      "ઉંમરે": 7863,
      "સાયન્સ": 7864,
      "##ોબસ્ત": 7865,
      "ધ્રુ": 7866,
      "અભિષેક": 7867,
      "):": 7868,
      "59": 7869,
      "ખુર": 7870,
      "વારો": 7871,
      "કેળ": 7872,
      "માત": 7873,
      "કરીશ": 7874,
      "શક્યો": 7875,
      "##સાના": 7876,
      "કેટલો": 7877,
      "બંન્ને": 7878,
      "ભરૃ": 7879,
      "2013": 7880,
      "યુવકે": 7881,
      "સાધુ": 7882,
      "નિષ્ણાતો": 7883,
      "મસ્જ": 7884,
      "ઋતુ": 7885,
      "##ુતિ": 7886,
      "##ટકી": 7887,
      "કોફી": 7888,
      "##િયારો": 7889,
      "સેન": 7890,
      "લાંબો": 7891,
      "ભાડે": 7892,
      "નિર્ધાર": 7893,
      "ઉંમરના": 7894,
      "સરખામણીમાં": 7895,
      "અંડર": 7896,
      "ગંદ": 7897,
      "પચ": 7898,
      "વાતને": 7899,
      "ઉત્તે": 7900,
      "##ડેન્ટ": 7901,
      "ડેબ": 7902,
      "પ્રકારનો": 7903,
      "પાર્ટનર": 7904,
      "જંગલ": 7905,
      "ચુકી": 7906,
      "કાપડ": 7907,
      "નબળા": 7908,
      "66": 7909,
      "ઈન્ટર": 7910,
      "રેશ": 7911,
      "##વંત": 7912,
      "##વર્ડ": 7913,
      "##ાન્ટ": 7914,
      "પડેલા": 7915,
      "ગામોમાં": 7916,
      "પેસ્ટ": 7917,
      "ખાતર": 7918,
      "આરોપીઓને": 7919,
      "લેખક": 7920,
      "છોકરીઓ": 7921,
      "ઉત્સવ": 7922,
      "સિંહો": 7923,
      "ચાવડા": 7924,
      "કથિત": 7925,
      "ટંકારા": 7926,
      "સાંસ્કૃતિક": 7927,
      "એક્શન": 7928,
      "ટાર્": 7929,
      "##ગરી": 7930,
      "##os": 7931,
      "##ૃત્ત": 7932,
      "કોઠ": 7933,
      "સાથો": 7934,
      "મોં": 7935,
      "મૂકો": 7936,
      "##શીપ": 7937,
      "##દેવી": 7938,
      "ખાનની": 7939,
      "##est": 7940,
      "બંદોબસ્ત": 7941,
      "એન્ટર": 7942,
      "છત": 7943,
      "મય": 7944,
      "##ાતુ": 7945,
      "મળતાં": 7946,
      "ટોચના": 7947,
      "બાળકની": 7948,
      "પ્રવૃત્તિઓ": 7949,
      "સ્વરૂપમાં": 7950,
      "કારોબારી": 7951,
      "શોર્ટ": 7952,
      "##હિલ": 7953,
      "##um": 7954,
      "સાક્ષી": 7955,
      "##રેન્ટ": 7956,
      "પડો": 7957,
      "2000": 7958,
      "##ક્ટેર": 7959,
      "##સ્થાને": 7960,
      "##એસપી": 7961,
      "મુખ્યમંત્રીએ": 7962,
      "પિતાને": 7963,
      "ઓળખવામાં": 7964,
      "કચ્છના": 7965,
      "કચરો": 7966,
      "આંબ": 7967,
      "શર્ટ": 7968,
      "##જલ": 7969,
      "સાચા": 7970,
      "##ેશન્સ": 7971,
      "બેઝ": 7972,
      "બોલે": 7973,
      "ભાષણ": 7974,
      "જાણીને": 7975,
      "યુવતીએ": 7976,
      "પ્રત્યેક": 7977,
      "ટ્રમ્પે": 7978,
      "જલદી": 7979,
      "છેવટે": 7980,
      "on": 7981,
      "ઊભ": 7982,
      "વલ્લ": 7983,
      "સરો": 7984,
      "##ક્યુ": 7985,
      "માસમાં": 7986,
      "હોસ્પી": 7987,
      "##ગાડી": 7988,
      "ઘટાડ": 7989,
      "આશ્રમ": 7990,
      "##દારોને": 7991,
      "ઓળખાય": 7992,
      "ગૌતમ": 7993,
      "ફાયરિંગ": 7994,
      "બ્રિટિશ": 7995,
      "સ્પીડ": 7996,
      "અશ્વિન": 7997,
      "સમૃદ્ધ": 7998,
      "ઊભો": 7999,
      "જર્": 8000,
      "ફાઇલ": 8001,
      "હોવો": 8002,
      "મોન": 8003,
      "બીચ": 8004,
      "પૂજન": 8005,
      "કોઈની": 8006,
      "પહેલ": 8007,
      "સિદ્ધિ": 8008,
      "ઓફી": 8009,
      "વિજયભાઈ": 8010,
      "જામનગરમાં": 8011,
      "પંચાયતઘર": 8012,
      "સૂત્રોએ": 8013,
      "વૃક્ષો": 8014,
      "દૃષ્ટિ": 8015,
      "બચ્ચન": 8016,
      "ડ્રાઈવ": 8017,
      "દલીલ": 8018,
      "ગ્રેડ": 8019,
      "રનની": 8020,
      "સતા": 8021,
      "##વવાની": 8022,
      "##્યામ": 8023,
      "વિડ": 8024,
      "વાતની": 8025,
      "ચોકી": 8026,
      "##ભવતી": 8027,
      "અમેરિકાની": 8028,
      "હુમલામાં": 8029,
      "તબક્કે": 8030,
      "પાઠવી": 8031,
      "ધોરાજી": 8032,
      "ઉપરોક્ત": 8033,
      "ઘડ": 8034,
      "##ધરા": 8035,
      "##અર": 8036,
      "મુદ": 8037,
      "લેવું": 8038,
      "સીધો": 8039,
      "ગ્રૂ": 8040,
      "હજારની": 8041,
      "અવરોધ": 8042,
      "##મણાં": 8043,
      "રાજસ્થાનના": 8044,
      "શર્માએ": 8045,
      "આગેવાની": 8046,
      "તબીબો": 8047,
      "લગ્નના": 8048,
      "બધાં": 8049,
      "પ્રોફેસર": 8050,
      "ઉલ": 8051,
      "’,": 8052,
      "##શમાં": 8053,
      "##ેશનની": 8054,
      "શોષણ": 8055,
      "રૂપિયાનું": 8056,
      "આત્મા": 8057,
      "કેજરીવાલ": 8058,
      "એટીએમ": 8059,
      "પ્રતીક": 8060,
      "વિનોદ": 8061,
      "ભંડ": 8062,
      "૪૮": 8063,
      "##કાંત": 8064,
      "લોકાર્": 8065,
      "યુઝ": 8066,
      "નીચા": 8067,
      "સ્ટ્રી": 8068,
      "મેળવે": 8069,
      "ધીમી": 8070,
      "દર્શાવી": 8071,
      "શ્રમ": 8072,
      "##મરજન્સી": 8073,
      "હીરા": 8074,
      "મંડળી": 8075,
      "જથ્થા": 8076,
      "સિલિ": 8077,
      "નારાજગી": 8078,
      "આક્રમક": 8079,
      "શિલ્પા": 8080,
      "ટાર્ગેટ": 8081,
      "ઉદ્ધ": 8082,
      "ગડ": 8083,
      "ગાયક": 8084,
      "થવી": 8085,
      "કેમિક": 8086,
      "માસ્ટર": 8087,
      "રાજેન્દ્ર": 8088,
      "વ્યાવ": 8089,
      "##પ્રત": 8090,
      "સ્વરૂપે": 8091,
      "ગ્રાન્ટ": 8092,
      "દરેકને": 8093,
      "શાસ્ત્રી": 8094,
      "ઊંચાઈ": 8095,
      "આત્મવિ": 8096,
      "##્યોરિટી": 8097,
      "Gujarati": 8098,
      "થિયેટ": 8099,
      "વચન": 8100,
      "સસ્તા": 8101,
      "##વર્ષ": 8102,
      "##ચ્છી": 8103,
      "રાખતા": 8104,
      "લગતી": 8105,
      "ભાવિ": 8106,
      "મહિલાના": 8107,
      "પ્રાપ્તિ": 8108,
      "##વરાજ": 8109,
      "ઘરેથી": 8110,
      "મુલાકાતે": 8111,
      "કાઢવામાં": 8112,
      "શરમ": 8113,
      "ગેરહાજ": 8114,
      "સ્વીકારી": 8115,
      "ચુકાદો": 8116,
      "રુપિયા": 8117,
      "દાગીના": 8118,
      "થાક": 8119,
      "વડી": 8120,
      "##ભાવી": 8121,
      "##ab": 8122,
      "પ્રવિ": 8123,
      "લાગતું": 8124,
      "##સ્થિતિ": 8125,
      "સુરેશ": 8126,
      "##દેપુર": 8127,
      "ગાંધીનગરમાં": 8128,
      "નિર્માતા": 8129,
      "પુરસ્કાર": 8130,
      "##and": 8131,
      "સેનાના": 8132,
      "ચમક": 8133,
      "લગ્નમાં": 8134,
      "હોબાળો": 8135,
      "અશક": 8136,
      "ઇમરાન": 8137,
      "સર્ટ": 8138,
      "##બના": 8139,
      "##નિયર": 8140,
      "##ભુત": 8141,
      "##ુક્ત": 8142,
      "##ંપી": 8143,
      "##નીલ": 8144,
      "##લેષણ": 8145,
      "##િયું": 8146,
      "સિસ્ટ": 8147,
      "માનવી": 8148,
      "પરિચિત": 8149,
      "વિદાય": 8150,
      "શાળાઓમાં": 8151,
      "યુનિવર્સિટીના": 8152,
      "સ્પર્ધ": 8153,
      "કાનૂની": 8154,
      "ઉદ્દેશ": 8155,
      "નવરાત્રી": 8156,
      "પેકેજ": 8157,
      "લોકાર્પણ": 8158,
      "ઔદ્યોગિક": 8159,
      "છી": 8160,
      "##ડલ": 8161,
      "##નવાર": 8162,
      "##MC": 8163,
      "##ુંક": 8164,
      "તેમનાં": 8165,
      "ભારતનો": 8166,
      "અનુષ્": 8167,
      "ગ્રામી": 8168,
      "યોજાયો": 8169,
      "રિમાન્ડ": 8170,
      "##શિષ": 8171,
      "હાજરીમાં": 8172,
      "અર્ધ": 8173,
      "પંચાયતના": 8174,
      "ધમધ": 8175,
      "ચિહ": 8176,
      "નિષ્ફળતા": 8177,
      "છેતરપિંડી": 8178,
      "61": 8179,
      "ધર્": 8180,
      "નંબ": 8181,
      "ફિઝ": 8182,
      "વાણી": 8183,
      "શેડ": 8184,
      "હાન": 8185,
      "તેવામાં": 8186,
      "દેસાઈ": 8187,
      "બનાવવાનો": 8188,
      "ફેન્સ": 8189,
      "બનતા": 8190,
      "ગણાવી": 8191,
      "બુટ": 8192,
      "શાહરૂ": 8193,
      "સવારના": 8194,
      "હથિયારો": 8195,
      "જન્મદિવસ": 8196,
      "ખાય": 8197,
      "ખોડ": 8198,
      "આવવાની": 8199,
      "સુનિ": 8200,
      "##ડાટ": 8201,
      "મહંત": 8202,
      "##ણામાં": 8203,
      "બાબા": 8204,
      "આજની": 8205,
      "મતલબ": 8206,
      "નિર્દોષ": 8207,
      "ગર્ભવતી": 8208,
      "સૂચવે": 8209,
      "અંકલેશ": 8210,
      "અટકી": 8211,
      "દાયકા": 8212,
      "ચિકન": 8213,
      "આડે": 8214,
      "ફાળો": 8215,
      "બારી": 8216,
      "##ોબાર": 8217,
      "માગી": 8218,
      "કોરિયા": 8219,
      "ગુપ્તા": 8220,
      "પડતાં": 8221,
      "લગા": 8222,
      "રેસ": 8223,
      "##નિકલ": 8224,
      "આરોપીની": 8225,
      "બ્રાહ": 8226,
      "અદાણી": 8227,
      "57": 8228,
      "##નાની": 8229,
      "કેરી": 8230,
      "લાગતા": 8231,
      "ભાગ્યે": 8232,
      "જવાન": 8233,
      "પાકિસ્તાનમાં": 8234,
      "લાભો": 8235,
      "મનપ": 8236,
      "માધ્યમિક": 8237,
      "નિયંત્રિત": 8238,
      "મુદ્દાઓ": 8239,
      "સૈનિકો": 8240,
      "ઉત્તરાખંડ": 8241,
      "ક્લો": 8242,
      "કાળી": 8243,
      "ચેટ": 8244,
      "જસદ": 8245,
      "દાળ": 8246,
      "પંક": 8247,
      "યે": 8248,
      "યજ્ઞ": 8249,
      "૪૨": 8250,
      "##્યની": 8251,
      "##ન્જર": 8252,
      "આપવો": 8253,
      "##સેલ": 8254,
      "લેવો": 8255,
      "ફોરે": 8256,
      "##્યૂટ": 8257,
      "જન્મે": 8258,
      "અગાઉના": 8259,
      "પતિએ": 8260,
      "વસવાટ": 8261,
      "વાગ્યાથી": 8262,
      "સોનાના": 8263,
      "મંત્રાલયના": 8264,
      "ઓક્ટોબ": 8265,
      "કોલેજમાં": 8266,
      "નમૂના": 8267,
      "કાયદેસરની": 8268,
      "કબ્જે": 8269,
      "ગંદકી": 8270,
      "ઇનિંગ": 8271,
      "તકો": 8272,
      "પાઈ": 8273,
      "##ષભ": 8274,
      "કરાયેલી": 8275,
      "નિવાસી": 8276,
      "સીઝન": 8277,
      "ગોહિલ": 8278,
      "તૈનાત": 8279,
      "ઈન્ડસ્ટ્રી": 8280,
      "કુંભ": 8281,
      "આકર્ષણ": 8282,
      "જીલ્લામાં": 8283,
      "કોન્સ્ટેબલ": 8284,
      "વ્યાવસાય": 8285,
      "54": 8286,
      "અન્ન": 8287,
      "મંચ": 8288,
      "શંક": 8289,
      "##ક્ષર": 8290,
      "મળવાની": 8291,
      "##િંગના": 8292,
      "બોડી": 8293,
      "અપમાન": 8294,
      "રૂપિયામાં": 8295,
      "મંદી": 8296,
      "સંપાદ": 8297,
      "એલર્જી": 8298,
      "શરદ": 8299,
      "વનડે": 8300,
      "બોર્ડની": 8301,
      "પામ્યો": 8302,
      "વાંધો": 8303,
      "બજેટમાં": 8304,
      "##ંખ્ય": 8305,
      "વેક્સીન": 8306,
      "મંજુરી": 8307,
      "ભંડોળ": 8308,
      "પ્રસ્તુત": 8309,
      "ડબ્": 8310,
      "પછ": 8311,
      "##પ્રે": 8312,
      "જીતુ": 8313,
      "##પ્રથમ": 8314,
      "નામથી": 8315,
      "અલ્ટ": 8316,
      "ખાવાથી": 8317,
      "કેન્દ્રમાં": 8318,
      "માર્ગો": 8319,
      "##આરપી": 8320,
      "શ્રદ્ધા": 8321,
      "ફેલાઈ": 8322,
      "નોટબંધી": 8323,
      "સંભાળી": 8324,
      "જોખમી": 8325,
      "સ્પર્શ": 8326,
      "સ્કૂલમાં": 8327,
      "પીએસઆઇ": 8328,
      "અવારનવાર": 8329,
      "રોગચાળા": 8330,
      "વસાવા": 8331,
      "મૂલ્યાંકન": 8332,
      "ઢો": 8333,
      "દહીં": 8334,
      "વાલ": 8335,
      "##ક્વિ": 8336,
      "##કાઇ": 8337,
      "##ત્તર": 8338,
      "લેતી": 8339,
      "દિવ્યાં": 8340,
      "પ્રોપ": 8341,
      "આજરોજ": 8342,
      "પેટમાં": 8343,
      "કાઢવા": 8344,
      "આખું": 8345,
      "વેક્સિનેશન": 8346,
      "આતંકવાદ": 8347,
      "વાદળી": 8348,
      "ભાષામાં": 8349,
      "##મહાલ": 8350,
      "ડિસ્ટન્સ": 8351,
      "ગિર": 8352,
      "##મકી": 8353,
      "##ક્યો": 8354,
      "##પક્ષ": 8355,
      "##un": 8356,
      "##મીના": 8357,
      "સેલ્સ": 8358,
      "રાખવાનો": 8359,
      "##નિર્": 8360,
      "બોલર": 8361,
      "લેવાશે": 8362,
      "લેવાયો": 8363,
      "જીવલે": 8364,
      "ઘટકો": 8365,
      "આક્ષેપો": 8366,
      "પથ્થર": 8367,
      "વર્ણન": 8368,
      "જર્મની": 8369,
      "આર્ક": 8370,
      "ખડ": 8371,
      "ગાઇડ": 8372,
      "મિલ્": 8373,
      "વધ્યો": 8374,
      "##ટીની": 8375,
      "રૂટ": 8376,
      "પૂર્": 8377,
      "સોનુ": 8378,
      "બનાવશે": 8379,
      "ગોપાલ": 8380,
      "##પાયા": 8381,
      "દિવાલ": 8382,
      "ચૂક્યો": 8383,
      "પ્રક્રિયામાં": 8384,
      "##ાયેલું": 8385,
      "સર્જાઈ": 8386,
      "2008": 8387,
      "કર્ફ": 8388,
      "નદીના": 8389,
      "સૌરાષ્ટ્રમાં": 8390,
      "વોર્ડમાં": 8391,
      "કોર્પોરેટર": 8392,
      "હળવદ": 8393,
      "પ્રદૂષણ": 8394,
      "ખુરશી": 8395,
      "ગાળો": 8396,
      "ધીર": 8397,
      "વાજ": 8398,
      "##ગના": 8399,
      "##વાળું": 8400,
      "જોબ": 8401,
      "બોલ્ડ": 8402,
      "વિસ્તારની": 8403,
      "યોજાયેલી": 8404,
      "રોકાણકારો": 8405,
      "મથક": 8406,
      "ફર્નિ": 8407,
      "મનીષ": 8408,
      "જીવલેણ": 8409,
      "એડવા": 8410,
      "ચરણ": 8411,
      "ઢોર": 8412,
      "તડ": 8413,
      "૩૯": 8414,
      "##ૂઝ": 8415,
      "##ચૂ": 8416,
      "માધ": 8417,
      "##ાવું": 8418,
      "##ક્રમે": 8419,
      "ટેલી": 8420,
      "કેસોની": 8421,
      "૨૦૧૬": 8422,
      "પાલનપુર": 8423,
      "દેખાશે": 8424,
      "કોમર્સ": 8425,
      "વેરાવ": 8426,
      "ફ્રેન્ડ": 8427,
      "રસોઈ": 8428,
      "ડાંગ": 8429,
      "##ફોડ": 8430,
      "##જક": 8431,
      "##પલ": 8432,
      "પ્રાણ": 8433,
      "પરા": 8434,
      "સ્ટાર્": 8435,
      "પોલીસકર્મી": 8436,
      "તેઓની": 8437,
      "રેગ": 8438,
      "તરફે": 8439,
      "ફોલો": 8440,
      "2012": 8441,
      "##શાસ્ત્ર": 8442,
      "બિલા": 8443,
      "વડોદરાના": 8444,
      "અડધો": 8445,
      "ધારણા": 8446,
      "ભજવી": 8447,
      "પ્રતિનિધ": 8448,
      "સાબરકાંઠા": 8449,
      "ભરૃચ": 8450,
      "ચણા": 8451,
      "જડ": 8452,
      "તૃ": 8453,
      "ફળો": 8454,
      "૪૪": 8455,
      "##િન્સ": 8456,
      "##ટુ": 8457,
      "##દુલ": 8458,
      "ગુડ": 8459,
      "પેટે": 8460,
      "ક્રમ": 8461,
      "##બેક": 8462,
      "બંનેએ": 8463,
      "વ્યાખ્યા": 8464,
      "કાર્તિક": 8465,
      "લાલચ": 8466,
      "હટાવી": 8467,
      "તેટલી": 8468,
      "રિટર્ન": 8469,
      "##ાંજલિ": 8470,
      "ઓર્ગે": 8471,
      "અશક્ય": 8472,
      "In": 8473,
      "તપ": 8474,
      "તસ્ક": 8475,
      "મકર": 8476,
      "##બ્રે": 8477,
      "પરની": 8478,
      "##લ્ક": 8479,
      "##ાણો": 8480,
      "આરોપો": 8481,
      "અપાશે": 8482,
      "સફાઇ": 8483,
      "કમલેશ": 8484,
      "મહિનાના": 8485,
      "પાકિસ્તાને": 8486,
      "માર્ગદર્શ": 8487,
      "દ્રારા": 8488,
      "નિયમોનું": 8489,
      "સૌરાષ્ટ્રના": 8490,
      "પાવડર": 8491,
      "કેબિનેટ": 8492,
      "આંધ્ર": 8493,
      "ડિલિવરી": 8494,
      "62": 8495,
      "ઉઘર": 8496,
      "ઝાં": 8497,
      "ઝાર": 8498,
      "પબ્લિક": 8499,
      "૪૧": 8500,
      "##શાળા": 8501,
      "##નાબેન": 8502,
      "##વાળો": 8503,
      "##સ્ક્ર": 8504,
      "વિષ્ણુ": 8505,
      "લેબ": 8506,
      "કામના": 8507,
      "ગ્રહો": 8508,
      "વચ્ચેની": 8509,
      "રિફ": 8510,
      "રિટેલ": 8511,
      "વિધાનસભામાં": 8512,
      "ક્લાસ": 8513,
      "નહિં": 8514,
      "છોટાઉ": 8515,
      "કમા": 8516,
      "વહ": 8517,
      "##જનમાં": 8518,
      "##ુએ": 8519,
      "##ામંત્રી": 8520,
      "વિડિયો": 8521,
      "##સીંગ": 8522,
      "##પીપ": 8523,
      "બાલા": 8524,
      "દુધ": 8525,
      "અર્થવ્યવ": 8526,
      "સંસ્થાના": 8527,
      "ઉદ્યોગપતિ": 8528,
      "સિક્યોરિટી": 8529,
      "પ્રાણીઓ": 8530,
      "સંબોધન": 8531,
      "મનુષ્ય": 8532,
      "રજિસ્ટ્રેશન": 8533,
      "શણગાર": 8534,
      "અભિગમ": 8535,
      "પરાજય": 8536,
      "53": 8537,
      "વંચ": 8538,
      "##ત્ય": 8539,
      "##દિ": 8540,
      "વિઝા": 8541,
      "પડયા": 8542,
      "યોજી": 8543,
      "જાણતા": 8544,
      "વાડી": 8545,
      "##ખાને": 8546,
      "ભરવામાં": 8547,
      "આયોજિત": 8548,
      "વ્યાસ": 8549,
      "પતિને": 8550,
      "વસૂલ": 8551,
      "ફાળવણી": 8552,
      "સ્વતંત્રતા": 8553,
      "ફ્લ્": 8554,
      "પેડ": 8555,
      "લિંક": 8556,
      "શ્વે": 8557,
      "##મંદ": 8558,
      "##ામક": 8559,
      "પ્રચ": 8560,
      "##િકે": 8561,
      "ગુણો": 8562,
      "શકતી": 8563,
      "રેતી": 8564,
      "ચીને": 8565,
      "સ્કુલ": 8566,
      "જીવંત": 8567,
      "ટેસ્ટમાં": 8568,
      "મંદિરની": 8569,
      "સ્મશાન": 8570,
      "સ્ટેશનના": 8571,
      "મોટાભાગની": 8572,
      "બતાવે": 8573,
      "દસ્તાવેજ": 8574,
      "સંકુલ": 8575,
      "71": 8576,
      "the": 8577,
      "ફસાય": 8578,
      "##સોલ": 8579,
      "##સગઢ": 8580,
      "##ac": 8581,
      "##આંક": 8582,
      "##િક્": 8583,
      "##રીક": 8584,
      "હોર્મો": 8585,
      "##ોડું": 8586,
      "ઉપરના": 8587,
      "ચોખ્": 8588,
      "##િરાણ": 8589,
      "ચેન્ના": 8590,
      "મહિલાની": 8591,
      "##એમસી": 8592,
      "ટોળ": 8593,
      "દેખરેખ": 8594,
      "કરાતા": 8595,
      "રાજકારણ": 8596,
      "વિસર્જન": 8597,
      "મસાલા": 8598,
      "ડિપાર્ટમેન્ટ": 8599,
      "63": 8600,
      "એમે": 8601,
      "ટાઉન": 8602,
      "રાણી": 8603,
      "લડવા": 8604,
      "હ્યુ": 8605,
      "##વસ્તુ": 8606,
      "##લક્ષી": 8607,
      "##લીએ": 8608,
      "રીક્ષા": 8609,
      "સ્થાયી": 8610,
      "સીડી": 8611,
      "સિઝનમાં": 8612,
      "ચૂંટણીના": 8613,
      "એસપી": 8614,
      "એક્સચે": 8615,
      "સાંસદો": 8616,
      "ગ્રામીણ": 8617,
      "સુનિશ્ચિત": 8618,
      "આયોગ": 8619,
      "આદર": 8620,
      "ઓમ": 8621,
      "નાસી": 8622,
      "ફગાવી": 8623,
      "ભિ": 8624,
      "હમણાં": 8625,
      "##યત": 8626,
      "##ન્ડા": 8627,
      "##િયાને": 8628,
      "મેના": 8629,
      "##્યુબ": 8630,
      "શકતો": 8631,
      "મીઠા": 8632,
      "ભાગોમાં": 8633,
      "રાત્રિ": 8634,
      "પંચમહાલ": 8635,
      "મેળવ્યો": 8636,
      "અગ્રવાલ": 8637,
      "સિંઘ": 8638,
      "શરુઆત": 8639,
      "ઉમટી": 8640,
      "સાઉદી": 8641,
      "પ્રવિણ": 8642,
      "ઇમાર": 8643,
      "ઊંડ": 8644,
      "તિવ": 8645,
      "પંપ": 8646,
      "##ભેર": 8647,
      "##રીય": 8648,
      "મળતો": 8649,
      "ત્રિપ": 8650,
      "##દેદારો": 8651,
      "પ્રતિભા": 8652,
      "શરીરની": 8653,
      "ઇન્ડેક્સ": 8654,
      "અભ્યાસમાં": 8655,
      "શરત": 8656,
      "અટકાવી": 8657,
      "પૂછ્યું": 8658,
      "શક્તિશાળી": 8659,
      "એન્જી": 8660,
      "વધારીને": 8661,
      "વિરૂધ્ધ": 8662,
      "સહેજ": 8663,
      "##ધિકારી": 8664,
      "ઇન્ટરવ્યૂ": 8665,
      "કયારે": 8666,
      "ર૦૧": 8667,
      "ડાઉનલોડ": 8668,
      "પ્રાઇવેટ": 8669,
      "કૌશલ": 8670,
      "પદ્મ": 8671,
      "આલિયા": 8672,
      "ચશ્": 8673,
      "વસ્ત્રો": 8674,
      "હાર્ડ": 8675,
      "##સમી": 8676,
      "##ગસ": 8677,
      "##ૂતિ": 8678,
      "કોને": 8679,
      "વ્યકત": 8680,
      "ગયેલી": 8681,
      "ક્યાંય": 8682,
      "અફવા": 8683,
      "કાંઈ": 8684,
      "આઝાદ": 8685,
      "ઝેર": 8686,
      "##ાલો": 8687,
      "ફરતા": 8688,
      "ક્રિસ": 8689,
      "પરિવારે": 8690,
      "લાક": 8691,
      "કરાવ્યું": 8692,
      "મંદિરે": 8693,
      "માથું": 8694,
      "ભયા": 8695,
      "૬૫": 8696,
      "##ટમ": 8697,
      "પ્રતા": 8698,
      "##રોનો": 8699,
      "સેમી": 8700,
      "બીસીસી": 8701,
      "પહેરી": 8702,
      "પીવાના": 8703,
      "જિલ્લાઓમાં": 8704,
      "રાજકોટઃ": 8705,
      "કલાકો": 8706,
      "##ટ્ટા": 8707,
      "રણવીર": 8708,
      "જાન્યુઆરીએ": 8709,
      "##વર્તી": 8710,
      "2019માં": 8711,
      "શિયાળામાં": 8712,
      "ઉનાળામાં": 8713,
      "પરિષદ": 8714,
      "પોલિસી": 8715,
      "કુમારે": 8716,
      "ચળ": 8717,
      "રિલ": 8718,
      "##ંછ": 8719,
      "##કુમ": 8720,
      "##ખાન": 8721,
      "##ઈડ": 8722,
      "પ્રહાર": 8723,
      "કોમે": 8724,
      "સેન્સ": 8725,
      "હાથી": 8726,
      "લોકશાહી": 8727,
      "પ્રતિમા": 8728,
      "બંનેને": 8729,
      "વિદેશમાં": 8730,
      "બંગાળમાં": 8731,
      "કાળજીપૂર્વક": 8732,
      "##વામા": 8733,
      "##લ્ફી": 8734,
      "સુમ": 8735,
      "##કાયા": 8736,
      "ગુનામાં": 8737,
      "પાઉ": 8738,
      "##પ્લા": 8739,
      "કાચા": 8740,
      "વિદ્યાર્થીઓની": 8741,
      "જાતીય": 8742,
      "પૈસાની": 8743,
      "સાંભળીને": 8744,
      "રાજયના": 8745,
      "સ્માર્ટફો": 8746,
      "યુનિટી": 8747,
      "વિકસિત": 8748,
      "ગુસ્સો": 8749,
      "આવેદનપત્ર": 8750,
      "પાડોશી": 8751,
      "જ્વેલ": 8752,
      "શાહરૂખ": 8753,
      ".[": 8754,
      ":-": 8755,
      "for": 8756,
      "તાજા": 8757,
      "##ફોલ": 8758,
      "હોતી": 8759,
      "બેક્ટેર": 8760,
      "##િયસ": 8761,
      "વર્તુ": 8762,
      "પાચન": 8763,
      "નાક": 8764,
      "દેવાની": 8765,
      "પહેરીને": 8766,
      "સોંપી": 8767,
      "##ોર્સ": 8768,
      "રાખ્યા": 8769,
      "બનાવવાનું": 8770,
      "નોંધવામાં": 8771,
      "નેતાઓએ": 8772,
      "પરીક્ષામાં": 8773,
      "દિવાલો": 8774,
      "યાત્રી": 8775,
      "જાળવણી": 8776,
      "બારડો": 8777,
      "યુવાનોને": 8778,
      "પ્રિન્ટ": 8779,
      "ફ્લાઈ": 8780,
      "સંસદમાં": 8781,
      "બાજરી": 8782,
      "રાજપૂત": 8783,
      "ઈરાન": 8784,
      "બિસ્": 8785,
      "ભરીને": 8786,
      "##વિક": 8787,
      "##ઝની": 8788,
      "##ID": 8789,
      "##નાએ": 8790,
      "મુળ": 8791,
      "##સ્ટો": 8792,
      "ઉપાડ": 8793,
      "રાખશે": 8794,
      "રાફ": 8795,
      "##વનાર": 8796,
      "સ્વામિનાર": 8797,
      "અધિકારીઓની": 8798,
      "બ્રાન્ચ": 8799,
      "રાજયમાં": 8800,
      "માંડવી": 8801,
      "બપોરના": 8802,
      "લશ્કરી": 8803,
      "પતંગ": 8804,
      "વિવેક": 8805,
      "નેપાળ": 8806,
      "ખેર": 8807,
      "શ્યામ": 8808,
      "##શની": 8809,
      "##ીટ": 8810,
      "મોજ": 8811,
      "##ાણીએ": 8812,
      "સૌપ્રથમ": 8813,
      "ભારતનું": 8814,
      "બનાવ્યું": 8815,
      "ખેડા": 8816,
      "મુંબઈના": 8817,
      "કિંમતમાં": 8818,
      "શ્રાવ": 8819,
      "વિશ્લેષણ": 8820,
      "ક્વોલ": 8821,
      "ક્રોસ": 8822,
      "નિમણૂક": 8823,
      "અનુષ્કા": 8824,
      "એસી": 8825,
      "કાજ": 8826,
      "ઘાત": 8827,
      "છાતી": 8828,
      "જળા": 8829,
      "ભક્તિ": 8830,
      "હવામાં": 8831,
      "હવાઈ": 8832,
      "##ઝમાં": 8833,
      "##કથા": 8834,
      "એકઠા": 8835,
      "સુભાષ": 8836,
      "##િયમમાં": 8837,
      "સેલે": 8838,
      "પેજ": 8839,
      "પ્રોટીન": 8840,
      "પાર્ટીએ": 8841,
      "યુવતીને": 8842,
      "સ્ટોપ": 8843,
      "પ્રતિબંધિત": 8844,
      "અભિપ્ર": 8845,
      "પાંદડા": 8846,
      "ફ્લ્મિ": 8847,
      "Re": 8848,
      "આભ": 8849,
      "રદ્દ": 8850,
      "વેટ": 8851,
      "શાર": 8852,
      "##કેશન": 8853,
      "##યાએ": 8854,
      "##લીવુ": 8855,
      "હોળી": 8856,
      "જોષી": 8857,
      "##કેલી": 8858,
      "રોમાં": 8859,
      "પુનર": 8860,
      "પહોંચતા": 8861,
      "જગદી": 8862,
      "જાતકો": 8863,
      "વિકાસના": 8864,
      "ડાયમંડ": 8865,
      "પ્રશાસ": 8866,
      "ફ્રન્ટ": 8867,
      "##કૃષ્ણ": 8868,
      "ભૌતિક": 8869,
      "નિરીક્ષણ": 8870,
      "કિંગ": 8871,
      "જસ": 8872,
      "નંગ": 8873,
      "મરા": 8874,
      "##સાગર": 8875,
      "##લગ્ન": 8876,
      "કરનારી": 8877,
      "##નોના": 8878,
      "આવેલો": 8879,
      "લેતાં": 8880,
      "શોક": 8881,
      "અગાઉથી": 8882,
      "##કામના": 8883,
      "##દાયી": 8884,
      "વાનગીઓ": 8885,
      "બેનર્જી": 8886,
      "રાત્રીના": 8887,
      "ઝારખંડ": 8888,
      "રિક્ષા": 8889,
      "##ઝરી": 8890,
      "##વીજ": 8891,
      "લીમ": 8892,
      "લાખના": 8893,
      "શૈલેષ": 8894,
      "બિલ્ડ": 8895,
      "કુશળતા": 8896,
      "પાઇપ": 8897,
      "મેડીકલ": 8898,
      "આફ": 8899,
      "ઈશ": 8900,
      "ઈજાગ્રસ્ત": 8901,
      "છરી": 8902,
      "ટાઇમ": 8903,
      "ટાંકી": 8904,
      "##ન્ડી": 8905,
      "વધ્યા": 8906,
      "મેટલ": 8907,
      "મિની": 8908,
      "મૃત્યુઆંક": 8909,
      "કર્મચારીઓની": 8910,
      "##ઠ્ઠ": 8911,
      "પદાર્થો": 8912,
      "તુલસી": 8913,
      "ઝઘડો": 8914,
      "ડેપ્યુટી": 8915,
      "પ્રેશર": 8916,
      "સ્વામિનારાયણ": 8917,
      "ત્રા": 8918,
      "##બેર": 8919,
      "##િફિક": 8920,
      "##પદ": 8921,
      "છેઃ": 8922,
      "પ્રણ": 8923,
      "##યાત્ર": 8924,
      "રાજનાથ": 8925,
      "યુકે": 8926,
      "આગમન": 8927,
      "રેપ": 8928,
      "બેઠેલા": 8929,
      "રાહુ": 8930,
      "196": 8931,
      "##પ્ટર": 8932,
      "૧૯૬": 8933,
      "અસરો": 8934,
      "કલેક્ટ": 8935,
      "ડિસ્કાઉન્ટ": 8936,
      "વહીવટ": 8937,
      "ઉછાળો": 8938,
      "સ્પેસ": 8939,
      "એકત્રિત": 8940,
      "યહોવા": 8941,
      "અઠવાડિયે": 8942,
      "મસ્જિદ": 8943,
      "?’": 8944,
      "૪૩": 8945,
      "##રૂણ": 8946,
      "##ુકત": 8947,
      "મીઠી": 8948,
      "ગામડા": 8949,
      "ડિફે": 8950,
      "સહયોગી": 8951,
      "ટ્રેન્ડ": 8952,
      "ટ્રેનિંગ": 8953,
      "આમિર": 8954,
      "રમવા": 8955,
      "મંત્રીએ": 8956,
      "નિવૃત્તિ": 8957,
      "પત્નીએ": 8958,
      "મેળવવામાં": 8959,
      "દ્રશ્યો": 8960,
      "ગોઠવી": 8961,
      "ડાયાબિટીસ": 8962,
      "ઇશ": 8963,
      "હડ": 8964,
      "##રેશન": 8965,
      "##ig": 8966,
      "##નાના": 8967,
      "આવકાર": 8968,
      "કારોબાર": 8969,
      "પીવા": 8970,
      "વિસ્તરણ": 8971,
      "ભાગો": 8972,
      "બોગસ": 8973,
      "ભરાઈ": 8974,
      "હિમા": 8975,
      "સભ્યોની": 8976,
      "ડોલરની": 8977,
      "ક્વો": 8978,
      "તબીબ": 8979,
      "મજાક": 8980,
      "એન્જિનિયર": 8981,
      "વેકેશન": 8982,
      "વ્યાપાર": 8983,
      "ઓલિમ્પિક": 8984,
      "74": 8985,
      "ઓઇલ": 8986,
      "કન્ટ": 8987,
      "ફફ": 8988,
      "##ચર્સ": 8989,
      "ગુને": 8990,
      "##બીસી": 8991,
      "દેશોની": 8992,
      "ચાલશે": 8993,
      "નીકળ્યા": 8994,
      "જીલ્લાના": 8995,
      "ક્લાસિક": 8996,
      "કંઇક": 8997,
      "ગિફ્ટ": 8998,
      "ઠરાવ": 8999,
      "ફોટોગ્રાફ": 9000,
      "ગળે": 9001,
      "છત્તી": 9002,
      "થનારા": 9003,
      "##િબ્ર": 9004,
      "##લાકી": 9005,
      "પ્રદીપ": 9006,
      "પ્રજાત": 9007,
      "##લેન્ટ": 9008,
      "પાપ": 9009,
      "દિવસોથી": 9010,
      "સિઝન": 9011,
      "ફર્યા": 9012,
      "જુએ": 9013,
      "પ્રોસેસ": 9014,
      "કમર": 9015,
      "બાળકોમાં": 9016,
      "2011": 9017,
      "બાબતમાં": 9018,
      "ડિસેમ્બરે": 9019,
      "પ્રભારી": 9020,
      "સિંગલ": 9021,
      "ચિકિત્સ": 9022,
      "ડ્રાઈવર": 9023,
      "કંડ": 9024,
      "જાં": 9025,
      "માથે": 9026,
      "##ાવવાનું": 9027,
      "વિગેરે": 9028,
      "સમારંભ": 9029,
      "સેક્ટર": 9030,
      "પીવાથી": 9031,
      "##બાપુ": 9032,
      "પ્રેસિ": 9033,
      "##પુરી": 9034,
      "ધોવા": 9035,
      "એલસીબી": 9036,
      "દર્શાવવામાં": 9037,
      "પૂછવામાં": 9038,
      "સાવર": 9039,
      "એકબીજાને": 9040,
      "પોરબંદ": 9041,
      "તકેદારી": 9042,
      "જગદીશ": 9043,
      "77": 9044,
      "આઘાત": 9045,
      "જંતુ": 9046,
      "બરો": 9047,
      "૩૦૦": 9048,
      "##ળાઈ": 9049,
      "કરાયેલ": 9050,
      "##ટોપ": 9051,
      "અંગેના": 9052,
      "સાંજના": 9053,
      "લાકડી": 9054,
      "2010": 9055,
      "જોડાઈ": 9056,
      "પિતાની": 9057,
      "નિવૃત્ત": 9058,
      "અખિલ": 9059,
      "સગીર": 9060,
      "યોજાનાર": 9061,
      "ખોર": 9062,
      "મરણ": 9063,
      "વતી": 9064,
      "હંગ": 9065,
      "૧પ": 9066,
      "##શિક": 9067,
      "##શંકર": 9068,
      "##ંબા": 9069,
      "##ાવટ": 9070,
      "નિહ": 9071,
      "બાળપણ": 9072,
      "પાકિસ્તાનને": 9073,
      "ટેસ્ટિંગ": 9074,
      "મોરબીમાં": 9075,
      "સુંદરતા": 9076,
      "૧૫૦": 9077,
      "પામે": 9078,
      "લેખમાં": 9079,
      "નાંખી": 9080,
      "ઘૂંટ": 9081,
      "મંજુર": 9082,
      "વાપરી": 9083,
      "જ્યોતિષ": 9084,
      "શકયતા": 9085,
      "ડેવલપમેન્ટ": 9086,
      "73": 9087,
      "ઇસ્લા": 9088,
      "##હિક": 9089,
      "##બત": 9090,
      "##ટણી": 9091,
      "કેલ": 9092,
      "વિવા": 9093,
      "સુગંધ": 9094,
      "જીતે": 9095,
      "સરકારનો": 9096,
      "કંપનીને": 9097,
      "અહીંયા": 9098,
      "નાખ્યો": 9099,
      "સમજવા": 9100,
      "રાશિફળ": 9101,
      "વ્યક્તિત્વ": 9102,
      "સ્ટોરી": 9103,
      "પ્રશાંત": 9104,
      "સ્ટીલ": 9105,
      "સ્કીમ": 9106,
      "સર્ટિફ": 9107,
      "ડેલ": 9108,
      "નવાર": 9109,
      "પારો": 9110,
      "મધુ": 9111,
      "##સ્યો": 9112,
      "##વવાનો": 9113,
      "##ઝેશન": 9114,
      "##ૃહ": 9115,
      "કેક": 9116,
      "કોળી": 9117,
      "##વેન્દ્ર": 9118,
      "દિવ્ય": 9119,
      "##િનર": 9120,
      "કામે": 9121,
      "દેશોના": 9122,
      "સિન્ડ": 9123,
      "##િપ્ટ": 9124,
      "જવાથી": 9125,
      "ફોનમાં": 9126,
      "હરિ": 9127,
      "નાખવામાં": 9128,
      "વિજયભાઇ": 9129,
      "કોલેજો": 9130,
      "કોલેજના": 9131,
      "મહામારીને": 9132,
      "જઇને": 9133,
      "અંબાજી": 9134,
      "બહુમતી": 9135,
      "ફાઉન્ડેશન": 9136,
      "હેલિકો": 9137,
      "વિડિઓ": 9138,
      "67": 9139,
      "પાળ": 9140,
      "##ષિત": 9141,
      "##CB": 9142,
      "##નીએ": 9143,
      "##તીય": 9144,
      "રાજપીપ": 9145,
      "ઉપસ્થિતિ": 9146,
      "##્યુમ": 9147,
      "ક્રૂડ": 9148,
      "હોસ્પિટલોમાં": 9149,
      "પ્રકારનાં": 9150,
      "ઉમેરી": 9151,
      "બિંદુ": 9152,
      "ગરબા": 9153,
      "પ્રસન્ન": 9154,
      "૧૯૮": 9155,
      "જીત્યા": 9156,
      "બોર્ડના": 9157,
      "મહામારીના": 9158,
      "નવેમ્બરે": 9159,
      "તાલિ": 9160,
      "નિર્ધારિત": 9161,
      "છત્તીસગઢ": 9162,
      "ક્યા": 9163,
      "સવા": 9164,
      "##કપ": 9165,
      "##ણ્ય": 9166,
      "##ર્ભ": 9167,
      "##લાજ": 9168,
      "##યાન": 9169,
      "પરો": 9170,
      "##ાયુ": 9171,
      "સુત્રો": 9172,
      "રમેશ": 9173,
      "ઘટાડે": 9174,
      "વોશિંગ": 9175,
      "નાખો": 9176,
      "સ્ટેજ": 9177,
      "ગર્ભા": 9178,
      "તૂટ": 9179,
      "ફસ": 9180,
      "##રફ": 9181,
      "##ક્ક": 9182,
      "બેલે": 9183,
      "##િલ્ડ": 9184,
      "અનન્ય": 9185,
      "દરજ્": 9186,
      "રહીશો": 9187,
      "રેસીપી": 9188,
      "માત્રા": 9189,
      "ટોળા": 9190,
      "આઈટી": 9191,
      "##લાઇટ": 9192,
      "અસંખ્ય": 9193,
      "તંત્રને": 9194,
      "નિકળ": 9195,
      "એડવો": 9196,
      "પ્રોજેકટ": 9197,
      "ખીલ": 9198,
      "સરખામણીએ": 9199,
      "ચાંદીના": 9200,
      "સ્ટેડિયમ": 9201,
      "કટોકટી": 9202,
      "ઉદ્ધવ": 9203,
      "##ચૂંટ": 9204,
      "ઓપ્શન": 9205,
      "છાલ": 9206,
      "શૉ": 9207,
      "સશ": 9208,
      "સગા": 9209,
      "હદ": 9210,
      "##વ્યુ": 9211,
      "##મ્ય": 9212,
      "##લાએ": 9213,
      "જોડે": 9214,
      "##્રીક": 9215,
      "ગુર": 9216,
      "સોદા": 9217,
      "સીઝ": 9218,
      "લગાવ્યા": 9219,
      "સૌંદર": 9220,
      "લોકલ": 9221,
      "ડેમો": 9222,
      "પ્રેમમાં": 9223,
      "જેમની": 9224,
      "કોઇને": 9225,
      "ચૂકવવા": 9226,
      "દુનિયાભરમાં": 9227,
      "બેંકના": 9228,
      "કીટ": 9229,
      "ગર્ભાવસ્થા": 9230,
      "એન્ટિ": 9231,
      "મગજ": 9232,
      "ચુડાસ": 9233,
      "સેલિબ્ર": 9234,
      "ટેલિકો": 9235,
      "સુધારવા": 9236,
      "પાતળા": 9237,
      "જરૃ": 9238,
      "પુરવઠો": 9239,
      "નીપજ્યું": 9240,
      "વિભાજ": 9241,
      "રજીસ્ટ્ર": 9242,
      "તિવારી": 9243,
      "એલાન": 9244,
      "દાવ": 9245,
      "૯૯": 9246,
      "##બડ": 9247,
      "##મણી": 9248,
      "માણી": 9249,
      "##ટેજ": 9250,
      "સ્તન": 9251,
      "કહો": 9252,
      "લગાડ": 9253,
      "કેન્દ્રો": 9254,
      "કાયમ": 9255,
      "માતાના": 9256,
      "દુનિયાની": 9257,
      "સૂચિ": 9258,
      "##ઝોન": 9259,
      "સગવડ": 9260,
      "વલ્લભ": 9261,
      "CM": 9262,
      "and": 9263,
      "દળો": 9264,
      "##બળો": 9265,
      "##ચારી": 9266,
      "##ખમ": 9267,
      "##hat": 9268,
      "##િનિયમ": 9269,
      "સૌર": 9270,
      "સભામાં": 9271,
      "પંચાયતની": 9272,
      "ગાયબ": 9273,
      "સંકેતો": 9274,
      "વિગતવાર": 9275,
      "બેંકો": 9276,
      "ડૂબી": 9277,
      "ભરાયા": 9278,
      "પ્રેક્ટિસ": 9279,
      "સઘન": 9280,
      "માર્ગદર્શિકા": 9281,
      "છંટ": 9282,
      "દરે": 9283,
      "ધિરાણ": 9284,
      "બર્": 9285,
      "યાત્ર": 9286,
      "ષડ": 9287,
      "##બાલ": 9288,
      "જોવી": 9289,
      "##કાલીન": 9290,
      "##સીબે": 9291,
      "રોપ": 9292,
      "તેલંગ": 9293,
      "તારીખે": 9294,
      "ભયંકર": 9295,
      "દુર્લભ": 9296,
      "##મેટિક": 9297,
      "સ્પર્ધામાં": 9298,
      "મચાવી": 9299,
      "કનેક્ટ": 9300,
      "ચીજવસ્તુ": 9301,
      "68": 9302,
      "અવા": 9303,
      "ચાર્": 9304,
      "ઝુંબ": 9305,
      "નાજ": 9306,
      "હૂં": 9307,
      "કરાવ્યો": 9308,
      "##તાએ": 9309,
      "અનિવાર": 9310,
      "લેપ": 9311,
      "##ેડે": 9312,
      "##યોગ્ય": 9313,
      "ચૂંટણીની": 9314,
      "સંબંધમાં": 9315,
      "કોહલીએ": 9316,
      "રાજકારણમાં": 9317,
      "ચલાવે": 9318,
      "પેશાબ": 9319,
      "##બહેન": 9320,
      "ટેલિકોમ": 9321,
      "અનિવાર્ય": 9322,
      "ઇલે": 9323,
      "ઈલેક્ટ": 9324,
      "ગંગ": 9325,
      "ચાઈ": 9326,
      "##વના": 9327,
      "##oc": 9328,
      "##ંગલ": 9329,
      "##્રીત": 9330,
      "સોજો": 9331,
      "ફરક": 9332,
      "ડોકટર": 9333,
      "સહાયક": 9334,
      "##ભાવિક": 9335,
      "##ફેક્ટ": 9336,
      "શિખર": 9337,
      "કાયદાકીય": 9338,
      "સેનાએ": 9339,
      "પેટાચૂંટ": 9340,
      "સર્વોચ્ચ": 9341,
      "સમર્પિત": 9342,
      "તુરંત": 9343,
      "અભિપ્રાય": 9344,
      "ઇમે": 9345,
      "જરા": 9346,
      "૧ર": 9347,
      "૫૪": 9348,
      "##સમેન્ટ": 9349,
      "##જિન": 9350,
      "##ૅર": 9351,
      "##રીટ": 9352,
      "##ડાકા": 9353,
      "##ત્રિમ": 9354,
      "ચોરસ": 9355,
      "યુવકને": 9356,
      "વિશ્વભરમાં": 9357,
      "એનર્જી": 9358,
      "તંત્રએ": 9359,
      "વ્હાઇટ": 9360,
      "##છેડા": 9361,
      "કોમ્પ્યુટર": 9362,
      "ફાઇનલ": 9363,
      "મલ્ટી": 9364,
      "ગ્રોથ": 9365,
      "##સિંહે": 9366,
      "ચેન્નઈ": 9367,
      "કઢ": 9368,
      "ધૂ": 9369,
      "##યક": 9370,
      "##્ટન": 9371,
      "પ્રવી": 9372,
      "##્યાત્": 9373,
      "##ટેશન": 9374,
      "##િતી": 9375,
      "દીકરો": 9376,
      "##મોહન": 9377,
      "ચોખા": 9378,
      "મીટિંગ": 9379,
      "બોસ": 9380,
      "થઇને": 9381,
      "કંપનીઓના": 9382,
      "બ્રિગેડ": 9383,
      "હરાજી": 9384,
      "મૂકવા": 9385,
      "લોકડાઉનના": 9386,
      "દેવાયા": 9387,
      "ઉછેર": 9388,
      "જોગવાઇ": 9389,
      "ટાપુ": 9390,
      "રિકવરી": 9391,
      "છંટકાવ": 9392,
      "St": 9393,
      "ઈમરાન": 9394,
      "પદે": 9395,
      "લહે": 9396,
      "##શને": 9397,
      "##ઝલ": 9398,
      "##ૂલાત": 9399,
      "સાદ": 9400,
      "પછીના": 9401,
      "કંપનીઓએ": 9402,
      "##સ્થામાં": 9403,
      "ખાવાનું": 9404,
      "ઝડપે": 9405,
      "અવસર": 9406,
      "નાખવાની": 9407,
      "ફેલાયો": 9408,
      "મથકમાં": 9409,
      "ચમત્": 9410,
      "સાબરમતી": 9411,
      "સ્ત્રોત": 9412,
      "76": 9413,
      "ઊંડા": 9414,
      "ઔર": 9415,
      "તારણ": 9416,
      "બુમ": 9417,
      "##ભે": 9418,
      "##િઅ": 9419,
      "##મરી": 9420,
      "##રોગ": 9421,
      "કારની": 9422,
      "બેટ": 9423,
      "મળતું": 9424,
      "લેબો": 9425,
      "નીર": 9426,
      "બાપ": 9427,
      "ત્રિમ": 9428,
      "નોંધાયેલા": 9429,
      "ચીમકી": 9430,
      "નેતાઓને": 9431,
      "ઘટાડી": 9432,
      "થોડાક": 9433,
      "મહાનુ": 9434,
      "વિશ્ર": 9435,
      "ડીઝલના": 9436,
      "પંડિત": 9437,
      "મેઘરાજ": 9438,
      "ફાટી": 9439,
      "ચામડી": 9440,
      "ઈન્ટરનેટ": 9441,
      "ગંગા": 9442,
      "ડામ": 9443,
      "ધૂમ": 9444,
      "રડ": 9445,
      "##શૈ": 9446,
      "##છોડ": 9447,
      "##ાનંદ": 9448,
      "##િયન્સ": 9449,
      "##ન્ટલ": 9450,
      "##મીર": 9451,
      "અમારો": 9452,
      "મીમી": 9453,
      "માર્ચે": 9454,
      "નિર્ણયને": 9455,
      "સ્વાભાવિક": 9456,
      "રંગના": 9457,
      "##લ્સને": 9458,
      "રોગપ્રત": 9459,
      "વાયરસથી": 9460,
      "એજ્યુ": 9461,
      "માગતા": 9462,
      "મોડાસા": 9463,
      "સૈફ": 9464,
      "સાયબર": 9465,
      "##ાસ્ટ્ર": 9466,
      "##દ્દાખ": 9467,
      "ગઢવી": 9468,
      "હડતાળ": 9469,
      "વિસ્ફોટ": 9470,
      "કાફલો": 9471,
      "વ્યાવસાયિક": 9472,
      "પુનરાવ": 9473,
      "81": 9474,
      "અઘ": 9475,
      "ચાર્ટ": 9476,
      "ટર્ન": 9477,
      "શંકર": 9478,
      "૪૭": 9479,
      "##વૂડ": 9480,
      "##મૂલ": 9481,
      "##ik": 9482,
      "માવ": 9483,
      "##િલ્લો": 9484,
      "અહીંના": 9485,
      "ક્ષણ": 9486,
      "મોટાભાગે": 9487,
      "પરેશાની": 9488,
      "##ઠ્ઠા": 9489,
      "હેતુથી": 9490,
      "ઇચ્છે": 9491,
      "ગુલાબ": 9492,
      "વંચિત": 9493,
      "એડવોકેટ": 9494,
      "ગળા": 9495,
      "તાં": 9496,
      "પઠાણ": 9497,
      "લદ્દાખ": 9498,
      "##ૂંક": 9499,
      "પરિમ": 9500,
      "##સ્ડ": 9501,
      "બેન્ડ": 9502,
      "##સ્ટાર": 9503,
      "રહેલો": 9504,
      "##પ્રા": 9505,
      "અધિનિયમ": 9506,
      "##ોરિટી": 9507,
      "હોસ્પિટલો": 9508,
      "વિદ્યાર્થીની": 9509,
      "ઉત્પાદક": 9510,
      "પત્રમાં": 9511,
      "પૂરતા": 9512,
      "રાજસ્થાનમાં": 9513,
      "મૂકીને": 9514,
      "ફેબ્રુઆરીએ": 9515,
      "ઝીણી": 9516,
      "પૃષ્ઠ": 9517,
      "સિદ્ધાંત": 9518,
      "સમીક્ષાઓ": 9519,
      "78": 9520,
      "ઇજાગ્રસ્ત": 9521,
      "કડી": 9522,
      "ખવડ": 9523,
      "ગાળ": 9524,
      "ચિર": 9525,
      "થે": 9526,
      "##ફટ": 9527,
      "##ૃષ્ટિ": 9528,
      "##ામારી": 9529,
      "લેનાર": 9530,
      "રીપોર્ટ": 9531,
      "જીવી": 9532,
      "ટીપ": 9533,
      "ચોંકી": 9534,
      "મીની": 9535,
      "બનાવતા": 9536,
      "મામલા": 9537,
      "શહેરો": 9538,
      "આરોપીઓની": 9539,
      "સંગ્ર": 9540,
      "અધિકારીને": 9541,
      "કૃત્રિમ": 9542,
      "બેંકમાં": 9543,
      "ચિંતાજનક": 9544,
      "મેળવ્યા": 9545,
      "સ્થિતી": 9546,
      "મોકલવા": 9547,
      "કચેરીમાં": 9548,
      "નાણાંકીય": 9549,
      "મુસ્લિ": 9550,
      "સમયગાળામાં": 9551,
      "દરોડો": 9552,
      "ટુકડા": 9553,
      "2018માં": 9554,
      "ઇલેક્ટ્રિક": 9555,
      "માઈક્રો": 9556,
      "ઓથ": 9557,
      "જહે": 9558,
      "લાવે": 9559,
      "કરાવે": 9560,
      "કેવા": 9561,
      "##મેન્દ્ર": 9562,
      "વાપી": 9563,
      "ગ્રંથ": 9564,
      "જયેશ": 9565,
      "પેટ્રો": 9566,
      "પાછળના": 9567,
      "ટ્રાન્": 9568,
      "વધારવામાં": 9569,
      "માધ્યમ": 9570,
      "ટ્રાન્સપોર્ટ": 9571,
      "ચલાવતા": 9572,
      "દિવાળીના": 9573,
      "બાળકીને": 9574,
      "વાલીઓ": 9575,
      "2017માં": 9576,
      "વાયુસેના": 9577,
      "કક્ષાએ": 9578,
      "જયંતિ": 9579,
      "ધોધમાર": 9580,
      "જબરદ": 9581,
      "કમિશ્નર": 9582,
      "ટક": 9583,
      "##ાઓ": 9584,
      "##બુલ": 9585,
      "##પાત": 9586,
      "જેવાં": 9587,
      "##ાળું": 9588,
      "શકિત": 9589,
      "મારીને": 9590,
      "બોલિંગ": 9591,
      "બ્રાંચ": 9592,
      "પક્ષમાં": 9593,
      "વરસી": 9594,
      "સાવધાની": 9595,
      "અક્ષર": 9596,
      "સ્કૂલો": 9597,
      "##િલેટર": 9598,
      "ચલાવવા": 9599,
      "ઉપકરણો": 9600,
      "દ્રષ્ટિએ": 9601,
      "શેટ્ટી": 9602,
      "અદ્": 9603,
      "ખભા": 9604,
      "##ુની": 9605,
      "કેચ": 9606,
      "સાડી": 9607,
      "##ાણિક": 9608,
      "આપેલી": 9609,
      "શોખ": 9610,
      "ટકાના": 9611,
      "બદલાય": 9612,
      "ફિલ્મને": 9613,
      "##સ્તાન": 9614,
      "##ine": 9615,
      "બિલકુલ": 9616,
      "અંકુશ": 9617,
      "દાદા": 9618,
      "ફર્સ્ટ": 9619,
      "જાદુ": 9620,
      "નંદ": 9621,
      "પિત": 9622,
      "રાઇ": 9623,
      "##િથ": 9624,
      "##th": 9625,
      "##ટીને": 9626,
      "##ણીની": 9627,
      "લીલી": 9628,
      "ફેમિ": 9629,
      "##મેન્ટમાં": 9630,
      "અહીંથી": 9631,
      "##ાજીક": 9632,
      "એનસીપી": 9633,
      "ગતિવિ": 9634,
      "અજમ": 9635,
      "મંગળવાર": 9636,
      "સંક્રમણને": 9637,
      "બિલ્ડીંગ": 9638,
      "##કોર્ટના": 9639,
      "ગુલાબી": 9640,
      "##ગણતરી": 9641,
      "પ્રોપર્ટી": 9642,
      "છોટાઉદેપુર": 9643,
      "ઇમ": 9644,
      "ઘડિયા": 9645,
      "ટાઈમ": 9646,
      "બ્રી": 9647,
      "બોર્": 9648,
      "મજૂરી": 9649,
      "વતની": 9650,
      "##ટું": 9651,
      "##ev": 9652,
      "##જીયાત": 9653,
      "કરવાને": 9654,
      "##કીટ": 9655,
      "અમારે": 9656,
      "##િનલ": 9657,
      "મહિલાઓની": 9658,
      "બહારના": 9659,
      "પ્રતિસાદ": 9660,
      "રાજકોટની": 9661,
      "સ્ક્રી": 9662,
      "મોરચા": 9663,
      "પાડ્યા": 9664,
      "કામગીરીમાં": 9665,
      "ખર્ચાળ": 9666,
      "સંચાલક": 9667,
      "શખ્સોએ": 9668,
      "માળખું": 9669,
      "વાવાઝ": 9670,
      "કોશિકા": 9671,
      "કયાં": 9672,
      "સ્પોર્ટ્સ": 9673,
      "ઉશ્કેર": 9674,
      "પંકજ": 9675,
      "##નિર્ભર": 9676,
      "82": 9677,
      "ક્લે": 9678,
      "કસ્ટમ": 9679,
      "ખળ": 9680,
      "ગ્લે": 9681,
      "નડ": 9682,
      "મૅ": 9683,
      "૪૬": 9684,
      "##યંત્ર": 9685,
      "##બાજુ": 9686,
      "##કલ્પ": 9687,
      "##આતો": 9688,
      "કેલ્": 9689,
      "##લીઓ": 9690,
      "કોમ્": 9691,
      "બેનર": 9692,
      "રહેલું": 9693,
      "નાથ": 9694,
      "ટેન્ડર": 9695,
      "કેસનો": 9696,
      "ચેમ્બર": 9697,
      "અસરગ્રસ્ત": 9698,
[...]
