{
  "version": "1.0",
  "truncation": null,
  "padding": null,
  "added_tokens": [
    {
      "id": 0,
      "content": "[UNK]",
      "single_word": false,
      "lstrip": false,
      "rstrip": false,
      "normalized": false,
      "special": true
    },
    {
      "id": 1,
      "content": "[PAD]",
      "single_word": false,
      "lstrip": false,
      "rstrip": false,
      "normalized": false,
      "special": true
    },
    {
      "id": 2,
      "content": "[BOS]",
      "single_word": false,
      "lstrip": false,
      "rstrip": false,
      "normalized": false,
      "special": true
    },
    {
      "id": 3,
      "content": "[EOS]",
      "single_word": false,
      "lstrip": false,
      "rstrip": false,
      "normalized": false,
      "special": true
    }
  ],
  "normalizer": {
    "type": "NFC"
  },
  "pre_tokenizer": {
    "type": "Whitespace"
  },
  "post_processor": null,
  "decoder": null,
  "model": {
    "type": "WordPiece",
    "unk_token": "[UNK]",
    "continuing_subword_prefix": "##",
    "max_input_chars_per_word": 200,
    "vocab": {
      "[UNK]": 0,
      "[PAD]": 1,
      "[BOS]": 2,
      "[EOS]": 3,
      "!": 4,
      "\"": 5,
      "#": 6,
      "$": 7,
      "%": 8,
      "&": 9,
      "'": 10,
      "(": 11,
      ")": 12,
      "*": 13,
      "+": 14,
      ",": 15,
      "-": 16,
      ".": 17,
      "/": 18,
      "0": 19,
      "1": 20,
      "2": 21,
      "3": 22,
      "4": 23,
      "5": 24,
      "6": 25,
      "7": 26,
      "8": 27,
      "9": 28,
      ":": 29,
      ";": 30,
      "<": 31,
      "=": 32,
      ">": 33,
      "?": 34,
      "@": 35,
      "A": 36,
      "B": 37,
      "C": 38,
      "D": 39,
      "E": 40,
      "F": 41,
      "G": 42,
      "H": 43,
      "I": 44,
      "J": 45,
      "K": 46,
      "L": 47,
      "M": 48,
      "N": 49,
      "O": 50,
      "P": 51,
      "Q": 52,
      "R": 53,
      "S": 54,
      "T": 55,
      "U": 56,
      "V": 57,
      "W": 58,
      "X": 59,
      "Y": 60,
      "Z": 61,
      "[": 62,
      "\\": 63,
      "]": 64,
      "_": 65,
      "`": 66,
      "a": 67,
      "b": 68,
      "c": 69,
      "d": 70,
      "e": 71,
      "f": 72,
      "g": 73,
      "h": 74,
      "i": 75,
      "j": 76,
      "k": 77,
      "l": 78,
      "m": 79,
      "n": 80,
      "o": 81,
      "p": 82,
      "q": 83,
      "r": 84,
      "s": 85,
      "t": 86,
      "u": 87,
      "v": 88,
      "w": 89,
      "x": 90,
      "y": 91,
      "z": 92,
      "{": 93,
      "|": 94,
      "}": 95,
      "~": 96,
      "": 97,
      "": 98,
      "": 99,
      "£": 100,
      "©": 101,
      "«": 102,
      "­": 103,
      "°": 104,
      "·": 105,
      "º": 106,
      "»": 107,
      "¼": 108,
      "½": 109,
      "¾": 110,
      "Â": 111,
      "Æ": 112,
      "Ì": 113,
      "×": 114,
      "Ù": 115,
      "Ú": 116,
      "Ý": 117,
      "à": 118,
      "á": 119,
      "â": 120,
      "é": 121,
      "ë": 122,
      "í": 123,
      "î": 124,
      "ï": 125,
      "÷": 126,
      "ü": 127,
      "ń": 128,
      "ő": 129,
      "š": 130,
      "Ź": 131,
      "˜": 132,
      "Μ": 133,
      "ί": 134,
      "α": 135,
      "ε": 136,
      "ι": 137,
      "λ": 138,
      "ν": 139,
      "ο": 140,
      "π": 141,
      "ρ": 142,
      "σ": 143,
      "υ": 144,
      "φ": 145,
      "а": 146,
      "б": 147,
      "в": 148,
      "е": 149,
      "к": 150,
      "л": 151,
      "н": 152,
      "о": 153,
      "п": 154,
      "с": 155,
      "т": 156,
      "у": 157,
      "ч": 158,
      "ы": 159,
      "ю": 160,
      "я": 161,
      "і": 162,
      "ँ": 163,
      "ं": 164,
      "अ": 165,
      "आ": 166,
      "उ": 167,
      "ऊ": 168,
      "ए": 169,
      "क": 170,
      "ख": 171,
      "ग": 172,
      "घ": 173,
      "च": 174,
      "ज": 175,
      "झ": 176,
      "ट": 177,
      "ड": 178,
      "ण": 179,
      "त": 180,
      "थ": 181,
      "द": 182,
      "ध": 183,
      "न": 184,
      "प": 185,
      "ब": 186,
      "भ": 187,
      "म": 188,
      "य": 189,
      "र": 190,
      "ल": 191,
      "व": 192,
      "श": 193,
      "ष": 194,
      "स": 195,
      "ह": 196,
      "ा": 197,
      "ि": 198,
      "ी": 199,
      "ु": 200,
      "ू": 201,
      "ृ": 202,
      "ॅ": 203,
      "े": 204,
      "ै": 205,
      "ॉ": 206,
      "ो": 207,
      "्": 208,
      "ॐ": 209,
      "।": 210,
      "०": 211,
      "२": 212,
      "४": 213,
      "ઁ": 214,
      "ં": 215,
      "ઃ": 216,
      "અ": 217,
      "આ": 218,
      "ઇ": 219,
      "ઈ": 220,
      "ઉ": 221,
      "ઊ": 222,
      "ઋ": 223,
      "ઍ": 224,
      "એ": 225,
      "ઐ": 226,
      "ઑ": 227,
      "ઓ": 228,
      "ઔ": 229,
      "ક": 230,
      "ખ": 231,
      "ગ": 232,
      "ઘ": 233,
      "ઙ": 234,
      "ચ": 235,
      "છ": 236,
      "જ": 237,
      "ઝ": 238,
      "ઞ": 239,
      "ટ": 240,
      "ઠ": 241,
      "ડ": 242,
      "ઢ": 243,
      "ણ": 244,
      "ત": 245,
      "થ": 246,
      "દ": 247,
      "ધ": 248,
      "ન": 249,
      "પ": 250,
      "ફ": 251,
      "બ": 252,
      "ભ": 253,
      "મ": 254,
      "ય": 255,
      "ર": 256,
      "લ": 257,
      "ળ": 258,
      "વ": 259,
      "શ": 260,
      "ષ": 261,
      "સ": 262,
      "હ": 263,
      "઼": 264,
      "ા": 265,
      "િ": 266,
      "ી": 267,
      "ુ": 268,
      "ૂ": 269,
      "ૃ": 270,
      "ૅ": 271,
      "ે": 272,
      "ૈ": 273,
      "ૉ": 274,
      "ો": 275,
      "ૌ": 276,
      "્": 277,
      "ૐ": 278,
      "ૠ": 279,
      "ૢ": 280,
      "૤": 281,
      "૦": 282,
      "૧": 283,
      "૨": 284,
      "૩": 285,
      "૪": 286,
      "૫": 287,
      "૬": 288,
      "૭": 289,
      "૮": 290,
      "૯": 291,
      "ச": 292,
      "ர": 293,
      "ழ": 294,
      "ோ": 295,
      "்": 296,
      "–": 297,
      "—": 298,
      "‘": 299,
      "’": 300,
      "‚": 301,
      "“": 302,
      "”": 303,
      "•": 304,
      "…": 305,
      "€": 306,
      "₹": 307,
      "№": 308,
      "™": 309,
      "→": 310,
      "−": 311,
      "√": 312,
      "▲": 313,
      "●": 314,
      "♡": 315,
      "♲": 316,
      "❣": 317,
      "": 318,
      "": 319,
      "️": 320,
      "｜": 321,
      "ﾍ": 322,
      "�": 323,
      "👉": 324,
      "👍": 325,
      "💐": 326,
      "##્": 327,
      "##ટ": 328,
      "##ો": 329,
      "##ક": 330,
      "##ન": 331,
      "##હ": 332,
      "##ા": 333,
      "##દ": 334,
      "##શ": 335,
      "##લ": 336,
      "##ૉ": 337,
      "##ગ": 338,
      "##મ": 339,
      "##ં": 340,
      "##ય": 341,
      "##ર": 342,
      "##i": 343,
      "##c": 344,
      "##r": 345,
      "##o": 346,
      "##l": 347,
      "##m": 348,
      "##a": 349,
      "##t": 350,
      "##e": 351,
      "##ુ": 352,
      "##ઝ": 353,
      "##ચ": 354,
      "##ભ": 355,
      "##ઈ": 356,
      "##સ": 357,
      "##પ": 358,
      "##ે": 359,
      "##C": 360,
      "##O": 361,
      "##V": 362,
      "##I": 363,
      "##D": 364,
      "##ધ": 365,
      "##િ": 366,
      "##ત": 367,
      "##થ": 368,
      "##ી": 369,
      "##P": 370,
      "##L": 371,
      "##ઘ": 372,
      "##જ": 373,
      "##વ": 374,
      "##ણ": 375,
      "##ળ": 376,
      "##ૂ": 377,
      "##ઇ": 378,
      "##ખ": 379,
      "##બ": 380,
      "##ડ": 381,
      "##એ": 382,
      "##p": 383,
      "##k": 384,
      "##s": 385,
      "##ઓ": 386,
      "##ઢ": 387,
      "##ફ": 388,
      "##ૈ": 389,
      "##6": 390,
      "##ઠ": 391,
      "##1": 392,
      "##2": 393,
      "##5": 394,
      "##0": 395,
      "##ષ": 396,
      "##9": 397,
      "##૫": 398,
      "##૦": 399,
      "##છ": 400,
      "##ૌ": 401,
      "##A": 402,
      "##N": 403,
      "##M": 404,
      "##ઉ": 405,
      "##ૃ": 406,
      "##આ": 407,
      "##ઃ": 408,
      "##૪": 409,
      "##૬": 410,
      "##*": 411,
      "##g": 412,
      "##n": 413,
      "##ૅ": 414,
      "##j": 415,
      "##W": 416,
      "##v": 417,
      "##h": 418,
      "##d": 419,
      "##૩": 420,
      "##૨": 421,
      "##8": 422,
      "##G": 423,
      "##S": 424,
      "##-": 425,
      "##૧": 426,
      "##અ": 427,
      "##u": 428,
      "##F": 429,
      "##T": 430,
      "##w": 431,
      "##R": 432,
      "##B": 433,
      "##4": 434,
      "##y": 435,
      "##7": 436,
      "##ઞ": 437,
      "##ઊ": 438,
      "##b": 439,
      "##ઁ": 440,
      "##૯": 441,
      "##(": 442,
      "##E": 443,
      "##U": 444,
      "##૭": 445,
      "##3": 446,
      "##૮": 447,
      "##”": 448,
      "##\"": 449,
      "##H": 450,
      "##ૢ": 451,
      "##f": 452,
      "##:": 453,
      "##.": 454,
      "##,": 455,
      "##J": 456,
      "##…": 457,
      "##ि": 458,
      "##x": 459,
      "##઼": 460,
      "##ૐ": 461,
      "##K": 462,
      "##Q": 463,
      "##!": 464,
      "##‘": 465,
      "##Y": 466,
      "##्": 467,
      "##र": 468,
      "##द": 469,
      "##े": 470,
      "##श": 471,
      "##?": 472,
      "##z": 473,
      "##व": 474,
      "##न": 475,
      "##ं": 476,
      "##स": 477,
      "##)": 478,
      "##ï": 479,
      "##@": 480,
      "##_": 481,
      "##q": 482,
      "##ो": 483,
      "##ी": 484,
      "##ઋ": 485,
      "##०": 486,
      "##ઙ": 487,
      "###": 488,
      "##’": 489,
      "##'": 490,
      "##ૠ": 491,
      "##“": 492,
      "##X": 493,
      "##ा": 494,
      "##ह": 495,
      "##�": 496,
      "##ु": 497,
      "##त": 498,
      "##˜": 499,
      "##>": 500,
      "##ோ": 501,
      "##ழ": 502,
      "##ர": 503,
      "##்": 504,
      "##Z": 505,
      "##í": 506,
      "##भ": 507,
      "##य": 508,
      "##म": 509,
      "##👉": 510,
      "##|": 511,
      "##ॅ": 512,
      "##š": 513,
      "##[": 514,
      "##Ź": 515,
      "##;": 516,
      "##ο": 517,
      "##υ": 518,
      "##σ": 519,
      "##ε": 520,
      "##ί": 521,
      "##ν": 522,
      "##–": 523,
      "##ઑ": 524,
      "##\\": 525,
      "##Ù": 526,
      "##प": 527,
      "##ृ": 528,
      "##थ": 529,
      "##/": 530,
      "##ઍ": 531,
      "##ग": 532,
      "##ू": 533,
      "##+": 534,
      "##ń": 535,
      "##â": 536,
      "##ट": 537,
      "##]": 538,
      "##ै": 539,
      "##Ý": 540,
      "##$": 541,
      "##î": 542,
      "##™": 543,
      "##º": 544,
      "##Â": 545,
      "##Ú": 546,
      "##ल": 547,
      "##ष": 548,
      "##ण": 549,
      "##ë": 550,
      "##é": 551,
      "##ॉ": 552,
      "##ड": 553,
      "##ज": 554,
      "##ब": 555,
      "##क": 556,
      "##ए": 557,
      "##ख": 558,
      "##‚": 559,
      "##ρ": 560,
      "##ι": 561,
      "##φ": 562,
      "##α": 563,
      "##ऊ": 564,
      "##झ": 565,
      "##к": 566,
      "##л": 567,
      "##ю": 568,
      "##ч": 569,
      "##а": 570,
      "##т": 571,
      "##♲": 572,
      "##ő": 573,
      "##á": 574,
      "##❣": 575,
      "##ઐ": 576,
      "##।": 577,
      "##у": 578,
      "##н": 579,
      "##ы": 580,
      "##Ì": 581,
      "##е": 582,
      "##б": 583,
      "##я": 584,
      "##ü": 585,
      "##ँ": 586,
      "##💐": 587,
      "##ાં": 588,
      "##ાર": 589,
      "##્ય": 590,
      "##ને": 591,
      "##્ર": 592,
      "##માં": 593,
      "##ના": 594,
      "##વા": 595,
      "છે": 596,
      "##ની": 597,
      "##ું": 598,
      "કર": 599,
      "##ર્": 600,
      "તે": 601,
      "##તા": 602,
      "અને": 603,
      "##થી": 604,
      "કે": 605,
      "##્ટ": 606,
      "મા": 607,
      "##લા": 608,
      "##ામ": 609,
      "##નો": 610,
      "આવ": 611,
      "પ્ર": 612,
      "હત": 613,
      "પર": 614,
      "##િક": 615,
      "##યા": 616,
      "##ાવ": 617,
      "##્યા": 618,
      "##ાય": 619,
      "##ન્": 620,
      "##ટે": 621,
      "##હે": 622,
      "##સ્": 623,
      "##રી": 624,
      "વિ": 625,
      "##ક્": 626,
      "##લી": 627,
      "##ાન": 628,
      "કો": 629,
      "જે": 630,
      "##ાત": 631,
      "માટે": 632,
      "##ંગ": 633,
      "##કો": 634,
      "##ાજ": 635,
      "પણ": 636,
      "એક": 637,
      "##શે": 638,
      "##ારે": 639,
      "##િત": 640,
      "##વામાં": 641,
      "સા": 642,
      "કરી": 643,
      "##્વ": 644,
      "##નું": 645,
      "##ારી": 646,
      "##ેશ": 647,
      "##લ્": 648,
      "##્યો": 649,
      "હો": 650,
      "##્યું": 651,
      "જો": 652,
      "##રો": 653,
      "##ાણ": 654,
      "##િયા": 655,
      "##વી": 656,
      "##હી": 657,
      "##મે": 658,
      "##ારા": 659,
      "##ંત": 660,
      "પો": 661,
      "સમ": 662,
      "સ્": 663,
      "##કે": 664,
      "મો": 665,
      "##ાલ": 666,
      "તેમ": 667,
      "આપ": 668,
      "##થે": 669,
      "##િવ": 670,
      "સુ": 671,
      "સં": 672,
      "##ાસ": 673,
      "##ડી": 674,
      "સાથે": 675,
      "##તી": 676,
      "##લે": 677,
      "##ાગ": 678,
      "કાર": 679,
      "##રે": 680,
      "##તિ": 681,
      "##ધી": 682,
      "##ાદ": 683,
      "લો": 684,
      "હતી": 685,
      "##્રી": 686,
      "##ાઈ": 687,
      "##યો": 688,
      "##ાળ": 689,
      "##રા": 690,
      "બે": 691,
      "વધ": 692,
      "##ક્ષ": 693,
      "##ટી": 694,
      "##ણે": 695,
      "મુ": 696,
      "તો": 697,
      "તમ": 698,
      "##ાઇ": 699,
      "##કા": 700,
      "##ત્": 701,
      "##કાર": 702,
      "##ડા": 703,
      "##સ્ટ": 704,
      "##ંદ": 705,
      "##્રે": 706,
      "##જી": 707,
      "##ણી": 708,
      "##િય": 709,
      "મે": 710,
      "રહ": 711,
      "ઉપ": 712,
      "મળ": 713,
      "##રૂ": 714,
      "રાજ": 715,
      "કરવા": 716,
      "##વે": 717,
      "##કી": 718,
      "##ાખ": 719,
      "##ાર્": 720,
      "##્યારે": 721,
      "##ન્ટ": 722,
      "હતો": 723,
      "મહ": 724,
      "આવે": 725,
      "##તે": 726,
      "વર્": 727,
      "##સી": 728,
      "##દી": 729,
      "##લો": 730,
      "હતા": 731,
      "##િલ્": 732,
      "##સ્ત": 733,
      "નથી": 734,
      "રો": 735,
      "લોકો": 736,
      "આવી": 737,
      "સર": 738,
      "રહે": 739,
      "##ંધ": 740,
      "ગુ": 741,
      "કરવામાં": 742,
      "##મી": 743,
      "સામ": 744,
      "##્યુ": 745,
      "હતું": 746,
      "##સે": 747,
      "નિ": 748,
      "પા": 749,
      "##ત્ર": 750,
      "##તો": 751,
      "##ન્ડ": 752,
      "હોય": 753,
      "દ્વ": 754,
      "##ારો": 755,
      "અન": 756,
      "##દા": 757,
      "##થા": 758,
      "##િટ": 759,
      "##પી": 760,
      "લે": 761,
      "##ંચ": 762,
      "વર્ષ": 763,
      "##ેલ": 764,
      "દ્વારા": 765,
      "##િંગ": 766,
      "##ેટ": 767,
      "રી": 768,
      "##વું": 769,
      "##મા": 770,
      "અમ": 771,
      "જી": 772,
      "ભાર": 773,
      "##જા": 774,
      "##મ્": 775,
      "##દ્": 776,
      "##્યાં": 777,
      "વધુ": 778,
      "##વાની": 779,
      "પોલી": 780,
      "##રમાં": 781,
      "ના": 782,
      "##તાં": 783,
      "યુ": 784,
      "નો": 785,
      "સે": 786,
      "સુધી": 787,
      "##ોલ": 788,
      "##ાણી": 789,
      "રૂ": 790,
      "##જે": 791,
      "##ાહ": 792,
      "માં": 793,
      "##વિ": 794,
      "પોતા": 795,
      "થઈ": 796,
      "##ચ્": 797,
      "##છી": 798,
      "સિ": 799,
      "બી": 800,
      "વે": 801,
      "દિવ": 802,
      "ની": 803,
      "દે": 804,
      "##ોડ": 805,
      "સમય": 806,
      "પૂ": 807,
      "બના": 808,
      "જણ": 809,
      "કોઈ": 810,
      "##ંતુ": 811,
      "શકે": 812,
      "##વાર": 813,
      "તમે": 814,
      "##રાત": 815,
      "##ટા": 816,
      "##શન": 817,
      "વ્ય": 818,
      "પડ": 819,
      "##હો": 820,
      "સ્ટ": 821,
      "કરે": 822,
      "##ષ્ટ": 823,
      "##ન્સ": 824,
      "##ોર્": 825,
      "પરંતુ": 826,
      "##શ્": 827,
      "##્સ": 828,
      "દર": 829,
      "પુ": 830,
      "##હીં": 831,
      "પહે": 832,
      "કામ": 833,
      "##ેર": 834,
      "##િન": 835,
      "રીતે": 836,
      "સો": 837,
      "##ાવી": 838,
      "##ક્ર": 839,
      "##ગી": 840,
      "##ચે": 841,
      "##ેલા": 842,
      "##રોના": 843,
      "##ણા": 844,
      "બાદ": 845,
      "રહી": 846,
      "શક": 847,
      "##ગર": 848,
      "##બી": 849,
      "રાખ": 850,
      "સ્થ": 851,
      "કહ": 852,
      "લી": 853,
      "##ન્દ": 854,
      "કોરોના": 855,
      "##વો": 856,
      "##ધા": 857,
      "છો": 858,
      "ને": 859,
      "##સા": 860,
      "તેઓ": 861,
      "##િલ": 862,
      "##ર્ણ": 863,
      "પોલીસ": 864,
      "તેના": 865,
      "પછી": 866,
      "##ક્ટ": 867,
      "પી": 868,
      "સી": 869,
      "ત્યારે": 870,
      "યો": 871,
      "##ંક": 872,
      "##ુક": 873,
      "ટી": 874,
      "##ેશન": 875,
      "##માંથી": 876,
      "##ુલ": 877,
      "##ાપ": 878,
      "થાય": 879,
      "##હિત": 880,
      "##રસ": 881,
      "દેશ": 882,
      "##ળી": 883,
      "##લાક": 884,
      "જણાવ": 885,
      "##િં": 886,
      "લગ": 887,
      "##બર": 888,
      "##પ્ર": 889,
      "કહ્યું": 890,
      "દિવસ": 891,
      "રહ્યા": 892,
      "ઉપર": 893,
      "##ંડ": 894,
      "##ંપ": 895,
      "##ેડ": 896,
      "પાસ": 897,
      "ગુજ": 898,
      "##વાદ": 899,
      "મહિ": 900,
      "##નાં": 901,
      "લાગ": 902,
      "##રણ": 903,
      "20": 904,
      "કાર્ય": 905,
      "##્રા": 906,
      "ભારત": 907,
      "આગ": 908,
      "##િસ્": 909,
      "સૌ": 910,
      "જ્યારે": 911,
      "સામે": 912,
      "કેટ": 913,
      "જા": 914,
      "ગુજરાત": 915,
      "દી": 916,
      "વાત": 917,
      "##મો": 918,
      "કારણે": 919,
      "કા": 920,
      "અથ": 921,
      "##દ્ધ": 922,
      "હવે": 923,
      "તેની": 924,
      "શરૂ": 925,
      "##ક્સ": 926,
      "##દેશ": 927,
      "##ુર": 928,
      "મળી": 929,
      "ટે": 930,
      "##નમાં": 931,
      "##ઓને": 932,
      "હા": 933,
      "##્ષ": 934,
      "##સર": 935,
      "##હેર": 936,
      "##ન્દ્ર": 937,
      "ચો": 938,
      "##વાનો": 939,
      "ચૂ": 940,
      "##ભાઈ": 941,
      "##જન": 942,
      "##વાનું": 943,
      "સરકાર": 944,
      "તેને": 945,
      "સ્વ": 946,
      "અથવા": 947,
      "##ામાં": 948,
      "અધ": 949,
      "##ષ્": 950,
      "અમે": 951,
      "પાસે": 952,
      "##પૂ": 953,
      "હે": 954,
      "નહીં": 955,
      "જરૂ": 956,
      "##માન": 957,
      "થય": 958,
      "કેસ": 959,
      "##ડો": 960,
      "##ંટ": 961,
      "બાળ": 962,
      "બનાવ": 963,
      "##તર": 964,
      "##િસ": 965,
      "##ર્સ": 966,
      "જાણ": 967,
      "ઉત્": 968,
      "કર્યો": 969,
      "બો": 970,
      "##િપ": 971,
      "રૂપ": 972,
      "##િલ્લા": 973,
      "ત્ર": 974,
      "ભાગ": 975,
      "જોઈ": 976,
      "##યોગ": 977,
      "વિસ્ત": 978,
      "ગામ": 979,
      "##ક્તિ": 980,
      "પહો": 981,
      "રા": 982,
      "જિલ્લા": 983,
      "મી": 984,
      "આજે": 985,
      "##ર્વ": 986,
      "અભ": 987,
      "રે": 988,
      "##હાર": 989,
      "રાજ્ય": 990,
      "##ટના": 991,
      "##ચાર": 992,
      "##ંત્રી": 993,
      "તેમના": 994,
      "##્રો": 995,
      "##િકા": 996,
      "##ોર": 997,
      "પે": 998,
      "તમારા": 999,
      "ફર": 1000,
      "દરમ": 1001,
      "બા": 1002,
      "ધર": 1003,
      "અનુ": 1004,
      "મૂ": 1005,
      "નામ": 1006,
      "આપી": 1007,
      "આવ્યા": 1008,
      "##ટર": 1009,
      "##િમ": 1010,
      "કહે": 1011,
      "##ાંત": 1012,
      "##સ્પ": 1013,
      "લઈ": 1014,
      "##િયાન": 1015,
      "તર": 1016,
      "જુ": 1017,
      "દુ": 1018,
      "વી": 1019,
      "##પાસ": 1020,
      "##ંત્ર": 1021,
      "##્રેસ": 1022,
      "આવ્યો": 1023,
      "જેમાં": 1024,
      "મુખ": 1025,
      "પહોંચ": 1026,
      "દર્": 1027,
      "##ડે": 1028,
      "##ૃત": 1029,
      "##ગ્ર": 1030,
      "અંગ": 1031,
      "##ુમ": 1032,
      "પ્રમ": 1033,
      "એટ": 1034,
      "નોંધ": 1035,
      "કરો": 1036,
      "##પ્": 1037,
      "વિક": 1038,
      "પાણી": 1039,
      "##ટો": 1040,
      "તેમણે": 1041,
      "ગો": 1042,
      "કરતા": 1043,
      "હાલ": 1044,
      "##00": 1045,
      "ડિ": 1046,
      "ગ્ર": 1047,
      "આરો": 1048,
      "કરીને": 1049,
      "##ભાઇ": 1050,
      "##જબ": 1051,
      "થઇ": 1052,
      "ચાલ": 1053,
      "##વારે": 1054,
      "કારણ": 1055,
      "જીવ": 1056,
      "અન્ય": 1057,
      "##સો": 1058,
      "ફિલ્": 1059,
      "તથા": 1060,
      "તમામ": 1061,
      "##શી": 1062,
      "##િતિ": 1063,
      "ખૂ": 1064,
      "પોતાના": 1065,
      "વા": 1066,
      "કંપ": 1067,
      "જવા": 1068,
      "શો": 1069,
      "##ર્ચ": 1070,
      "માર્": 1071,
      "##ાજપ": 1072,
      "##ળા": 1073,
      "##ધાન": 1074,
      "##રુ": 1075,
      "જણાવ્યું": 1076,
      "મુખ્ય": 1077,
      "કંપની": 1078,
      "સૌથી": 1079,
      "##સ્થ": 1080,
      "##ભા": 1081,
      "દરમિયાન": 1082,
      "તરી": 1083,
      "##થમ": 1084,
      "##ર્મ": 1085,
      "ક્ર": 1086,
      "તરીકે": 1087,
      "સુર": 1088,
      "##ૂર": 1089,
      "##વાય": 1090,
      "ગયા": 1091,
      "ખાત": 1092,
      "ભાજપ": 1093,
      "##શો": 1094,
      "##ક્ત": 1095,
      "એમ": 1096,
      "##લમાં": 1097,
      "સાં": 1098,
      "જોવા": 1099,
      "##ાર્ટ": 1100,
      "##િર": 1101,
      "વચ્": 1102,
      "વચ્ચે": 1103,
      "ભાવ": 1104,
      "##ક્ષા": 1105,
      "અધિક": 1106,
      "અપ": 1107,
      "તેમજ": 1108,
      "##ાંચ": 1109,
      "ઉપયોગ": 1110,
      "હજ": 1111,
      "લાખ": 1112,
      "##ત્વ": 1113,
      "વખ": 1114,
      "કોંગ": 1115,
      "ટકા": 1116,
      "પરિવ": 1117,
      "રહ્યો": 1118,
      "##કારી": 1119,
      "માન": 1120,
      "માત્ર": 1121,
      "ખુ": 1122,
      "##બ્": 1123,
      "ભૂ": 1124,
      "..": 1125,
      "##ાળા": 1126,
      "પગ": 1127,
      "હાથ": 1128,
      "ચે": 1129,
      "##દે": 1130,
      "ઓફ": 1131,
      "અમદા": 1132,
      "##બે": 1133,
      "મેળ": 1134,
      "##ભાગ": 1135,
      "સાર": 1136,
      "તરફ": 1137,
      "તા": 1138,
      "અમદાવાદ": 1139,
      "ખૂબ": 1140,
      "આવશે": 1141,
      "લોક": 1142,
      "થયા": 1143,
      "ફે": 1144,
      "જોઈએ": 1145,
      "ડો": 1146,
      "##નની": 1147,
      "સ્પ": 1148,
      "અંગે": 1149,
      "કરોડ": 1150,
      "પહેલા": 1151,
      "હું": 1152,
      "##્મ": 1153,
      "##ત્ય": 1154,
      "ત્યાં": 1155,
      "સર્": 1156,
      "અલ": 1157,
      "શું": 1158,
      "##નગર": 1159,
      "થશે": 1160,
      "##ારીઓ": 1161,
      "##િશ": 1162,
      "##ર્થ": 1163,
      "બન": 1164,
      "ફો": 1165,
      "તેમને": 1166,
      "##્લા": 1167,
      "##મત": 1168,
      "##ચી": 1169,
      "##ોમાં": 1170,
      "આવ્યું": 1171,
      "##ડિયા": 1172,
      "##વાના": 1173,
      "##ગા": 1174,
      "##૦૦": 1175,
      "થયો": 1176,
      "સહિત": 1177,
      "બદ": 1178,
      "##મ્પ": 1179,
      "જાય": 1180,
      "મોદી": 1181,
      "##સાર": 1182,
      "તેમની": 1183,
      "બની": 1184,
      "મહિલા": 1185,
      "##દાર": 1186,
      "##ખા": 1187,
      "##ર્ટ": 1188,
      "##ેલી": 1189,
      "ચી": 1190,
      "બંધ": 1191,
      "##જના": 1192,
      "વ્યક્તિ": 1193,
      "##લાં": 1194,
      "અંત": 1195,
      "વિસ્તાર": 1196,
      "વિશે": 1197,
      "##શ્વ": 1198,
      "##ગ્ય": 1199,
      "##નના": 1200,
      "તૈ": 1201,
      "##નાર": 1202,
      "કર્યું": 1203,
      "##જો": 1204,
      "##લ્લા": 1205,
      "##એસ": 1206,
      "##બંધ": 1207,
      "##ચ્છ": 1208,
      "પ્રો": 1209,
      "લા": 1210,
      "મોટા": 1211,
      "ત્રણ": 1212,
      "ફિલ્મ": 1213,
      "ડે": 1214,
      "આધ": 1215,
      "##ોર્ટ": 1216,
      "કોંગ્રેસ": 1217,
      "##બા": 1218,
      "દિલ્": 1219,
      "##સ્થા": 1220,
      "##રેક": 1221,
      "રૂપિયા": 1222,
      "##િયો": 1223,
      "##જૂ": 1224,
      "ડી": 1225,
      "સૂ": 1226,
      "તપાસ": 1227,
      "##વાસ": 1228,
      "ગાં": 1229,
      "બેઠ": 1230,
      "પ્રતિ": 1231,
      "ચૂંટ": 1232,
      "##કરી": 1233,
      "##િતા": 1234,
      "વાય": 1235,
      "નવા": 1236,
      "ઘટના": 1237,
      "થી": 1238,
      "કર્યા": 1239,
      "તૈય": 1240,
      "જરૂર": 1241,
      "બહાર": 1242,
      "વરસ": 1243,
      "દિલ્હી": 1244,
      "##નિ": 1245,
      "##ાયો": 1246,
      "પોતાની": 1247,
      "કરવાની": 1248,
      "##ષ્ટ્ર": 1249,
      "##ટેલ": 1250,
      "આપવામાં": 1251,
      "તમને": 1252,
      "પ્રે": 1253,
      "પરિ": 1254,
      "રોજ": 1255,
      "કેટલાક": 1256,
      "##ંભ": 1257,
      "##ાન્ય": 1258,
      "##ામી": 1259,
      "ખા": 1260,
      "##સ્પિટ": 1261,
      "##ધો": 1262,
      "તમારી": 1263,
      "##મેન્ટ": 1264,
      "ભારતી": 1265,
      "બં": 1266,
      "##પર": 1267,
      "##રિક": 1268,
      "##વાથી": 1269,
      "પ્રથમ": 1270,
      "દરેક": 1271,
      "##ક્રમ": 1272,
      "વિદ": 1273,
      "નિય": 1274,
      "ચૂંટણી": 1275,
      "નવી": 1276,
      "ખાતે": 1277,
      "જેમ": 1278,
      "##રની": 1279,
      "તાલ": 1280,
      "##ઓની": 1281,
      "જગ": 1282,
      "હોસ્પિટ": 1283,
      "ફરી": 1284,
      "ખેડ": 1285,
      "##ુંબ": 1286,
      "ભર": 1287,
      "##ાવે": 1288,
      "કમ": 1289,
      "ટીમ": 1290,
      "સફ": 1291,
      "##િક્ષ": 1292,
      "જૂ": 1293,
      "##ખ્યા": 1294,
      "ગઈ": 1295,
      "માર": 1296,
      "મુજબ": 1297,
      "રહ્યું": 1298,
      "##િટી": 1299,
      "##તું": 1300,
      "રાજકો": 1301,
      "##જય": 1302,
      "##મંત્રી": 1303,
      "મદ": 1304,
      "##દર્": 1305,
      "શકો": 1306,
      "##લું": 1307,
      "##રના": 1308,
      "રહેશે": 1309,
      "ઝડ": 1310,
      "માંગ": 1311,
      "પ્રમાણ": 1312,
      "##પૂર્ણ": 1313,
      "પરિવાર": 1314,
      "##પણ": 1315,
      "##દો": 1316,
      "...": 1317,
      "રોક": 1318,
      "ગયો": 1319,
      "બંને": 1320,
      "##પો": 1321,
      "વરસાદ": 1322,
      "ટ્ર": 1323,
      "પાક": 1324,
      "##ીએ": 1325,
      "##પા": 1326,
      "સહ": 1327,
      "##્લે": 1328,
      "શકાય": 1329,
      "રાહ": 1330,
      "ગાંધી": 1331,
      "##ાર્થી": 1332,
      "કરશે": 1333,
      "સામાન્ય": 1334,
      "બાળકો": 1335,
      "કિ": 1336,
      "ઘણા": 1337,
      "##્યૂ": 1338,
      "વ્યવ": 1339,
      "##કર": 1340,
      "##વાન": 1341,
      "10": 1342,
      "અહીં": 1343,
      "પાછ": 1344,
      "કુલ": 1345,
      "અલગ": 1346,
      "##તમાં": 1347,
      "##ઓમાં": 1348,
      "એસ": 1349,
      "જય": 1350,
      "શુ": 1351,
      "##ુખ": 1352,
      "લોકોને": 1353,
      "એટલે": 1354,
      "આર": 1355,
      "ખો": 1356,
      "##્લ": 1357,
      "પોલીસે": 1358,
      "ખાસ": 1359,
      "ગય": 1360,
      "ભારતીય": 1361,
      "નિર્ણ": 1362,
      "મદદ": 1363,
      "મહે": 1364,
      "રિ": 1365,
      "##ક્ષણ": 1366,
      "##વિધ": 1367,
      "રાજકોટ": 1368,
      "શ્રી": 1369,
      "##ત્રી": 1370,
      "દર્દી": 1371,
      "##ોને": 1372,
      "ખેડૂ": 1373,
      "મોત": 1374,
      "##દર": 1375,
      "ઉમે": 1376,
      "કરતાં": 1377,
      "ઉપરાંત": 1378,
      "##એમ": 1379,
      "કોઇ": 1380,
      "લઇ": 1381,
      "##વર": 1382,
      "ક્ષ": 1383,
      "##િને": 1384,
      "ખે": 1385,
      "ટ્રે": 1386,
      "જાહેર": 1387,
      "##પુર": 1388,
      "##ોની": 1389,
      "##સંદ": 1390,
      "##દાન": 1391,
      "વધારે": 1392,
      "જવાબ": 1393,
      "પટેલ": 1394,
      "મારી": 1395,
      "##ભાવ": 1396,
      "મંદ": 1397,
      "કેન્દ્ર": 1398,
      "##ુકા": 1399,
      "મૃત": 1400,
      "પ્રકાર": 1401,
      "વિદ્ય": 1402,
      "અસર": 1403,
      "##્ન": 1404,
      "##સ્તા": 1405,
      "##િસ્તા": 1406,
      "વિભાગ": 1407,
      "૨૦": 1408,
      "##જ્": 1409,
      "##ોર્ડ": 1410,
      "ગણ": 1411,
      "##ટક": 1412,
      "મોટી": 1413,
      "ચા": 1414,
      "201": 1415,
      "અર": 1416,
      "##િયલ": 1417,
      "આવેલા": 1418,
      "##નિક": 1419,
      "શિક્ષ": 1420,
      "મામ": 1421,
      "સ્વા": 1422,
      "##નુ": 1423,
      "મળે": 1424,
      "સમયે": 1425,
      "સારવાર": 1426,
      "દો": 1427,
      "તાલુકા": 1428,
      "ધ્યા": 1429,
      "બજ": 1430,
      "##કલ": 1431,
      "##રને": 1432,
      "આમ": 1433,
      "ખરી": 1434,
      "મને": 1435,
      "##વણી": 1436,
      "શહેર": 1437,
      "દૂર": 1438,
      "માહિત": 1439,
      "શા": 1440,
      "##ઓના": 1441,
      "બીજી": 1442,
      "બાબ": 1443,
      "##શા": 1444,
      "##િયન": 1445,
      "##કમાં": 1446,
      "વિદ્યાર્થી": 1447,
      "કુ": 1448,
      "પાંચ": 1449,
      "પસંદ": 1450,
      "લખ": 1451,
      "##ગે": 1452,
      "નિર્ણય": 1453,
      "અનેક": 1454,
      "યુવ": 1455,
      "##્ત": 1456,
      "ઘણી": 1457,
      "ખાન": 1458,
      "મુંબ": 1459,
      "##કારે": 1460,
      "તેણે": 1461,
      "લઈને": 1462,
      "માહિતી": 1463,
      "જેના": 1464,
      "બીજા": 1465,
      "##ધ્ય": 1466,
      "19": 1467,
      "પડી": 1468,
      "##કડ": 1469,
      "પૈ": 1470,
      "##ીર": 1471,
      "તેમાં": 1472,
      "જેટ": 1473,
      "વિવિધ": 1474,
      "##િંહ": 1475,
      "જરૂરી": 1476,
      "##ગત": 1477,
      "##ૂટ": 1478,
      "##ાવવા": 1479,
      "##સ્ક": 1480,
      "અંદ": 1481,
      "##લ્ડ": 1482,
      "મહત્વ": 1483,
      "સત": 1484,
      "બિ": 1485,
      "શહે": 1486,
      "મહિના": 1487,
      "##યુ": 1488,
      "નેતા": 1489,
      "થયું": 1490,
      "ઓછ": 1491,
      "રોડ": 1492,
      "સંખ્યા": 1493,
      "જગ્યા": 1494,
      "સ્થાન": 1495,
      "સ્થિતિ": 1496,
      "કાય": 1497,
      "સ્ક": 1498,
      "##્રીય": 1499,
      "પ્રવ": 1500,
      "હિ": 1501,
      "##ંબ": 1502,
      "રાત": 1503,
      "આગળ": 1504,
      "##ંમ": 1505,
      "##ચના": 1506,
      "તેથી": 1507,
      "##આત": 1508,
      "ફરિયા": 1509,
      "છેલ્લા": 1510,
      "બોલ": 1511,
      "કપ": 1512,
      "તૈયાર": 1513,
      "લેવા": 1514,
      "પરી": 1515,
      "જોકે": 1516,
      "યોજના": 1517,
      "##ાજી": 1518,
      "મારા": 1519,
      "ચાર": 1520,
      "છીએ": 1521,
      "વાર": 1522,
      "બધા": 1523,
      "##ડિયો": 1524,
      "##ળતા": 1525,
      "##ચર": 1526,
      "ઉત્પ": 1527,
      "##્યાર": 1528,
      "પાર્ટ": 1529,
      "સિં": 1530,
      "વડા": 1531,
      "##નને": 1532,
      "સમગ્ર": 1533,
      "પેટ": 1534,
      "ટો": 1535,
      "##ર્ડ": 1536,
      "જેથી": 1537,
      "##મ્બર": 1538,
      "##તુ": 1539,
      "માતા": 1540,
      "કલાક": 1541,
      "બચ": 1542,
      "છતાં": 1543,
      "મત": 1544,
      "##નીય": 1545,
      "પડે": 1546,
      "વધી": 1547,
      "કર્મ": 1548,
      "વિશ્વ": 1549,
      "પાકિસ્તા": 1550,
      "થો": 1551,
      "##સ્તુ": 1552,
      "##વાહી": 1553,
      "##બો": 1554,
      "કોર્": 1555,
      "##ષ્ઠ": 1556,
      "હજાર": 1557,
      "સતત": 1558,
      "સ્થળ": 1559,
      "વિસ્તારમાં": 1560,
      "ચર્ચ": 1561,
      "બ્ર": 1562,
      "જ્યાં": 1563,
      "##લના": 1564,
      "##ઓએ": 1565,
      "રમ": 1566,
      "##ાણા": 1567,
      "તેનો": 1568,
      "રંગ": 1569,
      "યાદ": 1570,
      "હશે": 1571,
      "સરકારે": 1572,
      "##તમ": 1573,
      "##લાઈ": 1574,
      "##નારા": 1575,
      "##પે": 1576,
      "હર": 1577,
      "લાભ": 1578,
      "નજી": 1579,
      "##ીને": 1580,
      "##સાય": 1581,
      "##સિંહ": 1582,
      "ખેડૂતો": 1583,
      "અત્ય": 1584,
      "##ર્ષ": 1585,
      "##ેદ": 1586,
      "તેવી": 1587,
      "વખત": 1588,
      "અવ": 1589,
      "આવતા": 1590,
      "ઘટા": 1591,
      "આઈ": 1592,
      "હેઠ": 1593,
      "##ાવો": 1594,
      "દિવસે": 1595,
      "##પાલ": 1596,
      "##વાલ": 1597,
      "હેઠળ": 1598,
      "જન": 1599,
      "જીવન": 1600,
      "##્લો": 1601,
      "નવ": 1602,
      "વર્ષે": 1603,
      "એન": 1604,
      "ગે": 1605,
      "ઘરે": 1606,
      "દેખ": 1607,
      "સંબંધ": 1608,
      "આવેલ": 1609,
      "સેવા": 1610,
      "ત્યાર": 1611,
      "આપે": 1612,
      "ગર": 1613,
      "હતાં": 1614,
      "મળશે": 1615,
      "નં": 1616,
      "કર્મચ": 1617,
      "યોગ્ય": 1618,
      "##ચા": 1619,
      "##પ્ટ": 1620,
      "પડશે": 1621,
      "આરોપી": 1622,
      "આપણે": 1623,
      "પરિણ": 1624,
      "હોવાનું": 1625,
      "મેચ": 1626,
      "##બાદ": 1627,
      "આજ": 1628,
      "બનાવી": 1629,
      "##ંકા": 1630,
      "લાં": 1631,
      "##બેન": 1632,
      "છું": 1633,
      "##ાયેલા": 1634,
      "##લ્લે": 1635,
      "ફરિયાદ": 1636,
      "દિ": 1637,
      "સારી": 1638,
      "##ભગ": 1639,
      "##ર્ક": 1640,
      "અનુસાર": 1641,
      "ઉત્પાદ": 1642,
      "##િસ્ટ": 1643,
      "##સ્યા": 1644,
      "##ફે": 1645,
      "જાહે": 1646,
      "મેળવ": 1647,
      "એવું": 1648,
      "##ગીરી": 1649,
      "પંચ": 1650,
      "##સભ": 1651,
      "બને": 1652,
      "કેવી": 1653,
      "પૂર્વ": 1654,
      "એવી": 1655,
      "##મમાં": 1656,
      "##કેટ": 1657,
      "##રેન્દ્ર": 1658,
      "##કીય": 1659,
      "૧૦": 1660,
      "##ાયા": 1661,
      "##ધું": 1662,
      "લગભગ": 1663,
      "##રલ": 1664,
      "મુખ્યમંત્રી": 1665,
      "સંપૂર્ણ": 1666,
      "લગ્ન": 1667,
      "મીડિયા": 1668,
      "##શ્કે": 1669,
      "વખતે": 1670,
      "ફાય": 1671,
      "નજીક": 1672,
      "આયો": 1673,
      "અધિકારી": 1674,
      "##ત્તા": 1675,
      "મંત્રી": 1676,
      "##ભવ": 1677,
      "12": 1678,
      "રજૂ": 1679,
      "વીડિયો": 1680,
      "##સભા": 1681,
      "સંપ": 1682,
      "એલ": 1683,
      "વૃ": 1684,
      "સભ": 1685,
      "##ીના": 1686,
      "##લ્સ": 1687,
      "ઇન્": 1688,
      "માલ": 1689,
      "સમસ્યા": 1690,
      "આવા": 1691,
      "મિ": 1692,
      "રિપ": 1693,
      "સંગ": 1694,
      "##ક્ટર": 1695,
      "ધો": 1696,
      "પહોંચી": 1697,
      "વાગ": 1698,
      "વિકાસ": 1699,
      "પત્": 1700,
      "##જ્ઞ": 1701,
      "નાખ": 1702,
      "##ૂત": 1703,
      "વધારો": 1704,
      "ભા": 1705,
      "શે": 1706,
      "##નિયા": 1707,
      "##િત્ર": 1708,
      "ચાલુ": 1709,
      "##બલ": 1710,
      "##લાઇ": 1711,
      "પ્રમુખ": 1712,
      "પ્લા": 1713,
      "શરી": 1714,
      "પહેલાં": 1715,
      "દેશમાં": 1716,
      "ચાલી": 1717,
      "ભારે": 1718,
      "##ાઉ": 1719,
      "##ૂલ": 1720,
      "જેવા": 1721,
      "15": 1722,
      "પરિણામ": 1723,
      "એર": 1724,
      "##કાલ": 1725,
      "##ાળી": 1726,
      "પક્ષ": 1727,
      "રોગ": 1728,
      "કાર્યવાહી": 1729,
      "##કરણ": 1730,
      "પિતા": 1731,
      "##રોધ": 1732,
      "પાલ": 1733,
      "##ખી": 1734,
      "માર્ગ": 1735,
      "જોડ": 1736,
      "મોર": 1737,
      "આઇ": 1738,
      "##તન": 1739,
      "વાહ": 1740,
      "ચૂક": 1741,
      "સ્થા": 1742,
      "મુદ્": 1743,
      "પાડ": 1744,
      "જન્": 1745,
      "##હિ": 1746,
      "વિજય": 1747,
      "##કાશ": 1748,
      "ભો": 1749,
      "##ાનું": 1750,
      "કલ": 1751,
      "થતા": 1752,
      "નિવ": 1753,
      "મુંબઈ": 1754,
      "##દરા": 1755,
      "સમાજ": 1756,
      "વેચ": 1757,
      "##ફો": 1758,
      "જોઇ": 1759,
      "વિચાર": 1760,
      "કામગીરી": 1761,
      "શેર": 1762,
      "હાજ": 1763,
      "હુમ": 1764,
      "##કળ": 1765,
      "##કની": 1766,
      "જેને": 1767,
      "##ખો": 1768,
      "પ્રદેશ": 1769,
      "શક્ય": 1770,
      "મંદિર": 1771,
      "##પુ": 1772,
      "##્યાસ": 1773,
      "બુ": 1774,
      "##કસ": 1775,
      "##લ્પ": 1776,
      "પ્રયા": 1777,
      "નાગ": 1778,
      "##નિવ": 1779,
      "પ્રસ": 1780,
      "##જર": 1781,
      "નીચે": 1782,
      "પાછળ": 1783,
      "જેવી": 1784,
      "મં": 1785,
      "આરોગ્ય": 1786,
      "માણ": 1787,
      "##ાજુ": 1788,
      "એવા": 1789,
      "કેમ": 1790,
      "મુશ્કે": 1791,
      "સુરત": 1792,
      "સોશ": 1793,
      "પ્રેમ": 1794,
      "જાત": 1795,
      "##લાવ": 1796,
      "વેપ": 1797,
      "##વાસી": 1798,
      "જાહેરાત": 1799,
      "##જુ": 1800,
      "ગુજરાતમાં": 1801,
      "જિલ્લામાં": 1802,
      "ટેસ્ટ": 1803,
      "કિં": 1804,
      "સ્મ": 1805,
      "શાળા": 1806,
      "ક્યારે": 1807,
      "જઈ": 1808,
      "ટ્રા": 1809,
      "##ાત્ર": 1810,
      "દેવ": 1811,
      "અગા": 1812,
      "જમી": 1813,
      "##ાવતા": 1814,
      "કરવાનો": 1815,
      "આં": 1816,
      "##ત્તિ": 1817,
      "પ્રમાણે": 1818,
      "આગામી": 1819,
      "આશ": 1820,
      "##ન્સી": 1821,
      "##લાકાત": 1822,
      "ઇન્ડ": 1823,
      "કં": 1824,
      "ઘર": 1825,
      "ડ્ર": 1826,
      "વો": 1827,
      "##કમ": 1828,
      "##તાવ": 1829,
      "##ાઇન": 1830,
      "મુલાકાત": 1831,
      "વાયરસ": 1832,
      "##ાપ્ત": 1833,
      "પત્ની": 1834,
      "જશે": 1835,
      "અગાઉ": 1836,
      "ગ્રામ": 1837,
      "વસ્તુ": 1838,
      "સમાવ": 1839,
      "અત્યાર": 1840,
      "દાખ": 1841,
      "##ાર્થ": 1842,
      "પ્રા": 1843,
      "11": 1844,
      "રહ્યાં": 1845,
      "કૃ": 1846,
      "જાણી": 1847,
      "બહ": 1848,
      "##ગ્રી": 1849,
      "સ્ટેશન": 1850,
      "કલા": 1851,
      "શ્રે": 1852,
      "સવારે": 1853,
      "##ળો": 1854,
      "##મ્બ": 1855,
      "##ધન": 1856,
      "બાં": 1857,
      "##ડાઉ": 1858,
      "ઓળ": 1859,
      "##દર્શન": 1860,
      "આસ": 1861,
      "ટ્વ": 1862,
      "##ઠા": 1863,
      "##િકેટ": 1864,
      "ગંભ": 1865,
      "રામ": 1866,
      "ખર્ચ": 1867,
      "હાલમાં": 1868,
      "ઉદ": 1869,
      "ઉલ્લે": 1870,
      "##કત": 1871,
      "લાગે": 1872,
      "આધાર": 1873,
      "##્રોલ": 1874,
      "કરવો": 1875,
      "##ક્રિયા": 1876,
      "ઉમેદ": 1877,
      "ઉલ્લેખ": 1878,
      "ભારતમાં": 1879,
      "કેટલી": 1880,
      "##ધાર": 1881,
      "વસ": 1882,
      "૧૯": 1883,
      "##ત્રો": 1884,
      "સિંહ": 1885,
      "##ષ્ણ": 1886,
      "પાસેથી": 1887,
      "અસ": 1888,
      "મન": 1889,
      "સમા": 1890,
      "હોવાથી": 1891,
      "##ડીને": 1892,
      "નુક": 1893,
      "##વન": 1894,
      "##િકલ": 1895,
      "નિર્": 1896,
      "નાના": 1897,
      "કાર્યક્રમ": 1898,
      "રહેલા": 1899,
      "બાળક": 1900,
      "##ુપ": 1901,
      "ગંભીર": 1902,
      "વૈ": 1903,
      "##શ્ચ": 1904,
      "ઝડપ": 1905,
      "રિપોર્ટ": 1906,
      "કાઢ": 1907,
      "મધ્ય": 1908,
      "વ્યા": 1909,
      "##ગઢ": 1910,
      "ગયું": 1911,
      "##મણ": 1912,
      "જામ": 1913,
      "વિદેશ": 1914,
      "સમજ": 1915,
      "યોજ": 1916,
      "રાજ્યમાં": 1917,
      "બેઠક": 1918,
      "##પ્રધાન": 1919,
      "##ાજે": 1920,
      "એક્ટ": 1921,
      "##વાળા": 1922,
      "##ન્ટર": 1923,
      "ઉત્તર": 1924,
      "નક્": 1925,
      "##નર": 1926,
      "##ાની": 1927,
      "##મિ": 1928,
      "ક્ષે": 1929,
      "##્ડ": 1930,
      "સલા": 1931,
      "##લિ": 1932,
      "##ચ્ચ": 1933,
      "##ંઘ": 1934,
      "##રિકા": 1935,
      "આપવા": 1936,
      "લીધો": 1937,
      "##પતિ": 1938,
      "##જનો": 1939,
      "અમેરિકા": 1940,
      "##મિક": 1941,
      "##ારૂ": 1942,
      "##ક્શન": 1943,
      "અધિકારીઓ": 1944,
      "રહેતા": 1945,
      "સમાવેશ": 1946,
      "શાહ": 1947,
      "રાષ્ટ્ર": 1948,
      "ચર્ચા": 1949,
      "તંત્ર": 1950,
      "શી": 1951,
      "ઉઠ": 1952,
      "##ંધી": 1953,
      "##ાવવામાં": 1954,
      "મૃત્યુ": 1955,
      "નંબર": 1956,
      "મુક": 1957,
      "સરકારી": 1958,
      "##ષ્ટ્રીય": 1959,
      "##આઈ": 1960,
      "ધારા": 1961,
      "##ંકી": 1962,
      "સોશિયલ": 1963,
      "##ભી": 1964,
      "સમયમાં": 1965,
      "##ફી": 1966,
      "જીત": 1967,
      "હજુ": 1968,
      "આદ": 1969,
      "પૂર્ણ": 1970,
      "પાર": 1971,
      "ક્રિકેટ": 1972,
      "શહેરમાં": 1973,
      "##ગ્": 1974,
      "##બ્ર": 1975,
      "##ુમાર": 1976,
      "આયોજન": 1977,
      "અત": 1978,
      "##પોર્ટ": 1979,
      "##આરી": 1980,
      "અભ્યાસ": 1981,
      "સ્થાનિક": 1982,
      "જન્મ": 1983,
      "ફેર": 1984,
      "##ચાલ": 1985,
      "કોર્ટ": 1986,
      "##ટ્સ": 1987,
      "શોધ": 1988,
      "તેનું": 1989,
      "##મર": 1990,
      "મામલે": 1991,
      "કહી": 1992,
      "નરેન્દ્ર": 1993,
      "આત": 1994,
      "પ્રક્રિયા": 1995,
      "##ાડ": 1996,
      "બનાવવા": 1997,
      "ધ્યાન": 1998,
      "30": 1999,
      "બસ": 2000,
      "##લાય": 2001,
      "કરવાનું": 2002,
      "નક્કી": 2003,
      "##નંદ": 2004,
      "##ૃતિ": 2005,
      "રસી": 2006,
      "કરવું": 2007,
      "લેવામાં": 2008,
      "પતિ": 2009,
      "પ્રશ્": 2010,
      "હતુ": 2011,
      "શર": 2012,
      "##નલ": 2013,
      "ધી": 2014,
      "##ાવ્યો": 2015,
      "પોઝ": 2016,
      "##ારોમાં": 2017,
      "##ષણ": 2018,
      "લીધી": 2019,
      "પં": 2020,
      "અર્": 2021,
      "પ્રધાન": 2022,
      "બેન્": 2023,
      "સુધીમાં": 2024,
      "સોમ": 2025,
      "વર્ષની": 2026,
      "રોકાણ": 2027,
      "થવા": 2028,
      "##દારી": 2029,
      "##વાઈ": 2030,
      "ધરપ": 2031,
      "વગર": 2032,
      "##શિ": 2033,
      "દીધી": 2034,
      "હોવા": 2035,
      "આપ્યો": 2036,
      "##કારો": 2037,
      "દર્શ": 2038,
      "ધરપકડ": 2039,
      "##કલી": 2040,
      "##ાયેલ": 2041,
      "પગલે": 2042,
      "દવા": 2043,
      "##લની": 2044,
      "હોસ્પિટલમાં": 2045,
      "શિક્ષણ": 2046,
      "આંત": 2047,
      "જતા": 2048,
      "દુનિયા": 2049,
      "આંક": 2050,
      "વડો": 2051,
      "##ૂડ": 2052,
      "થોડા": 2053,
      "પ્રયાસ": 2054,
      "વન": 2055,
      "##કટ": 2056,
      "તમારે": 2057,
      "મેળવી": 2058,
      "##શ્ય": 2059,
      "##સાન": 2060,
      "વિરોધ": 2061,
      "પુર": 2062,
      "રેલ": 2063,
      "##ાડી": 2064,
      "નોકરી": 2065,
      "અક": 2066,
      "દૂ": 2067,
      "મંગ": 2068,
      "પૈસા": 2069,
      "હાઈ": 2070,
      "##સદ": 2071,
      "##િઝ": 2072,
      "કરવી": 2073,
      "સંસ્થા": 2074,
      "વડાપ્રધાન": 2075,
      "કિંમત": 2076,
      "દાખલ": 2077,
      "અર્થ": 2078,
      "ફી": 2079,
      "શિ": 2080,
      "##િયમ": 2081,
      "પૂર": 2082,
      "એજ": 2083,
      "પત્ર": 2084,
      "ઘણ": 2085,
      "મજબ": 2086,
      "૨૦૧": 2087,
      "વડોદરા": 2088,
      "જાન": 2089,
      "મિન": 2090,
      "વહે": 2091,
      "##ાયું": 2092,
      "પાર્ટી": 2093,
      "ગી": 2094,
      "નહો": 2095,
      "##ફ્ટ": 2096,
      "પરિસ્": 2097,
      "ઓળખ": 2098,
      "થતાં": 2099,
      "##ટ્ટ": 2100,
      "##ar": 2101,
      "સિવાય": 2102,
      "પ્રાપ્ત": 2103,
      "##ાઇલ": 2104,
      "પરિસ્થ": 2105,
      "રસ": 2106,
      "##તિક": 2107,
      "લીધ": 2108,
      "શરૂઆત": 2109,
      "વિરુ": 2110,
      "ઝડપી": 2111,
      "##માર": 2112,
      "##કોને": 2113,
      "હોઈ": 2114,
      "##જૂરી": 2115,
      "ભી": 2116,
      "##મુ": 2117,
      "##વિડ": 2118,
      "બાજુ": 2119,
      "મોબ": 2120,
      "પદ": 2121,
      "##નાથ": 2122,
      "##ાત્": 2123,
      "##્યોગ": 2124,
      "યુવતી": 2125,
      "##ાયત": 2126,
      "વિના": 2127,
      "મેડ": 2128,
      "પૂછ": 2129,
      "ગ્રાહ": 2130,
      "છોડ": 2131,
      "##નનો": 2132,
      "પરથી": 2133,
      "202": 2134,
      "નગર": 2135,
      "##મતા": 2136,
      "##ત્મ": 2137,
      "હત્યા": 2138,
      "ક્લ": 2139,
      "##ાયક": 2140,
      "રાખી": 2141,
      "વ્યવસ્થા": 2142,
      "આનંદ": 2143,
      "ઈન્ડ": 2144,
      "શ્ર": 2145,
      "સંક્રમ": 2146,
      "##િસ્સા": 2147,
      "તરફથી": 2148,
      "ટૂ": 2149,
      "ભાજપના": 2150,
      "ધારાસભ": 2151,
      "લાગી": 2152,
      "##ઓનો": 2153,
      "##વાળી": 2154,
      "મોરબી": 2155,
      "દેવામાં": 2156,
      "દારૂ": 2157,
      "સું": 2158,
      "તબ": 2159,
      "##આર": 2160,
      "##આઇ": 2161,
      "પોસ્ટ": 2162,
      "કોરોનાના": 2163,
      "અભિને": 2164,
      "અરજી": 2165,
      "##ાળો": 2166,
      "##કડી": 2167,
      "લાલ": 2168,
      "બાકી": 2169,
      "બજાર": 2170,
      "ઉજ": 2171,
      "લાઈ": 2172,
      "માગ": 2173,
      "ખેલા": 2174,
      "200": 2175,
      "પરિસ્થિતિ": 2176,
      "18": 2177,
      "એડ": 2178,
      "ફેલા": 2179,
      "##પણે": 2180,
      "##ાંડ": 2181,
      "બેંક": 2182,
      "##ંમેશ": 2183,
      "ઓછી": 2184,
      "ખરા": 2185,
      "ગઇ": 2186,
      "##દારો": 2187,
      "##ાર્ક": 2188,
      "કોઈપણ": 2189,
      "કી": 2190,
      "ચુક": 2191,
      "હંમેશ": 2192,
      "##સ્મ": 2193,
      "મેં": 2194,
      "ખરીદી": 2195,
      "રાહુલ": 2196,
      "અટક": 2197,
      "##ન્જ": 2198,
      "મોડ": 2199,
      "##રાશ": 2200,
      "દેશના": 2201,
      "અધ્ય": 2202,
      "આધારે": 2203,
      "નહિ": 2204,
      "પસાર": 2205,
      "##િયર": 2206,
      "14": 2207,
      "##ઠી": 2208,
      "##ત્સ": 2209,
      "##િકો": 2210,
      "સ્ટે": 2211,
      "લોકડાઉ": 2212,
      "13": 2213,
      "વાંચ": 2214,
      "શખ": 2215,
      "##થ્": 2216,
      "૧૫": 2217,
      "આવેલી": 2218,
      "લોકોએ": 2219,
      "લઇને": 2220,
      "ગત": 2221,
      "જણાવી": 2222,
      "ખુબ": 2223,
      "એન્ડ": 2224,
      "રન": 2225,
      "જિલ્લાના": 2226,
      "##ગાર": 2227,
      "##વુ": 2228,
      "##ફર": 2229,
      "સ્પષ્ટ": 2230,
      "લાંબા": 2231,
      "નિવેદ": 2232,
      "સૈ": 2233,
      "કરતી": 2234,
      "પ્રકાશ": 2235,
      "કોલે": 2236,
      "##શું": 2237,
      "##ઠવા": 2238,
      "મહાન": 2239,
      "પરીક્ષા": 2240,
      "##્યે": 2241,
      "અંદર": 2242,
      "બોર્ડ": 2243,
      "સાત": 2244,
      "હાઇ": 2245,
      "કરીએ": 2246,
      "મહામ": 2247,
      "ફોન": 2248,
      "વિરુદ્ધ": 2249,
      "પ્લે": 2250,
      "રસ્તા": 2251,
      "##સવી": 2252,
      "##િશન": 2253,
      "##શ્વાસ": 2254,
      "સર્જ": 2255,
      "દબ": 2256,
      "##સિક": 2257,
      "મોટો": 2258,
      "ચોક્": 2259,
      "નિયમ": 2260,
      "##ધિ": 2261,
      "મૂક": 2262,
      "24": 2263,
      "રકમ": 2264,
      "શિવ": 2265,
      "સારા": 2266,
      "##વિધા": 2267,
      "સુરક્ષા": 2268,
      "ઘરમાં": 2269,
      "૧૨": 2270,
      "##ટલ": 2271,
      "##સમાં": 2272,
      "##પૂર્વ": 2273,
      "##શુ": 2274,
      "##ર્ન": 2275,
      "##ાત્મ": 2276,
      "કાયદા": 2277,
      "જોઇએ": 2278,
      "તસવી": 2279,
      "જયારે": 2280,
      "ભે": 2281,
      "##ળે": 2282,
      "##ોર્મ": 2283,
      "જાણવા": 2284,
      "25": 2285,
      "##કર્": 2286,
      "##ન્ન": 2287,
      "વિચ": 2288,
      "##રૂપ": 2289,
      "રાજ્યના": 2290,
      "જમીન": 2291,
      "અધ્યક્ષ": 2292,
      "કલે": 2293,
      "##થો": 2294,
      "##ાલય": 2295,
      "દ્ર": 2296,
      "ફરજ": 2297,
      "ત્યારબાદ": 2298,
      "##તરી": 2299,
      "##તંત્ર": 2300,
      "હોવાની": 2301,
      "મળ્યા": 2302,
      "ખેલાડી": 2303,
      "ત્રી": 2304,
      "##ાયેલી": 2305,
      "વિષ": 2306,
      "વર": 2307,
      "##શ્મી": 2308,
      "અડ": 2309,
      "ધર્મ": 2310,
      "નિક": 2311,
      "પ્રોજે": 2312,
      "નાગરિક": 2313,
      "કેટલીક": 2314,
      "એપ": 2315,
      "ચિં": 2316,
      "##કના": 2317,
      "##ાંતિ": 2318,
      "સ્ટા": 2319,
      "ચોક્કસ": 2320,
      "##ાત્મક": 2321,
      "તારી": 2322,
      "નદી": 2323,
      "લડ": 2324,
      "હવા": 2325,
      "##ષ્ય": 2326,
      "ખરીદ": 2327,
      "##લિયા": 2328,
      "સુવિધા": 2329,
      "##ગેરે": 2330,
      "##ોના": 2331,
      "##વાદી": 2332,
      "ગામમાં": 2333,
      "ચિંતા": 2334,
      "##ાવ્યા": 2335,
      "##્રીમ": 2336,
      "લોકોની": 2337,
      "ગેર": 2338,
      "મક": 2339,
      "મર": 2340,
      "મંત્ર": 2341,
      "##કરા": 2342,
      "##રોજ": 2343,
      "થયેલા": 2344,
      "સાંભ": 2345,
      "સુંદર": 2346,
      "##ધ્": 2347,
      "લોકોના": 2348,
      "ગર્": 2349,
      "ભાઈ": 2350,
      "##in": 2351,
      "##બુ": 2352,
      "##ારણ": 2353,
      "ક્ષેત્ર": 2354,
      "16": 2355,
      "##દન": 2356,
      "કોવિડ": 2357,
      "કોંગ્રેસના": 2358,
      "આદેશ": 2359,
      "કાળ": 2360,
      "એક્સ": 2361,
      "ક્યાં": 2362,
      "પામ": 2363,
      "દૂધ": 2364,
      "એન્ટ": 2365,
      "##ભર": 2366,
      "સ્થાપ": 2367,
      "બળ": 2368,
      "સપ્": 2369,
      "સત્તા": 2370,
      "લીધા": 2371,
      "50": 2372,
      "સરળ": 2373,
      "સહિતના": 2374,
      "અમેરિક": 2375,
      "હોસ્પિટલ": 2376,
      "અદ": 2377,
      "##શાન": 2378,
      "##er": 2379,
      "##રોમાં": 2380,
      "ખાનગી": 2381,
      "સાવ": 2382,
      "##તરમાં": 2383,
      "##ારંભ": 2384,
      "નિર્મ": 2385,
      "વ્યક્ત": 2386,
      "પ્રવેશ": 2387,
      "લક્ષ": 2388,
      "મહારા": 2389,
      "કર્મચારીઓ": 2390,
      "##ઉન્ડ": 2391,
      "સમાચાર": 2392,
      "100": 2393,
      "મિલ": 2394,
      "##હાસ": 2395,
      "##વારો": 2396,
      "##ખર": 2397,
      "##ન્ચ": 2398,
      "વિધાન": 2399,
      "##મેન": 2400,
      "સંભ": 2401,
      "દિવસમાં": 2402,
      "ખરાબ": 2403,
      "ફક્ત": 2404,
      "ગૃ": 2405,
      "મનો": 2406,
      "હાર્": 2407,
      "##ીય": 2408,
      "##ડક": 2409,
      "##િત્રો": 2410,
      "જૂના": 2411,
      "મહારાષ્ટ્ર": 2412,
      "17": 2413,
      "૧૧": 2414,
      "બહે": 2415,
      "##ાર્જ": 2416,
      "હાજર": 2417,
      "ઉલ્લેખનીય": 2418,
      "##ાના": 2419,
      "##ન્ને": 2420,
      "સુધ": 2421,
      "##ક્ષે": 2422,
      "કંઈ": 2423,
      "આર્થ": 2424,
      "##સિ": 2425,
      "જોખ": 2426,
      "##સ્ટમ": 2427,
      "સ્વી": 2428,
      "ફોટો": 2429,
      "મુશ્કેલી": 2430,
      "કૌ": 2431,
      "વિશેષ": 2432,
      "##કામ": 2433,
      "##ફિક": 2434,
      "##રીમાં": 2435,
      "ઘટાડો": 2436,
      "ડૉ": 2437,
      "ગુમ": 2438,
      "વિસ્તારોમાં": 2439,
      "શુભ": 2440,
      "પીએમ": 2441,
      "ઊંચ": 2442,
      "રાખવામાં": 2443,
      "ભગ": 2444,
      "પરત": 2445,
      "##ાઈલ": 2446,
      "##ડામાં": 2447,
      "ઉત્પાદન": 2448,
      "નાણ": 2449,
      "##હરણ": 2450,
      "##લેટ": 2451,
      "તાલુકાના": 2452,
      "સભ્યો": 2453,
      "##તિહાસ": 2454,
      "રાજ્યો": 2455,
      "આસપાસ": 2456,
      "મિનિટ": 2457,
      "અજ": 2458,
      "##at": 2459,
      "##ણમાં": 2460,
      "સામેલ": 2461,
      "ગામના": 2462,
      "માર્કેટ": 2463,
      "##બ્ધ": 2464,
      "જેટલા": 2465,
      "##ાક": 2466,
      "મળ્યો": 2467,
      "##સ્થાન": 2468,
      "##થમિક": 2469,
      "સાંજે": 2470,
      "પ્રાથમિક": 2471,
      "##શ્રી": 2472,
      "સ્ત્રી": 2473,
      "),": 2474,
      "ચંદ": 2475,
      "ધરી": 2476,
      "શબ્": 2477,
      "કર્": 2478,
      "##સ્તી": 2479,
      "##લ્લી": 2480,
      "##ડીયા": 2481,
      "કેસમાં": 2482,
      "આર્થિક": 2483,
      "ઉંમ": 2484,
      "ગૌ": 2485,
      "##સ્માત": 2486,
      "##ોએ": 2487,
      "##નગ": 2488,
      "તેવા": 2489,
      "ગુજરાતના": 2490,
      "વ્યવસાય": 2491,
      "કિસ્સા": 2492,
      "##an": 2493,
      "મૂળ": 2494,
      "સૂચ": 2495,
      "કિલો": 2496,
      "ઈન્": 2497,
      "વગેરે": 2498,
      "વધુમાં": 2499,
      "પહેલી": 2500,
      "ભારતના": 2501,
      "અકસ્માત": 2502,
      "ઓન": 2503,
      "ન્યૂ": 2504,
      "##તાઓ": 2505,
      "પેટ્રોલ": 2506,
      "ઉદ્યોગ": 2507,
      "નુકસાન": 2508,
      "અહે": 2509,
      "મ્યુ": 2510,
      "##કારક": 2511,
      "જાણકારી": 2512,
      "##પોરે": 2513,
      "##દિક": 2514,
      "##ંજ": 2515,
      "રાત્રે": 2516,
      "એના": 2517,
      "##લર": 2518,
      "મોટ": 2519,
      "ઉપલ": 2520,
      "કરા": 2521,
      "આવતી": 2522,
      "##ંદર": 2523,
      "ગુણ": 2524,
      "નોટ": 2525,
      "પુત્ર": 2526,
      "પંચાયત": 2527,
      "મંગળ": 2528,
      "ઉચ્ચ": 2529,
      "##હન": 2530,
      "કાશ્મી": 2531,
      "ગામે": 2532,
      "સ્વાસ્થ": 2533,
      "મંજૂરી": 2534,
      "આક": 2535,
      "એપ્ર": 2536,
      "દક્ષ": 2537,
      "બ્રા": 2538,
      "##લેન્ડ": 2539,
      "વેચાણ": 2540,
      "શ્રેષ્ઠ": 2541,
      "આવક": 2542,
      "જેની": 2543,
      "લેખ": 2544,
      "બહુ": 2545,
      "વર્ષના": 2546,
      "રાષ્ટ્રીય": 2547,
      "સફળતા": 2548,
      "કર્મચારી": 2549,
      "લીધે": 2550,
      "ખબર": 2551,
      "કાર્ડ": 2552,
      "બનાવવામાં": 2553,
      "અગ્ર": 2554,
      "જમ": 2555,
      "થતી": 2556,
      "નહી": 2557,
      "લાઇ": 2558,
      "વાળ": 2559,
      "વધાર": 2560,
      "##ગો": 2561,
      "##િણ": 2562,
      "જણાવ્યા": 2563,
      "બદલ": 2564,
      "પૈકી": 2565,
      "હંમેશા": 2566,
      "અના": 2567,
      "ડાય": 2568,
      "તાજે": 2569,
      "મેને": 2570,
      "અંતિમ": 2571,
      "વિપ": 2572,
      "ધરાવે": 2573,
      "મોદીએ": 2574,
      "સંખ્યામાં": 2575,
      "કાં": 2576,
      "યહો": 2577,
      "##પોર": 2578,
      "કરનાર": 2579,
      "યુનિવ": 2580,
      "શહેરના": 2581,
      "માણસ": 2582,
      "વિશ્વાસ": 2583,
      "નાની": 2584,
      "શખ્સ": 2585,
      "અઠવા": 2586,
      "બિલ": 2587,
      "સંચાલ": 2588,
      "પ્રકારની": 2589,
      "પશ્ચ": 2590,
      "ડિઝ": 2591,
      "હુમલા": 2592,
      "પ્રોજેક્ટ": 2593,
      "સ્વાસ્થ્ય": 2594,
      "વળ": 2595,
      "હળ": 2596,
      "##ાટ": 2597,
      "આપતા": 2598,
      "થયેલ": 2599,
      "વ્": 2600,
      "પ્રદર્શન": 2601,
      "##્યાય": 2602,
      "ઇચ્છ": 2603,
      "તી": 2604,
      "##ાતી": 2605,
      "આપ્યું": 2606,
      "##્રેડ": 2607,
      "##િટિવ": 2608,
      "##કટર": 2609,
      "સ્ટાફ": 2610,
      "જંગ": 2611,
      "ડોલ": 2612,
      "બંગ": 2613,
      "૩૦": 2614,
      "##ઝી": 2615,
      "માટેની": 2616,
      "આપણા": 2617,
      "બદલે": 2618,
      "ક્વ": 2619,
      "ચિ": 2620,
      "##કને": 2621,
      "સાધ": 2622,
      "સંઘ": 2623,
      "##રાષ્ટ્ર": 2624,
      "સેના": 2625,
      "સ્ટો": 2626,
      "ધમ": 2627,
      "નું": 2628,
      "ભુ": 2629,
      "##મન": 2630,
      "##યર": 2631,
      "વાતચી": 2632,
      "અનુભવ": 2633,
      "ઉપલબ્ધ": 2634,
      "લક્ષણ": 2635,
      "##es": 2636,
      "##એલ": 2637,
      "પસંદગી": 2638,
      "મથ": 2639,
      "##ૃત્તિ": 2640,
      "મળ્યું": 2641,
      "વર્ષથી": 2642,
      "બનાવે": 2643,
      "રાહત": 2644,
      "યાત": 2645,
      "નીતિ": 2646,
      "લાગુ": 2647,
      "જગ્યાએ": 2648,
      "અફ": 2649,
      "રવ": 2650,
      "રચના": 2651,
      "##ટમાં": 2652,
      "##લોજી": 2653,
      "દીધો": 2654,
      "ચોરી": 2655,
      "જાણો": 2656,
      "ઓછા": 2657,
      "દક્ષિણ": 2658,
      "થવાની": 2659,
      "મહામારી": 2660,
      "પાં": 2661,
      "હિં": 2662,
      "##વ્ય": 2663,
      "તેલ": 2664,
      "નીકળ": 2665,
      "કહેવામાં": 2666,
      "ઓફિસ": 2667,
      "મિત્રો": 2668,
      "સવાર": 2669,
      "##ઝને": 2670,
      "યોગ": 2671,
      "મોટાભાગ": 2672,
      "વિદ્યાર્થીઓ": 2673,
      "પાકિસ્તાન": 2674,
      "પોઝિટિવ": 2675,
      "યુનિવર્સ": 2676,
      "##દ્ધિ": 2677,
      "ઝડપથી": 2678,
      "##વડ": 2679,
      "##નિંગ": 2680,
      "રાજકીય": 2681,
      "અમારા": 2682,
      "ચીન": 2683,
      "દિશ": 2684,
      "નજર": 2685,
      "શૈ": 2686,
      "##રાજ": 2687,
      "સામનો": 2688,
      "આખ": 2689,
      "મગ": 2690,
      "ગુરુ": 2691,
      "સ્પર્": 2692,
      "ફરીથી": 2693,
      "##દર્શ": 2694,
      "ગૃહ": 2695,
      "ડા": 2696,
      "નાં": 2697,
      "##િડ": 2698,
      "શુક્ર": 2699,
      "પ્રકારના": 2700,
      "મજબૂત": 2701,
      "બન્ને": 2702,
      "##ટેડ": 2703,
      "મુસા": 2704,
      "##સ્ટ્રે": 2705,
      "##ાર્ડ": 2706,
      "અમારી": 2707,
      "ધરાવતા": 2708,
      "આરોપ": 2709,
      "##સ્થિત": 2710,
      "માનવ": 2711,
      "ધ્યાનમાં": 2712,
      "અચ": 2713,
      "આંદ": 2714,
      "શક્તિ": 2715,
      "##ાને": 2716,
      "પુસ્ત": 2717,
      "કચ્છ": 2718,
      "મંડ": 2719,
      "##મતી": 2720,
      "##રીને": 2721,
      "##પ્રિય": 2722,
      "વીજ": 2723,
      "ફેરફ": 2724,
      "##કરો": 2725,
      "##સ્વી": 2726,
      "##લ્ટ": 2727,
      "##સુ": 2728,
      "વાગ્યા": 2729,
      "તબક્": 2730,
      "આટ": 2731,
      "વાં": 2732,
      "##િગ": 2733,
      "સ્થિત": 2734,
      "સફળ": 2735,
      "જાળ": 2736,
      "મિશ": 2737,
      "શર્": 2738,
      "##ભરમાં": 2739,
      "##તની": 2740,
      "##િટર": 2741,
      "શકશે": 2742,
      "પ્રતિબંધ": 2743,
      "ક્યારેય": 2744,
      "જામનગર": 2745,
      "##કાં": 2746,
      "##કાળ": 2747,
      "##દય": 2748,
      "##દ્ર": 2749,
      "##ંડા": 2750,
      "વિવાદ": 2751,
      "##ધ્ધ": 2752,
      "કબ": 2753,
      "રેડ": 2754,
      "##વવામાં": 2755,
      "##બંધી": 2756,
      "##ઉટ": 2757,
      "ગરમ": 2758,
      "બિન": 2759,
      "##યું": 2760,
      "ખેતી": 2761,
      "યુનિવર્સિટી": 2762,
      "બધી": 2763,
      "##તના": 2764,
      "પોતે": 2765,
      "સુપ": 2766,
      "ડિસે": 2767,
      "તૈયારી": 2768,
      "ગાંધીનગર": 2769,
      "રવિવ": 2770,
      "પશ્ચિમ": 2771,
      ".’": 2772,
      "ઓગ": 2773,
      "##શિયા": 2774,
      "##મની": 2775,
      "##ંડી": 2776,
      "ગુનો": 2777,
      "જુઓ": 2778,
      "મંત્રાલય": 2779,
      "##ટિંગ": 2780,
      "કરાવ": 2781,
      "બાબતે": 2782,
      "વાહન": 2783,
      "આંખ": 2784,
      "ઓપ": 2785,
      "ધન": 2786,
      "સંત": 2787,
      "રાજય": 2788,
      "##મ્સ": 2789,
      "યુવા": 2790,
      "ટીવી": 2791,
      "હુમલો": 2792,
      "મુસાફ": 2793,
      "આશા": 2794,
      "ઇન્ટ": 2795,
      "સાય": 2796,
      "સૂર": 2797,
      "સપ્ટ": 2798,
      "કોલ": 2799,
      "રહેલી": 2800,
      "મેળવવા": 2801,
      "આંદોલ": 2802,
      "##ુટ": 2803,
      "પ્રત્ય": 2804,
      "સમિતિ": 2805,
      "આપ્યા": 2806,
      "##ક્ષી": 2807,
      "લખ્યું": 2808,
      "નિર્માણ": 2809,
      "જતાં": 2810,
      "##લિક": 2811,
      "##ઝન": 2812,
      "##્વર": 2813,
      "વર્ષમાં": 2814,
      "સૌરાષ્ટ્ર": 2815,
      "જુદા": 2816,
      "નોંધાયા": 2817,
      "નિયમો": 2818,
      "મહિનામાં": 2819,
      "બાર": 2820,
      "પ્રશ": 2821,
      "અમદાવાદમાં": 2822,
      "તારીખ": 2823,
      "સપ્ટે": 2824,
      "પૂરી": 2825,
      "21": 2826,
      "તળ": 2827,
      "દાવો": 2828,
      "સચ": 2829,
      "##વલ": 2830,
      "##લાલ": 2831,
      "પ્રારંભ": 2832,
      "વિશ": 2833,
      "૧૮": 2834,
      "##ડવા": 2835,
      "વિગ": 2836,
      "##ત્ત": 2837,
      "અમિત": 2838,
      "##ાવીને": 2839,
      "તેનાથી": 2840,
      "જાન્યુ": 2841,
      "હકી": 2842,
      "વેક્સ": 2843,
      "વાયરલ": 2844,
      "એને": 2845,
      "ડેટ": 2846,
      "સન્": 2847,
      "કર્યુ": 2848,
      "##્યાન": 2849,
      "##ાનક": 2850,
      "##સ્ત્ર": 2851,
      "જનતા": 2852,
      "વિધાનસભા": 2853,
      "હાર્દિક": 2854,
      "થોડ": 2855,
      "વધારા": 2856,
      "અમને": 2857,
      "રાખવા": 2858,
      "સારું": 2859,
      "ઘટ": 2860,
      "જ્": 2861,
      "તક": 2862,
      "વાર્": 2863,
      "૧૪": 2864,
      "રણ": 2865,
      "મહત્": 2866,
      "દીકરી": 2867,
      "##પ્ત": 2868,
      "વાતાવ": 2869,
      "એપ્રિલ": 2870,
      "000": 2871,
      "સિસ્ટમ": 2872,
      "##પૂર": 2873,
      "જાગ": 2874,
      "ફ્ર": 2875,
      "સર્વ": 2876,
      "##વાઇ": 2877,
      "##લાવી": 2878,
      "પ્રય": 2879,
      "##િક્સ": 2880,
      "##ન્ડર": 2881,
      "સંગઠ": 2882,
      "ચુ": 2883,
      "વજન": 2884,
      "##નામાં": 2885,
      "##રેલી": 2886,
      "##ેશનલ": 2887,
      "માનવામાં": 2888,
      "##લાઇન": 2889,
      "વાતાવરણ": 2890,
      "40": 2891,
      "એવો": 2892,
      "##વવા": 2893,
      "##ારું": 2894,
      "કેન્દ": 2895,
      "ફિલ્મો": 2896,
      "બાંધ": 2897,
      "તાજેતરમાં": 2898,
      "જાન્યુઆરી": 2899,
      "આઠ": 2900,
      "ઘો": 2901,
      "##ોથી": 2902,
      "##કિત": 2903,
      "મોકલ": 2904,
      "નિષ્": 2905,
      "##ક્ટો": 2906,
      "સહાય": 2907,
      "પાલન": 2908,
      "શક્યતા": 2909,
      "પ્રયત્": 2910,
      "આત્મ": 2911,
      "દંડ": 2912,
      "નાર": 2913,
      "##જની": 2914,
      "##એફ": 2915,
      "છોડી": 2916,
      "આગે": 2917,
      "થયેલી": 2918,
      "હી": 2919,
      "તેવું": 2920,
      "સ્તર": 2921,
      "રૂપાણી": 2922,
      "ભાવનગર": 2923,
      "નિયંત્ર": 2924,
      "##જ્ઞાન": 2925,
      "રેલવે": 2926,
      "શર્મા": 2927,
      "ચેર": 2928,
      "સબ": 2929,
      "##ાયલ": 2930,
      "કરવાના": 2931,
      "રાશિ": 2932,
      "મતદાન": 2933,
      "કુમાર": 2934,
      "##ભાર": 2935,
      "સમર્થ": 2936,
      "##પાલિકા": 2937,
      "સલ": 2938,
      "##કિંગ": 2939,
      "##વર્": 2940,
      "##ણને": 2941,
      "આપશે": 2942,
      "માર્ચ": 2943,
      "બન્યા": 2944,
      "ખોરા": 2945,
      "##કાલે": 2946,
      "અગ": 2947,
      "એચ": 2948,
      "૨૫": 2949,
      "તાપ": 2950,
      "વોર્ડ": 2951,
      "શાંતિ": 2952,
      "##કનો": 2953,
      "##નારી": 2954,
      "સમાન": 2955,
      "##ભાવના": 2956,
      "સલાહ": 2957,
      "##નગરમાં": 2958,
      "##સના": 2959,
      "મળતી": 2960,
      "વર્લ્ડ": 2961,
      "કહેવાય": 2962,
      "કોર્ટે": 2963,
      "સ્થળે": 2964,
      "નાણાં": 2965,
      "આકર્ષ": 2966,
      "જળ": 2967,
      "નવે": 2968,
      "પાર્ક": 2969,
      "શંકા": 2970,
      "##હા": 2971,
      "રાજસ્થાન": 2972,
      "સંપર્ક": 2973,
      "ઉમેદવારો": 2974,
      "એજન્સી": 2975,
      "કેન્દ્રીય": 2976,
      "ઉર્": 2977,
      "ચમ": 2978,
      "ભય": 2979,
      "##રમ": 2980,
      "યુવાન": 2981,
      "અનુભ": 2982,
      "નિવેદન": 2983,
      "##પૂર્વક": 2984,
      "તબી": 2985,
      "ફૂ": 2986,
      "રમત": 2987,
      "માધ્ય": 2988,
      "##રીના": 2989,
      "પોતાનો": 2990,
      "વેબ": 2991,
      "બનશે": 2992,
      "લોકડાઉન": 2993,
      "22": 2994,
      "ગરી": 2995,
      "શરુ": 2996,
      "૧૩": 2997,
      "સામગ્રી": 2998,
      "ચૂંટણીમાં": 2999,
      "જવાબદારી": 3000,
      "બુધ": 3001,
      "વિદેશી": 3002,
      "ધારાસભ્ય": 3003,
      "નાણા": 3004,
      "શનિવ": 3005,
      "##તાર": 3006,
      "##ફ્ર": 3007,
      "કરેલ": 3008,
      "ફાયર": 3009,
      "ચક": 3010,
      "##દના": 3011,
      "પાટી": 3012,
      "સેન્ટ": 3013,
      "છોકરી": 3014,
      "ઉત્સ": 3015,
      "ટ્રાન્સ": 3016,
      "આંતર": 3017,
      "ચલાવ": 3018,
      "સેલ": 3019,
      "##યે": 3020,
      "##સની": 3021,
      "##િજ": 3022,
      "તેમનો": 3023,
      "દેશની": 3024,
      "ટેક્સ": 3025,
      "સૂત્રો": 3026,
      "થોડી": 3027,
      "સ્માર્ટ": 3028,
      "પકડ": 3029,
      "લૂ": 3030,
      "##િયાત": 3031,
      "ઉદા": 3032,
      "કાન": 3033,
      "બધું": 3034,
      "##સ્તવ": 3035,
      "પહેર": 3036,
      "વિગતો": 3037,
      "કરાઈ": 3038,
      "##રીયા": 3039,
      "પહોંચ્યા": 3040,
      "ફેસ": 3041,
      "દર્દીઓ": 3042,
      "મુંબઇ": 3043,
      "પ્રસંગ": 3044,
      "##બજ": 3045,
      "##ઢી": 3046,
      "પ્રતિક": 3047,
      "સાબ": 3048,
      "##ાઇટ": 3049,
      "દેખા": 3050,
      "##ષ્ટિ": 3051,
      "કંપનીઓ": 3052,
      "મુદ્દે": 3053,
      "સુપ્રીમ": 3054,
      "પાવ": 3055,
      "વલ": 3056,
      "##પક": 3057,
      "કેન્સ": 3058,
      "સમુ": 3059,
      "##ડાના": 3060,
      "વર્ત": 3061,
      "સરકારની": 3062,
      "ફેબ્ર": 3063,
      "મકાન": 3064,
      "યાત્રા": 3065,
      "અખ": 3066,
      "ચૌ": 3067,
      "##માસ": 3068,
      "##ધુ": 3069,
      "##ડની": 3070,
      "પુરુ": 3071,
      "લોકસભા": 3072,
      "અંતર્": 3073,
      "કોલેજ": 3074,
      "ઉદાહરણ": 3075,
      "કદા": 3076,
      "##on": 3077,
      "##તાની": 3078,
      "##રોને": 3079,
      "##લેક્ટ": 3080,
      "રેકો": 3081,
      "દરમ્યાન": 3082,
      "દર્શન": 3083,
      "ભૂમ": 3084,
      "માલિક": 3085,
      ".”": 3086,
      "કૉ": 3087,
      "ખસે": 3088,
      "ચહે": 3089,
      "સોના": 3090,
      "પોલીસને": 3091,
      "ધોરણ": 3092,
      "ટ્વી": 3093,
      "યહોવા": 3094,
      "અંક": 3095,
      "ઓસ્ટ્રે": 3096,
      "કું": 3097,
      "કચે": 3098,
      "##ેક": 3099,
      "કેર": 3100,
      "તેમનું": 3101,
      "##ાપુ": 3102,
      "જાણે": 3103,
      "જીવનમાં": 3104,
      "ખેંચ": 3105,
      "વારં": 3106,
      "##કારાત્મક": 3107,
      "##ક્રિય": 3108,
      "હેલ્": 3109,
      "કમિશન": 3110,
      "આતંક": 3111,
      "ધીમે": 3112,
      "અંતર્ગત": 3113,
      "##લુ": 3114,
      "નીક": 3115,
      "રાખો": 3116,
      "મૂલ": 3117,
      "લોકપ્રિય": 3118,
      "સપ્તા": 3119,
      "વારંવાર": 3120,
      "એવ": 3121,
      "ઘટી": 3122,
      "ચાં": 3123,
      "ફળ": 3124,
      "સિવ": 3125,
      "##ાયણ": 3126,
      "દેવા": 3127,
      "સમયથી": 3128,
      "ટ્રસ્ટ": 3129,
      "મહત્વપૂર્ણ": 3130,
      "દબાણ": 3131,
      "મિશ્ર": 3132,
      "દોડ": 3133,
      "કરવાથી": 3134,
      "યુવાનો": 3135,
      "તેઓએ": 3136,
      "કદાચ": 3137,
      "રેકોર્ડ": 3138,
      "હૈ": 3139,
      "##વાડી": 3140,
      "પ્રભાવ": 3141,
      "##ક્સી": 3142,
      "સાઇ": 3143,
      "##્વે": 3144,
      "##ક્ષિત": 3145,
      "પાડી": 3146,
      "નામે": 3147,
      "વિકેટ": 3148,
      "બેઠકો": 3149,
      "પ્રમાણમાં": 3150,
      "જેટલી": 3151,
      "##્રહ": 3152,
      "કરતો": 3153,
      "કરાવી": 3154,
      "ક્ષમતા": 3155,
      "કલાકમાં": 3156,
      "ભોગ": 3157,
      "સન્માન": 3158,
      "જિ": 3159,
      "ટિક": 3160,
      "લિ": 3161,
      "કેપ્ટ": 3162,
      "##ુકાન": 3163,
      "સંબંધિત": 3164,
      "રાષ્ટ્રપતિ": 3165,
      "સાબિત": 3166,
      "ગાડી": 3167,
      "નર્મ": 3168,
      "પૃ": 3169,
      "સિક": 3170,
      "સપા": 3171,
      "##ષિ": 3172,
      "માથા": 3173,
      "##ન્દુ": 3174,
      "કોરોનાની": 3175,
      "સરકારના": 3176,
      "ખાલી": 3177,
      "બિઝને": 3178,
      "યાદી": 3179,
      "આંકડા": 3180,
      "અચાનક": 3181,
      "જઇ": 3182,
      "દઈ": 3183,
      "હજી": 3184,
      "##રિ": 3185,
      "##રબ": 3186,
      "કેમ્પ": 3187,
      "##ગ્રામ": 3188,
      "વસ્તુઓ": 3189,
      "અભિનેત્રી": 3190,
      "એફ": 3191,
      "##ડમાં": 3192,
      "##સ્ટ્રી": 3193,
      "સાંસદ": 3194,
      "બાળકોને": 3195,
      "ભગવાન": 3196,
      "કાલ": 3197,
      "પશુ": 3198,
      "બ્લ": 3199,
      "##મના": 3200,
      "પ્રિય": 3201,
      "##ાવવાની": 3202,
      "##ાજિક": 3203,
      "આપવાની": 3204,
      "##ાગ્ર": 3205,
      "શાક": 3206,
      "શરીર": 3207,
      "ઉમ": 3208,
      "##ભો": 3209,
      "પૂજા": 3210,
      "ગુજરાતી": 3211,
      "વાહનો": 3212,
      "ટ્રાફિક": 3213,
      "ફેરફાર": 3214,
      "પુરુષ": 3215,
      "ભૂમિકા": 3216,
      ".\"": 3217,
      "કાપ": 3218,
      "જાપ": 3219,
      "૧૬": 3220,
      "##ાસ્ટ": 3221,
      "##યોગી": 3222,
      "ઉકે": 3223,
      "##ઝા": 3224,
      "##પાત્ર": 3225,
      "##ાંગ": 3226,
      "બોલી": 3227,
      "##રામ": 3228,
      "કોન્": 3229,
      "ઉપસ્થિત": 3230,
      "રહેવા": 3231,
      "બીજ": 3232,
      "વાસ્તવ": 3233,
      "મુશ્કેલ": 3234,
      "સિવિલ": 3235,
      "અક્ષ": 3236,
      "ખરે": 3237,
      "ઝી": 3238,
      "પરેશ": 3239,
      "સ્ત": 3240,
      "પાઠ": 3241,
      "રાખે": 3242,
      "નામના": 3243,
      "ફટ": 3244,
      "##ઝર": 3245,
      "##ાવત": 3246,
      "જેઓ": 3247,
      "વર્ગ": 3248,
      "હાઉ": 3249,
      "ડીઝ": 3250,
      "##લાઈન": 3251,
      "તહે": 3252,
      "##ટરી": 3253,
      "##પજ": 3254,
      "પ્રોડ": 3255,
      "##ાજા": 3256,
      "સ્વાદ": 3257,
      "પોતાનું": 3258,
      "ડોલર": 3259,
      "૫૦": 3260,
      "પ્રાણી": 3261,
      "##લીમ": 3262,
      "કહ્યુ": 3263,
      "##સાયટી": 3264,
      "કોર્ટમાં": 3265,
      "નેશનલ": 3266,
      "વહી": 3267,
      "##ડાં": 3268,
      "##તામાં": 3269,
      "સોસાયટી": 3270,
      "સર્વે": 3271,
      "મિત્ર": 3272,
      "૧૭": 3273,
      "##ૂળ": 3274,
      "યુદ્ધ": 3275,
      "##ક્રો": 3276,
      "સ્કૂ": 3277,
      "##ભાજી": 3278,
      "##ષા": 3279,
      "આવું": 3280,
      "##્યાલ": 3281,
      "કોમ": 3282,
      "##કોર": 3283,
      "ખુશ": 3284,
      "પ્રધાનમંત્રી": 3285,
      "સોમવારે": 3286,
      "મેડિકલ": 3287,
      "ફેબ્રુ": 3288,
      "##ચો": 3289,
      "##સાઈ": 3290,
      "##તાના": 3291,
      "અમુક": 3292,
      "કહેવું": 3293,
      "મંદિ": 3294,
      "##યુક્ત": 3295,
      "ઉજવણી": 3296,
      "જોખમ": 3297,
      "ઓગસ્ટ": 3298,
      "એક્": 3299,
      "પટે": 3300,
      "બતા": 3301,
      "##ટની": 3302,
      "##રવ": 3303,
      "##્રમ": 3304,
      "##ર્તિ": 3305,
      "પ્રવાસ": 3306,
      "સુપર": 3307,
      "લેતા": 3308,
      "##વિસ": 3309,
      "##પ્રદેશ": 3310,
      "લાગણી": 3311,
      "ભાગમાં": 3312,
      "ચંદ્ર": 3313,
      "આક્ષે": 3314,
      "નબ": 3315,
      "પર્વ": 3316,
      "સોલ": 3317,
      "માળ": 3318,
      "##ાળામાં": 3319,
      "##સ્ટર": 3320,
      "પાટ": 3321,
      "ટ્રેન": 3322,
      "દુકાન": 3323,
      "શકી": 3324,
      "##લેશ": 3325,
      "બાદમાં": 3326,
      "ભાગી": 3327,
      "વેપારી": 3328,
      "ઇન્ડિયા": 3329,
      "ગાય": 3330,
      "રજા": 3331,
      "શાસ": 3332,
      "સવાલ": 3333,
      "૨૪": 3334,
      "૨૦૦": 3335,
      "##ભુ": 3336,
      "##ઘાત": 3337,
      "##..": 3338,
      "કરાયો": 3339,
      "##ર્જી": 3340,
      "રાખીને": 3341,
      "વાતચીત": 3342,
      "ભવિ": 3343,
      "##ઝો": 3344,
      "##સમ": 3345,
      "સુખ": 3346,
      "રજૂઆત": 3347,
      "આશરે": 3348,
      "સંક્રમણ": 3349,
      "મેનેજ": 3350,
      "પટેલે": 3351,
      "આઉટ": 3352,
      "ઓક્ટો": 3353,
      "કડક": 3354,
      "નમ": 3355,
      "##en": 3356,
      "##વારી": 3357,
      "##ાંક": 3358,
      "માસ્ક": 3359,
      "ભોજન": 3360,
      "નર્મદા": 3361,
      "ખરેખર": 3362,
      "ફેબ્રુઆરી": 3363,
      "ચાર્જ": 3364,
      "તાત્": 3365,
      "નેટ": 3366,
      "ન્યાય": 3367,
      "##or": 3368,
      "##ધામ": 3369,
      "##ઓનું": 3370,
      "જોર": 3371,
      "દીધા": 3372,
      "દુર્": 3373,
      "એટલું": 3374,
      "ડિગ્રી": 3375,
      "ખેડૂત": 3376,
      "ઉમેદવાર": 3377,
      "સંભાળ": 3378,
      "ભવિષ્ય": 3379,
      "ઝા": 3380,
      "##ૂહ": 3381,
      "##ડતા": 3382,
      "##ારક": 3383,
      "##લામાં": 3384,
      "##દીપ": 3385,
      "સામાજિક": 3386,
      "##શીલ": 3387,
      "ખાતરી": 3388,
      "સભ્ય": 3389,
      "કરાશે": 3390,
      "ટુ": 3391,
      "સક્રિય": 3392,
      "##હોલ": 3393,
      "##ઠ્": 3394,
      "##તાને": 3395,
      "##લ્લ": 3396,
      "##રાના": 3397,
      "મુસ્": 3398,
      "જાડે": 3399,
      "દીધું": 3400,
      "શુક્રવારે": 3401,
      "છૂટ": 3402,
      "ઝો": 3403,
      "##ન્ના": 3404,
      "સંજય": 3405,
      "સંભાવના": 3406,
      "##કામાં": 3407,
      "##કાનો": 3408,
      "જીલ્લા": 3409,
      "મહેસ": 3410,
      "અત્યારે": 3411,
      "હવામાન": 3412,
      "વેક્સિન": 3413,
      "કેપ્ટન": 3414,
      "જાડેજા": 3415,
      "##કુમાર": 3416,
      "##ડર": 3417,
      "##ૈયા": 3418,
      "##ઉન્ટ": 3419,
      "નિષ્ણ": 3420,
      "##દ્દ": 3421,
      "ટીમે": 3422,
      "બાબત": 3423,
      "કુદર": 3424,
      "પ્રવૃત્તિ": 3425,
      "પ્રશ્નો": 3426,
      "મંગળવારે": 3427,
      "લક્ષણો": 3428,
      "23": 3429,
      "અંબ": 3430,
      "એની": 3431,
      "##ડવામાં": 3432,
      "હોમ": 3433,
      "##ડાની": 3434,
      "##દ્ધતિ": 3435,
      "ગરમી": 3436,
      "પંજા": 3437,
      "કઈ": 3438,
      "##ચન": 3439,
      "કોણ": 3440,
      "##કોની": 3441,
      "એકાઉ": 3442,
      "##મેટ": 3443,
      "પુન": 3444,
      "ઓસ્ટ્રેલિયા": 3445,
      "ટેલ": 3446,
      "સારો": 3447,
      "##ેલો": 3448,
      "સંશો": 3449,
      "##ાદી": 3450,
      "લગ્": 3451,
      "માનસિક": 3452,
      "##દેસર": 3453,
      "બજેટ": 3454,
      "વૃક્ષ": 3455,
      "સૂર્ય": 3456,
      "એકાઉન્ટ": 3457,
      "જથ્": 3458,
      "ફ્રે": 3459,
      "વપ": 3460,
      "##ણો": 3461,
      "ટ્રમ્પ": 3462,
      "આંગ": 3463,
      "વાન": 3464,
      "શ્": 3465,
      "##વાજ": 3466,
      "ભારતની": 3467,
      "પાછા": 3468,
      "સપ્ટેમ્બર": 3469,
      "એન્": 3470,
      "દા": 3471,
      "પાન": 3472,
      "પદ્ધતિ": 3473,
      "ફ્રી": 3474,
      "મના": 3475,
      "હૃ": 3476,
      "##વાં": 3477,
      "##ફા": 3478,
      "##ફળ": 3479,
      "##રેજ": 3480,
      "ધરાવ": 3481,
      "પગલાં": 3482,
      "પાલિકા": 3483,
      "##શ્યક": 3484,
      "2020": 3485,
      "જ્ઞ": 3486,
      "બ્લે": 3487,
      "ભલે": 3488,
      "મારો": 3489,
      "##ડુ": 3490,
      "##ાસી": 3491,
      "##ન્ટે": 3492,
      "##સ્તો": 3493,
      "હિન્દુ": 3494,
      "શીખ": 3495,
      "જૂનાગઢ": 3496,
      "મોટું": 3497,
      "અગ્રણી": 3498,
      "અઠવાડિયા": 3499,
      "ક્લા": 3500,
      "ફાળ": 3501,
      "વાપ": 3502,
      "##બાર": 3503,
      "પ્રવાસી": 3504,
      "##મીટર": 3505,
      "વર્તમાન": 3506,
      "નાય": 3507,
      "ફંડ": 3508,
      "બિલ્": 3509,
      "રૃ": 3510,
      "રિસ": 3511,
      "એકવાર": 3512,
      "##વિંદ": 3513,
      "ત્રણે": 3514,
      "બોલિવ": 3515,
      "કિસ્સામાં": 3516,
      "થતો": 3517,
      "##ંસ": 3518,
      "##ઇન્ટ": 3519,
      "##અલ": 3520,
      "તમારું": 3521,
      "પીડ": 3522,
      "##પ્રદ": 3523,
      "કારણો": 3524,
      "સ્કૂલ": 3525,
      "દિવાળી": 3526,
      "મોબાઈલ": 3527,
      "શબ્દ": 3528,
      "સલમાન": 3529,
      "હૃદય": 3530,
      "##વાલો": 3531,
      "તેજ": 3532,
      "##કોએ": 3533,
      "શકતા": 3534,
      "કાપી": 3535,
      "ગોઠ": 3536,
      "ભૂત": 3537,
      "ડોઝ": 3538,
      "સંપૂર્ણપણે": 3539,
      "સપ્તાહ": 3540,
      "જવાનો": 3541,
      "વાઈ": 3542,
      "સગ": 3543,
      "##રિયા": 3544,
      "##બુક": 3545,
      "##વાહ": 3546,
      "પ્રજા": 3547,
      "##રાની": 3548,
      "એરપોર્ટ": 3549,
      "ઈચ્છ": 3550,
      "કંટ": 3551,
      "જમ્": 3552,
      "વય": 3553,
      "વાઇ": 3554,
      "##િબ": 3555,
      "##ર્વે": 3556,
      "પ્રગ": 3557,
      "##લીમાં": 3558,
      "હોવાનો": 3559,
      "પડ્યો": 3560,
      "કલમ": 3561,
      "મોટાભાગના": 3562,
      "અપી": 3563,
      "આથી": 3564,
      "ઓક્સ": 3565,
      "સેટ": 3566,
      "હાર": 3567,
      "##ડાયા": 3568,
      "સેક": 3569,
      "અભિ": 3570,
      "એટલા": 3571,
      "ચેપ": 3572,
      "આરામ": 3573,
      "ઉભી": 3574,
      "આવશ્યક": 3575,
      "એકબી": 3576,
      "##ંદુ": 3577,
      "સિદ્ધ": 3578,
      "મળીને": 3579,
      "પાણીની": 3580,
      "ફિલ્મમાં": 3581,
      "બંગાળ": 3582,
      "રવિવારે": 3583,
      "28": 3584,
      "છૂ": 3585,
      "ન્યુ": 3586,
      "##મારી": 3587,
      "પરમ": 3588,
      "પરંપ": 3589,
      "##રૂપે": 3590,
      "જુલાઈ": 3591,
      "2019": 3592,
      "અંદાજ": 3593,
      "##થ્થ": 3594,
      "અજાણ": 3595,
      "ધમકી": 3596,
      "ખી": 3597,
      "પંડ": 3598,
      "ફોર્મ": 3599,
      "##ભૂત": 3600,
      "##િના": 3601,
      "##ીક": 3602,
      "દરરોજ": 3603,
      "લગાવી": 3604,
      "##સ્પે": 3605,
      "બદલી": 3606,
      "દિલ્હીમાં": 3607,
      "શાકભાજી": 3608,
      "વહીવ": 3609,
      "જૈ": 3610,
      "તુ": 3611,
      "##કાય": 3612,
      "આવો": 3613,
      "##સેના": 3614,
      "સ્વરૂપ": 3615,
      "દેખાય": 3616,
      "વિષય": 3617,
      "મર્યા": 3618,
      "તાપમાન": 3619,
      "ગરીબ": 3620,
      "સપાટી": 3621,
      "ધાર": 3622,
      "##પત્ર": 3623,
      "##ેરી": 3624,
      "##એન": 3625,
      "વિન": 3626,
      "સંભવ": 3627,
      "તેઓને": 3628,
      "મીટર": 3629,
      "મૂકી": 3630,
      "વાઘ": 3631,
      "મહિલાઓ": 3632,
      "આધુ": 3633,
      "વિભાગના": 3634,
      "પ્લાન્ટ": 3635,
      "બુધવારે": 3636,
      "ફૂટ": 3637,
      "વર્ષીય": 3638,
      "સેન્ટર": 3639,
      "શોધી": 3640,
      "##ફોન": 3641,
      "શનિવારે": 3642,
      "કૂ": 3643,
      "ધંધ": 3644,
      "નજ": 3645,
      "ફ્લા": 3646,
      "વાળા": 3647,
      "સજા": 3648,
      "##ગ્રા": 3649,
      "##al": 3650,
      "મોહ": 3651,
      "દરિયા": 3652,
      "૨૦૨": 3653,
      "પ્રશ્ન": 3654,
      "ઈન્ડિયા": 3655,
      "સ્વીકાર": 3656,
      "ડિઝાઇન": 3657,
      "આધુનિક": 3658,
      "નવો": 3659,
      "બપોરે": 3660,
      "##િટે": 3661,
      "##તરા": 3662,
      "પોરબ": 3663,
      "સમી": 3664,
      "સરખ": 3665,
      "માંડ": 3666,
      "તરત": 3667,
      "બેઠકમાં": 3668,
      "વાગ્યે": 3669,
      "ડિસેમ્બર": 3670,
      "ચેરમેન": 3671,
      "બિઝનેસ": 3672,
      "એકબીજા": 3673,
      "બૉ": 3674,
      "બાઈ": 3675,
      "##ભૂ": 3676,
      "પ્રેર": 3677,
      "##રીઝ": 3678,
      "સાફ": 3679,
      "સ્ના": 3680,
      "લોકોમાં": 3681,
      "માંથી": 3682,
      "ચોમાસ": 3683,
      "સ્થિતિમાં": 3684,
      "મેચમાં": 3685,
      "##પુરા": 3686,
      "વેપાર": 3687,
      "આતંકી": 3688,
      "બજારમાં": 3689,
      "26": 3690,
      "આર્": 3691,
      "ગા": 3692,
      "મધ": 3693,
      "##દમ": 3694,
      "##વ્ર": 3695,
      "માઇ": 3696,
      "કોહ": 3697,
      "સમક્ષ": 3698,
      "સંબો": 3699,
      "સાથેની": 3700,
      "બેડ": 3701,
      "દિવસોમાં": 3702,
      "અભિન": 3703,
      "અભિયાન": 3704,
      "નીકળી": 3705,
      "દઈએ": 3706,
      "રદ": 3707,
      "હેર": 3708,
      "##ોળ": 3709,
      "##મદ": 3710,
      "કરાયું": 3711,
      "મોકલી": 3712,
      "યુન": 3713,
      "વાતો": 3714,
      "ગ્રુપ": 3715,
      "અપીલ": 3716,
      "ઇન": 3717,
      "ડિસ્": 3718,
      "##િદ": 3719,
      "##તરણ": 3720,
      "##ળું": 3721,
      "##ફોર્મ": 3722,
      "##ાનાં": 3723,
      "સરકારને": 3724,
      "નામની": 3725,
      "સ્વામી": 3726,
      "હેડ": 3727,
      "##ન્ય": 3728,
      "##ાવ્યું": 3729,
      "સંદર્": 3730,
      "મળતા": 3731,
      "પુત્રી": 3732,
      "અસરકારક": 3733,
      "દેખાવ": 3734,
      "બાઇ": 3735,
      "બ્રે": 3736,
      "યૂ": 3737,
      "સહી": 3738,
      "##મું": 3739,
      "##સલ": 3740,
      "મોંઘ": 3741,
      "આપો": 3742,
      "કાર્યો": 3743,
      "##દેવ": 3744,
      "સાંભળ": 3745,
      "ઓવર": 3746,
      "કચ": 3747,
      "ત્વ": 3748,
      "બંદ": 3749,
      "રાવ": 3750,
      "##લિમ": 3751,
      "##ગુ": 3752,
      "##ed": 3753,
      "##ર્તન": 3754,
      "માસ": 3755,
      "પરમાર": 3756,
      "માટેના": 3757,
      "##્વી": 3758,
      "સંકે": 3759,
      "કરેલા": 3760,
      "દરવા": 3761,
      "માન્ય": 3762,
      "માર્ગદર્શન": 3763,
      "ભલા": 3764,
      "૨૧": 3765,
      "##રત": 3766,
      "##લીઝ": 3767,
      "##્યુલ": 3768,
      "##માનો": 3769,
      "ચોક": 3770,
      "ક્યારેક": 3771,
      "વાયરસના": 3772,
      "ક્લિક": 3773,
      "પ્લેટ": 3774,
      "દુર": 3775,
      "##ણાવ": 3776,
      "##ખંડ": 3777,
      "##અપ": 3778,
      "કરનારા": 3779,
      "બેસી": 3780,
      "બોટ": 3781,
      "ચેક": 3782,
      "બર": 3783,
      "૪૦": 3784,
      "##ચિત": 3785,
      "##િજન": 3786,
      "##સ્કાર": 3787,
      "જેનો": 3788,
      "##ક્રમો": 3789,
      "અંતે": 3790,
      "પ્રતિનિ": 3791,
      "ગણતરી": 3792,
      "ઇન્સ્ટ": 3793,
      "ડ્રગ": 3794,
      "પદાર્થ": 3795,
      "ખોરાક": 3796,
      "નવેમ્બર": 3797,
      "સત્ય": 3798,
      "##ાઓ": 3799,
      "##વાને": 3800,
      "##ક્કર": 3801,
      "##િત્વ": 3802,
      "સુના": 3803,
      "જણા": 3804,
      "ધરવામાં": 3805,
      "સહિતની": 3806,
      "નેતાઓ": 3807,
      "500": 3808,
      "ગમે": 3809,
      "ડું": 3810,
      "ફાઈ": 3811,
      "##િની": 3812,
      "##તાનો": 3813,
      "##સ્ટે": 3814,
      "મેદાન": 3815,
      "સર્વિસ": 3816,
      "મદદથી": 3817,
      "કૃષિ": 3818,
      "નાણાકીય": 3819,
      "હેલ્થ": 3820,
      "કુદરતી": 3821,
      "બગ": 3822,
      "ભજ": 3823,
      "વકી": 3824,
      "હિત": 3825,
      "##ગામ": 3826,
      "##as": 3827,
      "##સન": 3828,
      "##િફ": 3829,
      "હોત": 3830,
      "લોન": 3831,
      "મેસે": 3832,
      "ગુલા": 3833,
      "પોતાને": 3834,
      "સ્ટેટ": 3835,
      "ઓફર": 3836,
      "માંગણી": 3837,
      "વિશાળ": 3838,
      "કોહલી": 3839,
      "સંદર્ભ": 3840,
      "પકડી": 3841,
      "મશી": 3842,
      "રજ": 3843,
      "રજુ": 3844,
      "##્મી": 3845,
      "##લિત": 3846,
      "##ન્સે": 3847,
      "##રાઇ": 3848,
      "##સ્ટિક": 3849,
      "જીતી": 3850,
      "દિવસથી": 3851,
      "મીઠ": 3852,
      "કોર્પોર": 3853,
      "ઘણાં": 3854,
      "ટૂંક": 3855,
      "કલેકટર": 3856,
      "કાળજી": 3857,
      "ઇન્ટરને": 3858,
      "31": 3859,
      "શૂટ": 3860,
      "સદ": 3861,
      "સદી": 3862,
      "##ળામાં": 3863,
      "##ંગ્લે": 3864,
      "જુના": 3865,
      "બિહાર": 3866,
      "બેન્ક": 3867,
      "મોબાઇલ": 3868,
      "ત્રીજા": 3869,
      "અહેવાલ": 3870,
      "કેન્સર": 3871,
      "કચેરી": 3872,
      "પવ": 3873,
      "બતાવ": 3874,
      "##કિ": 3875,
      "##યાત": 3876,
      "હોવાના": 3877,
      "લોન્ચ": 3878,
      "મેટ": 3879,
      "##એસટી": 3880,
      "બચાવ": 3881,
      "આધારિત": 3882,
      "##ત્સવ": 3883,
      "તીવ્ર": 3884,
      "##મથી": 3885,
      "##ઇલ": 3886,
      "પર્ય": 3887,
      "જોગ": 3888,
      "##રાષ્ટ્રીય": 3889,
      "ભારતે": 3890,
      "નોંધી": 3891,
      "કેસો": 3892,
      "ઉમેર": 3893,
      "ફાયદો": 3894,
      "જમ્મુ": 3895,
      "ભલામણ": 3896,
      "35": 3897,
      "60": 3898,
      "ઉના": 3899,
      "ઉભા": 3900,
      "એસો": 3901,
      "ખોલ": 3902,
      "દૃ": 3903,
      "##પના": 3904,
      "##ાયી": 3905,
      "વિરૂ": 3906,
      "##ંગના": 3907,
      "હોટ": 3908,
      "##ંતી": 3909,
      "અમરેલી": 3910,
      "સમયગ": 3911,
      "કરેલી": 3912,
      "##ંકર": 3913,
      "બાળકી": 3914,
      "સુરતમાં": 3915,
      "ભૂલ": 3916,
      "##ક્ષણિક": 3917,
      "ધારાસભ્યો": 3918,
      "અભિનેતા": 3919,
      "પંજાબ": 3920,
      "અતિ": 3921,
      "તકલી": 3922,
      "##ડિંગ": 3923,
      "માહોલ": 3924,
      "##ામણી": 3925,
      "મોડી": 3926,
      "વધારી": 3927,
      "તોડી": 3928,
      "##ધાની": 3929,
      "નોંધાયો": 3930,
      "વિકલ્પ": 3931,
      "વાવા": 3932,
      "ભરત": 3933,
      "2021": 3934,
      "આયુ": 3935,
      "જમા": 3936,
      "દસ": 3937,
      "મારે": 3938,
      "રક્ષણ": 3939,
      "##હર": 3940,
      "##ૂક": 3941,
      "##આતમાં": 3942,
      "##કોના": 3943,
      "##ાઇમ": 3944,
      "દિવસો": 3945,
      "હેતુ": 3946,
      "હાથમાં": 3947,
      "##શ્વર": 3948,
      "કાઢી": 3949,
      "તસવીર": 3950,
      "તસવીરો": 3951,
      "વિચારો": 3952,
      "આકાર": 3953,
      "આભાર": 3954,
      "ઇલેક્ટ": 3955,
      "ઉછ": 3956,
      "ક્રો": 3957,
      "ગ્રી": 3958,
      "ગ્રે": 3959,
      "ગ્રા": 3960,
      "તું": 3961,
      "૦૦૦": 3962,
      "##ઘાન": 3963,
      "##જાત": 3964,
      "##ણું": 3965,
      "તેણી": 3966,
      "##સ્તે": 3967,
      "##રેટ": 3968,
      "વધે": 3969,
      "##િયે": 3970,
      "પરિવારના": 3971,
      "ગેરકાય": 3972,
      "આંદોલન": 3973,
      "પૃથ": 3974,
      "વપરાશ": 3975,
      "27": 3976,
      "એમાં": 3977,
      "કપૂર": 3978,
      "પાત્ર": 3979,
      "૧૦૦": 3980,
      "##હાણ": 3981,
      "##પંચ": 3982,
      "વિતરણ": 3983,
      "પોલ": 3984,
      "કંપનીએ": 3985,
      "સફેદ": 3986,
      "##કાલિક": 3987,
      "કંઈક": 3988,
      "આખા": 3989,
      "ગતિ": 3990,
      "##ટુંબ": 3991,
      "##ર્ગ": 3992,
      "વિગત": 3993,
      "##ેશભાઈ": 3994,
      "##રોની": 3995,
      "સંસ્ક": 3996,
      "##રાટ": 3997,
      "##જીત": 3998,
      "બીજો": 3999,
      "જણાવ્યુ": 4000,
      "પ્રેમી": 4001,
      "જૂન": 4002,
      "ગ્રામ્ય": 4003,
      "અમેરિકાના": 4004,
      "પ્રયત્ન": 4005,
      "કયા": 4006,
      "ચાહ": 4007,
      "તુલ": 4008,
      "##ળના": 4009,
      "##ઓથી": 4010,
      "જેલ": 4011,
      "##ડીયો": 4012,
      "કાર્યક્રમો": 4013,
      "##જનક": 4014,
      "તાલુકામાં": 4015,
      "ગુણવ": 4016,
      "જતી": 4017,
      "શિયા": 4018,
      "##મિત": 4019,
      "##પમાં": 4020,
      "##િલે": 4021,
      "સાઈ": 4022,
      "સાઉ": 4023,
      "રૂમ": 4024,
      "ભાગે": 4025,
      "જુદી": 4026,
      "કોંગ્રે": 4027,
      "અંગેની": 4028,
      "જવાબદાર": 4029,
      "##ચર્ય": 4030,
      "ફાયદા": 4031,
      "નગરપાલિકા": 4032,
      "અલી": 4033,
      "##કુ": 4034,
      "##ti": 4035,
      "##ઘર": 4036,
      "પ્રિ": 4037,
      "આપણી": 4038,
      "કાર્": 4039,
      "##ાદે": 4040,
      "##માન્ડ": 4041,
      "કાઉ": 4042,
      "રોકડ": 4043,
      "અફઘાન": 4044,
      "સંતો": 4045,
      "હકીકત": 4046,
      "ડેટા": 4047,
      "તાત્કાલિક": 4048,
      "નિષ્ણાત": 4049,
      "શ્વાસ": 4050,
      "એન્જ": 4051,
      "શામ": 4052,
      "##ઇન": 4053,
      "કરશો": 4054,
      "વિમાન": 4055,
      "કોન્ટ": 4056,
      "એકદમ": 4057,
      "સંકળ": 4058,
      "ઉપયોગી": 4059,
      "રાજીના": 4060,
      "અમલ": 4061,
      "વ્યક્તિને": 4062,
      "રાજકોટમાં": 4063,
      "##સભામાં": 4064,
      "પાડવામાં": 4065,
      "વેપારીઓ": 4066,
      "ઉકેલ": 4067,
      "##ંગ્લેન્ડ": 4068,
      "કાળા": 4069,
      "શારી": 4070,
      "##દુ": 4071,
      "##ળમાં": 4072,
      "સંયુક્ત": 4073,
      "મહાર": 4074,
      "##શનલ": 4075,
      "##િસ્સો": 4076,
      "ગોલ્ડ": 4077,
      "સુરક્ષિત": 4078,
      "##વાયું": 4079,
      "તાલીમ": 4080,
      "બાબતો": 4081,
      "યુવક": 4082,
      "ઓછું": 4083,
      "ખેડૂતોને": 4084,
      "શરીરમાં": 4085,
      "આંતરરાષ્ટ્રીય": 4086,
      "આતંકવાદી": 4087,
      "ટિકિટ": 4088,
      "આઝ": 4089,
      "બરા": 4090,
      "રુ": 4091,
      "##ઝે": 4092,
      "##કોર્ટ": 4093,
      "સુધાર": 4094,
      "આવેલું": 4095,
      "સરળતા": 4096,
      "કોઈને": 4097,
      "કેટલા": 4098,
      "પહોંચાડ": 4099,
      "હજારો": 4100,
      "ડોક્ટ": 4101,
      "સૂચના": 4102,
      "##જ્જ": 4103,
      "199": 4104,
      "શ્રેણી": 4105,
      "વાસ્તવિક": 4106,
      "આક્ષેપ": 4107,
      "દાન": 4108,
      "મચી": 4109,
      "લવ": 4110,
      "##તાએ": 4111,
      "કેમે": 4112,
      "પ્રી": 4113,
      "##ડીએ": 4114,
      "લોહી": 4115,
      "##રામાં": 4116,
      "##કાશે": 4117,
      "મળવા": 4118,
      "કેટલાં": 4119,
      "રેસ્ટ": 4120,
      "નોંધપાત્ર": 4121,
      "ગોળી": 4122,
      "ખુલા": 4123,
      "આઈપી": 4124,
      "પરિણામે": 4125,
      "સંક્રમિત": 4126,
      "ઉંમર": 4127,
      "##કાંઠા": 4128,
      "એવોર્ડ": 4129,
      "ઓક્સિજન": 4130,
      "આશ્": 4131,
      "ઓપર": 4132,
      "ભાઇ": 4133,
      "##ગેટ": 4134,
      "##મિન": 4135,
      "##ધ્યા": 4136,
      "##ર્ત": 4137,
      "બેસ": 4138,
      "લાગ્યો": 4139,
      "સ્વતંત્ર": 4140,
      "કહેવા": 4141,
      "##સ્પદ": 4142,
      "રૂપિયાની": 4143,
      "વ્યવહાર": 4144,
      "હાજરી": 4145,
      "આખરે": 4146,
      "પ્રસંગે": 4147,
      "ત્વચા": 4148,
      "અં": 4149,
      "ઘરની": 4150,
      "દિલ": 4151,
      "##ટણી": 4152,
      "##િઓ": 4153,
      "સરદાર": 4154,
      "દ્વાર": 4155,
      "લેવાની": 4156,
      "સિટી": 4157,
      "સ્વચ્છ": 4158,
      "લાંબી": 4159,
      "કલાકે": 4160,
      "સૈનિક": 4161,
      "કૌભ": 4162,
      "સ્પર્ધા": 4163,
      "પ્રત્યે": 4164,
      "શારીરિક": 4165,
      "રમી": 4166,
      "વળી": 4167,
      "##ફત": 4168,
      "##લાની": 4169,
      "##ક્ષમ": 4170,
      "તમારો": 4171,
      "##સીટી": 4172,
      "##સીપી": 4173,
      "અધિકાર": 4174,
      "ચીફ": 4175,
      "ઓછો": 4176,
      "અત્યંત": 4177,
      "સંપત્તિ": 4178,
      "##ાઉન": 4179,
      "ફેસબુક": 4180,
      "કોર્પોરેશન": 4181,
      "આશ્ચર્ય": 4182,
      "અવાજ": 4183,
      "##મુખ": 4184,
      "##વર્ક": 4185,
      "##ણંદ": 4186,
      "##્રિક": 4187,
      "##ડીમાં": 4188,
      "##રેક્ટર": 4189,
      "##સીબી": 4190,
      "પુરા": 4191,
      "ટેક્": 4192,
      "##પરછ": 4193,
      "##ing": 4194,
      "મુસ્લિમ": 4195,
      "તત્વ": 4196,
      "હટ": 4197,
      "##કાવ": 4198,
      "##ધિક": 4199,
      "આવતાં": 4200,
      "##વેલ": 4201,
      "જીએસટી": 4202,
      "ખુશી": 4203,
      "વિદ્યાર્થીઓને": 4204,
      "ઓછામાં": 4205,
      "ગીત": 4206,
      "લક્ષ્મી": 4207,
      "મેસેજ": 4208,
      "45": 4209,
      "લંબ": 4210,
      "સિંગ": 4211,
      "##શાંત": 4212,
      "##ુડ": 4213,
      "##ેશભાઇ": 4214,
      "દિવસની": 4215,
      "દીકરા": 4216,
      "પગાર": 4217,
      "પરીક્ષણ": 4218,
      "વધીને": 4219,
      "વહેલી": 4220,
      "ઓક્ટોબર": 4221,
      "ધાર્": 4222,
      "નવું": 4223,
      "ફાર્": 4224,
      "ભણ": 4225,
      "ભ્ર": 4226,
      "સહે": 4227,
      "સગી": 4228,
      "##રોએ": 4229,
      "મેન": 4230,
      "સરહ": 4231,
      "##ેલું": 4232,
      "આગા": 4233,
      "દીપ": 4234,
      "બન્યો": 4235,
      "સંગી": 4236,
      "નુકશાન": 4237,
      "કાર્યક્રમમાં": 4238,
      "##શ્ચિત": 4239,
      "એક્ટિવ": 4240,
      "સુધારો": 4241,
      "સરખામણી": 4242,
      "29": 4243,
      "ડર": 4244,
      "પલ": 4245,
      "ભંડ": 4246,
      "હાં": 4247,
      "##દમાં": 4248,
      "સંજો": 4249,
      "સંસદ": 4250,
      "##ાઈમ": 4251,
      "રહેતી": 4252,
      "નોંધાવી": 4253,
      "ભાવમાં": 4254,
      "ચેત": 4255,
      "કરોડની": 4256,
      "મુદ્દા": 4257,
      "જાણીતા": 4258,
      "નહોતી": 4259,
      "ટ્વીટ": 4260,
      "હાઉસ": 4261,
      "જથ્થો": 4262,
      "ત્રણેય": 4263,
      "સુનાવણી": 4264,
      "આગાહી": 4265,
      "આના": 4266,
      "ડિપ": 4267,
      "ધોર": 4268,
      "રસો": 4269,
      "સરે": 4270,
      "##કંપ": 4271,
      "##શાળી": 4272,
      "##મસ": 4273,
      "##ઈન": 4274,
      "##વાડ": 4275,
      "વિલ": 4276,
      "જોઈને": 4277,
      "અંતર": 4278,
      "ગેસ": 4279,
      "સ્થાને": 4280,
      "સ્ટેશનમાં": 4281,
      "મહાનગર": 4282,
      "ગુણવત્તા": 4283,
      "ઓવ": 4284,
      "ફર્": 4285,
      "બુક": 4286,
      "શિક": 4287,
      "##ાએ": 4288,
      "##ઉં": 4289,
      "જેલમાં": 4290,
      "સુરેન્દ્ર": 4291,
      "##ાઇડ": 4292,
      "લોકોનો": 4293,
      "##સેસ": 4294,
      "##માની": 4295,
      "દુઃ": 4296,
      "##ાર્ટમેન્ટ": 4297,
      "અનામત": 4298,
      "વ્હ": 4299,
      "અટ": 4300,
      "ઇજા": 4301,
      "ગૂ": 4302,
      "તિ": 4303,
      "પથ્થ": 4304,
      "ભવ્ય": 4305,
      "લાવ": 4306,
      "##ચ્યુ": 4307,
      "##ત્યા": 4308,
      "##ષિક": 4309,
      "કરાયા": 4310,
      "હોઇ": 4311,
      "સાથેના": 4312,
      "વેર": 4313,
      "વ્યકિત": 4314,
      "પોલીસની": 4315,
      "સીટ": 4316,
      "શરૂઆતમાં": 4317,
      "ભાગના": 4318,
      "પાણીમાં": 4319,
      "રિલીઝ": 4320,
      "ચૂક્યા": 4321,
      "ઇતિહાસ": 4322,
      "દાદ": 4323,
      "રેટ": 4324,
      "##ષી": 4325,
      "જેમાંથી": 4326,
      "વેસ્ટ": 4327,
      "સ્ટાર": 4328,
      "લીધું": 4329,
      "લાગ્યા": 4330,
      "##ષ્ક": 4331,
      "ભાવના": 4332,
      "મામલો": 4333,
      "દિગ્": 4334,
      "##મ્બરે": 4335,
      "##ત્મક": 4336,
      "વાંચો": 4337,
      "તળાવ": 4338,
      "નિયંત્રણ": 4339,
      "બોલિવૂડ": 4340,
      "તૂ": 4341,
      "રવિ": 4342,
      "##ખે": 4343,
      "કેબ": 4344,
      "જેવું": 4345,
      "સમજી": 4346,
      "સ્પી": 4347,
      "મુક્ત": 4348,
      "ગુરૂ": 4349,
      "સેક્સ": 4350,
      "વ્યક્તિગત": 4351,
      "કમાણી": 4352,
      "કપડાં": 4353,
      "##ત્સાહ": 4354,
      "ધાર્મિક": 4355,
      "પક": 4356,
      "પેશ": 4357,
      "બાત": 4358,
      "મજા": 4359,
      "રચ": 4360,
      "વાદ": 4361,
      "##ic": 4362,
      "##ઇડ": 4363,
      "##ર્દી": 4364,
      "દેવી": 4365,
      "બનાવ્યા": 4366,
      "આપીને": 4367,
      "કમિટી": 4368,
      "રિઝ": 4369,
      "કોર્પોરે": 4370,
      "આંતરિક": 4371,
      "આગેવાનો": 4372,
      "સમર્થન": 4373,
      "વાનગી": 4374,
      "ઓલ": 4375,
      "કક્ષા": 4376,
      "ચિત્ર": 4377,
      "બ્લો": 4378,
      "હુ": 4379,
      "##ન્યા": 4380,
      "##ધરી": 4381,
      "તેવો": 4382,
      "આવ્યુ": 4383,
      "પ્રચાર": 4384,
      "##કોર્": 4385,
      "##કાને": 4386,
      "##ડાને": 4387,
      "##જીની": 4388,
      "વિકસ": 4389,
      "સ્પે": 4390,
      "ફોટા": 4391,
      "મહેન": 4392,
      "આંખો": 4393,
      "નિયમિત": 4394,
      "ક્ષેત્રમાં": 4395,
      "કિલોમીટર": 4396,
      "મૂલ્ય": 4397,
      "ઓપરેશન": 4398,
      "જર": 4399,
      "જારી": 4400,
      "જામી": 4401,
      "દસ્તા": 4402,
      "ફ્લો": 4403,
      "##લને": 4404,
      "##સ્ય": 4405,
      "માની": 4406,
      "##ન્શન": 4407,
      "સાથ": 4408,
      "##વેટ": 4409,
      "રહેવું": 4410,
      "સોંપ": 4411,
      "યોજા": 4412,
      "ઉત્તમ": 4413,
      "સ્પેશ": 4414,
      "મહત્વનું": 4415,
      "પાર્ટીના": 4416,
      "જનરલ": 4417,
      "આજથી": 4418,
      "બાંધકામ": 4419,
      "પાવર": 4420,
      "બ્લેક": 4421,
      "તકલીફ": 4422,
      "કય": 4423,
      "ઠા": 4424,
      "તણાવ": 4425,
      "##ૂમ": 4426,
      "પરવાન": 4427,
      "ઉપકરણ": 4428,
      "##લોમાં": 4429,
      "##માને": 4430,
      "બીમારી": 4431,
      "##તરના": 4432,
      "##ર્સને": 4433,
      "ગામની": 4434,
      "##ખ્યાત": 4435,
      "જેનાથી": 4436,
      "ઉત્પાદનો": 4437,
      "દસ્તાવે": 4438,
      "પરવાનગી": 4439,
      "કાગ": 4440,
      "દિને": 4441,
      "ધોની": 4442,
      "ફોર": 4443,
      "##ંખ": 4444,
      "##ણના": 4445,
      "મેઘ": 4446,
      "##દ્ધા": 4447,
      "કેસની": 4448,
      "પંથ": 4449,
      "##કર્તા": 4450,
      "મહત્ત્વ": 4451,
      "રેસ્ટોર": 4452,
      "અસ્થ": 4453,
      "આત્": 4454,
      "આર્ટ": 4455,
      "ઈન્ટ": 4456,
      "જલ": 4457,
      "જસ્ટ": 4458,
      "દરો": 4459,
      "મની": 4460,
      "વાસ": 4461,
      "૨૨": 4462,
      "##ોનો": 4463,
      "##કાત": 4464,
      "##ંટી": 4465,
      "વિટ": 4466,
      "##રાને": 4467,
      "રાજકાર": 4468,
      "મહા": 4469,
      "રહેલ": 4470,
      "ગુના": 4471,
      "##િંગમાં": 4472,
      "કંપનીના": 4473,
      "અપના": 4474,
      "અમદાવાદના": 4475,
      "પ્રોત્સાહ": 4476,
      "દોઢ": 4477,
      "કાયદો": 4478,
      "વૃદ્ધ": 4479,
      "આદિ": 4480,
      "સોમનાથ": 4481,
      "બ્રાન્ડ": 4482,
      "કમિશનર": 4483,
      "36": 4484,
      "આફ્ર": 4485,
      "કપાસ": 4486,
      "ક્રેડ": 4487,
      "ગઢ": 4488,
      "ટુક": 4489,
      "તસ્વી": 4490,
      "પાત": 4491,
      "ભરી": 4492,
      "ભંગ": 4493,
      "મૌ": 4494,
      "મરી": 4495,
      "##શિયન": 4496,
      "##લત": 4497,
      "##ુભાઈ": 4498,
      "##િષ્ઠ": 4499,
      "##બૂ": 4500,
      "##્રિયા": 4501,
      "ચાલે": 4502,
      "લાખની": 4503,
      "ટ્રક": 4504,
      "સંગ્રહ": 4505,
      "ઓનલાઇન": 4506,
      "દિશામાં": 4507,
      "ગુરુવારે": 4508,
      "મિશ્રણ": 4509,
      "ફોર્": 4510,
      "મચ": 4511,
      "રક્ષા": 4512,
      "શાન": 4513,
      "##ીન": 4514,
      "વિસ": 4515,
      "##ાઈડ": 4516,
      "રોહિત": 4517,
      "ફરાર": 4518,
      "પહોંચ્યો": 4519,
      "અમેરિકન": 4520,
      "ઉર્ફે": 4521,
      "લૂંટ": 4522,
      "પવિત્ર": 4523,
      "એપ્": 4524,
      "ચામ": 4525,
      "ઠંડી": 4526,
      "રક્ત": 4527,
      "વોલ": 4528,
      "##કન": 4529,
      "##બારી": 4530,
      "##એશન": 4531,
      "##હેબ": 4532,
      "વિરો": 4533,
      "કોમ્પ": 4534,
      "એકમ": 4535,
      "સાચ": 4536,
      "રાજા": 4537,
      "##વેર": 4538,
      "##સ્ત્રી": 4539,
      "સુધીની": 4540,
      "પડ્યા": 4541,
      "અપે": 4542,
      "અલબ": 4543,
      "ખોટી": 4544,
      "માણસો": 4545,
      "આંકડો": 4546,
      "ઘણો": 4547,
      "ઓનલાઈન": 4548,
      "ચાંદી": 4549,
      "નજરે": 4550,
      "પોરબંદર": 4551,
      "ફિટ": 4552,
      "##ટન": 4553,
      "##યલ": 4554,
      "##સ્વ": 4555,
      "વિધ": 4556,
      "##કોમાં": 4557,
      "##વીને": 4558,
      "##િવે": 4559,
      "##િટલ": 4560,
      "કાર્યકરો": 4561,
      "##ૃત્વ": 4562,
      "ભરતી": 4563,
      "સ્વાગત": 4564,
      "ટોચ": 4565,
      "##ાઉન્ડ": 4566,
      "##ાર્થના": 4567,
      "ટ્વિટ": 4568,
      "##મરાન": 4569,
      "રસીકરણ": 4570,
      "બહેન": 4571,
      "આચાર": 4572,
      "ઓર": 4573,
      "ખાંડ": 4574,
      "ચઢ": 4575,
      "પામી": 4576,
      "ફિ": 4577,
      "ફાઇ": 4578,
      "##is": 4579,
      "##ીઓ": 4580,
      "##બળ": 4581,
      "તેમાંથી": 4582,
      "આવવા": 4583,
      "##ંગા": 4584,
      "યુરો": 4585,
      "જુગાર": 4586,
      "ગ્રહ": 4587,
      "ટીમના": 4588,
      "જૂથ": 4589,
      "મારું": 4590,
      "બાળકને": 4591,
      "સાધનો": 4592,
      "ક્રેડિટ": 4593,
      "32": 4594,
      "અજય": 4595,
      "કને": 4596,
      "ચારે": 4597,
      "ફૂલ": 4598,
      "ભરે": 4599,
      "૨૩": 4600,
      "##લમ": 4601,
      "વિરાટ": 4602,
      "##ંગી": 4603,
      "હોવું": 4604,
      "##ટીવ": 4605,
      "##કાના": 4606,
      "ઉપાય": 4607,
      "પુલ": 4608,
      "સ્વસ્થ": 4609,
      "અંગ્રે": 4610,
      "પગલા": 4611,
      "##શ્વિક": 4612,
      "ખોટ": 4613,
      "બ્રિટ": 4614,
      "જઈને": 4615,
      "ડ્રાઈ": 4616,
      "વીજળી": 4617,
      "પાટીદાર": 4618,
      "તહેવાર": 4619,
      "મેનેજમેન્ટ": 4620,
      "સમીક્ષા": 4621,
      "ડુંગ": 4622,
      "સરળતાથી": 4623,
      "અહ": 4624,
      "કૈ": 4625,
      "કન્": 4626,
      "કિશ": 4627,
      "શકાશે": 4628,
      "૩૧": 4629,
      "##થિય": 4630,
      "##ર્મો": 4631,
      "વિડીયો": 4632,
      "મોઢ": 4633,
      "સંક": 4634,
      "નિમણ": 4635,
      "અનુક": 4636,
      "સીએમ": 4637,
      "બન્યું": 4638,
      "વિભાગે": 4639,
      "દોડી": 4640,
      "કુટુંબ": 4641,
      "સાંભળી": 4642,
      "કર્ણા": 4643,
      "દરવાજા": 4644,
      "આદિવાસી": 4645,
      "ઉડ": 4646,
      "બાય": 4647,
      "ભટ્ટ": 4648,
      "##કશન": 4649,
      "##ગલ": 4650,
      "કારકિ": 4651,
      "##જીભાઈ": 4652,
      "ગુસ્": 4653,
      "રાઉન્ડ": 4654,
      "##ત્વે": 4655,
      "દિલ્હીઃ": 4656,
      "મૃતદે": 4657,
      "કલ્યા": 4658,
      "પ્રિયંકા": 4659,
      "સ્તરે": 4660,
      "જ્ઞાન": 4661,
      "પૃથ્વી": 4662,
      "ઈજા": 4663,
      "નર": 4664,
      "##કેશન": 4665,
      "##om": 4666,
      "##્રેશન": 4667,
      "કરું": 4668,
      "આવ્યાં": 4669,
      "##રીની": 4670,
      "##લીપ": 4671,
      "##લેથી": 4672,
      "##તોને": 4673,
      "##્સમાં": 4674,
      "માંગે": 4675,
      "મહત્વની": 4676,
      "શહેરી": 4677,
      "પરિણામો": 4678,
      "વૈશ્વિક": 4679,
      "માગણી": 4680,
      "શબ્દો": 4681,
      "કોન્ટ્રા": 4682,
      "બરાબર": 4683,
      "સરેરાશ": 4684,
      "કર્ણાટક": 4685,
      "37": 4686,
      "આજના": 4687,
      "આખી": 4688,
      "ઘાયલ": 4689,
      "છુ": 4690,
      "જ્યો": 4691,
      "જવાની": 4692,
      "ફ્": 4693,
      "ભેટ": 4694,
      "##ત્રે": 4695,
      "જોતા": 4696,
      "સંબંધી": 4697,
      "બેન": 4698,
      "નિપજ": 4699,
      "લેશે": 4700,
      "વર્ષો": 4701,
      "રીત": 4702,
      "બનાવો": 4703,
      "મહિને": 4704,
      "રાઠ": 4705,
      "ત્યાંથી": 4706,
      "સમસ્યાઓ": 4707,
      "વૈજ્ઞાન": 4708,
      "અર્થે": 4709,
      "દુનિયામાં": 4710,
      "રસપ્રદ": 4711,
      "સ્થાપના": 4712,
      "અજાણ્યા": 4713,
      "કૌભાંડ": 4714,
      "અલબત્ત": 4715,
      "કારકિર્દી": 4716,
      "આણંદ": 4717,
      "ઉંચ": 4718,
      "ઘૂ": 4719,
      "વસ્તી": 4720,
      "##શય": 4721,
      "##લન": 4722,
      "##ગારી": 4723,
      "##તૃત્વ": 4724,
      "##જિત": 4725,
      "##્ટી": 4726,
      "પ્રાર્થના": 4727,
      "સાબર": 4728,
      "સંદેશ": 4729,
      "વધશે": 4730,
      "પડતા": 4731,
      "પેદા": 4732,
      "પ્રદેશમાં": 4733,
      "કંઇ": 4734,
      "સ્થાપિત": 4735,
      "અમેરિકામાં": 4736,
      "સંભવિત": 4737,
      "ઊભી": 4738,
      "ફા": 4739,
      "રશિયા": 4740,
      "સખ": 4741,
      "##it": 4742,
      "##સૂ": 4743,
      "##20": 4744,
      "##્રિ": 4745,
      "##વાણી": 4746,
      "છેલ્લી": 4747,
      "તેટ": 4748,
      "સાચી": 4749,
      "વધતા": 4750,
      "##ાઇઝ": 4751,
      "વીમા": 4752,
      "વાલી": 4753,
      "લાખો": 4754,
      "ટ્વિટર": 4755,
      "એન્ટ્રી": 4756,
      "ન્યૂઝ": 4757,
      "નોટિસ": 4758,
      "વિપક્ષ": 4759,
      "વહીવટી": 4760,
      "અફઘાનિસ્તા": 4761,
      "અબજ": 4762,
      "છબી": 4763,
      "ઠાક": 4764,
      "ડ્રેસ": 4765,
      "પાર્": 4766,
      "યથ": 4767,
      "ર૦": 4768,
      "રિક": 4769,
      "વડે": 4770,
      "##શક": 4771,
      "કોચ": 4772,
      "##ડીના": 4773,
      "##ત્તી": 4774,
      "##સ્ત્રો": 4775,
      "પુરી": 4776,
      "કોરોનાથી": 4777,
      "##ળીયા": 4778,
      "ગુજરાતની": 4779,
      "ભૂકંપ": 4780,
      "ફરીયા": 4781,
      "ગણેશ": 4782,
      "વિશ્વમાં": 4783,
      "બ્રહ": 4784,
      "મીડિયામાં": 4785,
      "પ્લાસ્ટિક": 4786,
      "સમાજના": 4787,
      "##ફરન્સ": 4788,
      "વિષે": 4789,
      "જાપાન": 4790,
      "મહેસાણા": 4791,
      "બાતમી": 4792,
      "મહેનત": 4793,
      "અણ": 4794,
      "આકાશ": 4795,
      "ઓટો": 4796,
      "નહ": 4797,
      "પાય": 4798,
      "હર્ષ": 4799,
      "##કડા": 4800,
      "છેતર": 4801,
      "કરાર": 4802,
      "કરાય": 4803,
      "જેવો": 4804,
      "##કાઉન્ટ": 4805,
      "સરસ": 4806,
      "હાલત": 4807,
      "પુરવ": 4808,
      "રેલ્વે": 4809,
      "અક્ષય": 4810,
      "ચડ": 4811,
      "ચિક": 4812,
      "ટિપ": 4813,
      "તારા": 4814,
      "પ્લો": 4815,
      "##ch": 4816,
      "##પિત": 4817,
      "##જૂર": 4818,
      "##વ્યા": 4819,
      "##ણાં": 4820,
      "##બાજુ": 4821,
      "કરાવવા": 4822,
      "##તાથી": 4823,
      "##ામા": 4824,
      "આવરી": 4825,
      "##યાત્ર": 4826,
      "##ાયર": 4827,
      "##લીના": 4828,
      "સાહ": 4829,
      "હોવી": 4830,
      "પોઇન્ટ": 4831,
      "સંવે": 4832,
      "##ંદન": 4833,
      "##ન્ટ્સ": 4834,
      "પીડા": 4835,
      "સીબી": 4836,
      "દેશભરમાં": 4837,
      "મોદીના": 4838,
      "ગયેલા": 4839,
      "2018": 4840,
      "બનેલા": 4841,
      "જોડાયેલા": 4842,
      "જાતે": 4843,
      "ડ્રાઇ": 4844,
      "શૂટિંગ": 4845,
      "ચેતવણી": 4846,
      "રાઠોડ": 4847,
      "કિસ": 4848,
      "કબ્": 4849,
      "ટન": 4850,
      "થવું": 4851,
      "મિસ": 4852,
      "રસ્તો": 4853,
      "##ંજન": 4854,
      "##તરો": 4855,
      "##વાડા": 4856,
      "પ્રમો": 4857,
      "##ેશ્વર": 4858,
      "જોડાયા": 4859,
      "##ાગત": 4860,
      "યુનિ": 4861,
      "દુકાનો": 4862,
      "એટલી": 4863,
      "બનવા": 4864,
      "ગાંધીએ": 4865,
      "2017": 4866,
      "ચર્ચામાં": 4867,
      "પુસ્તક": 4868,
      "પ્રોડક્ટ": 4869,
      "નેટવર્ક": 4870,
      "સંશોધન": 4871,
      "પર્યાવ": 4872,
      "એન્જિન": 4873,
      "શાનદાર": 4874,
      "ઉતર": 4875,
      "લિસ્ટ": 4876,
      "##નિયર": 4877,
      "##le": 4878,
      "##સણ": 4879,
      "##િયાણા": 4880,
      "સુશાંત": 4881,
      "બેંગ": 4882,
      "ટેકનો": 4883,
      "મૂર્તિ": 4884,
      "અંદાજે": 4885,
      "દવાઓ": 4886,
      "શિવસેના": 4887,
      "રાજ્યોમાં": 4888,
      "કાલે": 4889,
      "કોંગ્રેસે": 4890,
      "કટ": 4891,
      "દાય": 4892,
      "રાય": 4893,
      "લહેર": 4894,
      "સક્ષમ": 4895,
      "હથિય": 4896,
      "##નિસ": 4897,
      "##જને": 4898,
      "##એચ": 4899,
      "##વાયા": 4900,
      "##લીન": 4901,
      "એકત્ર": 4902,
      "##્યોર": 4903,
      "##જીના": 4904,
      "દેશો": 4905,
      "મુખ્યત્વે": 4906,
      "ભૂલી": 4907,
      "વિસ્તારના": 4908,
      "જરૂરિયા": 4909,
      "પ્લાન": 4910,
      "વ્યાપ": 4911,
      "##લાયન્સ": 4912,
      "મૂકવામાં": 4913,
      "નારાજ": 4914,
      "ઉત્સાહ": 4915,
      ".)": 4916,
      "70": 4917,
      "અમી": 4918,
      "ઊભા": 4919,
      "કલ્પ": 4920,
      "##હત્યા": 4921,
      "##ષિત": 4922,
      "તેનાં": 4923,
      "વિજે": 4924,
      "##ાણે": 4925,
      "પોર્ટ": 4926,
      "સમૃ": 4927,
      "આપણને": 4928,
      "તોડ": 4929,
      "##સીના": 4930,
      "નિશાન": 4931,
      "નીચ": 4932,
      "રાખવી": 4933,
      "ચૂકી": 4934,
      "રેલી": 4935,
      "પરિવર્તન": 4936,
      "સહયોગ": 4937,
      "બચાવવા": 4938,
      "ઘણું": 4939,
      "##કર્મી": 4940,
      "હિંમત": 4941,
      "તબીબી": 4942,
      "પ્રતિક્રિયા": 4943,
      "ચૌહાણ": 4944,
      "સોલંકી": 4945,
      "સંકેત": 4946,
      "વાવાઝો": 4947,
      "ભ્રષ્ટ": 4948,
      "સંજોગ": 4949,
      "દિનેશ": 4950,
      "કમ્પ": 4951,
      "બાપ": 4952,
      "લૉ": 4953,
      "૩૫": 4954,
      "##ોનું": 4955,
      "##નક": 4956,
      "##ચંદ": 4957,
      "માટી": 4958,
      "પ્રાપ": 4959,
      "##િત્ય": 4960,
      "##ડીંગ": 4961,
      "##કાની": 4962,
      "નિધન": 4963,
      "બીજે": 4964,
      "ટીમો": 4965,
      "રૂપે": 4966,
      "વાયુ": 4967,
      "પરિવારજનો": 4968,
      "સેવાઓ": 4969,
      "વરિષ્ઠ": 4970,
      ").": 4971,
      "અંધ": 4972,
      "ઉત": 4973,
      "ગીર": 4974,
      "ચાવ": 4975,
      "ઠીક": 4976,
      "ડિવ": 4977,
      "##ંશ": 4978,
      "##સને": 4979,
      "##ધર": 4980,
      "આવનાર": 4981,
      "પ્રદ": 4982,
      "હોવ": 4983,
      "##ંદા": 4984,
      "કોરોનાને": 4985,
      "જણાવે": 4986,
      "દિવસના": 4987,
      "પાકિસ્તાનના": 4988,
      "નજીકના": 4989,
      "નાખી": 4990,
      "પરેશાન": 4991,
      "નાયબ": 4992,
      "સંગીત": 4993,
      "જામીન": 4994,
      "ડુંગળી": 4995,
      "કિશોર": 4996,
      "કલ્યાણ": 4997,
      "ટેકનોલોજી": 4998,
      "80": 4999,
      "આમાં": 5000,
      "તકે": 5001,
      "રાં": 5002,
      "##દાયક": 5003,
      "##્યલ": 5004,
      "છેલ્": 5005,
      "માને": 5006,
      "કોશ": 5007,
      "સાથી": 5008,
      "સ્કી": 5009,
      "મોક": 5010,
      "આપવાનું": 5011,
      "##ટીંગ": 5012,
      "યુપી": 5013,
      "બનાસ": 5014,
      "સ્ટી": 5015,
      "નેતૃત્વ": 5016,
      "કરોડના": 5017,
      "રોકવા": 5018,
      "##પુરમાં": 5019,
      "વ્યાપક": 5020,
      "ગ્રાહકોને": 5021,
      "દિશા": 5022,
      "ડાન્સ": 5023,
      "થોડું": 5024,
      "ચકાસ": 5025,
      "યાદીમાં": 5026,
      "બીજું": 5027,
      "##્યાલય": 5028,
      "મર્યાદા": 5029,
      "ઉતાર": 5030,
      "ઓડ": 5031,
      "ખંડ": 5032,
      "ઘેર": 5033,
      "બપોર": 5034,
      "રુપ": 5035,
      "સસ્પે": 5036,
      "૨૬": 5037,
      "##કતમાં": 5038,
      "##લિંગ": 5039,
      "##ol": 5040,
      "##ad": 5041,
      "##િષ્ટ": 5042,
      "##ફતે": 5043,
      "##નોને": 5044,
      "##ાસા": 5045,
      "કારો": 5046,
      "વર્ણ": 5047,
      "થઈને": 5048,
      "પડતી": 5049,
      "##રસિંહ": 5050,
      "લગાવ": 5051,
      "કાર્યરત": 5052,
      "બોલાવ": 5053,
      "ભાજપે": 5054,
      "ગઈકાલે": 5055,
      "ઘણીવાર": 5056,
      "મુદ્દો": 5057,
      "નિષ્ફળ": 5058,
      "આત્મહત્યા": 5059,
      "ચહેરા": 5060,
      "અંબાણી": 5061,
      "ઉદ્": 5062,
      "ક્": 5063,
      "ઘરના": 5064,
      "જવું": 5065,
      "બચ્ચ": 5066,
      "##ોત્સવ": 5067,
      "##દની": 5068,
      "##દામ": 5069,
      "##યન": 5070,
      "##વાયો": 5071,
      "રોષ": 5072,
      "નાશ": 5073,
      "યુઝ": 5074,
      "રૂમમાં": 5075,
      "છોકરા": 5076,
      "પેપર": 5077,
      "##ગ્રસ્ત": 5078,
      "##ચીન": 5079,
      "પરિષ": 5080,
      "અધિકારીએ": 5081,
      "ભાષા": 5082,
      "શરૃ": 5083,
      "ચુકાદ": 5084,
      "હાઇવે": 5085,
      "ત્રીજી": 5086,
      "થોડો": 5087,
      "##ાગ્રામ": 5088,
      "મંદિરમાં": 5089,
      "યુનિટ": 5090,
      "34": 5091,
      "75": 5092,
      "અશો": 5093,
      "ટાઇ": 5094,
      "ઠેર": 5095,
      "દૈ": 5096,
      "પિ": 5097,
      "વાવ": 5098,
      "શાખ": 5099,
      "૨૮": 5100,
      "##કૃ": 5101,
      "##સિસ": 5102,
      "##ઠે": 5103,
      "કેપ": 5104,
      "માફ": 5105,
      "વર્ક": 5106,
      "સ્વય": 5107,
      "બનાવવાની": 5108,
      "##000": 5109,
      "દર્દીઓની": 5110,
      "આમંત્ર": 5111,
      "કૃષ્ણ": 5112,
      "ગુમાવી": 5113,
      "##ati": 5114,
      "વાર્ષિક": 5115,
      "શિકાર": 5116,
      "અપેક્ષા": 5117,
      "ઇન્ટર": 5118,
      "છુપ": 5119,
      "ધ્ર": 5120,
      "શાંત": 5121,
      "##ંસા": 5122,
      "##સારી": 5123,
      "પોપ": 5124,
      "સંકટ": 5125,
      "##ંદગી": 5126,
      "ઉપચાર": 5127,
      "સરપંચ": 5128,
      "##્યુટર": 5129,
      "પુછ": 5130,
      "નોંધનીય": 5131,
      "ક્રિયા": 5132,
      "ચીનના": 5133,
      "પ્રોગ્રામ": 5134,
      "મહેતા": 5135,
      "પેટા": 5136,
      "સંબંધો": 5137,
      "વ્યાજ": 5138,
      "પત્રકાર": 5139,
      "નહોતો": 5140,
      "ભીડ": 5141,
      "બાકીના": 5142,
      "બ્લડ": 5143,
      "શામેલ": 5144,
      "વિરોધી": 5145,
      "90": 5146,
      "ગું": 5147,
      "ચર": 5148,
      "ત્યા": 5149,
      "થતું": 5150,
      "ફૂડ": 5151,
      "લાવવા": 5152,
      "સાજા": 5153,
      "##કતા": 5154,
      "##કતો": 5155,
      "##હાજ": 5156,
      "##વ્યો": 5157,
      "##ફોર્": 5158,
      "##ર્ચે": 5159,
      "પરના": 5160,
      "મુકી": 5161,
      "રોલ": 5162,
      "નિદાન": 5163,
      "સ્થિર": 5164,
      "પોલીસના": 5165,
      "ભારતને": 5166,
      "ઉપયોગમાં": 5167,
      "જરૂરિયાત": 5168,
      "જૂની": 5169,
      "દર્દીઓને": 5170,
      "શાહે": 5171,
      "બનેલી": 5172,
      "નિર્દેશ": 5173,
      "વહેંચ": 5174,
      "ગ્રાહકો": 5175,
      "સત્તાવાર": 5176,
      "વ્હી": 5177,
      "ઇચ્છા": 5178,
      "રિસર્ચ": 5179,
      "રજિસ્ટ": 5180,
      "ખુલાસો": 5181,
      "પર્યાવરણ": 5182,
      "ઊંઘ": 5183,
      "કન્ટે": 5184,
      "ટા": 5185,
      "નર્સ": 5186,
      "ભરૂ": 5187,
      "સન": 5188,
      "##દાસ": 5189,
      "##ર્વાદ": 5190,
      "##જીવન": 5191,
      "##લોડ": 5192,
      "##લોની": 5193,
      "##્યુટી": 5194,
      "રૂા": 5195,
      "પુરૂ": 5196,
      "પહેલેથી": 5197,
      "કામો": 5198,
      "લીલા": 5199,
      "સીધા": 5200,
      "ડિસ્ટ": 5201,
      "##૦૦૦": 5202,
      "મારફતે": 5203,
      "વરસાદની": 5204,
      "ભેગા": 5205,
      "ગર્ભ": 5206,
      "નાંખ": 5207,
      "સંગઠન": 5208,
      "બતાવી": 5209,
      "જોરદાર": 5210,
      "વિરૂદ્ધ": 5211,
      "સંસ્કૃતિ": 5212,
      "અંજ": 5213,
      "આશી": 5214,
      "ઘા": 5215,
      "ચલાવી": 5216,
      "ઝઘ": 5217,
      "ફુ": 5218,
      "બાયો": 5219,
      "મનુ": 5220,
      "લિમ": 5221,
      "૬૦": 5222,
      "##ગ્ન": 5223,
      "##મહ": 5224,
      "##ov": 5225,
      "##ેન્દ્ર": 5226,
      "##િસર": 5227,
      "##નીતિ": 5228,
      "કરાઇ": 5229,
      "કેના": 5230,
      "##સ્ફો": 5231,
      "સમાપ્ત": 5232,
      "દેશોમાં": 5233,
      "તપાસમાં": 5234,
      "એસટી": 5235,
      "વૃદ્ધિ": 5236,
      "દર્શાવે": 5237,
      "આસપાસના": 5238,
      "સંઘર્ષ": 5239,
      "જાળવી": 5240,
      "સમુદ્ર": 5241,
      "કોન્ફરન્સ": 5242,
      "કેટલાંક": 5243,
      "દુઃખ": 5244,
      "તત્": 5245,
      "##ચાર્જ": 5246,
      "##વીર": 5247,
      "મોટે": 5248,
      "બેગ": 5249,
      "જાે": 5250,
      "હાલતમાં": 5251,
      "ખુલ્લા": 5252,
      "પરિવારમાં": 5253,
      "અરવિંદ": 5254,
      "પ્રયાસો": 5255,
      "પૂછપરછ": 5256,
      "ટૂંકા": 5257,
      "મનોજ": 5258,
      "##તિહાસિક": 5259,
      "ગૌરવ": 5260,
      "હિંસા": 5261,
      "પ્લેટફોર્મ": 5262,
      "સુરેન્દ્રનગર": 5263,
      "ચું": 5264,
      "દંપ": 5265,
      "ફ્લે": 5266,
      "વાવે": 5267,
      "હનુ": 5268,
      "##લક": 5269,
      "##તને": 5270,
      "##ઘુ": 5271,
      "##જમાં": 5272,
      "##ારમાં": 5273,
      "##ર્કમાં": 5274,
      "##સીએ": 5275,
      "##ારોહ": 5276,
      "પડકાર": 5277,
      "છોટા": 5278,
      "ત્રાસ": 5279,
      "ચાલો": 5280,
      "એમની": 5281,
      "પગલું": 5282,
      "ઉમેરો": 5283,
      "હિંદુ": 5284,
      "કૃપા": 5285,
      "એન્ટી": 5286,
      "કાશ્મીર": 5287,
      "સચિવ": 5288,
      "પ્રારંભિક": 5289,
      "પુનઃ": 5290,
      "કંટ્રોલ": 5291,
      "બાઈક": 5292,
      "કેબિને": 5293,
      "વિટામ": 5294,
      "અયો": 5295,
      "##ટિલ": 5296,
      "##am": 5297,
      "##et": 5298,
      "##સુખ": 5299,
      "##પથ": 5300,
      "##પરા": 5301,
      "આવતો": 5302,
      "##ાનુ": 5303,
      "સાહેબ": 5304,
      "##સીની": 5305,
      "##ટોક": 5306,
      "ઘટનાસ્થ": 5307,
      "ટીમને": 5308,
      "અદાલ": 5309,
      "મહત્તમ": 5310,
      "સમુદ": 5311,
      "મીઠું": 5312,
      "મૃતદેહ": 5313,
      "વિજેતા": 5314,
      "અશોક": 5315,
      ".'": 5316,
      "અશ્વ": 5317,
      "ઇંચ": 5318,
      "ઈન": 5319,
      "ટર્મ": 5320,
      "ઠંડ": 5321,
      "સળ": 5322,
      "૨૯": 5323,
      "##નનું": 5324,
      "##રાદ": 5325,
      "##ણની": 5326,
      "જોડી": 5327,
      "રાજધાની": 5328,
      "રાખવું": 5329,
      "રાખવાની": 5330,
      "ક્રમે": 5331,
      "ક્રાઇમ": 5332,
      "ભાવે": 5333,
      "ખેડુ": 5334,
      "શખ્સો": 5335,
      "મુસાફરી": 5336,
      "પ્રતિનિધિ": 5337,
      "અવાર": 5338,
      "આહાર": 5339,
      "ગેટ": 5340,
      "ગોલ": 5341,
      "બધ": 5342,
      "બિર": 5343,
      "લુ": 5344,
      "સજ્જ": 5345,
      "##મને": 5346,
      "##પણી": 5347,
      "##િટેડ": 5348,
      "##ફળી": 5349,
      "##તાન": 5350,
      "સામાન": 5351,
      "પાડે": 5352,
      "વર્ષનો": 5353,
      "##મ્પ્": 5354,
      "સુધીના": 5355,
      "પાણીના": 5356,
      "રિલાયન્સ": 5357,
      "શહેરની": 5358,
      "પરીક્ષ": 5359,
      "પૂરતી": 5360,
      "ગ્રાહક": 5361,
      "મંત્રાલયે": 5362,
      "##ઠ્ઠી": 5363,
      "ગ્રાઉન્ડ": 5364,
      "33": 5365,
      "કઠ": 5366,
      "ડૂ": 5367,
      "ફ્લ": 5368,
      "##પેટ": 5369,
      "##ડું": 5370,
      "##ઠો": 5371,
      "માછ": 5372,
      "##લાના": 5373,
      "##ેશને": 5374,
      "##િયાના": 5375,
      "આપઘાત": 5376,
      "બેં": 5377,
      "વધતી": 5378,
      "##ાહો": 5379,
      "માંગી": 5380,
      "##સાડ": 5381,
      "##િલના": 5382,
      "થયાં": 5383,
      "ભાજપને": 5384,
      "પરિવારને": 5385,
      "બાળકોના": 5386,
      "કાયદેસર": 5387,
      "નવરાત": 5388,
      "સાવચે": 5389,
      "વધારવા": 5390,
      "વાર્તા": 5391,
      "માધ્યમથી": 5392,
      "આને": 5393,
      "ઐતિહાસિક": 5394,
      "કુમ": 5395,
      "##દ્રા": 5396,
      "##el": 5397,
      "આવનારા": 5398,
      "પ્રસ્તા": 5399,
      "પ્રવાહી": 5400,
      "પોઈ": 5401,
      "##ંદી": 5402,
      "##ણીય": 5403,
      "રહેતો": 5404,
      "લેવી": 5405,
      "વર્ષોથી": 5406,
      "સેવન": 5407,
      "લીંબ": 5408,
      "ગોળ": 5409,
      "ગોંડ": 5410,
      "ડિજ": 5411,
      "પરિવારો": 5412,
      "મોદીની": 5413,
      "તૈયારીઓ": 5414,
      "માર્યા": 5415,
      "શહેરોમાં": 5416,
      "પ્રસિ": 5417,
      "અધિકારીઓએ": 5418,
      "અગત્ય": 5419,
      "તૂટી": 5420,
      "##દામાલ": 5421,
      "હનુમાન": 5422,
      "અયોધ્યા": 5423,
      "આર્ક": 5424,
      "ગ્લો": 5425,
      "છાપ": 5426,
      "પિત": 5427,
      "વેલ": 5428,
      "##કાજ": 5429,
      "##મંડ": 5430,
      "##જરી": 5431,
      "##ળની": 5432,
      "##કોનો": 5433,
      "##કાર્": 5434,
      "##વારના": 5435,
      "લાગશે": 5436,
      "રેખા": 5437,
      "ડેરી": 5438,
      "માંગો": 5439,
      "સહન": 5440,
      "ધ્યાને": 5441,
      "ટોપ": 5442,
      "##ર્ડર": 5443,
      "નિર્ધાર": 5444,
      "૨૦૧૯": 5445,
      "ખેલાડીઓ": 5446,
      "મિલિયન": 5447,
      "સંચાલન": 5448,
      "પ્રભાવિત": 5449,
      "બાઇક": 5450,
      "ડ્રગ્સ": 5451,
      "મશીન": 5452,
      "મહારાજ": 5453,
      "પુરાવા": 5454,
      "ટેક્નો": 5455,
      "એપ્લિક": 5456,
      "કવિ": 5457,
      "કંગના": 5458,
      "ખર્ચે": 5459,
      "છતા": 5460,
      "સત્ર": 5461,
      "સભા": 5462,
      "૨૭": 5463,
      "##લનો": 5464,
      "##ગ્લા": 5465,
      "##છે": 5466,
      "માફી": 5467,
      "સાહિત": 5468,
      "આવીને": 5469,
      "નિમિત": 5470,
      "વ્યસ્ત": 5471,
      "શકશો": 5472,
      "થયુ": 5473,
      "વિસ્તારો": 5474,
      "એમના": 5475,
      "લાખથી": 5476,
      "ઓફિસર": 5477,
      "સ્ક્રી": 5478,
      "ગેંગ": 5479,
      "પ્રદેશના": 5480,
      "ઇન્ડસ્ટ્રી": 5481,
      "અર્જુ": 5482,
      "મોડેલ": 5483,
      "મહારાષ્ટ્રમાં": 5484,
      "સુધારા": 5485,
      "ખસેડવામાં": 5486,
      "સંબોધ": 5487,
      "માન્યતા": 5488,
      "ગેરકાયદેસર": 5489,
      "અબ્": 5490,
      "એટી": 5491,
      "કિન": 5492,
      "ખેલ": 5493,
      "ગમ": 5494,
      "ગાર્ડ": 5495,
      "દિન": 5496,
      "દિપ": 5497,
      "ધુ": 5498,
      "બિમ": 5499,
      "લિટર": 5500,
      "વૉ": 5501,
      "##શિપ": 5502,
      "##os": 5503,
      "જેનું": 5504,
      "##ડીઓ": 5505,
      "##િયત": 5506,
      "##સીબ": 5507,
      "##મીએ": 5508,
      "પૂરો": 5509,
      "પૂરા": 5510,
      "દુષ્ટ": 5511,
      "##પ્શન": 5512,
      "ચાલતી": 5513,
      "બેઠા": 5514,
      "હોસ્પિટલના": 5515,
      "સફાઈ": 5516,
      "આગળની": 5517,
      "યાદવ": 5518,
      "નવસારી": 5519,
      "સુરતના": 5520,
      "ક્ષેત્રે": 5521,
      "##શિષ્ટ": 5522,
      "વિચારી": 5523,
      "એક્સપ": 5524,
      "કર્મચારીઓને": 5525,
      "પશુપાલ": 5526,
      "સંજોગોમાં": 5527,
      "ઈંચ": 5528,
      "એસ્ટ": 5529,
      "ફાઇન": 5530,
      "મહી": 5531,
      "લાવી": 5532,
      "શહી": 5533,
      "##ટને": 5534,
      "##ટિક": 5535,
      "##રાગત": 5536,
      "##સન્સ": 5537,
      "##િશ્": 5538,
      "##ઘા": 5539,
      "##જવ": 5540,
      "##ૂન": 5541,
      "##વાલા": 5542,
      "કેશ": 5543,
      "માગે": 5544,
      "##લાત": 5545,
      "કરીશ": 5546,
      "હોલ": 5547,
      "આપને": 5548,
      "કારમાં": 5549,
      "નિરા": 5550,
      "યુએસ": 5551,
      "ટેક": 5552,
      "અપહરણ": 5553,
      "ખાતા": 5554,
      "મામલત": 5555,
      "જેટલો": 5556,
      "ભાષ": 5557,
      "પક્ષના": 5558,
      "અત્રે": 5559,
      "સુવિધાઓ": 5560,
      "બળાત્": 5561,
      "ઊંચી": 5562,
      "વળતર": 5563,
      "સવારથી": 5564,
      "પ્રોત્સાહન": 5565,
      "આલ્": 5566,
      "ખાઈ": 5567,
      "ડાં": 5568,
      "પત": 5569,
      "ફાં": 5570,
      "ફાઉન્ડ": 5571,
      "રિયા": 5572,
      "હલ": 5573,
      "હસ્તે": 5574,
      "૩૭": 5575,
      "૭૦": 5576,
      "##જાગ્ર": 5577,
      "માઈ": 5578,
      "પ્રયોગ": 5579,
      "પ્રભુ": 5580,
      "પ્રવાહ": 5581,
      "જેણે": 5582,
      "માટેનો": 5583,
      "સંર": 5584,
      "##ાઈટ": 5585,
      "##જીવ": 5586,
      "રાજી": 5587,
      "વેગ": 5588,
      "પડ્યું": 5589,
      "સ્ટ્ર": 5590,
      "શક્યા": 5591,
      "##િપલ": 5592,
      "##ૃતિક": 5593,
      "ડેમ": 5594,
      "ઘટનાઓ": 5595,
      "સફર": 5596,
      "શુદ્ધ": 5597,
      "મહત્વના": 5598,
      "હજારથી": 5599,
      "અધિકારીઓને": 5600,
      "મુકેશ": 5601,
      "મેડલ": 5602,
      "શૈક્ષણિક": 5603,
      "મગફળી": 5604,
      "તેજસ્વી": 5605,
      "પ્રગતિ": 5606,
      "વિનંતી": 5607,
      "ફ્લાઇ": 5608,
      "દૈનિક": 5609,
      "સાહિત્ય": 5610,
      "અબ": 5611,
      "ઇસ": 5612,
      "ઔષ": 5613,
      "કથ": 5614,
      "કન્યા": 5615,
      "મનમાં": 5616,
      "સપોર્ટ": 5617,
      "હિસ્સો": 5618,
      "૪૫": 5619,
      "##il": 5620,
      "આપવાનો": 5621,
      "##રૂમ": 5622,
      "લોકોનું": 5623,
      "બોક્સ": 5624,
      "દુખ": 5625,
      "દુષ્ક": 5626,
      "ચેનલ": 5627,
      "ચીની": 5628,
      "લાશ": 5629,
      "બિગ": 5630,
      "ત્યારથી": 5631,
      "ગ્રામજનો": 5632,
      "અસામ": 5633,
      "શોધવા": 5634,
      "##લ્ટી": 5635,
      "વલણ": 5636,
      "ભૂતપૂર્વ": 5637,
      "મેટ્રો": 5638,
      "સંતોષ": 5639,
      "સખત": 5640,
      "પ્રસ્તાવ": 5641,
      "38": 5642,
      "આંચ": 5643,
      "આખો": 5644,
      "કથા": 5645,
      "જલ્": 5646,
      "ડબલ": 5647,
      "##નારો": 5648,
      "##હુ": 5649,
      "##ઝિક": 5650,
      "##સાદ": 5651,
      "##us": 5652,
      "##ારના": 5653,
      "##નોની": 5654,
      "પ્રભ": 5655,
      "સ્કે": 5656,
      "સિલ": 5657,
      "દેવું": 5658,
      "સીસીટી": 5659,
      "લગાવ્યો": 5660,
      "ઉપરથી": 5661,
      "જાઓ": 5662,
      "##ર્સની": 5663,
      "નોંધણી": 5664,
      "ચાલક": 5665,
      "એમણે": 5666,
      "##બાની": 5667,
      "સહકાર": 5668,
      "શ્રીલ": 5669,
      "ગણવામાં": 5670,
      "શિક્ષકો": 5671,
      "કપડા": 5672,
      "અવસાન": 5673,
      "##ફ્ટી": 5674,
      "નદીમાં": 5675,
      "ડૉક્ટર": 5676,
      "નીતિન": 5677,
      "તબક્કામાં": 5678,
      "પ્રશંસા": 5679,
      "ધરાવતી": 5680,
      "ખુલ": 5681,
      "જટિલ": 5682,
      "થવાના": 5683,
      "દલી": 5684,
      "દાંત": 5685,
      "##નમ": 5686,
      "##શલ": 5687,
      "##જન્સી": 5688,
      "##બિ": 5689,
      "પ્રક": 5690,
      "બેસ્ટ": 5691,
      "##કાર્ડ": 5692,
      "##ડાઓ": 5693,
      "રહેવાની": 5694,
      "જણાવવામાં": 5695,
      "બોલાવી": 5696,
      "પેનલ": 5697,
      "ભાજપની": 5698,
      "એમને": 5699,
      "ફિલ્મના": 5700,
      "શિક્ષક": 5701,
      "કાયમી": 5702,
      "રંગો": 5703,
      "##જ્ઞા": 5704,
      "રોગચ": 5705,
      "સપ્લાય": 5706,
      "##ઝીલેન્ડ": 5707,
      "હકીકતમાં": 5708,
      "પરંપરાગત": 5709,
      "જોગવાઈ": 5710,
      "સાઉથ": 5711,
      "યોજાશે": 5712,
      "આચાર્ય": 5713,
      "આશીર્વાદ": 5714,
      "વાવેતર": 5715,
      "માછલી": 5716,
      "##જાગ્રસ્ત": 5717,
      "દુષ્કર્મ": 5718,
      "સીસીટીવી": 5719,
      "ઉભ": 5720,
      "કસર": 5721,
      "જતો": 5722,
      "ઝાડ": 5723,
      "દાહો": 5724,
      "ધ્વ": 5725,
      "નક": 5726,
      "બાપુ": 5727,
      "લાય": 5728,
      "હરી": 5729,
      "##્તિ": 5730,
      "##દિવ": 5731,
      "##ફ્રે": 5732,
      "વિશિષ્ટ": 5733,
      "##ક્તા": 5734,
      "##િયાની": 5735,
      "સમારોહ": 5736,
      "##ાગર": 5737,
      "##ાદુ": 5738,
      "બેટિંગ": 5739,
      "મેક": 5740,
      "રહો": 5741,
      "રહ્યુ": 5742,
      "ગુપ્ત": 5743,
      "##િંગ્સ": 5744,
      "વેચી": 5745,
      "##ન્સની": 5746,
      "સીઝ": 5747,
      "ચોંક": 5748,
      "હેન્ડ": 5749,
      "રાજ્યની": 5750,
      "##બ્લિક": 5751,
      "રાજકોટના": 5752,
      "મહેશ": 5753,
      "મૃતક": 5754,
      "લખી": 5755,
      "મહિનાથી": 5756,
      "રાતે": 5757,
      "રાત્રી": 5758,
      "કોર્ટના": 5759,
      "મધ્યમ": 5760,
      "મધ્યપ્રદેશ": 5761,
      "કલેક્ટર": 5762,
      "મિલકત": 5763,
      "મેનેજર": 5764,
      "ચમચી": 5765,
      "વાઘેલા": 5766,
      "મહાનગરપાલિકા": 5767,
      "ઓવરમાં": 5768,
      "ઈન્ટરને": 5769,
      "\",": 5770,
      "ઉલ્લ": 5771,
      "ડાઉન": 5772,
      "તને": 5773,
      "નુ": 5774,
      "યાર્ડ": 5775,
      "રશિયન": 5776,
      "સંતુ": 5777,
      "##નસ": 5778,
      "##ાબ": 5779,
      "##દ્યોગ": 5780,
      "##લબ": 5781,
      "##પ્સ": 5782,
      "##તક": 5783,
      "##ર્ના": 5784,
      "##લ્પો": 5785,
      "##ડીની": 5786,
      "બેક": 5787,
      "મળેલી": 5788,
      "નીપજ": 5789,
      "ચોથા": 5790,
      "ત્રિવે": 5791,
      "માનવું": 5792,
      "કરોડો": 5793,
      "ખાને": 5794,
      "જેમણે": 5795,
      "ભરવા": 5796,
      "##િનેશન": 5797,
      "2014": 5798,
      "દોરી": 5799,
      "મિશન": 5800,
      "બાંગ્લા": 5801,
      "સમાધાન": 5802,
      "નાગરિકો": 5803,
      "હળવા": 5804,
      "પ્રયત્નો": 5805,
      "ઘટીને": 5806,
      "ફટકારી": 5807,
      "ડીઝલ": 5808,
      "39": 5809,
      "જપ્ત": 5810,
      "ટક્કર": 5811,
      "દઇ": 5812,
      "દલિત": 5813,
      "બાલ": 5814,
      "ભરો": 5815,
      "મચ્છ": 5816,
      "##કેશ": 5817,
      "##પદ": 5818,
      "પ્રાઇ": 5819,
      "##રીંગ": 5820,
      "##ક્તો": 5821,
      "##લીક": 5822,
      "સાધન": 5823,
      "##સીસી": 5824,
      "સોફ્ટ": 5825,
      "લગાવવામાં": 5826,
      "##ગ્રહ": 5827,
      "ટકાનો": 5828,
      "ડોક્ટર": 5829,
      "પ્રતિષ્ઠ": 5830,
      "માંગતા": 5831,
      "જગ્યાઓ": 5832,
      "વીડિયોમાં": 5833,
      "સંપર્કમાં": 5834,
      "પાડવા": 5835,
      "મુંબઈમાં": 5836,
      "સલામતી": 5837,
      "સંસ્થાઓ": 5838,
      "શ્રદ્ધ": 5839,
      "વિધાનસભાની": 5840,
      "વેબસ": 5841,
      "રિઝર્વ": 5842,
      "ભ્રષ્ટા": 5843,
      "ઘટનાસ્થળે": 5844,
      "in": 5845,
      "અસ્ત": 5846,
      "ખતરો": 5847,
      "ગ્લા": 5848,
      "છુટ": 5849,
      "ડ્રો": 5850,
      "તદ્": 5851,
      "નકારાત્મક": 5852,
      "પર્": 5853,
      "મમતા": 5854,
      "##રનો": 5855,
      "##ેક્સ": 5856,
      "##ેચ્છ": 5857,
      "##ur": 5858,
      "માસિક": 5859,
      "##ડાએ": 5860,
      "મેયર": 5861,
      "ઉપા": 5862,
      "રહેવાસી": 5863,
      "##પીએ": 5864,
      "લેવાય": 5865,
      "રાખ્યો": 5866,
      "##ન્દ્રા": 5867,
      "કોરોનાનો": 5868,
      "સીધી": 5869,
      "યોગી": 5870,
      "##સ્પતિ": 5871,
      "પહોંચે": 5872,
      "હાલના": 5873,
      "ઘટનાની": 5874,
      "કોઇપણ": 5875,
      "ટ્રેડ": 5876,
      "હરિયાણા": 5877,
      "કલાકાર": 5878,
      "પૂરું": 5879,
      "મનોર": 5880,
      "મથકે": 5881,
      "##િગેડ": 5882,
      "ફિલ્મોમાં": 5883,
      "ફટકાર": 5884,
      "શકીએ": 5885,
      "પ્રેરણા": 5886,
      "જુનાગઢ": 5887,
      "કેમેરા": 5888,
      "જ્યોતિ": 5889,
      "ભરૂચ": 5890,
      "અછ": 5891,
      "આક્રમ": 5892,
      "ઈતિહાસ": 5893,
      "ચક્ર": 5894,
      "મસ્": 5895,
      "રિટ": 5896,
      "શાળામાં": 5897,
      "##મય": 5898,
      "##ુઓ": 5899,
      "##ુના": 5900,
      "##પાન": 5901,
      "##ઘટના": 5902,
      "##વલ્લી": 5903,
      "##ૂં": 5904,
      "##uj": 5905,
      "કેદી": 5906,
      "##લીયા": 5907,
      "સાડા": 5908,
      "કરીના": 5909,
      "##ંદુર": 5910,
      "રાજુ": 5911,
      "આવેદન": 5912,
      "અનિ": 5913,
      "અનિલ": 5914,
      "સિરીઝ": 5915,
      "પુષ્": 5916,
      "અથડ": 5917,
      "##ળાની": 5918,
      "ખુદ": 5919,
      "ચેમ્પ": 5920,
      "વ્યક્તિએ": 5921,
      "પરિવારની": 5922,
      "વરસાદી": 5923,
      "વિભાગની": 5924,
      "બાંધી": 5925,
      "એક્ટ્રેસ": 5926,
      "હાઈવે": 5927,
      "વાંચવા": 5928,
      "અડધા": 5929,
      "##દનશીલ": 5930,
      "સ્ત્રીઓ": 5931,
      "અનુભવી": 5932,
      "કારણોસર": 5933,
      "##ાદેવ": 5934,
      "રાંધ": 5935,
      "બળાત્કાર": 5936,
      "PM": 5937,
      "આંધ": 5938,
      "ઇંગ્લેન્ડ": 5939,
      "ગણા": 5940,
      "ચેટ": 5941,
      "દયા": 5942,
      "રમા": 5943,
      "રવાના": 5944,
      "લાઇન": 5945,
      "##ોટ": 5946,
      "##ST": 5947,
      "કરાયેલા": 5948,
      "પ્રસાર": 5949,
      "વિસ્ફો": 5950,
      "જોયા": 5951,
      "##િયામાં": 5952,
      "આપવી": 5953,
      "મુકા": 5954,
      "##ત્તમ": 5955,
      "##જીને": 5956,
      "સુધીનો": 5957,
      "સિને": 5958,
      "પેઢી": 5959,
      "જેમને": 5960,
      "....": 5961,
      "કિશો": 5962,
      "ખોટા": 5963,
      "ગયાં": 5964,
      "અરવલ્લી": 5965,
      "ઘટાડવા": 5966,
      "બનાવીને": 5967,
      "##દરાબાદ": 5968,
      "##િઝન": 5969,
      "ઈન્સ્ટ": 5970,
      "ક્વાર્ટ": 5971,
      "વાતાવરણમાં": 5972,
      "મોકલવામાં": 5973,
      "હૈદરાબાદ": 5974,
      "જિંદગી": 5975,
      "જૈન": 5976,
      "ગ્રીન": 5977,
      "ઠાકોર": 5978,
      "કિસાન": 5979,
      "ચકાસણી": 5980,
      "સ્વયં": 5981,
      "ચુંટણી": 5982,
      "જલ્દી": 5983,
      "કદ": 5984,
      "ગાળા": 5985,
      "ટાળ": 5986,
      "થવાનો": 5987,
      "ફેશન": 5988,
      "બાજ": 5989,
      "બ્લા": 5990,
      "##મનો": 5991,
      "##પિં": 5992,
      "##પિતા": 5993,
      "##ૂના": 5994,
      "##ડતી": 5995,
      "##ાંતર": 5996,
      "##નેટ": 5997,
      "##નાઇ": 5998,
      "##નાલ્ડ": 5999,
      "##ર્સે": 6000,
      "##ન્ગ": 6001,
      "##રીત": 6002,
      "કરીશું": 6003,
      "##ાઈન": 6004,
      "ઉપવાસ": 6005,
      "##ન્સના": 6006,
      "સીર": 6007,
      "ટીકા": 6008,
      "હાથે": 6009,
      "સ્વપ્": 6010,
      "પેકે": 6011,
      "અનુસ": 6012,
      "કિમી": 6013,
      "મહેન્દ્ર": 6014,
      "જેટલું": 6015,
      "રમતો": 6016,
      "બહુમ": 6017,
      "પોઝી": 6018,
      "અટકાવવા": 6019,
      "લક્ષ્ય": 6020,
      "વધારાની": 6021,
      "સ્માર્ટફોન": 6022,
      "પાટણ": 6023,
      "સેકન્ડ": 6024,
      "##ભૂમિ": 6025,
      "મેદાનમાં": 6026,
      "વકીલ": 6027,
      "સમયગાળા": 6028,
      "વિલંબ": 6029,
      "અંગ્રેજી": 6030,
      "ડિજિટલ": 6031,
      "ફાઉન્ડેશન": 6032,
      "ચોંકાવ": 6033,
      "00": 6034,
      "અરે": 6035,
      "ઉગ્ર": 6036,
      "ઓક": 6037,
      "ચલ": 6038,
      "દોર": 6039,
      "ફેડ": 6040,
      "રખ": 6041,
      "લશ્": 6042,
      "લાયક": 6043,
      "શપથ": 6044,
      "##ir": 6045,
      "હોટલ": 6046,
      "સમૂહ": 6047,
      "ઉપરો": 6048,
      "રાજપૂ": 6049,
      "મહાદેવ": 6050,
      "##્યુટ": 6051,
      "યુગ": 6052,
      "##જેક્શન": 6053,
      "વેક્સી": 6054,
      "પૂર્વે": 6055,
      "જણાય": 6056,
      "છોડીને": 6057,
      "ધરતી": 6058,
      "પહેલાથી": 6059,
      "ચીનની": 6060,
      "રૂપિયાના": 6061,
      "એસિડ": 6062,
      "આજુ": 6063,
      "ચૂકવણી": 6064,
      "મંદિરના": 6065,
      "નીચેના": 6066,
      "ઉઠાવી": 6067,
      "લાઈફ": 6068,
      "ચુકવણી": 6069,
      "##વુડ": 6070,
      "સૈન્ય": 6071,
      "પ્રકાશિત": 6072,
      "નિકાલ": 6073,
      "ક્યાંક": 6074,
      "લેખિત": 6075,
      "શૈલી": 6076,
      "##દર્શક": 6077,
      "રૂપાણીએ": 6078,
      "શંકાસ્પદ": 6079,
      "પંડ્યા": 6080,
      "ભંડોળ": 6081,
      "કોર્પોરેટ": 6082,
      "આફ્રિકા": 6083,
      "લિમિટેડ": 6084,
      "ટેક્નોલોજી": 6085,
      "ઉલ્લંઘ": 6086,
      "43": 6087,
      "આની": 6088,
      "ઉક": 6089,
      "ઘુ": 6090,
      "ડાયા": 6091,
      "તલ": 6092,
      "નિત": 6093,
      "ફ્રા": 6094,
      "મસ": 6095,
      "હસ્ત": 6096,
      "##્ઝ": 6097,
      "##હાન": 6098,
      "##દિત": 6099,
      "##ગણ": 6100,
      "##ચલ": 6101,
      "##સિં": 6102,
      "કરતું": 6103,
      "પ્રખ્યાત": 6104,
      "##ન્દી": 6105,
      "##ટેગ": 6106,
      "##ક્ચર": 6107,
      "એકલા": 6108,
      "##ારીયા": 6109,
      "મોહન": 6110,
      "સુપ્ર": 6111,
      "##કીંગ": 6112,
      "સોની": 6113,
      "સીમા": 6114,
      "લાગ્યું": 6115,
      "કાચ": 6116,
      "બોલા": 6117,
      "બદલા": 6118,
      "ઘટનાને": 6119,
      "સિંહે": 6120,
      "રમતા": 6121,
      "એલર્ટ": 6122,
      "હળવ": 6123,
      "વાતચીતમાં": 6124,
      "આટલી": 6125,
      "##કાળમાં": 6126,
      "ભવિષ્યમાં": 6127,
      "આંગણ": 6128,
      "હાંસલ": 6129,
      "બ્લોક": 6130,
      "સ્પેશિયલ": 6131,
      "જસ્ટિસ": 6132,
      "એપ્લિકેશન": 6133,
      "તદ્દન": 6134,
      "55": 6135,
      "65": 6136,
      "એનો": 6137,
      "એમ્બ": 6138,
      "ઑફ": 6139,
      "તંદુર": 6140,
      "થવાનું": 6141,
      "દિક": 6142,
      "પવન": 6143,
      "ફિલ": 6144,
      "શૌ": 6145,
      "સપ": 6146,
      "સજ": 6147,
      "૩૩": 6148,
      "૮૦": 6149,
      "##શિયમ": 6150,
      "##ંથ": 6151,
      "##સં": 6152,
      "##ેરા": 6153,
      "##ઘાટ": 6154,
      "##વણ": 6155,
      "##ળુ": 6156,
      "##ખ્ત": 6157,
      "##વાશે": 6158,
      "માછી": 6159,
      "વિભ": 6160,
      "##ાતો": 6161,
      "હોટેલ": 6162,
      "જોશી": 6163,
      "આપતી": 6164,
      "##લેસ": 6165,
      "##ાઈઝ": 6166,
      "રહેતાં": 6167,
      "સ્ટેડ": 6168,
      "પીપ": 6169,
      "ટેકો": 6170,
      "##પ્પા": 6171,
      "વ્યક્તિની": 6172,
      "##વાનુ": 6173,
      "##શાહી": 6174,
      "પાકિસ્તાની": 6175,
      "સ્થળોએ": 6176,
      "આરોપીઓ": 6177,
      "ઇન્ડિયન": 6178,
      "કાશ્મીરમાં": 6179,
      "કચ્છમાં": 6180,
      "રાશિના": 6181,
      "૨૦૨૦": 6182,
      "ફ્લ્": 6183,
      "યથાવત": 6184,
      "છેલ્લાં": 6185,
      "બાંગ્લાદેશ": 6186,
      "300": 6187,
      "ઘાટ": 6188,
      "થકી": 6189,
      "પ્લ": 6190,
      "બાહ": 6191,
      "##ay": 6192,
      "##ચક": 6193,
      "##સ્લા": 6194,
      "હોદ્": 6195,
      "આપતાં": 6196,
      "સંવાદ": 6197,
      "##કીને": 6198,
      "નાનો": 6199,
      "સ્ટ્રે": 6200,
      "દરખા": 6201,
      "આગ્રહ": 6202,
      "##ર્સના": 6203,
      "બોટલ": 6204,
      "રાજ્યસભા": 6205,
      "નામનો": 6206,
      "##ૃત્ય": 6207,
      "વિકલ્પો": 6208,
      "પાણીનો": 6209,
      "ભૂમિ": 6210,
      "##ગાડ": 6211,
      "પ્રેસ": 6212,
      "રોજગાર": 6213,
      "ગયેલ": 6214,
      "##પુરના": 6215,
      "વિભાગમાં": 6216,
      "2016": 6217,
      "વિશ્વના": 6218,
      "પ્રાચીન": 6219,
      "##ડાઉન": 6220,
      "##ાત્મા": 6221,
      "ઊંચા": 6222,
      "ઉત્સવ": 6223,
      "ટ્રાન્સફર": 6224,
      "ઝાલા": 6225,
      "મોહમ્": 6226,
      "ઠાકરે": 6227,
      "બનાસકાંઠા": 6228,
      "સસ્પેન્ડ": 6229,
      "મામલતદાર": 6230,
      "ડાંગર": 6231,
      "શ્રીલંકા": 6232,
      "##ujar": 6233,
      ".,": 6234,
      "/-": 6235,
      "ખામી": 6236,
      "જવાનું": 6237,
      "જિયો": 6238,
      "પૌ": 6239,
      "##id": 6240,
      "##વરી": 6241,
      "##ૂપ": 6242,
      "##ફ્": 6243,
      "##્રલ": 6244,
      "##ાતું": 6245,
      "##િવાર": 6246,
      "##જીએ": 6247,
      "પીએસ": 6248,
      "બાથ": 6249,
      "મહિલાઓને": 6250,
      "પ્રોફ": 6251,
      "દિલ્હીની": 6252,
      "વિદ્યા": 6253,
      "198": 6254,
      "ખેડૂતોની": 6255,
      "આશ્ર": 6256,
      "સલામત": 6257,
      "નહોતું": 6258,
      "ફરજિયાત": 6259,
      "એપાર્ટમેન્ટ": 6260,
      "દૂધની": 6261,
      "મ્યુનિ": 6262,
      "આકર્ષક": 6263,
      "સંશોધ": 6264,
      "પ્રવાસીઓ": 6265,
      "પ્રગટ": 6266,
      "હેરાન": 6267,
      "ધોરણે": 6268,
      "પંથકમાં": 6269,
      "રેસ્ટોરન્ટ": 6270,
      "આર્કિટે": 6271,
      "અર્જુન": 6272,
      "આંગણવાડી": 6273,
      "ખતરના": 6274,
      "તફ": 6275,
      "મું": 6276,
      "રિવ": 6277,
      "સાન": 6278,
      "##રાવ": 6279,
      "##ચિ": 6280,
      "##ેય": 6281,
      "##ધારા": 6282,
      "##વાણા": 6283,
      "કર્યાં": 6284,
      "કેજરી": 6285,
      "આવતું": 6286,
      "##ટેક": 6287,
      "જોયું": 6288,
      "સુચના": 6289,
      "##વેસ્ટ": 6290,
      "નિવાસ": 6291,
      "રહીને": 6292,
      "##સામાં": 6293,
      "જણાવેલ": 6294,
      "વિક્રમ": 6295,
      "કારણકે": 6296,
      "ઘટનામાં": 6297,
      "વિદ્યાર્થીઓએ": 6298,
      "ખેડૂતોના": 6299,
      "શેરી": 6300,
      "રોગો": 6301,
      "સમાજની": 6302,
      "જાતને": 6303,
      "જાણીએ": 6304,
      "##મ્બરમાં": 6305,
      "લાઈન": 6306,
      "ખરીદવા": 6307,
      "મંડળ": 6308,
      "ઘોષ": 6309,
      "બ્રેક": 6310,
      "સંદર્ભે": 6311,
      "અનુકૂળ": 6312,
      "પ્લોટ": 6313,
      "ડ્રાઇવ": 6314,
      "પુરૂષ": 6315,
      "64": 6316,
      "ઉમર": 6317,
      "તારણ": 6318,
      "દશ": 6319,
      "ફાસ્ટ": 6320,
      "બચી": 6321,
      "મફત": 6322,
      "લાવવામાં": 6323,
      "વસા": 6324,
      "….": 6325,
      "##વવાની": 6326,
      "##nd": 6327,
      "##ાંજ": 6328,
      "##નીંગ": 6329,
      "##નોમાં": 6330,
      "પ્રદાન": 6331,
      "વિર": 6332,
      "વિનો": 6333,
      "##ાતાં": 6334,
      "##કેલા": 6335,
      "આપેલ": 6336,
      "##વેન્ટ": 6337,
      "##િંગની": 6338,
      "માંસ": 6339,
      "##ન્સને": 6340,
      "##ન્સમાં": 6341,
      "##્સની": 6342,
      "કામકાજ": 6343,
      "લીગ": 6344,
      "મેળવો": 6345,
      "ડોકટ": 6346,
      "ડોનાલ્ડ": 6347,
      "સ્પોર્ટ": 6348,
      "પાછલા": 6349,
      "પટેલની": 6350,
      "મહિનાની": 6351,
      "મંજૂર": 6352,
      "રિપોર્ટમાં": 6353,
      "વનસ્પતિ": 6354,
      "અર્થતંત્ર": 6355,
      "સ્ટેન્ડ": 6356,
      "યોગદાન": 6357,
      "ગૃહમંત્રી": 6358,
      "ઓપન": 6359,
      "વેબસાઈ": 6360,
      "વલસાડ": 6361,
      "પરંપરા": 6362,
      "##મિનાર": 6363,
      "સંવેદનશીલ": 6364,
      "પોઈન્ટ": 6365,
      "પોઝીટીવ": 6366,
      "ઉલ્લંઘન": 6367,
      "ફ્લ્મિ": 6368,
      "ખતરનાક": 6369,
      "''": 6370,
      "આવાસ": 6371,
      "એશિયા": 6372,
      "કમી": 6373,
      "ગઠ": 6374,
      "પેર": 6375,
      "બ્રો": 6376,
      "હુક": 6377,
      "હિમ": 6378,
      "##ઈલ": 6379,
      "##બાગ": 6380,
      "##બ્રે": 6381,
      "##નેસ": 6382,
      "છેલ્લે": 6383,
      "વિજ": 6384,
      "##મેલ": 6385,
      "સંયો": 6386,
      "##ટીસ": 6387,
      "મેર": 6388,
      "સેવ": 6389,
      "બીએસ": 6390,
      "##સાથે": 6391,
      "સીટી": 6392,
      "કેટલો": 6393,
      "##ુરુ": 6394,
      "વીર": 6395,
      "નોંધાઈ": 6396,
      "ફેંક": 6397,
      "મોદીને": 6398,
      "દિલ્હીના": 6399,
      "ટીમમાં": 6400,
      "ખોલી": 6401,
      "સ્કુલ": 6402,
      "વોટ": 6403,
      "ઉઠી": 6404,
      "અત્યા": 6405,
      "નહોતા": 6406,
      "બોર્ડર": 6407,
      "વિચિત્ર": 6408,
      "લડાઈ": 6409,
      "ચૌધરી": 6410,
      "શાસન": 6411,
      "પીડિત": 6412,
      "અભિનંદન": 6413,
      "ઇન્ટરનેશનલ": 6414,
      "##ગેટિવ": 6415,
      "બીજેપી": 6416,
      "આદર્શ": 6417,
      "ઊર્": 6418,
      "ડબ્": 6419,
      "તલા": 6420,
      "સર્ચ": 6421,
      "૫૦૦": 6422,
      "##ગન": 6423,
      "##ુશ": 6424,
      "##વતા": 6425,
      "##ખું": 6426,
      "માથ": 6427,
      "##ન્વ": 6428,
      "લોટ": 6429,
      "##રાધ": 6430,
      "બેટ્સ": 6431,
      "મહોત્સવ": 6432,
      "રોકી": 6433,
      "##દ્દી": 6434,
      "સિંધ": 6435,
      "પાસપોર્ટ": 6436,
      "કેટલાય": 6437,
      "બનાવ્યો": 6438,
      "ભાગરૂપે": 6439,
      "અભાવ": 6440,
      "દુબ": 6441,
      "તાપી": 6442,
      "બનીને": 6443,
      "મહિલાને": 6444,
      "નિર્ણયો": 6445,
      "કુશ": 6446,
      "બ્રિજ": 6447,
      "શુભેચ્છ": 6448,
      "પાંદ": 6449,
      "વાંકાને": 6450,
      "સચિન": 6451,
      "વાઈરસ": 6452,
      "વાઇરસ": 6453,
      "સ્નાન": 6454,
      "જણાવાયું": 6455,
      "એકમાત્ર": 6456,
      "ટિપ્": 6457,
      "ભ્રષ્ટાચાર": 6458,
      "42": 6459,
      "અવિ": 6460,
      "એવામાં": 6461,
      "કહેર": 6462,
      "કપૂ": 6463,
      "ખ્યાલ": 6464,
      "ગર્વ": 6465,
      "તજ": 6466,
      "બાવ": 6467,
      "મતે": 6468,
      "લાંચ": 6469,
      "હાર્ટ": 6470,
      "##ોઝ": 6471,
      "##શ્યો": 6472,
      "##રાન": 6473,
      "##ia": 6474,
      "##સક": 6475,
      "##ધારી": 6476,
      "##ડિઓ": 6477,
      "##he": 6478,
      "##ામણ": 6479,
      "જોબ": 6480,
      "##ટીના": 6481,
      "##લોને": 6482,
      "##સેવ": 6483,
      "પડયો": 6484,
      "નેગેટિવ": 6485,
      "કાફ": 6486,
      "ટેબલ": 6487,
      "કંપનીની": 6488,
      "ભૂખ": 6489,
      "બદલાઈ": 6490,
      "કોંગ્રેસને": 6491,
      "વરસાદને": 6492,
      "2015": 6493,
      "ખાનની": 6494,
      "યોજનાઓ": 6495,
      "દિલીપ": 6496,
      "શરીરને": 6497,
      "વિજયભાઈ": 6498,
      "શાળાના": 6499,
      "કલાકારો": 6500,
      "બાળકના": 6501,
      "ફેલાય": 6502,
      "સર્જરી": 6503,
      "આટલું": 6504,
      "વધારાના": 6505,
      "ચકચાર": 6506,
      "ચહેરો": 6507,
      "કોન્સ્ટે": 6508,
      "સંકળાયેલા": 6509,
      "સરહદ": 6510,
      "બ્રહ્મ": 6511,
      "##િલનાડુ": 6512,
      "દરખાસ્ત": 6513,
      "ટિપ્પણી": 6514,
      "અલ્પ": 6515,
      "ધારણ": 6516,
      "નકલી": 6517,
      "પાઇ": 6518,
      "બસો": 6519,
      "મૈ": 6520,
      "વ્ર": 6521,
      "શત્ર": 6522,
      "હડતા": 6523,
      "૩૨": 6524,
      "##કુલ": 6525,
      "##iv": 6526,
      "##ચય": 6527,
      "##સંગ": 6528,
      "##વને": 6529,
      "પ્રકરણ": 6530,
      "##યાની": 6531,
      "##કોટ": 6532,
      "સ્કોર": 6533,
      "મોડે": 6534,
      "લોકાર્": 6535,
      "##ાઈને": 6536,
      "##ાળે": 6537,
      "તોફ": 6538,
      "##વેરા": 6539,
      "લેન્ડ": 6540,
      "##માતા": 6541,
      "અમૃત": 6542,
      "વેરિ": 6543,
      "##બીર": 6544,
      "સીલ": 6545,
      "દીઠ": 6546,
      "ડિરેક્ટર": 6547,
      "કંપનીમાં": 6548,
      "ખુલ્લી": 6549,
      "ચેમ્બર": 6550,
      "તાકાત": 6551,
      "મહિલાએ": 6552,
      "રૂપિયાનો": 6553,
      "વરસાદના": 6554,
      "જયંત": 6555,
      "પટેલના": 6556,
      "##ભાવસ્થા": 6557,
      "હિન્દી": 6558,
      "જોડાયેલ": 6559,
      "જાતિ": 6560,
      "શાળાઓ": 6561,
      "##ધારણ": 6562,
      "અર્પણ": 6563,
      "##ટ્ટી": 6564,
      "ચુક્યા": 6565,
      "મોડલ": 6566,
      "##કર્તાઓ": 6567,
      "બહેનો": 6568,
      "માર્કેટમાં": 6569,
      "કિસ્સાઓમાં": 6570,
      "અઠવાડ": 6571,
      "સિક્": 6572,
      "દુર્ઘટના": 6573,
      "વાપર": 6574,
      "સ્વરૂપમાં": 6575,
      "માઇક્રો": 6576,
      "રાજીનામું": 6577,
      "દિગ્ગ": 6578,
      "વિટામિન": 6579,
      "સમુદાય": 6580,
      "ત્રિવેદી": 6581,
      "લોકાર્પણ": 6582,
      "અનો": 6583,
      "અલ્": 6584,
      "ક્રે": 6585,
      "ગણી": 6586,
      "જાવ": 6587,
      "જર્મ": 6588,
      "ઝૂ": 6589,
      "ટોલ": 6590,
      "ડિલ": 6591,
      "દાં": 6592,
      "પથ": 6593,
      "ભરા": 6594,
      "મણ": 6595,
      "રથ": 6596,
      "વણ": 6597,
      "વડ": 6598,
      "વોર": 6599,
      "સકારાત્મક": 6600,
      "હૉ": 6601,
      "##ટકો": 6602,
      "##કૃત": 6603,
      "##યાં": 6604,
      "##ew": 6605,
      "##ભરના": 6606,
      "##બોલ": 6607,
      "##નાત": 6608,
      "##નાની": 6609,
      "##વાણ": 6610,
      "કેરી": 6611,
      "##લાન": 6612,
      "##સ્વા": 6613,
      "સુત્રો": 6614,
      "##્રેટ": 6615,
      "##િયાં": 6616,
      "મહાસ": 6617,
      "સિઝ": 6618,
      "સિસ્ટ": 6619,
      "##્સના": 6620,
      "કામમાં": 6621,
      "સીટો": 6622,
      "દેશી": 6623,
      "સામેની": 6624,
      "દુશ્": 6625,
      "સાંસ્ક": 6626,
      "રોજગારી": 6627,
      "ખેત": 6628,
      "અરજ": 6629,
      "બોલમાં": 6630,
      "સિંહો": 6631,
      "બચાવી": 6632,
      "જાહેરમાં": 6633,
      "મુશ્કેલીઓ": 6634,
      "આવતીકાલે": 6635,
      "##ess": 6636,
      "સમિતિના": 6637,
      "પુરુષો": 6638,
      "સ્વાદિષ્ટ": 6639,
      "આર્મી": 6640,
      "રજુઆત": 6641,
      "પ્રીમ": 6642,
      "દ્વારકા": 6643,
      "##ચ્યુઅલ": 6644,
      "પુરવઠા": 6645,
      "સંરક્ષણ": 6646,
      "##ર્નામેન્ટ": 6647,
      "વેબસાઇટ": 6648,
      "આયાત": 6649,
      "કટોક": 6650,
      "ખાદ": 6651,
      "ચલા": 6652,
      "ટાઈ": 6653,
      "દમ": 6654,
      "દાગ": 6655,
      "ફસ": 6656,
      "ફુટ": 6657,
      "યજ્ઞ": 6658,
      "ર્": 6659,
      "રિક્ષ": 6660,
      "વચ": 6661,
      "વપર": 6662,
      "હાસ": 6663,
      "##ગંધ": 6664,
      "##ac": 6665,
      "##વત": 6666,
      "##બહે": 6667,
      "##ડેટ": 6668,
      "##નામ": 6669,
      "##ર્ટી": 6670,
      "##ામે": 6671,
      "##િકામાં": 6672,
      "##સ્પી": 6673,
      "કોફી": 6674,
      "##ંતર": 6675,
      "સ્ક્ર": 6676,
      "મોટર": 6677,
      "##ટીન": 6678,
      "ગુન્": 6679,
      "અમિતા": 6680,
      "સેક્ટ": 6681,
      "સેમ્પ": 6682,
      "સમયસર": 6683,
      "લીડ": 6684,
      "પોલીસકર્મી": 6685,
      "##પ્રમુખ": 6686,
      "બોલે": 6687,
      "ભાગ્ય": 6688,
      "અનુમાન": 6689,
      "##દેપુર": 6690,
      "સાર્વ": 6691,
      "વાયર": 6692,
      "ભારતીયો": 6693,
      "ટ્રાયલ": 6694,
      "માતાપિતા": 6695,
      "વાગે": 6696,
      "વિચારણા": 6697,
      "મંજુ": 6698,
      "સોશ્યલ": 6699,
      "આદમી": 6700,
      "જન્મદિવ": 6701,
      "શરતો": 6702,
      "વડોદરામાં": 6703,
      "ઈન્ડિયન": 6704,
      "દારૂની": 6705,
      "પરિસ્થિતિમાં": 6706,
      "મુસાફરો": 6707,
      "ફૂલો": 6708,
      "પ્રાણીઓ": 6709,
      "આરામદાયક": 6710,
      "સહીત": 6711,
      "આઝાદી": 6712,
      "ફરીયાદ": 6713,
      "ચરબી": 6714,
      "ટાટા": 6715,
      "##મહાલ": 6716,
      "પ્રસિદ્ધ": 6717,
      "પશુપાલન": 6718,
      "શહીદ": 6719,
      "આજુબાજુ": 6720,
      "51": 6721,
      "ઘન": 6722,
      "ઘઉં": 6723,
      "લડી": 6724,
      "હકારાત્મક": 6725,
      "##ap": 6726,
      "##પલ": 6727,
      "##પિંગ": 6728,
      "##વ્યૂ": 6729,
      "##વાટ": 6730,
      "કરાવવામાં": 6731,
      "કેને": 6732,
      "પરિપ": 6733,
      "વિશ્": 6734,
      "જોવામાં": 6735,
      "રહસ્ય": 6736,
      "નિશ્ચિત": 6737,
      "પાછી": 6738,
      "પાડો": 6739,
      "નોન": 6740,
      "પડો": 6741,
      "પેન": 6742,
      "શોમાં": 6743,
      "વ્યક્તિઓ": 6744,
      "ટીમની": 6745,
      "ઉત્પન્ન": 6746,
      "બચવા": 6747,
      "લાભાર્થી": 6748,
      "શરીરના": 6749,
      "પક્ષી": 6750,
      "જોડાયેલી": 6751,
      "પ્રસાદ": 6752,
      "જાણીતી": 6753,
      "##મિશન": 6754,
      "##ટ્સએ": 6755,
      "એજન્ટ": 6756,
      "ક્લિન": 6757,
      "##ક્ષેત્ર": 6758,
      "માર્કેટિંગ": 6759,
      "મૂળભૂત": 6760,
      "ચિંત": 6761,
      "ભુજ": 6762,
      "પીડિતા": 6763,
      "ઇન્ટરનેટ": 6764,
      "કાઉન્સ": 6765,
      "કોશિશ": 6766,
      "દુખાવો": 6767,
      "પ્રકૃતિ": 6768,
      "આંધ્ર": 6769,
      "અમિતાભ": 6770,
      "IP": 6771,
      "આહ": 6772,
      "કણ": 6773,
      "ટાં": 6774,
      "દવે": 6775,
      "પટ": 6776,
      "પર્સ": 6777,
      "વાણી": 6778,
      "શનિ": 6779,
      "સરો": 6780,
      "સવાલો": 6781,
      "##દ્વ": 6782,
      "##શ્ર": 6783,
      "##ak": 6784,
      "##ુએ": 6785,
      "##ડાસ": 6786,
      "કેદ": 6787,
      "##ાવેલ": 6788,
      "વિવે": 6789,
      "હોસ્ટ": 6790,
      "તેમનાં": 6791,
      "સંસ્કાર": 6792,
      "##રેક્ટ": 6793,
      "રાજનીતિ": 6794,
      "નિગ": 6795,
      "સેન્સે": 6796,
      "દેશે": 6797,
      "સ્ટ્રો": 6798,
      "સોનુ": 6799,
      "શક્યો": 6800,
      "તેઓની": 6801,
      "ઉત્તે": 6802,
      "અભિગ": 6803,
      "રેમ": 6804,
      "ફરવા": 6805,
      "અંગત": 6806,
      "અંતમાં": 6807,
      "કેન્દ્રિત": 6808,
      "મતદારો": 6809,
      "પાકિસ્તાનની": 6810,
      "##પેન્દ્ર": 6811,
      "દેખાઈ": 6812,
      "મુદ્દામાલ": 6813,
      "વાયરસની": 6814,
      "##ગ્ને": 6815,
      "##મરજન્સી": 6816,
      "હાઈકોર્ટ": 6817,
      "બાજુમાં": 6818,
      "મોરબીના": 6819,
      "નાગરિકોને": 6820,
      "અકસ્માતમાં": 6821,
      "લાઇફ": 6822,
      "અનાજ": 6823,
      "સ્ટોક": 6824,
      "પુસ્તકો": 6825,
      "ચુસ્ત": 6826,
      "ખેંચી": 6827,
      "નબળી": 6828,
      "ભાગીદારી": 6829,
      "બિલ્ડિંગ": 6830,
      "આયુર્વે": 6831,
      "કયારે": 6832,
      "##યાત્રા": 6833,
      "પ્રદૂ": 6834,
      "દંપતી": 6835,
      "બધાં": 6836,
      "49": 6837,
      "ઓર્": 6838,
      "ગાજ": 6839,
      "ઝેરી": 6840,
      "મજૂ": 6841,
      "શૂ": 6842,
      "૩૮": 6843,
      "##્સે": 6844,
      "##નિય": 6845,
      "##શક્તિ": 6846,
      "##ઝમાં": 6847,
      "##ખ્": 6848,
      "##ફળતા": 6849,
      "##છો": 6850,
      "જોતાં": 6851,
      "##ાલે": 6852,
      "##લોક": 6853,
      "##દાતા": 6854,
      "લેવાનું": 6855,
      "સિનિયર": 6856,
      "શકય": 6857,
      "ચોકી": 6858,
      "સ્વભાવ": 6859,
      "રૂપમાં": 6860,
      "સાંસ": 6861,
      "ટકાથી": 6862,
      "ચેન": 6863,
      "ફિલ્મની": 6864,
      "શેખ": 6865,
      "પાછળથી": 6866,
      "અમેરિકાની": 6867,
      "હોવાને": 6868,
      "ગીતો": 6869,
      "મોડાસા": 6870,
      "વાગ્યાથી": 6871,
      "સેન્ટ્રલ": 6872,
      "સૂત્રોના": 6873,
      "લોકસભાની": 6874,
      "પ્રવૃત્તિઓ": 6875,
      "રૃપ": 6876,
      "કાગળ": 6877,
      "##ફ્રેન્ડ": 6878,
      "અછત": 6879,
      "ઊર્જા": 6880,
      "અઢી": 6881,
      "આય": 6882,
      "ઈંગ્લેન્ડ": 6883,
      "ગિ": 6884,
      "ગટર": 6885,
      "જસ": 6886,
      "ઠંડા": 6887,
      "દહે": 6888,
      "નગ": 6889,
      "નાસ": 6890,
      "પાઈ": 6891,
      "યશ": 6892,
      "રનની": 6893,
      "સઘ": 6894,
      "સસ્તા": 6895,
      "૭૫": 6896,
      "કેટેગ": 6897,
      "પ્રતી": 6898,
      "##ાયેલો": 6899,
      "સાથો": 6900,
      "##ાણુ": 6901,
      "સંડો": 6902,
      "##લેષ": 6903,
      "મળતાં": 6904,
      "##સીને": 6905,
      "##સીમાં": 6906,
      "ગુપ્": 6907,
      "નિર": 6908,
      "##ત્રિક": 6909,
      "જીતુ": 6910,
      "સ્ટોર": 6911,
      "##્સને": 6912,
      "પહેલો": 6913,
      "##ક્ટેર": 6914,
      "બોર": 6915,
      "##્રોનિક": 6916,
      "પ્રેક્ટ": 6917,
      "માર્યો": 6918,
      "વિશ્વની": 6919,
      "આરોપીને": 6920,
      "આજકાલ": 6921,
      "પંચાય": 6922,
      "ભાષણ": 6923,
      "આઇપી": 6924,
      "સ્મૃતિ": 6925,
      "૧૯૯": 6926,
      "ઉત્તરપ્રદેશ": 6927,
      "##ગ્ગા": 6928,
      "##ગ્નિ": 6929,
      "ધીરે": 6930,
      "હાઈકોર્": 6931,
      "હંમેશાં": 6932,
      "બારડો": 6933,
      "જાગૃત": 6934,
      "ઝોન": 6935,
      "લગ્નની": 6936,
      "બેસીને": 6937,
      "આનાથી": 6938,
      "ડ્રાઈવ": 6939,
      "પ્રમોશન": 6940,
      "નિર્ધારિત": 6941,
      "ગ્લાસ": 6942,
      "સાંસ્કૃતિક": 6943,
      "અંડ": 6944,
      "ઉદ્ધ": 6945,
      "કસ્ટ": 6946,
      "ખતમ": 6947,
      "તાજ": 6948,
      "ભક્તો": 6949,
      "વચન": 6950,
      "શણ": 6951,
      "હસ": 6952,
      "હેલ": 6953,
      "##કુમ": 6954,
      "##શિયલ": 6955,
      "##મતિ": 6956,
      "##ot": 6957,
      "##ુની": 6958,
      "##્યામ": 6959,
      "##વામા": 6960,
      "##્ટર": 6961,
      "પ્રાંત": 6962,
      "##ાવર": 6963,
      "વિડિઓ": 6964,
      "એકાદ": 6965,
      "સાગ": 6966,
      "##િયાએ": 6967,
      "પોલિ": 6968,
      "આપવું": 6969,
      "બેદર": 6970,
      "પહેરે": 6971,
      "બોમ્બ": 6972,
      "મૂકે": 6973,
      "કહેતા": 6974,
      "જવાના": 6975,
      "કંપનીઓને": 6976,
      "અપડેટ": 6977,
      "જગદી": 6978,
      "ભરપૂર": 6979,
      "પંચમહાલ": 6980,
      "કિંમ": 6981,
      "યોજાન": 6982,
      "મુકવામાં": 6983,
      "આદિત્ય": 6984,
      "શરદ": 6985,
      "મ્યુનિસ": 6986,
      "પૈકીના": 6987,
      "ઉર્જા": 6988,
      "અઠવાડિયામાં": 6989,
      "૨૦૨૧": 6990,
      "એસોસિ": 6991,
      "દસ્તાવેજો": 6992,
      "વૈજ્ઞાનિકો": 6993,
      "કબ્જે": 6994,
      "કલ્પના": 6995,
      "આમંત્રણ": 6996,
      "સાવચેતી": 6997,
      "એટીએમ": 6998,
      "##દ્યોગિક": 6999,
      "વિનોદ": 7000,
      "ઉધ": 7001,
      "કૅ": 7002,
      "ખોડ": 7003,
      "ગોર": 7004,
      "ઘડ": 7005,
      "ડુ": 7006,
      "તાવ": 7007,
      "ધીર": 7008,
      "નાસી": 7009,
      "મસા": 7010,
      "રજી": 7011,
      "શિલ્": 7012,
      "હમ": 7013,
      "૩૪": 7014,
      "૪૮": 7015,
      "##કરે": 7016,
      "##શિક": 7017,
      "##મૂ": 7018,
      "##િષ": 7019,
      "##ૂની": 7020,
      "##ાંગી": 7021,
      "##નાન્સ": 7022,
      "કરણ": 7023,
      "##ર્જ": 7024,
      "તેજી": 7025,
      "##સ્કો": 7026,
      "વિજ્ઞાન": 7027,
      "##લીંગ": 7028,
      "કોટ": 7029,
      "કોર": 7030,
      "કોન્સ": 7031,
      "##િત્સ": 7032,
      "##લ્ફ": 7033,
      "મોં": 7034,
      "##રાહ": 7035,
      "પીવાના": 7036,
      "##ેશનમાં": 7037,
      "દેશને": 7038,
      "ચોકડી": 7039,
      "સરકારમાં": 7040,
      "રાકેશ": 7041,
      "જિલ્લાની": 7042,
      "વાડી": 7043,
      "##ળાના": 7044,
      "ક્રાઈમ": 7045,
      "##વાયેલા": 7046,
      "ફેક્ટ": 7047,
      "ફેંકી": 7048,
      "##્મણ": 7049,
      "લાક્ષણિક": 7050,
      "પાકની": 7051,
      "બાળકોની": 7052,
      "ખેતમ": 7053,
      "ટ્રેક": 7054,
      "જવાબમાં": 7055,
      "ગણાય": 7056,
      "શાસ્ત્રી": 7057,
      "મહત્વનો": 7058,
      "એનએસ": 7059,
      "વેચવા": 7060,
      "હાજરીમાં": 7061,
      "ક્રિકેટર": 7062,
      "કહીને": 7063,
      "દુનિયાના": 7064,
      "વિરોધમાં": 7065,
      "ક્લબ": 7066,
      "શ્રમિક": 7067,
      "સ્પષ્ટતા": 7068,
      "સર્જાયો": 7069,
      "મહારાષ્ટ્રના": 7070,
      "ઉદ્યોગપતિ": 7071,
      "વિપરીત": 7072,
      "સ્પર્ધ": 7073,
      "કબજો": 7074,
      "સોસાયટીમાં": 7075,
      "સ્વતંત્રતા": 7076,
      "તત્વો": 7077,
      "રુપિયા": 7078,
      "ચુકાદો": 7079,
      "મનોરંજન": 7080,
      "ચેમ્પિયન": 7081,
      "ઉપરોક્ત": 7082,
      "41": 7083,
      "48": 7084,
      "ઇમાર": 7085,
      "ઇમરાન": 7086,
      "ઉતરી": 7087,
      "ક્રીમ": 7088,
      "નસીબ": 7089,
      "બગી": 7090,
      "લુક": 7091,
      "લંડ": 7092,
      "શેડ": 7093,
      "સપના": 7094,
      "’,": 7095,
      "##વાળ": 7096,
      "##નીલ": 7097,
      "પ્રચ": 7098,
      "##ાવવાનો": 7099,
      "કોરિયા": 7100,
      "જેત": 7101,
      "જેમા": 7102,
      "આપવાના": 7103,
      "##કાતા": 7104,
      "વર્તન": 7105,
      "##્યુશન": 7106,
      "સિર": 7107,
      "સિંચ": 7108,
      "વેન્ટ": 7109,
      "પીઠ": 7110,
      "સ્વરાજ": 7111,
      "ગોવિંદ": 7112,
      "શોષણ": 7113,
      "##સ્થિતિ": 7114,
      "અપા": 7115,
      "ડેબ": 7116,
      "ગાંધીનગરમાં": 7117,
      "દર્દીને": 7118,
      "દર્દીઓના": 7119,
      "સ્વામિનાર": 7120,
      "શાહી": 7121,
      "બધાને": 7122,
      "બચત": 7123,
      "હરાજી": 7124,
      "જોડાણ": 7125,
      "મુંબઈના": 7126,
      "શેરબજ": 7127,
      "શોધખો": 7128,
      "રસ્તાઓ": 7129,
      "એક્સચે": 7130,
      "અમેરિકી": 7131,
      "સંભળ": 7132,
      "ફોટોગ્રા": 7133,
      "પાંડે": 7134,
      "આટલા": 7135,
      "ચુકી": 7136,
      "નિષ્ફળતા": 7137,
      "કાપડ": 7138,
      "પર્વત": 7139,
      "વયના": 7140,
      "મર્યાદિત": 7141,
      "ડિસ્કાઉન્ટ": 7142,
      "આત્મા": 7143,
      "યુરોપ": 7144,
      "ઉતારી": 7145,
      "છોટાઉ": 7146,
      "સળગ": 7147,
      "ગોંડલ": 7148,
      "અસામાન્ય": 7149,
      "પ્રાઇવેટ": 7150,
      "મોહમ્મદ": 7151,
      "##સ્વામી": 7152,
      "સેન્સેક્સ": 7153,
      "મ્યુનિસિપલ": 7154,
      "99": 7155,
      "એણે": 7156,
      "ઔદ્યોગિક": 7157,
      "કુર": 7158,
      "થાક": 7159,
      "ફટા": 7160,
      "શસ્ત્ર": 7161,
      "##ોબ": 7162,
      "##યૂ": 7163,
      "##ag": 7164,
      "##લાસ": 7165,
      "પ્રજ": 7166,
      "પ્રકારે": 7167,
      "પરાજ": 7168,
      "વિધિ": 7169,
      "##લીની": 7170,
      "કોને": 7171,
      "એકસાથે": 7172,
      "સાક્ષી": 7173,
      "સમર્": 7174,
      "સુશો": 7175,
      "##રેખ": 7176,
      "##્રીક": 7177,
      "મહાત્મા": 7178,
      "##સીન": 7179,
      "અમલી": 7180,
      "નીચા": 7181,
      "પૂજ": 7182,
      "કામદારો": 7183,
      "રાખ્યું": 7184,
      "રાખેલ": 7185,
      "2000": 7186,
      "વાતને": 7187,
      "ટેમ્પ": 7188,
      "સ્વરૂપે": 7189,
      "હેમ": 7190,
      "પેમેન્ટ": 7191,
      "આરોપો": 7192,
      "માર્ક": 7193,
      "ચીનમાં": 7194,
      "##બાના": 7195,
      "પરિચિત": 7196,
      "કપિલ": 7197,
      "સમાજમાં": 7198,
      "યુવતીએ": 7199,
      "મકવાણા": 7200,
      "કર્મી": 7201,
      "કાશ્મીરના": 7202,
      "હુમલામાં": 7203,
      "તબીબો": 7204,
      "માલિકી": 7205,
      "સંદર્ભમાં": 7206,
      "ચાહકો": 7207,
      "લંબાઈ": 7208,
      "સરખામણીમાં": 7209,
      "ગ્રહણ": 7210,
      "ધ્રુ": 7211,
      "વેબસાઈટ": 7212,
      "ખાદ્ય": 7213,
      "જગદીશ": 7214,
      "95": 7215,
      "આચર": 7216,
      "ઇન્સ": 7217,
      "ઉશ્કે": 7218,
      "ઊંડ": 7219,
      "એક્શન": 7220,
      "ઓર્ડર": 7221,
      "કશું": 7222,
      "ખર": 7223,
      "તપ": 7224,
      "નરમ": 7225,
      "ભૌ": 7226,
      "મશ": 7227,
      "સવલ": 7228,
      "હ્યુ": 7229,
      "##કું": 7230,
      "##ુન": 7231,
      "##ચર્સ": 7232,
      "##આઉટ": 7233,
      "##ર્જન": 7234,
      "પ્રવા": 7235,
      "##ાવતી": 7236,
      "##રીટ": 7237,
      "માટેનું": 7238,
      "જોડા": 7239,
      "જોષી": 7240,
      "##વીએ": 7241,
      "સંતાનો": 7242,
      "મુક્તિ": 7243,
      "##્યુઅલ": 7244,
      "જીતે": 7245,
      "કાબુ": 7246,
      "મૂડી": 7247,
      "ભાજપમાં": 7248,
      "અપાઈ": 7249,
      "સર્જા": 7250,
      "સર્જન": 7251,
      "બંધારણ": 7252,
      "સૂત્ર": 7253,
      "દરેકને": 7254,
      "કિરણ": 7255,
      "કિડની": 7256,
      "ગયુ": 7257,
      "આમિર": 7258,
      "ખેડૂતોએ": 7259,
      "વોટર": 7260,
      "કાઢવામાં": 7261,
      "૨૦૧૭": 7262,
      "૨૦૧૮": 7263,
      "ગઇકાલે": 7264,
      "હાઇકોર્ટ": 7265,
      "પામ્યા": 7266,
      "હીરો": 7267,
      "##ષ્ટિએ": 7268,
      "કુંડ": 7269,
      "સાઇટ": 7270,
      "દીપિકા": 7271,
      "ગુરૂવારે": 7272,
      "પતંગ": 7273,
      "અસ્તિત્વ": 7274,
      "આર્કિટેક્ટ": 7275,
      "શોધખોળ": 7276,
      "સુશોભ": 7277,
      "Gujar": 7278,
      "કદી": 7279,
      "ખંભ": 7280,
      "ગાઈડ": 7281,
      "થનાર": 7282,
      "થવાથી": 7283,
      "દત્ત": 7284,
      "નખ": 7285,
      "બાગ": 7286,
      "લઘુ": 7287,
      "##્તે": 7288,
      "##ક્યુ": 7289,
      "##કાંત": 7290,
      "##દુલ": 7291,
      "##ંઝ": 7292,
      "##ધરા": 7293,
      "##વડી": 7294,
      "##નીટ": 7295,
      "તેવામાં": 7296,
      "પ્રેશ": 7297,
      "વિષ્ણ": 7298,
      "એકમો": 7299,
      "આપના": 7300,
      "આપેલા": 7301,
      "કાર્યાલય": 7302,
      "##રાએ": 7303,
      "મેહ": 7304,
      "મહુ": 7305,
      "નિરાશ": 7306,
      "પુખ્ત": 7307,
      "પહેલ": 7308,
      "પોલીસમાં": 7309,
      "કેટલું": 7310,
      "ચોપ": 7311,
      "બનાવવાનો": 7312,
      "વિસ્તરણ": 7313,
      "ચાલતા": 7314,
      "##ભાષ": 7315,
      "ક્રિ": 7316,
      "લાખનો": 7317,
      "ચેન્ન": 7318,
      "##નિર્": 7319,
      "ખાવા": 7320,
      "આરટી": 7321,
      "મહેમાનો": 7322,
      "ઉમેરી": 7323,
      "ખેડા": 7324,
      "પક્ષો": 7325,
      "જન્મે": 7326,
      "આશંકા": 7327,
      "મનસુખ": 7328,
      "એક્ટર": 7329,
      "શરમ": 7330,
      "નિકાસ": 7331,
      "ચોક્કસપણે": 7332,
      "પ્રત્યેક": 7333,
      "શર્માએ": 7334,
      "આકર્ષણ": 7335,
      "સૂત્રોએ": 7336,
      "ઈચ્છા": 7337,
      "ઇન્સ્ટાગ્રામ": 7338,
      "ઇલેક્ટ્રિક": 7339,
      "તસ્વીર": 7340,
      "સાચું": 7341,
      "સીબીઆઈ": 7342,
      "ચાવડા": 7343,
      "પરીક્ષામાં": 7344,
      "ગ્લોબલ": 7345,
      "બિમારી": 7346,
      "સ્વપ્ન": 7347,
      "એમ્બ્યુલ": 7348,
      "તંદુરસ્ત": 7349,
      "સ્વામિનારાયણ": 7350,
      "59": 7351,
      "ઈસ": 7352,
      "ઈમરાન": 7353,
      "કમા": 7354,
      "ખાં": 7355,
      "ઘી": 7356,
      "ચરણ": 7357,
      "જબર": 7358,
      "ટ્રો": 7359,
      "બૅ": 7360,
      "શ્યામ": 7361,
      "સદા": 7362,
      "૩૬": 7363,
      "##લભ": 7364,
      "##મારો": 7365,
      "##od": 7366,
      "##ીટ": 7367,
      "##બિટી": 7368,
      "##એટ": 7369,
      "##વાલે": 7370,
      "પ્રવિ": 7371,
      "##ન્ડી": 7372,
      "જેવાં": 7373,
      "##ટીમાં": 7374,
      "ઉપાડ": 7375,
      "##સેટ": 7376,
      "નિરી": 7377,
      "##માના": 7378,
      "સેન": 7379,
      "કામના": 7380,
      "સોનું": 7381,
      "##ક્રમે": 7382,
      "શકું": 7383,
      "નેપ": 7384,
      "##ેશનના": 7385,
      "લાગતું": 7386,
      "શોક": 7387,
      "સાંજ": 7388,
      "ખુલ્": 7389,
      "કરોડનો": 7390,
      "કરોડનું": 7391,
      "સર્વો": 7392,
      "##મ્પિક": 7393,
      "##દોષ": 7394,
      "સહકારી": 7395,
      "મદદરૂપ": 7396,
      "પટેલને": 7397,
      "પ્રકારનો": 7398,
      "197": 7399,
      "બ્રિગેડ": 7400,
      "આજરોજ": 7401,
      "ધોધ": 7402,
      "વસૂલ": 7403,
      "દર્શાવી": 7404,
      "કીટ": 7405,
      "વિપુલ": 7406,
      "જંગલ": 7407,
      "ચિહ": 7408,
      "કચ્છના": 7409,
      "આગેવાની": 7410,
      "મકાનમાં": 7411,
      "કૉંગ": 7412,
      "વાસ્તવમાં": 7413,
      "બંદોબ": 7414,
      "બોટાદ": 7415,
      "ગેરકાયદે": 7416,
      "પ્રિન્ટ": 7417,
      "સ્વચ્છતા": 7418,
      "ફાર્મ": 7419,
      "સ્પીડ": 7420,
      "સંકલ્પ": 7421,
      "કોન્ટ્રાક્ટ": 7422,
      "દાહોદ": 7423,
      "દિગ્ગજ": 7424,
      "દાગીના": 7425,
      "બંદોબસ્ત": 7426,
      "ઈશ": 7427,
      "કવ": 7428,
      "કઇ": 7429,
      "ડાંગ": 7430,
      "તૃ": 7431,
      "તકની": 7432,
      "બુમ": 7433,
      "ભેદ": 7434,
      "વટ": 7435,
      "૪૨": 7436,
      "##ટકી": 7437,
      "##હૂ": 7438,
      "##શની": 7439,
      "##ભાવી": 7440,
      "##પત": 7441,
      "##પમેન્ટ": 7442,
      "##િલા": 7443,
      "##વ્યું": 7444,
      "##બળો": 7445,
      "##BI": 7446,
      "##નાબેન": 7447,
      "આવવાની": 7448,
      "પ્રાઈ": 7449,
      "કોમે": 7450,
      "એકતા": 7451,
      "##્રીટ": 7452,
      "##િયેટ": 7453,
      "લોકોનાં": 7454,
      "દેતા": 7455,
      "પડતો": 7456,
      "પડેલા": 7457,
      "રાખતા": 7458,
      "સીઝન": 7459,
      "##ુકત": 7460,
      "લગાડ": 7461,
      "##પ્રાય": 7462,
      "કેસોમાં": 7463,
      "બાળકની": 7464,
      "બનાવની": 7465,
      "જુલાઇ": 7466,
      "સર્કલ": 7467,
      "##ખાને": 7468,
      "##ખાના": 7469,
      "ડેવલ": 7470,
      "રિટેલ": 7471,
      "મામલામાં": 7472,
      "##શાની": 7473,
      "હિસા": 7474,
      "અવરોધ": 7475,
      "લાંબો": 7476,
      "પિતાએ": 7477,
      "કલર": 7478,
      "જામનગરમાં": 7479,
      "રોકાણકાર": 7480,
      "રોકાણકારો": 7481,
      "ખુબજ": 7482,
      "ડૉક્ટ": 7483,
      "ગૌતમ": 7484,
      "ન્યૂઝીલેન્ડ": 7485,
      "મંડળી": 7486,
      "ઘટકો": 7487,
      "જાગૃતિ": 7488,
      "ઝીણી": 7489,
      "નબળા": 7490,
      "દાવા": 7491,
      "છૂટા": 7492,
      "ફર્નિ": 7493,
      "છેતરપિં": 7494,
      "સમૃદ્ધ": 7495,
      "દઇએ": 7496,
      "મસ્જ": 7497,
      "બ્લાસ્ટ": 7498,
      "ડાયાબિટી": 7499,
      "વિવેક": 7500,
      "સવલતો": 7501,
      "400": 7502,
      "54": 7503,
      "અગ્નિ": 7504,
      "ઉભો": 7505,
      "એનું": 7506,
      "ખુર": 7507,
      "ગ્રેડ": 7508,
      "જંતુ": 7509,
      "ટંક": 7510,
      "ડિસ": 7511,
      "થનારા": 7512,
      "પૉ": 7513,
      "પચ": 7514,
      "પબ્લિક": 7515,
      "મિક્સ": 7516,
      "રિયલ": 7517,
      "શંક": 7518,
      "સવા": 7519,
      "હિટ": 7520,
      "##re": 7521,
      "##ૂંક": 7522,
      "##ૂલાત": 7523,
      "માત": 7524,
      "##નોના": 7525,
      "##ન્ક": 7526,
      "હોર્મો": 7527,
      "સ્ને": 7528,
      "##તીય": 7529,
      "##રેન": 7530,
      "રોય": 7531,
      "ગુડ": 7532,
      "##તોમાં": 7533,
      "લેવો": 7534,
      "##માએ": 7535,
      "બીમાર": 7536,
      "કોઈએ": 7537,
      "##સાથી": 7538,
      "##મોહન": 7539,
      "વિસ્તૃત": 7540,
      "અમદાવાદઃ": 7541,
      "ફિલ્મનું": 7542,
      "પ્રેમમાં": 7543,
      "પાછો": 7544,
      "એસપી": 7545,
      "જાહેરના": 7546,
      "##ભાવિક": 7547,
      "કેન્દ્રમાં": 7548,
      "સ્થિતિને": 7549,
      "ફરિયાદો": 7550,
      "લેવાશે": 7551,
      "એલર્જી": 7552,
      "150": 7553,
      "મનપ": 7554,
      "યોજાઈ": 7555,
      "પ્રક્રિયામાં": 7556,
      "કિંમતમાં": 7557,
      "પૂછ્યું": 7558,
      "શ્રદ્ધા": 7559,
      "અટકાયત": 7560,
      "નિકળ": 7561,
      "ઉંમરે": 7562,
      "ઓફિસમાં": 7563,
      "સવારના": 7564,
      "નારાયણ": 7565,
      "દેખાશે": 7566,
      "કોમર્સ": 7567,
      "પેશાબ": 7568,
      "ખોટું": 7569,
      "કેબિનેટ": 7570,
      "મુકાબ": 7571,
      "બાહ્ય": 7572,
      "વપરાય": 7573,
      "બેદરકારી": 7574,
      "પ્રવિણ": 7575,
      ":-": 7576,
      "અરુ": 7577,
      "એન્ટર": 7578,
      "ઔર": 7579,
      "કિસ્સો": 7580,
      "ઘાસ": 7581,
      "છત": 7582,
      "જવામાં": 7583,
      "નાન": 7584,
      "નક્ષ": 7585,
      "બધુ": 7586,
      "ભિ": 7587,
      "##ુતિ": 7588,
      "##ુભાઇ": 7589,
      "##પની": 7590,
      "##પ્રે": 7591,
      "##ધવ": 7592,
      "##વર્ષ": 7593,
      "##બના": 7594,
      "##ya": 7595,
      "આવકાર": 7596,
      "##િકે": 7597,
      "##યાના": 7598,
      "##ાવશે": 7599,
      "સ્ત્રો": 7600,
      "આપવો": 7601,
      "##િયું": 7602,
      "મેડી": 7603,
      "ઉપસ્થિતિ": 7604,
      "રાજેશ": 7605,
      "મહાપ": 7606,
      "##સીસ": 7607,
      "##સીબે": 7608,
      "વર્ષોમાં": 7609,
      "##મ્મી": 7610,
      "##ચ્છી": 7611,
      "##ચ્ચાર": 7612,
      "લીટર": 7613,
      "##ધાને": 7614,
      "ભારતનો": 7615,
      "ચોર": 7616,
      "બોડી": 7617,
      "રેન્જ": 7618,
      "##ચારિક": 7619,
      "ગોહ": 7620,
      "જીવંત": 7621,
      "જીવનની": 7622,
      "##ળાટ": 7623,
      "ક્રમ": 7624,
      "##દેવી": 7625,
      "ઓફી": 7626,
      "લોકશાહી": 7627,
      "આર્ય": 7628,
      "સ્વાભાવિક": 7629,
      "લખન": 7630,
      "ઘટાડ": 7631,
      "ગેમ": 7632,
      "આરોપીની": 7633,
      "વસવાટ": 7634,
      "ઓળખાય": 7635,
      "સૈફ": 7636,
      "કલેક્ટ": 7637,
      "ગર્લ": 7638,
      "ઉંમરના": 7639,
      "ડાયરેક્ટર": 7640,
      "ક્વોલ": 7641,
      "##વ્યવ": 7642,
      "શક્તિશાળી": 7643,
      "ફેરફારો": 7644,
      "મંત્રાલયના": 7645,
      "ફાયરિંગ": 7646,
      "અભિપ્રાય": 7647,
      "ધંધા": 7648,
      "મોંઘવારી": 7649,
      "સુધારવા": 7650,
      "સંસદમાં": 7651,
      "ફ્લોર": 7652,
      "સોંપવામાં": 7653,
      "ચારેય": 7654,
      "લૉક": 7655,
      "રજિસ્ટ્રેશન": 7656,
      "રાજીવ": 7657,
      "કસરત": 7658,
      "વસાવા": 7659,
      "કોન્સ્ટેબલ": 7660,
      "46": 7661,
      "44": 7662,
      "આડ": 7663,
      "ઇનિંગ": 7664,
      "ઈન્ટર": 7665,
      "ઉલ": 7666,
      "ઊભો": 7667,
      "કવર": 7668,
      "ગડ": 7669,
      "જજ": 7670,
      "જશો": 7671,
      "ઢી": 7672,
      "થવી": 7673,
      "દળ": 7674,
      "સસ": 7675,
      "૫૫": 7676,
      "##કિટ": 7677,
      "##નથી": 7678,
      "##નવાર": 7679,
      "##દિ": 7680,
      "##શમાં": 7681,
      "##ગર્": 7682,
      "##માર્": 7683,
      "##ઝરી": 7684,
      "કરનારી": 7685,
      "કેલ": 7686,
      "##લાને": 7687,
      "પ્રસ્તુ": 7688,
      "પરની": 7689,
      "##લીને": 7690,
      "સાગર": 7691,
      "સાચા": 7692,
      "મોન": 7693,
      "સુન": 7694,
      "કાર્ત": 7695,
      "બેક્ટેર": 7696,
      "##સ્ટો": 7697,
      "નિખ": 7698,
      "અમર": 7699,
      "રાખવો": 7700,
      "##સાની": 7701,
      "કાર્યકર્તા": 7702,
      "પેઇન્ટ": 7703,
      "હાલની": 7704,
      "વચ્ચેના": 7705,
      "પરિવહન": 7706,
      "માત્રામાં": 7707,
      "અમદાવાદની": 7708,
      "અલ્ટ": 7709,
      "વિસ્તારની": 7710,
      "જયાં": 7711,
      "આરતી": 7712,
      "દર્દીના": 7713,
      "સ્થળો": 7714,
      "દિવાલો": 7715,
      "આશ્રમ": 7716,
      "કલાકો": 7717,
      "બળતરા": 7718,
      "પંચાયતના": 7719,
      "પંચાયતઘર": 7720,
      "જાન્યુઆરીએ": 7721,
      "નિયંત્રિત": 7722,
      "ચમક": 7723,
      "કોલેજમાં": 7724,
      "તહેવારો": 7725,
      "##ent": 7726,
      "ટેલિ": 7727,
      "ફ્રેન્ડ": 7728,
      "ક્લાસ": 7729,
      "સગર્": 7730,
      "ફાયદાકારક": 7731,
      "ધોરાજી": 7732,
      "દરોડા": 7733,
      "નહિં": 7734,
      "ડિસ્ટન્સ": 7735,
      "એસ્ટેટ": 7736,
      "આક્રમક": 7737,
      "તફાવત": 7738,
      "ગઠબંધ": 7739,
      "સાંસદો": 7740,
      "58": 7741,
      "ક્યા": 7742,
      "કસ્ટમ": 7743,
      "ગ્રો": 7744,
      "ચાઇ": 7745,
      "ટાઉન": 7746,
      "દળો": 7747,
      "પછ": 7748,
      "ફુલ": 7749,
      "મિલ્": 7750,
      "રજની": 7751,
      "વેટ": 7752,
      "શેટ": 7753,
      "શ્વે": 7754,
      "૦૦": 7755,
      "##યક": 7756,
      "##me": 7757,
      "##બદ્ધ": 7758,
      "##અર": 7759,
      "કરાવ્યો": 7760,
      "##ામારી": 7761,
      "પરો": 7762,
      "##લીએ": 7763,
      "##ાન્ટ": 7764,
      "કોડ": 7765,
      "##ંગો": 7766,
      "હોબ": 7767,
      "હોળી": 7768,
      "હોસ્પી": 7769,
      "##િયાને": 7770,
      "સુક": 7771,
      "સંય": 7772,
      "##લેણ": 7773,
      "##લેક્સ": 7774,
      "##ટીને": 7775,
      "##ટીની": 7776,
      "##િયાર": 7777,
      "રહયા": 7778,
      "##્યુલર": 7779,
      "##મ્બે": 7780,
      "સિદ્ધિ": 7781,
      "##ંકડો": 7782,
      "દેશોની": 7783,
      "લગતી": 7784,
      "##ડોર": 7785,
      "બનાવવાનું": 7786,
      "પેસે": 7787,
      "પહોંચાડી": 7788,
      "એટલો": 7789,
      "જીવલેણ": 7790,
      "પરિવારે": 7791,
      "મેળવે": 7792,
      "લોકસભામાં": 7793,
      "બદલાવ": 7794,
      "ડેપ": 7795,
      "કોંગ્રેસમાં": 7796,
      "રૂપિયાનું": 7797,
      "બેઠેલા": 7798,
      "પરિણી": 7799,
      "આરંભ": 7800,
      "##વરાજ": 7801,
      "પ્રકારનું": 7802,
      "##નિકલ": 7803,
      "બિંદુ": 7804,
      "ફરિયાદી": 7805,
      "ગરબા": 7806,
      "વસંત": 7807,
      "યોજવામાં": 7808,
      "અભ્યાસમાં": 7809,
      "ઈન્ડસ્ટ્રી": 7810,
      "એડવો": 7811,
      "બેંકના": 7812,
      "નિવેદનમાં": 7813,
      "પહેલીવાર": 7814,
      "નોટબંધી": 7815,
      "હિંસક": 7816,
      "તેલંગ": 7817,
      "આખું": 7818,
      "સોનાના": 7819,
      "વૃક્ષો": 7820,
      "આંગળી": 7821,
      "ફાળવણી": 7822,
      "સ્નાયુ": 7823,
      "કચરો": 7824,
      "પદાર્થો": 7825,
      "ઉમેર્યું": 7826,
      "નિમણૂક": 7827,
      "હથિયાર": 7828,
      "##ચંદ્ર": 7829,
      "પ્રાપ્ય": 7830,
      "ખેડુતો": 7831,
      "રોગચાળા": 7832,
      "પેકેજ": 7833,
      "હળવદ": 7834,
      "##ઘાટન": 7835,
      "વાંકાનેર": 7836,
      "##ટ્સએપ": 7837,
      "ખેતમજૂરી": 7838,
      "ગોહિલ": 7839,
      "53": 7840,
      "66": 7841,
      "61": 7842,
      "85": 7843,
      "અહી": 7844,
      "કૂત": 7845,
      "જહાજ": 7846,
      "ધૂળ": 7847,
      "ન્યા": 7848,
      "પદ્": 7849,
      "મંચ": 7850,
      "રાણા": 7851,
      "રદ્દ": 7852,
      "શાર": 7853,
      "હાન": 7854,
      "##ચારી": 7855,
      "##પન": 7856,
      "##પાય": 7857,
      "##વંત": 7858,
      "##બાલ": 7859,
      "##બેર": 7860,
      "##ારામ": 7861,
      "##વાળું": 7862,
      "કરાયેલ": 7863,
      "##લાકી": 7864,
      "##ામક": 7865,
      "##ાતિ": 7866,
      "##ાણામાં": 7867,
      "સ્તુ": 7868,
      "મોજ": 7869,
      "લોખંડ": 7870,
      "બેટરી": 7871,
      "##ક્ષક": 7872,
      "##સીંગ": 7873,
      "##મીના": 7874,
      "નિહ": 7875,
      "લેવું": 7876,
      "સેંકડો": 7877,
      "વેકેશન": 7878,
      "પડતાં": 7879,
      "સ્ટાઇલ": 7880,
      "શકિત": 7881,
      "વાતની": 7882,
      "કાબૂ": 7883,
      "બોય": 7884,
      "મૂકો": 7885,
      "##ડેન્ટ": 7886,
      "અપમાન": 7887,
      "તાકી": 7888,
      "કરોડથી": 7889,
      "વ્યક્તિના": 7890,
      "પ્રોફે": 7891,
      "વિદાય": 7892,
      "તાલિબ": 7893,
      "ખેતરમાં": 7894,
      "બોલર": 7895,
      "નાખ્યા": 7896,
      "પિતાને": 7897,
      "બુલેટ": 7898,
      "મુલાકાતે": 7899,
      "વનડે": 7900,
      "ગીતા": 7901,
      "અટકાવી": 7902,
      "સર્જાઈ": 7903,
      "ભેજ": 7904,
      "સ્વીકારી": 7905,
      "કૌશલ": 7906,
      "કરાવ્યું": 7907,
      "છોકરીઓ": 7908,
      "ટ્રાન્સપોર્ટ": 7909,
      "બતાવે": 7910,
      "આક્ષેપો": 7911,
      "વાપરી": 7912,
      "સપ્તાહમાં": 7913,
      "સંબોધન": 7914,
      "અભિનય": 7915,
      "નગરપાલિકાના": 7916,
      "વ્હાઇટ": 7917,
      "અટકી": 7918,
      "વેરાવ": 7919,
      "વાનગીઓ": 7920,
      "ગુસ્સો": 7921,
      "સાબરકાંઠા": 7922,
      "##્યોરિટી": 7923,
      "લીંબુ": 7924,
      "રિટર્ન": 7925,
      "##સિંહે": 7926,
      "શૌચાલ": 7927,
      "કાઉન્સિલ": 7928,
      "અંડર": 7929,
      "એસોસિએશન": 7930,
      "છોટાઉદેપુર": 7931,
      "ખુરશી": 7932,
      "તાલિબાન": 7933,
      "52": 7934,
      "63": 7935,
      "CM": 7936,
      "અવર": 7937,
      "આલિયા": 7938,
      "ઢો": 7939,
      "નૌ": 7940,
      "મકર": 7941,
      "લસણ": 7942,
      "વ્યાસ": 7943,
      "##ક્યો": 7944,
      "##ઈમાં": 7945,
      "##સગઢ": 7946,
      "##પક્ષ": 7947,
      "##જલ": 7948,
      "##બન": 7949,
      "##ૃહ": 7950,
      "પ્રદીપ": 7951,
      "##ાવું": 7952,
      "##રીનો": 7953,
      "##ેશન્સ": 7954,
      "##વીજ": 7955,
      "પોષણ": 7956,
      "સમારંભ": 7957,
      "##ાલો": 7958,
      "તેમા": 7959,
      "##ડીપી": 7960,
      "##રેટર": 7961,
      "વધવા": 7962,
      "મળેલ": 7963,
      "રૂટ": 7964,
      "પૂજન": 7965,
      "પહેરી": 7966,
      "લીમ": 7967,
      "તેઓના": 7968,
      "પીવાથી": 7969,
      "##પ્રથમ": 7970,
      "જાણતા": 7971,
      "ત્રિપ": 7972,
      "જિલ્લાઓમાં": 7973,
      "ડિફે": 7974,
      "થઇને": 7975,
      "##બેક": 7976,
      "##એસપી": 7977,
      "પ્રોટીન": 7978,
      "લાકડી": 7979,
      "વાયદા": 7980,
      "ખાવાથી": 7981,
      "બંન્ને": 7982,
      "ચૂંટણીના": 7983,
      "કમિશ્": 7984,
      "મોતને": 7985,
      "વિદ્યાર્થીની": 7986,
      "રાત્રિ": 7987,
      "કલાકની": 7988,
      "બ્રાહ": 7989,
      "ઘરેથી": 7990,
      "આજની": 7991,
      "માલિકો": 7992,
      "ચૂકવ": 7993,
      "જોઇને": 7994,
      "આસામ": 7995,
      "વ્યાખ્યા": 7996,
      "##મણાં": 7997,
      "યોજાયો": 7998,
      "જીત્યા": 7999,
      "પતિને": 8000,
      "સંસ્થાના": 8001,
      "પાર્ટીમાં": 8002,
      "નદીના": 8003,
      "કર્મચારીઓની": 8004,
      "1000": 8005,
      "ઊંચાઈ": 8006,
      "ખસેડ": 8007,
      "સોનાની": 8008,
      "યુવાનોને": 8009,
      "શાકભાજીના": 8010,
      "ધંધો": 8011,
      "હટાવી": 8012,
      "રાજકારણમાં": 8013,
      "પરિષદ": 8014,
      "અવારનવાર": 8015,
      "નિમિત્તે": 8016,
      "સ્ક્રીન": 8017,
      "એક્સપ્રેસ": 8018,
      "##જવસ્તુ": 8019,
      "કથિત": 8020,
      "રાજપૂત": 8021,
      "સેમ્પલ": 8022,
      "પ્રદૂષણ": 8023,
      "પ્રેક્ટિસ": 8024,
      "મસ્જિદ": 8025,
      "57": 8026,
      "71": 8027,
      "88": 8028,
      "આનો": 8029,
      "આંબ": 8030,
      "ઈશ્વર": 8031,
      "કડ": 8032,
      "કન્ટ": 8033,
      "કિંગ": 8034,
      "જળા": 8035,
      "બારી": 8036,
      "મકાનો": 8037,
      "રત્": 8038,
      "વતી": 8039,
      "વારો": 8040,
      "વતન": 8041,
      "વસ્ત્રો": 8042,
      "૯૦": 8043,
      "##ટું": 8044,
      "##ંુ": 8045,
      "##ter": 8046,
      "##િન્સ": 8047,
      "##જિસ્ટ": 8048,
      "##વર્ડ": 8049,
      "##બાપુ": 8050,
      "##ઠાણ": 8051,
      "##MC": 8052,
      "##રીઓ": 8053,
      "##રોનો": 8054,
      "આપનાર": 8055,
      "##ાળુ": 8056,
      "##ક્ષમતા": 8057,
      "##ડાટ": 8058,
      "##જીવી": 8059,
      "##રૂણ": 8060,
      "નાથ": 8061,
      "યુકે": 8062,
      "સિલિ": 8063,
      "સરકારનો": 8064,
      "ભાગ્યે": 8065,
      "પેજ": 8066,
      "ગ્રાન્ટ": 8067,
      "ફેફ": 8068,
      "ચીને": 8069,
      "પરિબળો": 8070,
      "ખાતામાં": 8071,
      "પ્રમાણપત્ર": 8072,
      "રાજકોટઃ": 8073,
      "હિમા": 8074,
      "##નીયર": 8075,
      "પાકિસ્તાનમાં": 8076,
      "હજારની": 8077,
      "ભાડે": 8078,
      "જાણીને": 8079,
      "ઉમેદવારી": 8080,
      "યોજાયેલી": 8081,
      "વડોદરાના": 8082,
      "બોર્ડની": 8083,
      "કરાતા": 8084,
      "લાઇટ": 8085,
      "મગજ": 8086,
      "તબક્કે": 8087,
      "યુનિવર્સિટીના": 8088,
      "રવિવાર": 8089,
      "રાજયના": 8090,
      "સૌરાષ્ટ્રમાં": 8091,
      "કેરળ": 8092,
      "જાપાની": 8093,
      "ડીઝલના": 8094,
      "સ્કૂલમાં": 8095,
      "નમૂના": 8096,
      "એન્જી": 8097,
      "બંગાળમાં": 8098,
      "ધારણા": 8099,
      "પ્રતિનિધ": 8100,
      "નિષ્ણાતો": 8101,
      "સૈનિકો": 8102,
      "ડ્રાઈવર": 8103,
      "કારોબાર": 8104,
      "કારોબારી": 8105,
      "નવરાત્રી": 8106,
      "આવેદનપત્ર": 8107,
      "શત્રુ": 8108,
      "શણગાર": 8109,
      "એડવોકેટ": 8110,
      "આઘાત": 8111,
      "ઓલિ": 8112,
      "ક્લો": 8113,
      "ખાય": 8114,
      "ખેર": 8115,
      "ગાયક": 8116,
      "ગળે": 8117,
      "છંટ": 8118,
      "ઢોર": 8119,
      "વાળી": 8120,
      "૩૦૦": 8121,
      "૪૩": 8122,
      "##ટમ": 8123,
      "##હારી": 8124,
      "##ગાં": 8125,
      "##સોલ": 8126,
      "##ૂઝ": 8127,
      "##બરે": 8128,
      "##2માં": 8129,
      "કરાયેલી": 8130,
      "કેલ્": 8131,
      "##યાએ": 8132,
      "##ન્જર": 8133,
      "બેઝ": 8134,
      "મુળ": 8135,
      "##ત્તર": 8136,
      "##સ્ટી": 8137,
      "રાજેન્દ્ર": 8138,
      "##લોટ": 8139,
      "રોટ": 8140,
      "રોમાં": 8141,
      "લેવલ": 8142,
      "##ોડું": 8143,
      "વ્યાવ": 8144,
      "વ્યૂહ": 8145,
      "##ોર્સ": 8146,
      "દરજ્": 8147,
      "સોન": 8148,
      "લીલી": 8149,
      "મહિનો": 8150,
      "લાગતા": 8151,
      "ઉત્તરા": 8152,
      "ભાગોમાં": 8153,
      "રેસીપી": 8154,
      "ખાતર": 8155,
      "બનતા": 8156,
      "કોંગ્રેસની": 8157,
      "પ્રતિમા": 8158,
      "રિફ": 8159,
      "દેખરેખ": 8160,
      "આયોજિત": 8161,
      "સંપાદ": 8162,
      "શેઠ": 8163,
      "માર્ગદર્શ": 8164,
      "શાળાઓમાં": 8165,
      "જમીનમાં": 8166,
      "પત્નીને": 8167,
      "અધિકારીઓની": 8168,
      "ધીમી": 8169,
      "બેન્કો": 8170,
      "ઓળખવામાં": 8171,
      "યુવતીને": 8172,
      "દ્રશ્યો": 8173,
      "સંચાલિત": 8174,
      "સ્ટોપ": 8175,
      "કુંભ": 8176,
      "પાઠવી": 8177,
      "લગ્નમાં": 8178,
      "લગ્નના": 8179,
      "ટ્રમ્પે": 8180,
      "બરફ": 8181,
      "બેનર્જી": 8182,
      "વૈજ્ઞાનિક": 8183,
      "હથિયારો": 8184,
      "બપોરના": 8185,
      "##કૃષ્ણ": 8186,
      "કિનારે": 8187,
      "દલીલ": 8188,
      "હુકમ": 8189,
      "કાફલો": 8190,
      "અઠવાડિયે": 8191,
      "##ews": 8192,
      "##નિર્ભર": 8193,
      "કૉંગ્રેસ": 8194,
      "નક્ષત્ર": 8195,
      "સ્તુતિ": 8196,
      ".[": 8197,
      "?’": 8198,
      "of": 8199,
      "ઇંડા": 8200,
      "ઊભ": 8201,
      "કહો": 8202,
      "ગાળામાં": 8203,
      "જ્વ": 8204,
      "ઠેક": 8205,
      "તડ": 8206,
      "તાર": 8207,
      "થા": 8208,
      "નૈ": 8209,
      "નંબ": 8210,
      "પેડ": 8211,
      "ફાળો": 8212,
      "મૅ": 8213,
      "વંચ": 8214,
      "વલ્લ": 8215,
      "શર્ટ": 8216,
      "હક": 8217,
      "૬૫": 8218,
      "##oc": 8219,
      "##ુત": 8220,
      "##સ્યો": 8221,
      "##પચારિક": 8222,
      "##બડ": 8223,
      "##ડલ": 8224,
      "##ul": 8225,
      "##્યની": 8226,
      "કેવ": 8227,
      "##ન્ડા": 8228,
      "એકસ": 8229,
      "હોવો": 8230,
      "##વીય": 8231,
      "સાથેનો": 8232,
      "લોહ": 8233,
      "##કાયા": 8234,
      "ઉપપ્રમુખ": 8235,
      "મળવાની": 8236,
      "લેતાં": 8237,
      "અમલમાં": 8238,
      "##રમાંથી": 8239,
      "નીર": 8240,
      "સમયની": 8241,
      "સ્ટાર્ટ": 8242,
      "પુષ્ટિ": 8243,
      "શકતી": 8244,
      "બનાવશે": 8245,
      "બોલ્ડ": 8246,
      "રેસ": 8247,
      "રેતી": 8248,
      "પેન્શન": 8249,
      "##પ્લા": 8250,
      "પાણીથી": 8251,
      "##વાયરસ": 8252,
      "વચ્ચેની": 8253,
      "ભાવિ": 8254,
      "##ગાડી": 8255,
      "ડેમો": 8256,
      "##સ્થાને": 8257,
      "##રેકટર": 8258,
      "જગત": 8259,
      "ગયેલી": 8260,
      "ટ્રેનિંગ": 8261,
      "2013": 8262,
      "બાબતમાં": 8263,
      "ટોચના": 8264,
      "જીવનસાથી": 8265,
      "મુખ્યમંત્રીએ": 8266,
      "જોડાઈ": 8267,
      "વિચાર્યું": 8268,
      "પત્નીએ": 8269,
      "તંત્રએ": 8270,
      "૨૦૧૬": 8271,
      "વિનાશ": 8272,
      "તબિયત": 8273,
      "લાલચ": 8274,
      "મૂકવા": 8275,
      "250": 8276,
      "જોખમી": 8277,
      "અહેવાલો": 8278,
      "બ્રાન્ચ": 8279,
      "ધમધ": 8280,
      "મહામારીના": 8281,
      "વાંધો": 8282,
      "ડિસેમ્બરે": 8283,
      "સાયન્સ": 8284,
      "સાયકલ": 8285,
      "વેક્સિનેશન": 8286,
      "લિંક": 8287,
      "સ્કૂલો": 8288,
      "ગોઠવી": 8289,
      "માંડવી": 8290,
      "સાઉદી": 8291,
      "પાતળા": 8292,
      "નારાજગી": 8293,
      "પ્રાપ્તિ": 8294,
      "ઝઘડો": 8295,
      "ભાષામાં": 8296,
      "સ્ટેડિયમ": 8297,
      "પાંદડા": 8298,
      "અલ્પેશ": 8299,
      "અભિગમ": 8300,
      "છેતરપિંડી": 8301,
      "છંટકાવ": 8302,
      "):": 8303,
      "56": 8304,
      "આભ": 8305,
      "ખભા": 8306,
      "ચણા": 8307,
      "છી": 8308,
      "છાં": 8309,
      "ઠાર": 8310,
      "ધર્": 8311,
      "પારો": 8312,
      "પંપ": 8313,
      "બટા": 8314,
      "સગા": 8315,
      "૬૬": 8316,
      "##શંકર": 8317,
      "##ંછ": 8318,
      "##યત": 8319,
      "##og": 8320,
      "##ow": 8321,
      "##ેન": 8322,
      "##ૅર": 8323,
      "પ્રહ": 8324,
      "વિડિયો": 8325,
      "કોળી": 8326,
      "સંકલ": 8327,
      "વધ્યો": 8328,
      "##ન્ટી": 8329,
      "##્યુબ": 8330,
      "##સેલ": 8331,
      "સેલે": 8332,
      "સેક્ટર": 8333,
      "પહેરીને": 8334,
      "કામે": 8335,
      "સ્થાયી": 8336,
      "##સાના": 8337,
      "સીધો": 8338,
      "બનાવ્યું": 8339,
      "રેપ": 8340,
      "નામથી": 8341,
      "ફોરે": 8342,
      "ચીજવસ્તુ": 8343,
      "પ્રોપ": 8344,
      "ડીજી": 8345,
      "સફાઇ": 8346,
      "##્યૂટ": 8347,
      "કોઇને": 8348,
      "##શાસ્ત્ર": 8349,
      "વિદ્યાર્થીઓની": 8350,
      "નિર્ણયને": 8351,
      "લેવાયો": 8352,
      "પાર્ટનર": 8353,
      "ટોળ": 8354,
      "અવસર": 8355,
      "##પ્ટર": 8356,
      "આજનો": 8357,
      "##ભવતી": 8358,
      "નાખવાની": 8359,
      "આઇટી": 8360,
      "બુટ": 8361,
      "નિર્દોષ": 8362,
      "યુવતીના": 8363,
      "શ્રમ": 8364,
      "અડધી": 8365,
      "સુંદરતા": 8366,
      "##કામના": 8367,
      "શખ્સોએ": 8368,
      "સંચાલક": 8369,
      "સેનાના": 8370,
      "મથક": 8371,
      "મહામારીને": 8372,
      "માધ્યમિક": 8373,
      "ટ્રસ્ટી": 8374,
      "જીલ્લાના": 8375,
      "અભિષ": 8376,
      "પરમાણુ": 8377,
      "ફ્લાઈ": 8378,
      "વધારીને": 8379,
      "સગીર": 8380,
      "પથ્થર": 8381,
      "કક્ષાએ": 8382,
      "કોમ્પ્યુટર": 8383,
      "સાંભળીને": 8384,
      "રજીસ્ટ": 8385,
      "વ્યાવસાય": 8386,
      "47": 8387,
      "ઇમે": 8388,
      "ગંદ": 8389,
      "જડ": 8390,
      "ઠરાવ": 8391,
      "તકો": 8392,
      "નફો": 8393,
      "પાળ": 8394,
      "રાસ": 8395,
      "લદ્દ": 8396,
      "વાલ": 8397,
      "શૉ": 8398,
      "સતા": 8399,
      "૧પ": 8400,
      "##ંબા": 8401,
      "##av": 8402,
      "##િનો": 8403,
      "##વમાં": 8404,
      "##વૂડ": 8405,
      "##ૂતિ": 8406,
      "##ખાન": 8407,
      "##um": 8408,
      "છેઃ": 8409,
      "માસ્ટર": 8410,
      "પ્રહાર": 8411,
      "##રીક": 8412,
      "##ેશનો": 8413,
      "જોવાનું": 8414,
      "સુખી": 8415,
      "##ાદર": 8416,
      "બેલે": 8417,
      "બેન્ડ": 8418,
      "##ન્ટલ": 8419,
      "નિવાસી": 8420,
      "પાથ": 8421,
      "પાડીને": 8422,
      "લેવાનો": 8423,
      "લેનાર": 8424,
      "દિવ્યાં": 8425,
      "દેવે": 8426,
      "દેસાઈ": 8427,
      "સમયના": 8428,
      "રાખવાનો": 8429,
      "ઉપરના": 8430,
      "ભારતનું": 8431,
      "બોસ": 8432,
      "બોન્ડ": 8433,
      "રાજ્યપાલ": 8434,
      "ગોપાલ": 8435,
      "શોખ": 8436,
      "##દેદારો": 8437,
      "અંગેના": 8438,
      "તૈનાત": 8439,
      "રૂપિયામાં": 8440,
      "ભરૃ": 8441,
      "##પાયા": 8442,
      "ટ્રેન્ડ": 8443,
      "ગણાવી": 8444,
      "યુવકે": 8445,
      "બોલિંગ": 8446,
      "##ાજીક": 8447,
      "ટોળા": 8448,
      "લાભો": 8449,
      "ઘટાડે": 8450,
      "એનસીપી": 8451,
      "પિતાની": 8452,
      "ટેસ્ટમાં": 8453,
      "અગાઉના": 8454,
      "સ્ટેશનના": 8455,
      "વસતી": 8456,
      "તંત્રને": 8457,
      "અતુલ": 8458,
      "મોરબીમાં": 8459,
      "વિધાનસભામાં": 8460,
      "યાત્રી": 8461,
      "સાયબર": 8462,
      "રણવીર": 8463,
      "પાલનપુર": 8464,
      "વોર્ડમાં": 8465,
      "રાજસ્થાનના": 8466,
      "ચમત્": 8467,
      "ચલાવતા": 8468,
      "સિક્યોરિટી": 8469,
      "##ભુત": 8470,
      "ઝોનમાં": 8471,
      "ટેલિકો": 8472,
      "સગવડ": 8473,
      "સેક્રે": 8474,
      "ગુલાબ": 8475,
      "##ધિકારી": 8476,
      "સરખામણીએ": 8477,
      "વાદળી": 8478,
      "કોર્પોરેટર": 8479,
      "કક્ષાના": 8480,
      "જલદી": 8481,
      "મનીષ": 8482,
      "વિસર્જન": 8483,
      "કનેક્શન": 8484,
      "સાબરમતી": 8485,
      "શાખા": 8486,
      "કાયદેસરની": 8487,
      "ઈન્ટરનેટ": 8488,
      "બેટ્સમેન": 8489,
      "પાઇપ": 8490,
      "ડિલિવ": 8491,
      "બારડોલી": 8492,
      "ફર્નિચર": 8493,
      "મનપસંદ": 8494,
      "હોબાળો": 8495,
      "લદ્દાખ": 8496,
      "72": 8497,
      "અશક": 8498,
      "આદર": 8499,
      "ઈલેક્ટ": 8500,
      "ગાળો": 8501,
      "ચાર્": 8502,
      "ઝાપ": 8503,
      "તિવ": 8504,
      "દાળ": 8505,
      "પંક": 8506,
      "ફગ": 8507,
      "બૂ": 8508,
      "યાત્ર": 8509,
      "વહ": 8510,
      "હંગ": 8511,
      "હારી": 8512,
      "##દત": 8513,
      "##મંદ": 8514,
      "##ંપી": 8515,
      "##ચૂ": 8516,
      "##સમી": 8517,
      "##જ્યુ": 8518,
      "##જિન": 8519,
      "##વતી": 8520,
      "##નાના": 8521,
      "કેચ": 8522,
      "કેવું": 8523,
      "માથે": 8524,
      "પરા": 8525,
      "પરસે": 8526,
      "વિઝ": 8527,
      "##ાનંદ": 8528,
      "કોસ્ટ": 8529,
      "##િતી": 8530,
      "સાડી": 8531,
      "સાસુ": 8532,
      "સુભાષ": 8533,
      "બેસા": 8534,
      "##રૂમમાં": 8535,
      "##સ્તિક": 8536,
      "નિફ્ટી": 8537,
      "પાપ": 8538,
      "પાચન": 8539,
      "સેમી": 8540,
      "##ાણીએ": 8541,
      "કોઈની": 8542,
      "પડયા": 8543,
      "##બીસી": 8544,
      "લગા": 8545,
      "સૌપ્રથમ": 8546,
      "ચોરસ": 8547,
      "પેસ્ટ": 8548,
      "ચાલશે": 8549,
      "કંપનીઓના": 8550,
      "સુરેશ": 8551,
      "ફેન્સ": 8552,
      "પ્રતિભા": 8553,
      "નવીન": 8554,
      "મંદી": 8555,
      "નેતાઓએ": 8556,
      "કપરા": 8557,
      "પાકિસ્તાનને": 8558,
      "##તમંદ": 8559,
      "નવજાત": 8560,
      "મેળવવામાં": 8561,
      "##લ્સને": 8562,
      "##લાઇટ": 8563,
      "મંદિરની": 8564,
      "જાતીય": 8565,
      "અગાઉથી": 8566,
      "૧૯૬": 8567,
      "મનપા": 8568,
      "પુરસ્કાર": 8569,
      "પત્રમાં": 8570,
      "##આરપી": 8571,
      "ગર્ભવતી": 8572,
      "ક્યાંય": 8573,
      "વ્યક્તિત્વ": 8574,
      "લક્ષ્યાં": 8575,
      "##and": 8576,
      "મથકમાં": 8577,
      "અંકુશ": 8578,
      "મૂલ્યાં": 8579,
      "જથ્થા": 8580,
      "પંડિત": 8581,
      "વહીવટ": 8582,
      "પોરબંદ": 8583,
      "ભજવી": 8584,
      "કાળજીપૂર્વક": 8585,
      "વિરૂધ્ધ": 8586,
      "શિયાળામાં": 8587,
      "ડિપાર્ટમેન્ટ": 8588,
      "વાવાઝોડા": 8589,
      "ઉદ્દેશ": 8590,
      "ડૂબી": 8591,
      "સિનેમા": 8592,
      "પાડોશી": 8593,
      "સઘન": 8594,
      "હેલિકો": 8595,
      "ઉશ્કેર": 8596,
      "ટંકારા": 8597,
      "મેડીકલ": 8598,
      "પ્રસ્તુત": 8599,
      "ડેપ્યુટી": 8600,
      "વંચિત": 8601,
      "સેક્રેટરી": 8602,
      "ઉઘર": 8603,
      "એમે": 8604,
      "ઓમ": 8605,
      "ઓઇલ": 8606,
      "કંડ": 8607,
      "કાળી": 8608,
      "ગંગા": 8609,
      "જાસ": 8610,
      "નકારી": 8611,
      "નડિયા": 8612,
      "પાયલ": 8613,
      "ફસાય": 8614,
      "મમ્મી": 8615,
      "લિપ": 8616,
      "વાજ": 8617,
      "હમણાં": 8618,
      "##કથા": 8619,
      "##ુક્ત": 8620,
      "##ઝની": 8621,
      "##સમેન્ટ": 8622,
      "##જનમાં": 8623,
      "##ળાઈ": 8624,
      "##ખાં": 8625,
      "##har": 8626,
      "##નાએ": 8627,
      "##તાપ": 8628,
      "કેક": 8629,
      "##ામંત્રી": 8630,
      "પ્રણ": 8631,
      "##િક્": 8632,
      "##લીફ": 8633,
      "##ાજન": 8634,
      "સ્તન": 8635,
      "##કેપ": 8636,
      "##જીભાઇ": 8637,
      "મેના": 8638,
      "મેથી": 8639,
      "સિમેન્ટ": 8640,
      "વેક": 8641,
      "સ્ટાર્": 8642,
      "પુનર": 8643,
      "સોજો": 8644,
      "સીએ": 8645,
      "મીઠા": 8646,
      "અનુષ્": 8647,
      "પહોંચતા": 8648,
      "સાંજના": 8649,
      "ટકાના": 8650,
      "ચેન્ના": 8651,
      "તરફે": 8652,
      "લોકલ": 8653,
      "વિસ્તારમાંથી": 8654,
      "હોસ્પિટલની": 8655,
      "કમન": 8656,
      "કમલેશ": 8657,
      "બંનેએ": 8658,
      "રિમાન્ડ": 8659,
      "##એમસી": 8660,
      "2011": 8661,
      "પ્રવૃતિ": 8662,
      "પાકિસ્તાને": 8663,
      "હરિ": 8664,
      "આઈસી": 8665,
      "સંબંધમાં": 8666,
      "દિવાલ": 8667,
      "નાખ્યો": 8668,
      "##પુરી": 8669,
      "ટેસ્ટિંગ": 8670,
      "ઇન્ડેક્સ": 8671,
      "નિર્માતા": 8672,
      "સમજવા": 8673,
      "સોમવાર": 8674,
      "લાઈટ": 8675,
      "ગર્ભાવસ્થા": 8676,
      "સંભાળી": 8677,
      "##ફિકેશન": 8678,
      "સૂચિ": 8679,
      "સૂચવે": 8680,
      "નીકળ્યા": 8681,
      "રાજયમાં": 8682,
      "માધ્યમ": 8683,
      "અંકલેશ": 8684,
      "માળખું": 8685,
      "##....": 8686,
      "યૂઝ": 8687,
      "ઇતિહાસમાં": 8688,
      "જરુર": 8689,
      "##ંખ્ય": 8690,
      "દાયકા": 8691,
      "બચ્ચન": 8692,
      "મનુષ્ય": 8693,
      "કુમારે": 8694,
      "અબ્દુલ": 8695,
      "માછીમારો": 8696,
      "કેજરીવાલ": 8697,
      "ઉદ્ધવ": 8698,
      "એક્સચેન્જ": 8699,
      "પરાજય": 8700,
      "##ગર્ભ": 8701,
      "ન્યાયા": 8702,
      "અભિષેક": 8703,
      "ટેલિકોમ": 8704,
      "અશક્ય": 8705,
      "',": 8706,
      "62": 8707,
      "74": 8708,
      "અન્ન": 8709,
      "ઈજાગ્રસ્ત": 8710,
      "એથ": 8711,
      "ઓથ": 8712,
      "કાજ": 8713,
      "ખવડ": 8714,
      "ચિત": 8715,
      "જસદ": 8716,
      "ટાઈમ": 8717,
      "તુર": 8718,
      "દાર": 8719,
      "દહીં": 8720,
      "ધૂમ": 8721,
      "મરા": 8722,
      "શંકર": 8723,
      "ષડ": 8724,
      "હવામાં": 8725,
      "૪૭": 8726,
      "૫૨": 8727,
      "૬૮": 8728,
      "૯૯": 8729,
      "##શૈ": 8730,
      "##ગના": 8731,
      "##મકી": 8732,
      "##cc": 8733,
      "##ab": 8734,
      "##ભે": 8735,
      "##જક": 8736,
      "##બોર્ડ": 8737,
      "##kar": 8738,
      "##૫માં": 8739,
      "##hat": 8740,
      "##ાંતો": 8741,
      "કેળ": 8742,
      "માપ": 8743,
      "##લાએ": 8744,
      "##ાવટ": 8745,
      "##ટેજ": 8746,
      "##રીએ": 8747,
      "##ક્ક": 8748,
      "##ક્વિ": 8749,
      "સાપ": 8750,
      "હોટે": 8751,
      "જોવી": 8752,
      "સુનીલ": 8753,
      "##ક્ષર": 8754,
      "##કીટ": 8755,
      "મહંત": 8756,
      "##ત્રા": 8757,
      "##ન્ડો": 8758,
      "નોટો": 8759,
      "##જેકશન": 8760,
      "બીચ": 8761,
      "દિવ્ય": 8762,
      "આગમન": 8763,
      "કાકડી": 8764,
      "ચોથી": 8765,
      "##ભાઈએ": 8766,
      "##ંટણી": 8767,
      "રાફ": 8768,
      "મીની": 8769,
      "પેઢ": 8770,
      "જુદ": 8771,
      "ફોલો": 8772,
      "ફોનમાં": 8773,
      "ભરાઈ": 8774,
      "મારામારી": 8775,
      "રાહુ": 8776,
      "ગાંધીધામ": 8777,
      "કિરીટ": 8778,
      "ખોદ": 8779,
      "દોષિત": 8780,
      "પેટમાં": 8781,
      "આરોપીઓને": 8782,
      "ઉત્પાદક": 8783,
      "નજીકથી": 8784,
      "નાખવામાં": 8785,
      "દુનિયાભરમાં": 8786,
      "પૂછવામાં": 8787,
      "ફેલાઈ": 8788,
      "મહાનગ": 8789,
      "દ્રારા": 8790,
      "દ્રશ્ય": 8791,
      "ગર્ભા": 8792,
      "એન્ટિ": 8793,
      "હાર્ડ": 8794,
      "પંચાયતની": 8795,
      "કાંઈ": 8796,
      "નાંખી": 8797,
      "નિયમોનું": 8798,
      "ચુડાસ": 8799,
      "આત્મવિ": 8800,
      "પૃષ્ઠ": 8801,
      "અંબાજી": 8802,
      "ફ્રેન્ચ": 8803,
      "આવશ્યકતા": 8804,
      "##્યુલેશન": 8805,
      "સદસ્ય": 8806,
      "ઉછાળો": 8807,
      "આઝાદ": 8808,
      "સહેજ": 8809,
      "કનેક્ટ": 8810,
      "ઇન્ટરવ્યૂ": 8811,
      "વેક્સીન": 8812,
      "ફ્રાન્સ": 8813,
      "રિક્ષા": 8814,
      "જન્મદિવસ": 8815,
      "પ્રતીક": 8816,
      "ધીરજ": 8817,
      "ભરૃચ": 8818,
      "78": 8819,
      "એલાન": 8820,
      "ગિર": 8821,
      "ઘાત": 8822,
      "છત્તી": 8823,
      "જરા": 8824,
      "ઝુ": 8825,
      "ડેલ": 8826,
      "તામ": 8827,
      "તૂટ": 8828,
      "દાવ": 8829,
      "ધામ": 8830,
      "બર્": 8831,
      "ભયા": 8832,
      "ભવન": 8833,
      "વઘ": 8834,
      "વસ્ત્ર": 8835,
      "૪૧": 8836,
      "૫૪": 8837,
      "##ાતા": 8838,
      "##લક્ષી": 8839,
      "##મથ": 8840,
      "##મ્ય": 8841,
      "##વટે": 8842,
      "##ૂફ": 8843,
      "##ડના": 8844,
      "છેવટે": 8845,
      "##ુંક": 8846,
      "માવ": 8847,
      "માગી": 8848,
      "પ્રકા": 8849,
      "કોર્સ": 8850,
      "પોષ": 8851,
      "સુગંધ": 8852,
      "રાજનાથ": 8853,
      "યુવરાજ": 8854,
      "દેવાની": 8855,
      "રાખ્યા": 8856,
      "રાખશે": 8857,
      "##સાથ": 8858,
      "##ળીને": 8859,
      "ચોખા": 8860,
      "ગામડા": 8861,
      "મીઠી": 8862,
      "રેગ": 8863,
      "##શીપ": 8864,
      "મહિલાના": 8865,
      "મહિલાઓની": 8866,
      "ચૂંટણીની": 8867,
      "જેમની": 8868,
      "તાલિ": 8869,
      "મારવા": 8870,
      "રાજકોટની": 8871,
      "ક્ષણ": 8872,
      "અરબ": 8873,
      "તાલુકાઓ": 8874,
      "પ્રવક્તા": 8875,
      "સિંઘ": 8876,
      "એનર્જી": 8877,
      "વિકાસના": 8878,
      "માર્ગો": 8879,
      "પાડ્યો": 8880,
      "ડ્રાય": 8881,
      "ઓળખી": 8882,
      "ઝડપાયો": 8883,
      "##ાયેલું": 8884,
      "દુનિયાની": 8885,
      "ભેળ": 8886,
      "પ્રોજેકટ": 8887,
      "પામે": 8888,
      "ડૉલર": 8889,
      "એપ્રિલે": 8890,
      "લેખક": 8891,
      "તીર્થ": 8892,
      "સૌરાષ્ટ્રના": 8893,
      "ભયંકર": 8894,
      "પાવડર": 8895,
      "ટ્વીટર": 8896,
      "ઉમટી": 8897,
      "એકબીજાને": 8898,
      "તુલસી": 8899,
      "વિકસિત": 8900,
      "ઉપકરણો": 8901,
      "એકત્રિત": 8902,
      "વ્યાપાર": 8903,
      "રાત્રીના": 8904,
      "ડાઉનલોડ": 8905,
      "બાજરી": 8906,
      "શુભેચ્છા": 8907,
      "જયંતિ": 8908,
      "જર્મની": 8909,
      "સાથોસાથ": 8910,
      "પ્રેશર": 8911,
      "જબરદ": 8912,
      "પ્રાઈવેટ": 8913,
      "માર્ગદર્શિકા": 8914,
      "છત્તીસગઢ": 8915,
      "73": 8916,
      "અન્ડર": 8917,
      "ઘરોમાં": 8918,
      "જર્": 8919,
      "ઝેર": 8920,
      "ડ્રે": 8921,
      "ઢાંક": 8922,
      "ત્રા": 8923,
      "તાજા": 8924,
      "ધાત": 8925,
      "ધ્યે": 8926,
      "નવાર": 8927,
      "નૃત્ય": 8928,
      "ફફ": 8929,
      "બટ": 8930,
      "બર્થ": 8931,
      "મતો": 8932,
      "શોર્ટ": 8933,
      "હિલ": 8934,
      "##દિન": 8935,
      "##શર": 8936,
      "##સાગર": 8937,
      "##CB": 8938,
      "##ખમ": 8939,
      "##આમ": 8940,
      "##ut": 8941,
      "કરન્સી": 8942,
      "કેશો": 8943,
      "માળા": 8944,
      "##લાણી": 8945,
      "##ાવવાના": 8946,
      "##રીય": 8947,
      "##લીઓ": 8948,
      "હોતી": 8949,
      "##ાણિક": 8950,
      "##મેર": 8951,
      "##ાદાર": 8952,
      "##્રીત": 8953,
      "##યોમાં": 8954,
      "બેરોજ": 8955,
      "તમિલનાડુ": 8956,
      "##કાલીક": 8957,
      "મળેલા": 8958,
      "ગુને": 8959,
      "ગુનામાં": 8960,
      "##સેક": 8961,
      "##ત્રિમ": 8962,
      "##પીપ": 8963,
      "લેબ": 8964,
      "જીબી": 8965,
      "સેન્સ": 8966,
      "માંડી": 8967,
      "પૂર્": 8968,
      "પહેલું": 8969,
      "શકતો": 8970,
      "##બીઆઈ": 8971,
      "##પ્રતિક": 8972,
      "બનાવતા": 8973,
      "રેન્": 8974,
      "ગ્રામી": 8975,
      "વાક": 8976,
      "ક્રૂડ": 8977,
      "##નિટી": 8978,
      "ટ્રોલ": 8979,
      "ગાંધીના": 8980,
      "મહેમાન": 8981,
      "ટ્રેનો": 8982,
      "2010": 8983,
      "બોલ્યા": 8984,
      "મતલબ": 8985,
      "મંત્રીએ": 8986,
      "આદત": 8987,
      "પુરવાર": 8988,
      "માગતા": 8989,
      "મહામંત્રી": 8990,
      "સભ્યોની": 8991,
      "લેખમાં": 8992,
      "અફવા": 8993,
      "મોટાભાગની": 8994,
      "કબજે": 8995,
      "ઓપરેટ": 8996,
      "પાર્કિંગ": 8997,
      "અનુભવો": 8998,
      "કાનૂની": 8999,
      "સન્માનિત": 9000,
      "##ઠ્ઠ": 9001,
      "ઓસ્ટ્રેલિયામાં": 9002,
      "ન્યુઝ": 9003,
      "મોંઘી": 9004,
      "ફર્સ્ટ": 9005,
      "પથ્થરમ": 9006,
      "મચાવી": 9007,
      "ચાંદીના": 9008,
      "ર૦૧": 9009,
      "બ્રહ્": 9010,
      "પાયે": 9011,
      "ચિકન": 9012,
      "ચિકિત્સ": 9013,
      "જરૂરિયાતો": 9014,
      "સ્કીમ": 9015,
      "નર્સિંગ": 9016,
      "આલ્બ": 9017,
      "ફ્લાઇટ": 9018,
      "##નાઇટેડ": 9019,
      "લશ્કરી": 9020,
      "અત્યાચાર": 9021,
      "IPL": 9022,
      "મસાલા": 9023,
      "ફોટોગ્રાફ": 9024,
      "સમર્પિત": 9025,
      "જીતેન્દ્ર": 9026,
      "સુશોભન": 9027,
      "નેપાળ": 9028,
      "હિમાચલ": 9029,
      "ઉત્તરાખંડ": 9030,
      "વલ્લભ": 9031,
      "!!": 9032,
      "Ar": 9033,
      "ઋતુ": 9034,
      "કાવ": 9035,
      "કલ્": 9036,
      "ઘસ": 9037,
      "ઝાર": 9038,
      "ટર્ન": 9039,
      "ટાપુ": 9040,
      "ટકાવ": 9041,
      "થિયેટ": 9042,
      "દંત": 9043,
      "દાસ": 9044,
      "નડ": 9045,
      "બ્રી": 9046,
      "મજૂરી": 9047,
      "રબારી": 9048,
      "લિવ": 9049,
      "હાય": 9050,
      "૩૯": 9051,
      "૪૪": 9052,
      "૭૩": 9053,
      "##્નો": 9054,
      "##દારીઓ": 9055,
      "##શિંગ": 9056,
      "##યંત્ર": 9057,
      "##રેશન": 9058,
      "##ઝલ": 9059,
      "##CC": 9060,
      "##બત્તી": 9061,
      "##ફ્યૂ": 9062,
      "##૫૦": 9063,
      "##ૃત્ત": 9064,
      "પ્રવી": 9065,
      "પ્રણા": 9066,
      "કોલોની": 9067,
      "##કેલી": 9068,
      "કારને": 9069,
      "##રેન્ટ": 9070,
      "રોમેન્ટ": 9071,
      "ગુર": 9072,
      "નાટક": 9073,
      "વ્યકત": 9074,
      "પડવા": 9075,
      "##િનલ": 9076,
      "##િનર": 9077,
      "કાર્યકર": 9078,
      "દીકરો": 9079,
      "કાલાવ": 9080,
      "પેટે": 9081,
      "##ટોપ": 9082,
      "ડિપ્ર": 9083,
      "માર્ગે": 9084,
      "કંપનીઓએ": 9085,
      "ચેલે": 9086,
      "બદલો": 9087,
      "##એસએસ": 9088,
      "##સ્થાપિત": 9089,
      "પરિબળ": 9090,
      "પરિચય": 9091,
      "ખાવાનું": 9092,
      "અહીંના": 9093,
      "દોષ": 9094,
      "નેતાઓને": 9095,
      "યોજનાનો": 9096,
      "મોરચા": 9097,
      "ટ્રાન્": 9098,
      "વસુલ": 9099,
      "વૈષ્ણ": 9100,
      "કાઢવા": 9101,
      "શિખર": 9102,
      "મજબુત": 9103,
      "ગેરહાજ": 9104,
      "અદાણી": 9105,
      "##ers": 9106,
      "મુશ્કેલીમાં": 9107,
      "સૂચનો": 9108,
      "ઇચ્છે": 9109,
      "સેનાએ": 9110,
      "જાળવણી": 9111,
      "સમિતિની": 9112,
      "એચડી": 9113,
      "ઉમેદવારોને": 9114,
      "શરુઆત": 9115,
      "મુંબઇમાં": 9116,
      "બજેટમાં": 9117,
      "ખીલ": 9118,
      "પ્રેરિત": 9119,
      "##િલેટર": 9120,
      "આઈપીએલ": 9121,
      "બ્રિટિશ": 9122,
      "સમીક્ષાઓ": 9123,
      "સાહસ": 9124,
      "માફક": 9125,
      "ફ્લેટ": 9126,
      "ફાઇનલ": 9127,
      "ક્વાર્ટરમાં": 9128,
      "ઘોષણા": 9129,
      "##ાંજલિ": 9130,
      "કુશળતા": 9131,
      "કટોકટી": 9132,
      "##બહેન": 9133,
      "સેક્ટરમાં": 9134,
      "પડોશી": 9135,
      "ઓર્ગે": 9136,
      "શકયતા": 9137,
      "રૃપિયા": 9138,
      "હાઈકોર્ટે": 9139,
      "Gujarati": 9140,
      "નિરીક્ષણ": 9141,
      "કાર્તિક": 9142,
      "બ્રાહ્મણ": 9143,
      "કેલ્શિયમ": 9144,
      "દિવ્યાંગ": 9145,
      "અનુષ્કા": 9146,
      "ગ્રામીણ": 9147,
      "અઘ": 9148,
      "આયોગ": 9149,
      "આડે": 9150,
      "ઇજાગ્રસ્ત": 9151,
      "ઇસ્લા": 9152,
      "ઈમ": 9153,
      "કઢ": 9154,
      "કડી": 9155,
      "ગ્લ": 9156,
      "ગાઇડ": 9157,
      "જ્યુ": 9158,
      "થવો": 9159,
      "ધડા": 9160,
      "ફિઝ": 9161,
      "બરો": 9162,
      "મય": 9163,
      "મલ્": 9164,
      "રડ": 9165,
      "લાવે": 9166,
      "શિશ": 9167,
      "##ટુ": 9168,
      "##દને": 9169,
      "##શના": 9170,
      "##શાળા": 9171,
      "##લગ્ન": 9172,
      "##ઝના": 9173,
      "##ચારો": 9174,
      "##સિવ": 9175,
      "##પાત": 9176,
      "##િબ્ર": 9177,
      "##તલ": 9178,
      "##ફોલ": 9179,
      "##ફોડ": 9180,
      "##ફેર": 9181,
      "##50": 9182,
      "##વાતા": 9183,
      "માણી": 9184,
      "##ાવણ": 9185,
      "##્યાપ્ત": 9186,
      "##ન્મ": 9187,
      "##સ્ક્ર": 9188,
      "કોઠ": 9189,
      "##ાજનક": 9190,
      "##લ્ક": 9191,
      "##ાણો": 9192,
      "મોતી": 9193,
      "કારના": 9194,
      "બેનર": 9195,
      "કરવામા": 9196,
      "આવેલો": 9197,
      "##સીય": 9198,
      "##િલ્ડ": 9199,
      "જીભ": 9200,
      "સેલ્સ": 9201,
      "સિઝન": 9202,
      "બીસીસી": 9203,
      "##ણામાં": 9204,
      "પછીના": 9205,
      "કાર્યક્ષમતા": 9206,
      "હાલાકી": 9207,
      "સ્વર": 9208,
      "હેલ્પ": 9209,
      "બોનસ": 9210,
      "##ોરિટી": 9211,
      "ફરક": 9212,
      "બાલા": 9213,
      "જુએ": 9214,
      "બનતી": 9215,
      "બનવાની": 9216,
      "પ્રેસિ": 9217,
      "હોસ્પિટલોમાં": 9218,
      "બંનેને": 9219,
      "બાળકોમાં": 9220,
      "108": 9221,
      "જયેશ": 9222,
      "મદદની": 9223,
      "ટ્રેનમાં": 9224,
      "વિભાગને": 9225,
      "યુવકની": 9226,
      "બિલા": 9227,
      "રમેશ": 9228,
      "મેળવ્યો": 9229,
      "વાયરસને": 9230,
      "શાહરૂ": 9231,
      "પૈસાની": 9232,
      "પૂરતા": 9233,
      "સંક્રમણને": 9234,
      "ફેલાયો": 9235,
      "સ્ટેજ": 9236,
      "કોલેજો": 9237,
      "રસ્તામાં": 9238,
      "પામેલા": 9239,
      "સાવધાની": 9240,
      "ગુમાવ": 9241,
      "ચિદ": 9242,
      "આતંકવાદ": 9243,
      "મંદિરે": 9244,
      "તાત્કાલીક": 9245,
      "જીલ્લામાં": 9246,
      "ક્લાસિક": 9247,
      "બિલ્ડીંગ": 9248,
      "સિદ્ધાર્થ": 9249,
      "ગાઢ": 9250,
      "ગુલાબી": 9251,
      "બિહારના": 9252,
      "માનીએ": 9253,
      "દસ્તાવેજ": 9254,
      "ચામડી": 9255,
      "##સ્વતી": 9256,
      "લિસ્ટમાં": 9257,
      "કમ્પ્યુટર": 9258,
      "ડિવિઝન": 9259,
      "તકેદારી": 9260,
      "##ation": 9261,
      "અયોધ્યામાં": 9262,
      "સિલ્વર": 9263,
      "તલાટી": 9264,
      "##દ્દીન": 9265,
      "##ોઝિટ": 9266,
      "ચલાવે": 9267,
      "પ્રોફેસર": 9268,
      "પ્રોપર્ટી": 9269,
      "##ચૂંટણી": 9270,
      "પ્રકાશન": 9271,
      "ટકાવારી": 9272,
      "\".": 9273,
      "89": 9274,
      "pm": 9275,
      "અદા": 9276,
      "આક્રો": 9277,
      "કન્સ": 9278,
      "ગંગ": 9279,
      "ચટણી": 9280,
      "ઝાં": 9281,
      "ડામ": 9282,
      "તાં": 9283,
      "નાઇટ": 9284,
      "ભવ": 9285,
      "ભડ": 9286,
      "મિત": 9287,
      "વાણ": 9288,
      "વડી": 9289,
      "સટ્ટ": 9290,
      "હૂં": 9291,
      "##ભેર": 9292,
      "##ઈડ": 9293,
      "##િંક": 9294,
      "##જરૂ": 9295,
      "##વિક": 9296,
      "##વશે": 9297,
      "##ફામ": 9298,
      "##૨માં": 9299,
      "##un": 9300,
      "##RP": 9301,
      "##વાળો": 9302,
      "માયા": 9303,
      "##િકારક": 9304,
      "##ન્ની": 9305,
      "વિરામ": 9306,
      "##રોલ": 9307,
      "આપેલી": 9308,
      "સુનિ": 9309,
      "સંતા": 9310,
      "સંતાન": 9311,
      "##લેષણ": 9312,
      "બેસે": 9313,
      "મેગ": 9314,
      "મળતો": 9315,
      "વર્ગી": 9316,
      "રહેલું": 9317,
      "સામાજીક": 9318,
      "##િંગનો": 9319,
      "અમારો": 9320,
      "જીવી": 9321,
      "યુનાઇટેડ": 9322,
      "પુર્ણ": 9323,
      "સોનિયા": 9324,
      "સોંપી": 9325,
      "રહીશો": 9326,
      "પીર": 9327,
      "સીડી": 9328,
      "ટીપ": 9329,
      "દિવસોથી": 9330,
      "હાથી": 9331,
      "##ભાઈને": 9332,
      "##િપ્ટ": 9333,
      "ગામોમાં": 9334,
      "પેક": 9335,
      "##પ્લે": 9336,
      "અપાઇ": 9337,
      "વખાણ": 9338,
      "પ્રતિસાદ": 9339,
      "બંનેના": 9340,
      "કેન્દ્રો": 9341,
      "યુવકને": 9342,
      "બીજાને": 9343,
      "196": 9344,
      "લેવાયા": 9345,
      "રમવા": 9346,
      "રંગના": 9347,
      "રંગની": 9348,
      "સભામાં": 9349,
      "નાખીને": 9350,
      "સ્થાનો": 9351,
      "વોટ્સએપ": 9352,
      "દાખલા": 9353,
      "કૃતિ": 9354,
      "કૃત્રિમ": 9355,
      "અસરો": 9356,
      "વિદેશમાં": 9357,
      "જીતવા": 9358,
      "ક્રિકેટમાં": 9359,
      "શરત": 9360,
      "દર્શાવવામાં": 9361,
      "દારૂનો": 9362,
      "##દારોને": 9363,
      "સર્જાય": 9364,
      "મ્યુઝ": 9365,
      "સફળતાપૂર્વક": 9366,
      "નીકળે": 9367,
      "માનવતા": 9368,
      "સ્થિતી": 9369,
      "મુસાફરોને": 9370,
      "તારીખે": 9371,
      "વિશ્ર": 9372,
      "સંગઠનો": 9373,
      "હીરા": 9374,
      "##વર્તી": 9375,
      "રાજસ્થાનમાં": 9376,
      "સેલિબ્ર": 9377,
      "સ્માર્ટફો": 9378,
      "અખિલ": 9379,
      "કેરળમાં": 9380,
      "દેવાયો": 9381,
      "બોલીવુડ": 9382,
      "ગાયબ": 9383,
      "##મેટિક": 9384,
      "સંકેતો": 9385,
      "ભજવે": 9386,
      "વાવાઝ": 9387,
      "ઇલેક્ટ્રોનિક": 9388,
      "મજાક": 9389,
      "રેસ્ટોરાં": 9390,
      "તેટલી": 9391,
      "બાતમીના": 9392,
      "વર્ણન": 9393,
      "પેટાચૂંટણી": 9394,
      "પ્રભારી": 9395,
      "સમારોહમાં": 9396,
      "સંયોજન": 9397,
      "મંજુરી": 9398,
      "સ્ત્રોત": 9399,
      "શેટ્ટી": 9400,
      "કમિશ્નર": 9401,
      "તિવારી": 9402,
      "મૂલ્યાંકન": 9403,
      "પુનરાવ": 9404,
      "ઝારખંડ": 9405,
      "પ્રવીણ": 9406,
      "રોમેન્ટિક": 9407,
      "ચિદમ્બર": 9408,
      "69": 9409,
      "600": 9410,
      "81": 9411,
      "ઉતાવ": 9412,
      "ઋષિ": 9413,
      "એસી": 9414,
      "એવુ": 9415,
      "એમ્પ્": 9416,
      "કવાય": 9417,
      "કશ્મી": 9418,
      "ખળ": 9419,
      "ખાઇ": 9420,
      "ગાળ": 9421,
      "ઘડી": 9422,
      "છરી": 9423,
      "જાદુ": 9424,
      "ઝુંબ": 9425,
      "થાઇ": 9426,
      "નકલ": 9427,
      "પાર્થ": 9428,
      "પંદર": 9429,
      "ફળો": 9430,
      "ભરેલી": 9431,
      "ભઠ્ઠી": 9432,
      "લાદ": 9433,
      "૦૯": 9434,
      "૬૧": 9435,
      "##કલ્પ": 9436,
      "##ાનો": 9437,
      "##દાયી": 9438,
      "##ig": 9439,
      "##ra": 9440,
      "##સાઇ": 9441,
      "##વ્યુ": 9442,
      "##ણ્ય": 9443,
      "##ઇસ": 9444,
      "##ps": 9445,
      "##ૃષ્ટિ": 9446,
      "##આંક": 9447,
      "કેવો": 9448,
      "માસમાં": 9449,
      "પ્રાણ": 9450,
      "પ્રદર્શ": 9451,
      "##ાવદર": 9452,
      "##્યાત્": 9453,
      "##સ્કર": 9454,
      "##ક્લો": 9455,
      "##લીટ": 9456,
      "##ંગલ": 9457,
      "હોલ્ડ": 9458,
      "જોયો": 9459,
      "##વીસ": 9460,
      "આપણું": 9461,
      "##લેન્ટ": 9462,
      "##િયન્સ": 9463,
      "મેગા": 9464,
      "રાજપીપ": 9465,
      "વર્તુ": 9466,
      "રોયલ": 9467,
      "સરસ્વતી": 9468,
      "##ેલાં": 9469,
      "રીક્ષા": 9470,
      "નાક": 9471,
      "નાસ્તા": 9472,
      "વેરો": 9473,
      "વેળા": 9474,
      "પડેલી": 9475,
      "##બીએ": 9476,
      "##ર્સમાં": 9477,
      "##યોગ્ય": 9478,
      "પહોચ": 9479,
      "મીટિંગ": 9480,
      "બાઉ": 9481,
      "બાબા": 9482,
      "અનુરોધ": 9483,
      "પહોંચવા": 9484,
      "નોંધવું": 9485,
      "પાણીનું": 9486,
      "ગોવા": 9487,
      "ગ્રંથ": 9488,
      "ગ્રૂપ": 9489,
      "ભાવનગરમાં": 9490,
      "અપક્ષ": 9491,
      "ભૂગર્ભ": 9492,
      "લાક": 9493,
      "##સ્થામાં": 9494,
      "ડીલ": 9495,
      "બહારના": 9496,
      "જેમના": 9497,
      "જૂને": 9498,
      "ઝડપાયા": 9499,
      "મારીને": 9500,
      "કેન્દ્રની": 9501,
      "પ્રકારનાં": 9502,
      "અસરગ્રસ્ત": 9503,
      "શાસ્ત્ર": 9504,
      "પાર્ટીએ": 9505,
      "ગેસ્ટ": 9506,
      "એલસીબી": 9507,
      "ઇન્વેસ્ટ": 9508,
      "ધોવા": 9509,
      "એરટેલ": 9510,
      "ચૂક્યો": 9511,
      "પાછળના": 9512,
      "શ્રેય": 9513,
      "ઉદય": 9514,
      "અસંખ્ય": 9515,
      "જીત્યો": 9516,
      "થોડાક": 9517,
      "2008": 9518,
      "પ્રકાશમાં": 9519,
      "મૂક્યો": 9520,
      "ક્ષેત્રની": 9521,
      "મ્યુચ્યુઅલ": 9522,
      "અગ્રવાલ": 9523,
      "વિપક્ષી": 9524,
      "ઘોડા": 9525,
      "કહેવાયું": 9526,
      "તબીબ": 9527,
      "ચોમાસામાં": 9528,
      "ફાઈનલ": 9529,
      "બગડી": 9530,
      "ક્રોસ": 9531,
      "ગ્રેજ્યુ": 9532,
      "વિગતવાર": 9533,
      "સંકળાયેલ": 9534,
      "મેન્યુ": 9535,
      "મુદ્દાઓ": 9536,
      "દરોડો": 9537,
      "ગુસ્સે": 9538,
      "નિપજ્યું": 9539,
      "કંઇક": 9540,
      "અફઘાનિસ્તાન": 9541,
      "રિકવરી": 9542,
      "પુરવઠો": 9543,
      "સમૃદ્ધિ": 9544,
      "અંજામ": 9545,
      "લાયસન્સ": 9546,
      "મોડેલો": 9547,
      "પ્રીમિયમ": 9548,
      "વેન્ટિલેટર": 9549,
      "ઓલિમ્પિક": 9550,
      "ગંદકી": 9551,
      "01": 9552,
      "અર્ચ": 9553,
      "આજીવન": 9554,
      "ખડ": 9555,
      "ખોર": 9556,
      "ચાર્ટ": 9557,
      "છાતી": 9558,
      "જાં": 9559,
      "ટાર્": 9560,
      "તસ્ક": 9561,
      "દરે": 9562,
      "પંત": 9563,
      "પપ્પા": 9564,
      "બૌ": 9565,
      "બૂટ": 9566,
      "ભરીને": 9567,
      "મધુ": 9568,
      "મલ્ટી": 9569,
      "સની": 9570,
      "૪૯": 9571,
      "૫૧": 9572,
      "##હિતા": 9573,
      "##શને": 9574,
      "##લ્યુ": 9575,
      "##ગને": 9576,
      "##રચના": 9577,
      "##ok": 9578,
      "##ુકો": 9579,
      "##ઝેશન": 9580,
      "##પાર": 9581,
      "##વર્ણ": 9582,
      "##ષભ": 9583,
      "##ne": 9584,
      "##has": 9585,
      "##૩૦": 9586,
      "છેક": 9587,
      "##સ્ડ": 9588,
      "એકલ": 9589,
      "##ારામાં": 9590,
      "પોત": 9591,
      "આપતો": 9592,
      "આપણાં": 9593,
      "સુમ": 9594,
      "સંજીવ": 9595,
      "##ાસના": 9596,
      "##કાઓ": 9597,
      "##કાલીન": 9598,
      "રાજદ": 9599,
      "વર્થ": 9600,
      "##મીર": 9601,
      "લેબો": 9602,
      "##ાહા": 9603,
      "માંડીને": 9604,
      "કોઈના": 9605,
      "સ્ટુડ": 9606,
      "પુણે": 9607,
      "##િનના": 9608,
      "સોવ": 9609,
      "રાખીએ": 9610,
      "કોરોનાનું": 9611,
      "સીન": 9612,
      "દેશોના": 9613,
      "મહિન્દ્રા": 9614,
      "દીધુ": 9615,
      "કાકા": 9616,
      "પાસેના": 9617,
      "##િસોડ": 9618,
      "ભાગની": 9619,
      "ફર્યા": 9620,
      "પહોંચશે": 9621,
      "ગોધરા": 9622,
      "તમામને": 9623,
      "##ર્મલ": 9624,
      "અધિક્ષ": 9625,
      "લાખના": 9626,
      "માનતા": 9627,
      "બદામ": 9628,
      "બદલાય": 9629,
      "સૂક": 9630,
      "હોસ્પિટલો": 9631,
      "ટ્રાવેલ": 9632,
      "અહીંથી": 9633,
      "##ોનેશિયા": 9634,
      "સારવારમાં": 9635,
      "શહેરો": 9636,
      "સંખ્યાબંધ": 9637,
      "કાયમ": 9638,
      "હરાવી": 9639,
      "નાખે": 9640,
      "શરીરની": 9641,
      "પક્ષે": 9642,
      "સમાજને": 9643,
      "કેમિકલ": 9644,
      "સ્મશાન": 9645,
      "આશિષ": 9646,
      "પારિવાર": 9647,
      "એજ્યુ": 9648,
      "મજબૂર": 9649,
      "ભીખ": 9650,
      "યુવતીઓ": 9651,
      "ત્રીજો": 9652,
      "એપિસોડ": 9653,
      "લડવા": 9654,
      "કાળમાં": 9655,
      "કાંઠે": 9656,
[...]
